<pad>	0
<s>	0
</s>	0
<unk>	0
.	-2.9382
'	-3.22922
▁I	-3.26236
▁to	-3.50217
▁Tom	-3.64664
▁the	-3.69741
▁you	-3.94434
▁a	-3.95521
t	-4.05827
?	-4.20584
s	-4.28902
▁is	-4.30635
▁in	-4.66262
▁of	-4.67076
▁was	-4.77362
,	-4.80921
n	-4.83682
▁that	-4.87892
▁me	-4.96114
▁He	-5.00182
▁for	-5.02997
▁have	-5.05068
▁it	-5.06729
▁The	-5.12873
▁You	-5.1896
▁We	-5.25512
▁be	-5.2759
▁Mary	-5.32087
▁his	-5.34004
m	-5.34834
▁on	-5.35203
▁do	-5.36142
▁this	-5.3701
▁and	-5.39384
▁he	-5.40586
▁with	-5.40701
▁	-5.43096
▁can	-5.44017
▁my	-5.45073
▁not	-5.48294
▁did	-5.52773
▁don	-5.57722
▁want	-5.58665
▁are	-5.60247
▁your	-5.60258
▁It	-5.67633
▁at	-5.68137
▁like	-5.6834
▁She	-5.70389
▁know	-5.71261
re	-5.72004
▁what	-5.74734
ll	-5.75288
▁him	-5.85142
▁about	-5.85346
▁has	-5.86933
▁had	-5.88413
▁go	-5.88415
ve	-5.94944
▁out	-5.96267
▁think	-5.98156
▁time	-5.98181
▁her	-5.98225
d	-6.00964
▁What	-6.02012
▁up	-6.03433
▁get	-6.04053
▁will	-6.04904
▁we	-6.05246
▁here	-6.09139
▁all	-6.10955
▁going	-6.15046
▁They	-6.15198
▁very	-6.16697
▁as	-6.16768
▁This	-6.20311
▁would	-6.22016
▁from	-6.23486
▁does	-6.2442
▁were	-6.2542
▁just	-6.27478
▁been	-6.29092
▁should	-6.31381
▁could	-6.31751
▁by	-6.32401
▁one	-6.32427
▁Do	-6.33101
▁That	-6.3798
▁us	-6.39618
▁tell	-6.39939
▁an	-6.43082
▁good	-6.43794
▁see	-6.46101
▁need	-6.46142
ed	-6.46542
▁got	-6.46652
▁help	-6.47001
▁there	-6.48422
▁so	-6.48435
▁There	-6.52339
▁told	-6.55202
▁My	-6.56542
▁no	-6.59302
▁never	-6.60042
▁something	-6.61103
▁How	-6.61332
▁but	-6.61573
▁come	-6.61744
▁now	-6.64323
▁more	-6.64341
▁than	-6.66615
▁some	-6.6712
▁she	-6.67407
▁Don	-6.68835
▁when	-6.69093
▁really	-6.70662
▁much	-6.71462
▁if	-6.7341
▁take	-6.74413
ing	-6.74976
▁work	-6.75203
▁back	-6.76085
▁any	-6.81864
▁said	-6.82127
▁how	-6.82135
▁home	-6.84432
▁Why	-6.84583
▁make	-6.84674
▁car	-6.86045
▁money	-6.86965
▁last	-6.86995
▁Can	-6.87104
▁right	-6.88745
▁anything	-6.89323
▁too	-6.89441
▁who	-6.90249
▁Let	-6.90923
▁day	-6.91072
▁A	-6.9187
▁thought	-6.92377
▁talk	-6.96921
▁people	-6.97569
▁made	-7.00619
▁way	-7.00977
▁Boston	-7.01288
▁went	-7.01701
f	-7.01889
▁into	-7.0309
▁our	-7.03302
▁say	-7.03545
▁house	-7.04614
▁before	-7.05377
▁must	-7.05454
▁lot	-7.06432
▁only	-7.07975
▁over	-7.08016
▁always	-7.08758
▁school	-7.08944
▁room	-7.10132
▁won	-7.11415
▁three	-7.1143
▁long	-7.11933
▁give	-7.12188
▁sure	-7.12536
▁Are	-7.1397
▁they	-7.14001
▁off	-7.14019
▁new	-7.1426
▁better	-7.14448
▁down	-7.14757
▁Please	-7.14993
e	-7.15113
▁problem	-7.1523
-	-7.17388
▁put	-7.17686
▁French	-7.19302
▁am	-7.19652
▁well	-7.21211
▁asked	-7.21561
▁wanted	-7.22589
▁little	-7.22858
▁many	-7.23052
▁still	-7.2312
▁two	-7.24364
▁night	-7.2507
▁where	-7.2519
▁other	-7.25584
▁eat	-7.25875
▁Did	-7.26085
▁book	-7.26441
▁left	-7.27541
ly	-7.2776
▁today	-7.27814
▁man	-7.28807
▁find	-7.29287
▁look	-7.293
▁happened	-7.29342
▁job	-7.29807
▁leave	-7.31059
▁speak	-7.31204
▁When	-7.32631
▁years	-7.33124
▁again	-7.33497
▁old	-7.34165
▁tomorrow	-7.342
▁father	-7.34579
▁came	-7.34658
▁next	-7.37343
▁after	-7.3795
▁hard	-7.3802
▁took	-7.38345
▁or	-7.38558
▁stay	-7.38663
▁happy	-7.39079
▁Who	-7.40968
▁Where	-7.42159
▁buy	-7.42451
▁"	-7.4277
▁their	-7.43916
▁Is	-7.44038
▁doing	-7.44049
▁every	-7.45214
▁saw	-7.45588
▁let	-7.46282
▁away	-7.46425
▁ever	-7.47333
▁nothing	-7.48157
▁love	-7.50239
▁English	-7.52285
▁gave	-7.52364
▁believe	-7.52481
▁first	-7.52981
▁heard	-7.54417
▁ask	-7.55447
▁done	-7.55756
▁them	-7.56561
!	-7.56825
▁late	-7.56918
▁His	-7.57709
▁yesterday	-7.57713
▁live	-7.59104
▁why	-7.59197
▁call	-7.59256
▁feel	-7.60165
▁used	-7.61185
▁name	-7.61399
▁everything	-7.61731
▁play	-7.61966
▁week	-7.62116
▁soon	-7.62422
▁understand	-7.62542
▁door	-7.62717
▁things	-7.62927
▁around	-7.63308
▁busy	-7.63395
▁children	-7.6375
▁friends	-7.63764
▁morning	-7.64435
▁Have	-7.64456
▁enough	-7.65012
▁wrong	-7.65055
▁dog	-7.65367
▁please	-7.65854
▁party	-7.66001
▁mother	-7.6608
▁thing	-7.66711
▁read	-7.67602
▁life	-7.69542
▁wants	-7.70477
▁alone	-7.70796
▁looking	-7.72318
▁year	-7.73725
▁happen	-7.73873
▁found	-7.73957
▁big	-7.74051
▁might	-7.74405
▁looks	-7.7469
l	-7.75277
▁quit	-7.75675
▁keep	-7.75802
▁T	-7.75932
▁being	-7.75959
▁bad	-7.76442
▁Would	-7.77057
▁best	-7.77641
▁hear	-7.77964
▁knew	-7.7813
▁may	-7.78672
▁mind	-7.78888
▁often	-7.79096
▁seems	-7.79244
▁already	-7.79267
▁few	-7.7949
▁without	-7.79746
▁yet	-7.8027
▁kind	-7.80338
▁wish	-7.8055
▁same	-7.80641
▁idea	-7.81201
▁because	-7.81695
▁knows	-7.82129
▁try	-7.82686
▁hope	-7.82864
▁seen	-7.82919
▁friend	-7.8339
▁teacher	-7.84821
▁lost	-7.8626
▁getting	-7.86353
▁No	-7.86666
▁bought	-7.87301
▁looked	-7.87415
▁train	-7.87802
▁stop	-7.87952
▁while	-7.88154
▁anyone	-7.88615
▁place	-7.88986
▁able	-7.89142
▁each	-7.8916
▁plan	-7.91286
▁meeting	-7.91417
▁cold	-7.91804
▁drink	-7.92209
▁use	-7.92264
▁tried	-7.92858
▁meet	-7.93603
▁even	-7.93663
▁care	-7.93839
▁Tell	-7.94304
▁remember	-7.94628
▁days	-7.94676
▁together	-7.947
▁boy	-7.94849
▁these	-7.95366
▁water	-7.95468
▁John	-7.95611
▁May	-7.96076
▁himself	-7.96295
▁another	-7.96467
▁talking	-7.9699
▁else	-7.97091
▁great	-7.97771
▁food	-7.97818
▁wait	-7.98083
▁matter	-7.9897
▁person	-7.99587
▁question	-8.00471
▁married	-8.01255
▁sleep	-8.02938
▁bed	-8.0295
▁beautiful	-8.03926
▁girl	-8.04679
▁trying	-8.04828
▁walk	-8.05028
r	-8.05477
▁answer	-8.05856
▁dinner	-8.06027
▁bus	-8.06423
▁coming	-8.06906
▁letter	-8.06963
▁early	-8.07757
▁hours	-8.0826
▁once	-8.0842
▁Japan	-8.08423
▁family	-8.08731
▁coffee	-8.08902
▁haven	-8.09385
▁brother	-8.09414
▁doctor	-8.09482
▁both	-8.09538
."	-8.0966
▁started	-8.09913
▁pay	-8.10142
▁office	-8.10216
▁pretty	-8.10266
▁own	-8.10387
▁parents	-8.10459
▁All	-8.10461
▁such	-8.11203
▁accident	-8.11314
▁nice	-8.11694
▁afraid	-8.11992
▁called	-8.12697
▁study	-8.12825
▁Could	-8.12958
▁tired	-8.13449
▁having	-8.13452
▁ago	-8.13608
▁true	-8.14071
y	-8.14293
▁watch	-8.14905
▁trouble	-8.15083
▁through	-8.15509
▁ten	-8.16228
▁working	-8.16285
▁rain	-8.16495
▁young	-8.16667
▁someone	-8.16722
▁yourself	-8.17166
▁world	-8.17501
▁says	-8.17522
▁unti	-8.17624
▁myself	-8.17826
▁sorry	-8.1815
▁far	-8.19122
▁truth	-8.19158
▁decided	-8.19563
▁open	-8.20013
▁minutes	-8.2021
▁sick	-8.21212
▁most	-8.2135
▁hand	-8.21527
▁phone	-8.22536
▁since	-8.23179
▁station	-8.23497
▁sister	-8.23558
▁books	-8.23612
▁likes	-8.23742
▁child	-8.24005
▁police	-8.24896
▁Your	-8.25258
▁table	-8.2679
▁lunch	-8.26841
▁tonight	-8.27938
se	-8.28129
▁change	-8.28247
▁anymore	-8.28376
▁chance	-8.28718
▁ready	-8.28758
▁seem	-8.29134
▁waiting	-8.29258
▁questions	-8.2941
▁difficult	-8.30159
▁wife	-8.3045
▁S	-8.30891
▁learn	-8.31274
▁favorite	-8.31278
▁finished	-8.31293
▁fun	-8.31412
▁enjoy	-8.31554
▁Just	-8.31764
▁met	-8.31823
▁class	-8.3229
▁hurt	-8.33045
▁gone	-8.33222
▁show	-8.33433
▁son	-8.33544
▁five	-8.33666
▁company	-8.34084
▁picture	-8.34456
▁probably	-8.34476
▁almo	-8.34861
▁Japanese	-8.34892
▁students	-8.34893
▁1	-8.35164
▁important	-8.35481
▁turned	-8.35811
▁felt	-8.35894
▁month	-8.36082
▁wonder	-8.36776
▁town	-8.36891
▁start	-8.37025
▁easy	-8.37065
▁angry	-8.37482
▁playing	-8.37708
▁needs	-8.38234
▁run	-8.38392
st	-8.38625
▁mistake	-8.38655
▁high	-8.39025
▁swim	-8.39094
▁small	-8.39343
▁Her	-8.39882
▁lives	-8.39895
▁died	-8.40228
▁write	-8.40574
▁country	-8.40788
▁business	-8.41054
▁longer	-8.41299
▁Does	-8.41532
▁arrived	-8.41754
▁Give	-8.41852
▁news	-8.42367
▁those	-8.42963
▁near	-8.4306
▁hate	-8.4323
▁fire	-8.44827
▁later	-8.45038
▁afternoon	-8.45097
▁reading	-8.4531
▁ran	-8.45355
▁Will	-8.45443
▁turn	-8.45479
▁music	-8.46011
ther	-8.46147
▁weather	-8.46248
▁caught	-8.4661
▁stupid	-8.47054
▁sat	-8.47188
▁under	-8.47696
▁story	-8.47995
▁fast	-8.48726
▁makes	-8.48728
▁surprised	-8.48958
▁problems	-8.49043
▁face	-8.49062
▁broke	-8.4908
?"	-8.49177
▁cat	-8.49329
▁city	-8.49557
▁visit	-8.49767
▁number	-8.5035
▁walked	-8.5045
▁game	-8.50697
▁large	-8.51092
▁eyes	-8.51253
▁Ou	-8.5132
▁drive	-8.51494
▁word	-8.51507
▁cannot	-8.51595
▁living	-8.52579
▁times	-8.52597
▁along	-8.52822
▁advice	-8.53519
▁homework	-8.53771
▁thinking	-8.53934
▁bit	-8.54036
▁interested	-8.5405
▁window	-8.54265
▁deal	-8.54446
▁As	-8.54462
▁moment	-8.54613
▁kept	-8.54726
▁hour	-8.55087
▁movie	-8.55226
▁mean	-8.55869
▁taking	-8.56207
▁hot	-8.5624
▁end	-8.56252
▁baby	-8.56264
▁eating	-8.56858
▁Everyone	-8.58158
▁worry	-8.58298
▁fell	-8.58389
▁everyone	-8.5845
▁anybody	-8.58463
▁goes	-8.58543
▁tennis	-8.58912
▁finish	-8.59375
▁park	-8.60124
▁glad	-8.60378
▁careful	-8.6038
▁mine	-8.60643
▁began	-8.60683
▁woman	-8.60704
▁dollars	-8.61641
▁lived	-8.61895
▁against	-8.61932
▁front	-8.62002
▁hair	-8.62292
▁wearing	-8.62832
▁2	-8.63127
▁safe	-8.63153
▁summer	-8.63333
▁shoes	-8.63388
▁needed	-8.63417
▁hungry	-8.63546
▁interesting	-8.6357
▁possible	-8.63605
▁behind	-8.64065
▁forget	-8.64267
▁sit	-8.65226
▁supposed	-8.65241
▁street	-8.65358
▁making	-8.65967
▁hospital	-8.66576
▁exactly	-8.67849
▁reason	-8.67929
▁trust	-8.68153
▁became	-8.68174
▁hands	-8.68351
▁whole	-8.68431
▁Some	-8.68659
▁trip	-8.68748
▁telling	-8.6915
▁order	-8.6932
▁killed	-8.69374
▁Nobody	-8.70079
▁hotel	-8.70155
▁close	-8.70585
▁river	-8.70812
▁part	-8.70979
▁Tokyo	-8.71207
▁stayed	-8.71727
▁catch	-8.7174
▁store	-8.7194
▁cut	-8.72306
▁free	-8.72424
▁talked	-8.72863
▁stopped	-8.73222
▁head	-8.74055
▁between	-8.74098
▁studying	-8.74871
▁secret	-8.7493
▁student	-8.74936
▁agree	-8.75256
▁OK	-8.75261
▁death	-8.75348
be	-8.75483
▁six	-8.75566
▁spend	-8.75618
▁outside	-8.75787
▁Mr	-8.76098
▁fine	-8.77059
▁comes	-8.77178
▁become	-8.7726
▁dark	-8.77945
▁expect	-8.7803
▁light	-8.78198
▁ate	-8.78285
▁breakfast	-8.78582
▁bring	-8.78586
o	-8.78602
▁fish	-8.78712
er	-8.78837
▁o	-8.7889
▁wine	-8.79052
▁different	-8.79174
▁dress	-8.79196
▁red	-8.79481
▁feeling	-8.79897
▁works	-8.80171
▁Many	-8.8045
▁stand	-8.8054
▁figure	-8.80781
▁team	-8.80846
▁point	-8.809
▁watching	-8.8096
▁Be	-8.81097
▁present	-8.81266
▁spent	-8.81413
▁which	-8.81688
▁clothes	-8.81702
▁gets	-8.81956
▁listen	-8.82059
▁evening	-8.82099
▁helped	-8.82489
▁age	-8.8337
▁birthday	-8.83555
▁worried	-8.83606
▁rest	-8.83836
▁sitting	-8.83941
▁Come	-8.83947
▁saying	-8.84563
▁forgot	-8.84722
▁Take	-8.84817
▁full	-8.84931
▁die	-8.85295
▁paid	-8.85594
th	-8.85882
▁language	-8.86006
▁box	-8.8608
▁song	-8.86269
▁worked	-8.86364
▁thirty	-8.86803
▁hit	-8.86851
▁Which	-8.86884
▁sound	-8.87201
▁short	-8.87479
▁guy	-8.87692
▁asleep	-8.88015
▁wrote	-8.88282
▁One	-8.88372
▁health	-8.8855
▁daughter	-8.88783
▁rich	-8.88897
▁break	-8.88944
▁brought	-8.89235
▁dream	-8.89505
▁miss	-8.89543
▁quickly	-8.8959
▁war	-8.8969
▁paper	-8.90138
▁lose	-8.90282
▁guess	-8.90703
▁whe	-8.90812
▁opened	-8.90901
▁second	-8.91206
▁beer	-8.91777
▁others	-8.91777
▁speaking	-8.91888
▁restaurant	-8.91921
▁choice	-8.91935
clock	-8.91944
▁thinks	-8.91976
▁un	-8.92004
▁usual	-8.92165
▁computer	-8.92241
▁finally	-8.92359
▁desk	-8.92464
▁bag	-8.92471
▁plane	-8.92492
▁dead	-8.92598
▁pain	-8.92611
▁air	-8.92623
▁speaks	-8.92671
▁half	-8.92708
▁older	-8.92858
▁known	-8.93035
▁clean	-8.93053
▁college	-8.93054
▁leaving	-8.93062
▁report	-8.93157
▁across	-8.93454
▁snow	-8.94012
▁tree	-8.94182
▁tea	-8.9436
▁swimming	-8.9449
▁cup	-8.94803
▁smoking	-8.95277
▁coat	-8.95357
▁expensive	-8.95569
▁road	-8.95651
▁sense	-8.95784
▁situation	-8.95973
▁set	-8.96214
I	-8.96269
▁white	-8.96559
▁price	-8.9671
▁wear	-8.96801
▁Sunday	-8.96941
▁poor	-8.96952
ually	-8.96969
▁building	-8.97015
▁bicycle	-8.97039
▁certainly	-8.97062
▁To	-8.97506
▁New	-8.98346
▁couple	-8.98509
▁inside	-8.98655
▁Get	-8.98875
▁actually	-8.99111
▁cost	-8.99283
▁move	-8.99471
▁clear	-8.99666
a	-8.99878
▁fight	-8.99975
▁blame	-9.00176
▁America	-9.00446
▁Now	-9.00557
▁dangerous	-9.00783
▁milk	-9.00785
▁test	-9.00818
▁born	-9.00843
▁win	-9.0086
▁floor	-9.00867
▁guys	-9.00994
▁running	-9.01165
▁E	-9.01199
▁minute	-9.01239
▁heart	-9.01281
▁baseball	-9.01547
▁loves	-9.01688
▁taken	-9.01715
▁hat	-9.01897
▁happening	-9.01933
▁side	-9.02079
▁check	-9.02092
▁showed	-9.02205
▁lie	-9.02415
▁changed	-9.02483
▁expected	-9.02507
▁closed	-9.02712
▁strange	-9.0338
▁piano	-9.0349
▁Look	-9.03513
▁Everybody	-9.03897
▁pass	-9.04044
▁quiet	-9.04204
▁attention	-9.04302
▁ship	-9.04676
▁camera	-9.0477
▁B	-9.04977
▁key	-9.05097
▁decision	-9.0511
▁drunk	-9.05478
▁eaten	-9.05728
▁bank	-9.05917
▁real	-9.06224
▁serious	-9.06235
▁promise	-9.0646
▁case	-9.06481
▁hurry	-9.06566
▁forward	-9.07223
▁spoke	-9.07406
▁worth	-9.07437
▁strong	-9.07444
▁famous	-9.07459
▁In	-9.0782
▁least	-9.07935
▁medicine	-9.07938
▁cake	-9.08015
▁arrive	-9.08037
▁sent	-9.08138
▁uncle	-9.08181
▁M	-9.0871
▁pick	-9.08828
▁explain	-9.08902
▁glass	-9.09148
▁planning	-9.09167
▁words	-9.0918
▁months	-9.09532
▁success	-9.09564
▁flowers	-9.09672
al	-9.09828
▁touch	-9.09831
▁vacation	-9.09834
▁Put	-9.10189
▁four	-9.10388
▁takes	-9.10506
▁missed	-9.1059
▁join	-9.11137
▁less	-9.11154
▁everybody	-9.11259
▁traffic	-9.11261
▁library	-9.11676
▁telephone	-9.1172
▁offer	-9.11792
▁Go	-9.11906
▁liked	-9.12167
▁weekend	-9.1224
▁visited	-9.12358
▁completely	-9.12553
▁given	-9.12937
▁Even	-9.13147
▁speech	-9.13351
▁black	-9.13404
▁happens	-9.13621
▁concert	-9.13627
▁men	-9.14137
▁information	-9.14271
▁After	-9.14398
▁dictionary	-9.14708
▁Monday	-9.14871
▁also	-9.15149
▁seat	-9.15416
▁mistakes	-9.15523
▁People	-9.15599
▁seeing	-9.1582
▁held	-9.15925
▁boss	-9.15971
▁kill	-9.16176
▁Thank	-9.16288
▁garden	-9.16366
▁blue	-9.16434
▁plans	-9.16628
▁opinion	-9.16648
▁suggest	-9.16834
▁American	-9.17057
▁appreciate	-9.17139
▁played	-9.17176
▁drinking	-9.17296
▁sometimes	-9.17322
▁heavy	-9.17383
▁staying	-9.17552
▁Ken	-9.17664
30	-9.17737
▁girlfriend	-9.1818
▁lying	-9.18408
▁Someone	-9.18767
▁somewhere	-9.1877
▁broken	-9.18785
▁means	-9.19196
▁past	-9.19304
▁return	-9.19346
▁cook	-9.19384
▁solve	-9.1944
0	-9.19557
▁husband	-9.19604
▁Keep	-9.19692
ever	-9.19956
▁umbrella	-9.19991
▁sleeping	-9.2001
▁driving	-9.20131
▁guitar	-9.20549
▁kitchen	-9.2059
▁scared	-9.20652
▁stood	-9.21091
▁weight	-9.21171
▁shot	-9.21422
▁London	-9.21525
▁pictures	-9.21583
▁danger	-9.21719
▁tall	-9.21847
▁passed	-9.22166
▁Was	-9.22217
▁asking	-9.22245
▁prefer	-9.22295
▁wall	-9.22304
▁noise	-9.22358
▁Stop	-9.22482
▁At	-9.22598
▁women	-9.22959
▁picked	-9.2311
▁shirt	-9.23113
▁kids	-9.23221
▁future	-9.23425
▁d	-9.23484
▁date	-9.23542
▁accept	-9.23763
▁list	-9.23789
▁seemed	-9.23812
▁certain	-9.239
▁funny	-9.2391
▁mad	-9.23919
▁failed	-9.23974
▁States	-9.23977
▁Has	-9.24219
▁Jane	-9.24335
▁crazy	-9.24388
▁abroad	-9.24406
▁written	-9.24419
▁waited	-9.24427
▁advised	-9.24454
ited	-9.24568
▁send	-9.24955
▁waste	-9.2529
▁severa	-9.25739
▁Something	-9.25865
▁necessary	-9.25868
▁Everything	-9.25872
▁meat	-9.25993
▁walking	-9.26711
▁eye	-9.26975
▁though	-9.27193
▁boys	-9.2732
▁carry	-9.27326
▁shopping	-9.27355
▁glasses	-9.27394
▁sun	-9.27421
▁carefully	-9.27438
▁beach	-9.27442
▁either	-9.27624
▁invited	-9.27923
▁standing	-9.28028
▁learned	-9.28216
▁gun	-9.28282
▁proud	-9.28339
▁driver	-9.28381
▁knife	-9.28858
▁pulled	-9.28898
▁afford	-9.29354
▁girls	-9.29429
▁worse	-9.29533
▁sad	-9.29558
▁hold	-9.29595
▁weeks	-9.30038
▁doubt	-9.30101
▁hundred	-9.30256
▁loved	-9.30383
▁writing	-9.30673
▁lawyer	-9.30757
▁terrible	-9.30898
▁ticket	-9.31264
▁teach	-9.31296
▁twice	-9.31409
▁herself	-9.31437
▁fact	-9.31556
▁noticed	-9.3163
▁impossible	-9.31946
▁easily	-9.32455
▁seven	-9.32518
▁ice	-9.32554
▁sight	-9.32639
▁winter	-9.33
▁reached	-9.33087
▁listening	-9.33157
▁succeed	-9.33159
▁handle	-9.33744
▁moved	-9.33879
▁Thanks	-9.33936
▁York	-9.34038
▁save	-9.34382
▁address	-9.34404
▁machine	-9.34478
▁bill	-9.34665
▁sing	-9.3467
▁crying	-9.35212
▁airport	-9.35224
▁travel	-9.35241
▁alive	-9.35433
▁honest	-9.3554
▁watched	-9.36125
▁nervous	-9.36151
▁thank	-9.36172
▁lucky	-9.36255
▁fishing	-9.36408
▁mountain	-9.36633
▁fault	-9.36665
▁message	-9.36667
▁somebody	-9.36765
▁shop	-9.37218
▁cry	-9.37233
▁chair	-9.37776
▁line	-9.37852
in	-9.38904
▁W	-9.39116
▁yen	-9.39316
▁borrow	-9.39389
▁kiss	-9.3939
▁difference	-9.40068
▁horse	-9.40087
▁entered	-9.40185
▁pen	-9.40255
▁lend	-9.40286
▁special	-9.40585
▁movies	-9.40598
▁apartment	-9.40662
▁anywhere	-9.40692
▁On	-9.41255
▁top	-9.41275
▁Nothing	-9.41309
▁arm	-9.41426
▁sell	-9.41447
▁dance	-9.4146
▁C	-9.41697
▁perfect	-9.41753
▁studied	-9.41805
▁grandfather	-9.41877
▁D	-9.42152
▁promised	-9.42164
▁Paris	-9.42385
▁Today	-9.42397
▁giving	-9.42411
▁ahead	-9.42558
▁piece	-9.42957
▁immediately	-9.42969
▁mouth	-9.43058
▁its	-9.43077
▁ride	-9.4325
▁fix	-9.43361
▁attend	-9.43495
▁sign	-9.43515
▁newspaper	-9.43527
▁joke	-9.43539
▁popular	-9.43547
▁allowed	-9.43716
▁radio	-9.43721
▁follow	-9.43912
▁bottle	-9.44133
▁raining	-9.44559
▁H	-9.4468
▁upset	-9.44744
▁eats	-9.44778
es	-9.45057
▁control	-9.45084
▁apple	-9.45364
▁surprise	-9.455
▁warm	-9.45648
▁smoke	-9.4572
▁charge	-9.45727
▁keys	-9.45928
▁tie	-9.4594
▁club	-9.45985
▁younger	-9.46143
▁grew	-9.46521
▁earlier	-9.46522
▁sounds	-9.46869
▁then	-9.4691
"	-9.47002
▁assume	-9.47109
ought	-9.47251
▁bother	-9.475
▁notice	-9.4771
▁Chinese	-9.47753
▁begin	-9.47758
▁president	-9.47808
▁marry	-9.47825
▁shut	-9.4787
▁television	-9.4795
▁support	-9.48097
▁consider	-9.48119
▁exam	-9.48163
▁disappointed	-9.48382
▁voice	-9.48417
▁likely	-9.48583
▁discuss	-9.48631
▁whatever	-9.48799
▁public	-9.48974
▁Try	-9.49242
▁gift	-9.49491
▁singing	-9.49701
▁refused	-9.49708
▁willing	-9.49769
▁fall	-9.49909
▁foreign	-9.50182
▁Christmas	-9.50216
▁pretend	-9.50221
▁bread	-9.5024
▁rules	-9.50611
▁suppose	-9.51221
▁stuff	-9.51267
▁agreed	-9.51384
00	-9.51975
▁ill	-9.5205
▁prison	-9.52081
▁received	-9.52205
▁bridge	-9.52259
▁wonderful	-9.52279
▁lake	-9.52402
▁eight	-9.5275
▁meant	-9.52933
▁eggs	-9.5295
▁government	-9.52978
▁Australia	-9.5332
▁common	-9.53409
▁recently	-9.53409
▁harder	-9.53624
▁Every	-9.54042
▁beginning	-9.54052
▁smell	-9.54204
▁stolen	-9.54578
▁b	-9.55374
▁sentence	-9.555
▁decide	-9.55778
▁ra	-9.55959
▁animals	-9.55968
▁laughed	-9.56147
▁ball	-9.5626
▁foot	-9.56302
uring	-9.56444
▁dur	-9.56511
▁wash	-9.56525
▁Germany	-9.5675
▁built	-9.56774
▁drinks	-9.56815
▁P	-9.56834
▁pocket	-9.5687
▁Jim	-9.56921
esn	-9.56927
▁regret	-9.57417
▁novel	-9.57504
▁apologize	-9.57801
▁realize	-9.57909
▁favor	-9.57964
▁church	-9.58002
▁Bill	-9.5809
▁fit	-9.58149
▁suggested	-9.58246
▁dogs	-9.58394
▁boyfriend	-9.5846
▁France	-9.58722
▁wallet	-9.58731
▁thousand	-9.58792
▁buying	-9.58939
▁native	-9.59084
▁dropped	-9.59404
▁Kyoto	-9.59416
▁patient	-9.59578
▁missing	-9.59611
▁storm	-9.5969
▁Stay	-9.60102
▁slowly	-9.60117
▁Here	-9.60247
ince	-9.603
▁helping	-9.60437
▁ordered	-9.6044
▁boat	-9.60487
▁appear	-9.61047
▁bath	-9.61267
▁kissed	-9.61657
▁realized	-9.61747
▁village	-9.61789
▁hiding	-9.62247
▁10	-9.62281
▁returned	-9.62403
▁law	-9.62657
▁laughing	-9.63
▁crowd	-9.6325
▁truck	-9.6326
▁r	-9.63467
▁sky	-9.63632
▁extreme	-9.63916
▁project	-9.63993
▁keeps	-9.64062
▁player	-9.64088
▁cool	-9.64177
▁examination	-9.64631
▁rule	-9.64645
▁fat	-9.64737
▁reach	-9.64804
▁owe	-9.64984
▁injured	-9.65062
▁satisfied	-9.65062
▁suddenly	-9.65076
▁experience	-9.65079
ather	-9.65137
▁cooking	-9.65217
▁leg	-9.65375
▁wondered	-9.65557
▁suit	-9.65574
▁enemy	-9.65783
▁smart	-9.65887
▁wake	-9.66069
▁laugh	-9.6646
▁subject	-9.66819
▁learning	-9.66932
▁correct	-9.67014
▁wind	-9.67033
▁speaker	-9.67125
▁risk	-9.67349
to	-9.67376
▁taxi	-9.67436
▁Mos	-9.67485
▁Not	-9.67572
able	-9.67609
▁count	-9.67766
▁Bo	-9.67853
▁twenty	-9.68007
▁history	-9.68032
▁deep	-9.68089
▁kid	-9.68397
▁China	-9.68758
▁earth	-9.68812
▁ideas	-9.68815
▁calm	-9.6885
▁account	-9.6898
▁suitcase	-9.69073
▁mail	-9.69161
▁painting	-9.69209
▁wedding	-9.69264
30.	-9.69378
▁O	-9.69398
▁slept	-9.6952
▁handed	-9.69692
▁German	-9.69731
▁rent	-9.70034
▁drank	-9.70279
▁Should	-9.70285
▁calling	-9.7038
▁drop	-9.70572
till	-9.70699
▁spoken	-9.70854
▁smile	-9.71121
▁trees	-9.71133
▁Bob	-9.71162
▁singer	-9.71454
most	-9.71656
▁plenty	-9.71823
▁cause	-9.71835
▁So	-9.71883
▁post	-9.71906
▁leaves	-9.71921
▁bar	-9.72046
▁throw	-9.72511
▁group	-9.72991
▁bird	-9.73018
▁feet	-9.73354
▁apples	-9.73406
▁gotten	-9.73517
hose	-9.73606
▁sea	-9.73662
▁aware	-9.73733
▁dishes	-9.74226
▁toward	-9.74874
▁For	-9.74954
▁sugar	-9.74986
▁guilty	-9.74993
▁arrested	-9.75024
▁obvious	-9.75675
▁particular	-9.75795
▁taught	-9.75799
▁followed	-9.75985
▁tears	-9.76072
▁shower	-9.761
▁Saturday	-9.76226
▁feed	-9.76295
▁allow	-9.76376
▁middle	-9.76605
▁university	-9.76612
▁policeman	-9.76622
▁painted	-9.76772
▁managed	-9.76783
▁hide	-9.76789
▁convinced	-9.7686
definitely	-9.77038
▁result	-9.77055
▁dressed	-9.77057
▁pleased	-9.77074
▁convince	-9.77181
▁star	-9.7721
▁low	-9.7734
▁absent	-9.77445
▁yours	-9.77491
▁p	-9.77563
▁sold	-9.77789
▁plays	-9.77842
on	-9.77929
▁feelings	-9.78157
▁empty	-9.78271
▁absolutely	-9.78274
▁respect	-9.78608
▁proposal	-9.78824
▁grandmother	-9.79087
▁peace	-9.79092
▁locked	-9.79292
▁sooner	-9.79334
▁expecting	-9.79377
▁An	-9.79518
▁ring	-9.79624
mong	-9.79625
▁cute	-9.79728
▁answered	-9.79925
▁Mike	-9.79941
▁nobody	-9.79957
▁involved	-9.79973
▁paint	-9.80058
▁prepared	-9.80072
▁considered	-9.80119
▁sports	-9.80415
▁act	-9.80423
▁languages	-9.80462
▁talks	-9.80584
▁straight	-9.80718
▁single	-9.80924
▁fired	-9.80927
▁covered	-9.81019
▁saved	-9.81125
▁appointment	-9.81314
▁escape	-9.81382
▁moon	-9.8151
▁lady	-9.81626
▁dirty	-9.81636
en	-9.82117
▁fool	-9.82159
▁schedule	-9.82237
▁body	-9.82356
▁blood	-9.82369
▁lied	-9.82508
▁intend	-9.82611
▁stole	-9.8265
▁filled	-9.82701
▁explained	-9.82778
▁See	-9.82975
▁color	-9.83096
▁avoid	-9.83189
▁map	-9.83217
▁view	-9.83305
▁drove	-9.83359
▁duty	-9.83376
▁accused	-9.83402
▁countries	-9.84237
▁responsible	-9.84243
▁contact	-9.84718
▁flight	-9.84817
▁museum	-9.84822
▁breath	-9.84991
▁cream	-9.8505
▁Two	-9.85165
▁concerned	-9.85175
▁moving	-9.85189
▁due	-9.85256
▁green	-9.85274
▁caused	-9.854
▁remind	-9.85662
▁fruit	-9.85742
▁Friday	-9.85759
▁spring	-9.85788
▁golf	-9.86014
▁understood	-9.8603
▁seriously	-9.86117
▁nine	-9.86152
▁soup	-9.86246
▁simple	-9.86843
▁loud	-9.86891
▁Jack	-9.86904
▁hoping	-9.86927
▁choose	-9.86941
▁cars	-9.87014
▁healthy	-9.87105
▁judge	-9.87158
▁t	-9.87288
▁listened	-9.87312
▁forgive	-9.87352
▁explanation	-9.87653
▁rang	-9.87919
▁F	-9.88361
▁race	-9.88367
▁imagine	-9.88522
▁Somebody	-9.88746
▁soccer	-9.88747
▁fly	-9.88877
▁meal	-9.88895
▁offered	-9.89047
▁cards	-9.89049
▁murder	-9.8923
▁beat	-9.89283
▁legs	-9.89299
▁sort	-9.89461
▁share	-9.89491
▁gas	-9.89596
▁lay	-9.89609
▁stuck	-9.89664
▁admit	-9.89684
▁behavior	-9.89691
▁carried	-9.89698
▁jacket	-9.89704
▁hang	-9.89716
▁stick	-9.9019
▁clock	-9.9026
▁ground	-9.90268
▁cats	-9.90289
▁protect	-9.90337
▁million	-9.90366
▁corner	-9.90384
▁purpose	-9.90394
▁island	-9.90501
▁pool	-9.90523
▁Al	-9.90589
▁excited	-9.90601
▁Father	-9.90613
▁accepted	-9.9087
▁wears	-9.90996
▁awake	-9.91286
▁button	-9.91383
▁area	-9.91391
▁distance	-9.91439
▁teeth	-9.91542
▁permission	-9.91546
▁roof	-9.91592
▁salt	-9.91663
▁lift	-9.9176
at	-9.91855
▁feels	-9.91862
▁luck	-9.91882
▁pencil	-9.92252
▁picnic	-9.92306
▁pair	-9.92417
▁believed	-9.92431
▁Europe	-9.92466
▁themselves	-9.92498
▁classroom	-9.92512
▁confused	-9.92535
▁license	-9.93167
▁Children	-9.93459
▁match	-9.93493
▁impressed	-9.93495
▁Leave	-9.935
▁3	-9.93551
▁woke	-9.93559
▁vegetables	-9.9365
▁rice	-9.93733
▁theater	-9.93767
▁enter	-9.93788
▁card	-9.94038
▁fresh	-9.94203
▁flower	-9.94266
▁position	-9.94411
▁Mother	-9.94473
▁fighting	-9.94742
is	-9.94788
▁raise	-9.94907
▁Jackson	-9.95198
▁suspect	-9.95288
▁huge	-9.95555
▁recognize	-9.96158
▁magazine	-9.96187
▁market	-9.96191
▁crime	-9.96211
▁mention	-9.96266
▁lights	-9.96288
▁anxious	-9.9636
▁innocent	-9.9641
▁tickets	-9.96708
▁th	-9.96779
▁headache	-9.97229
▁major	-9.9724
▁bigger	-9.97436
▁forgotten	-9.97438
▁courage	-9.97459
▁farm	-9.97501
▁L	-9.97578
▁Their	-9.97726
▁fail	-9.9786
▁bear	-9.9818
▁holiday	-9.98212
▁habit	-9.98237
▁failure	-9.98248
▁sweater	-9.98312
▁unlikely	-9.98413
▁rude	-9.98414
▁Turn	-9.9842
▁ashamed	-9.9842
▁excellent	-9.9844
▁army	-9.9854
▁raised	-9.98701
▁hall	-9.98706
▁badly	-9.98818
▁exercise	-9.98936
▁complete	-9.99154
▁step	-9.99208
▁chocolate	-9.99284
▁England	-9.99429
▁taller	-9.99484
▁jumped	-9.99517
▁kick	-9.99532
▁gate	-9.9962
▁noon	-9.99665
▁interest	-9.9968
▁smiled	-9.99762
▁checked	-9.99849
▁gold	-9.99903
▁starting	-9.99999
▁brothers	-10.0004
▁Were	-10.0011
▁letters	-10.0021
▁prize	-10.0034
▁seldom	-10.0046
▁delicious	-10.0046
▁personal	-10.0055
▁climbed	-10.0058
▁forced	-10.0064
▁cookies	-10.0083
▁heat	-10.0097
▁wise	-10.011
▁pour	-10.0127
▁bike	-10.0137
▁supermarket	-10.015
▁above	-10.0158
▁Wait	-10.0175
ce	-10.018
▁friendly	-10.0194
▁results	-10.0199
▁With	-10.0202
▁lately	-10.0203
▁record	-10.0208
▁type	-10.0248
▁except	-10.0255
▁cheap	-10.0267
▁wood	-10.0271
▁following	-10.0275
▁manager	-10.0277
haps	-10.0277
▁guests	-10.0293
▁art	-10.0302
▁wondering	-10.0311
▁soldiers	-10.0314
ting	-10.0327
▁u	-10.0347
▁earthquake	-10.0349
▁Spanish	-10.0362
▁faster	-10.0375
▁prices	-10.0385
▁slow	-10.04
▁oil	-10.0401
▁vote	-10.0415
▁attack	-10.0437
▁advantage	-10.0457
▁neighbors	-10.0457
▁private	-10.0465
▁sandwich	-10.0467
▁useful	-10.047
▁dancing	-10.047
▁upstairs	-10.047
▁instead	-10.0471
▁clearly	-10.0482
▁continued	-10.0493
old	-10.0494
▁provide	-10.0529
▁lock	-10.0529
▁amount	-10.0538
▁paying	-10.0547
▁boring	-10.0581
▁bored	-10.0583
▁board	-10.0586
▁stairs	-10.0587
▁aunt	-10.0605
▁dying	-10.0608
▁rid	-10.0617
▁space	-10.0617
▁miles	-10.0621
▁loss	-10.0624
▁quick	-10.0679
▁fair	-10.068
▁conversation	-10.0681
▁Osaka	-10.0688
▁salary	-10.0688
▁neighborhood	-10.0688
▁illness	-10.0689
▁remained	-10.0698
▁treated	-10.0705
▁treat	-10.071
▁rains	-10.0715
▁size	-10.0736
▁Ask	-10.0738
▁round	-10.0758
▁welcome	-10.0776
▁cried	-10.08
▁losing	-10.0807
▁land	-10.0842
▁lack	-10.0844
▁mess	-10.0886
▁chicken	-10.0905
▁ended	-10.0905
▁silent	-10.0908
▁Yesterday	-10.0911
▁Tony	-10.0912
▁Kate	-10.0913
▁power	-10.0913
▁ourselves	-10.0914
▁elected	-10.0918
▁Call	-10.0939
▁names	-10.0957
▁familiar	-10.0965
▁Never	-10.0994
▁runs	-10.0994
▁taste	-10.1
▁hung	-10.1014
▁sweet	-10.1016
▁garage	-10.1025
▁goodbye	-10.1025
▁course	-10.1026
▁Bring	-10.1027
▁factory	-10.1028
▁population	-10.1031
▁skiing	-10.1032
▁grow	-10.1042
▁carrying	-10.1051
▁fixed	-10.1054
▁workers	-10.1087
▁details	-10.1098
▁hill	-10.111
▁translate	-10.1117
▁washing	-10.1117
▁season	-10.1131
▁Smith	-10.114
▁audience	-10.1141
▁jokes	-10.1142
▁handsome	-10.1143
▁burst	-10.1143
▁dating	-10.1146
▁complaining	-10.1149
▁places	-10.1151
▁graduated	-10.1152
▁anyway	-10.1161
▁terms	-10.1185
▁Americans	-10.1226
▁contract	-10.1251
▁blew	-10.1256
▁lonely	-10.1256
▁natural	-10.1257
▁cash	-10.1258
▁math	-10.1263
▁arms	-10.1265
est	-10.128
▁difficulty	-10.13
▁calls	-10.1302
▁meaning	-10.1304
▁using	-10.1338
▁cross	-10.134
▁mood	-10.137
▁captain	-10.1374
▁opportunity	-10.1374
▁unhappy	-10.1374
▁temperature	-10.1374
▁express	-10.1385
▁20	-10.1388
▁Las	-10.139
less	-10.1393
▁succeeded	-10.1405
▁facts	-10.1406
▁washed	-10.1407
▁hid	-10.1433
▁s	-10.146
▁climb	-10.1463
▁capital	-10.1465
▁request	-10.1478
▁fear	-10.148
▁jealous	-10.1485
w	-10.1489
▁photo	-10.149
▁further	-10.1493
▁energy	-10.1496
▁hearing	-10.1496
▁solution	-10.1498
▁totally	-10.1506
▁escaped	-10.1528
▁weak	-10.1529
▁wore	-10.1546
▁brush	-10.159
▁al	-10.1612
▁furniture	-10.1613
▁Canada	-10.1613
▁bench	-10.1615
▁fence	-10.1615
▁passport	-10.1623
▁lots	-10.1624
▁perfectly	-10.1625
▁Aren	-10.1639
▁teaching	-10.164
▁songs	-10.1666
▁God	-10.1682
▁manage	-10.1702
▁continue	-10.1702
▁Ma	-10.171
▁practice	-10.1716
▁rock	-10.1731
▁football	-10.1736
▁couch	-10.1736
▁games	-10.1737
▁credit	-10.1738
▁prevented	-10.1745
▁nose	-10.1747
▁suffer	-10.1793
ur	-10.1796
▁birds	-10.1805
▁lazy	-10.1858
▁Sometimes	-10.1859
▁Sorry	-10.1862
▁suggestion	-10.1863
or	-10.1868
▁Per	-10.187
▁rope	-10.1886
an	-10.1892
▁zoo	-10.1983
▁beauty	-10.1984
▁jail	-10.1984
▁thief	-10.1984
▁easier	-10.1984
▁emergency	-10.1984
▁supper	-10.1984
▁cancer	-10.1985
▁comfortable	-10.1988
▁sharp	-10.1989
▁system	-10.199
▁fifty	-10.199
▁mountains	-10.2009
▁member	-10.2035
▁pull	-10.2036
▁per	-10.2051
▁admitted	-10.2106
▁successful	-10.2106
▁similar	-10.211
▁George	-10.2113
▁finger	-10.2116
▁pushed	-10.212
▁ability	-10.213
▁appeared	-10.2137
▁borrowed	-10.2141
▁awful	-10.2153
▁trusted	-10.2184
▁finding	-10.219
▁brown	-10.224
▁lead	-10.2244
▁sale	-10.2261
▁liar	-10.2264
▁recognized	-10.2272
▁forever	-10.2308
▁human	-10.2331
▁pie	-10.2341
▁within	-10.2354
▁normal	-10.2366
▁Show	-10.2372
▁service	-10.2374
▁warned	-10.2381
▁pizza	-10.2383
▁fond	-10.2385
▁staring	-10.2386
▁traveling	-10.2396
▁cleaning	-10.2407
time	-10.2408
▁100	-10.2415
▁dad	-10.2416
▁butter	-10.2425
▁issue	-10.2452
▁refuse	-10.2483
▁build	-10.2491
▁memory	-10.25
▁exciting	-10.25
▁eventually	-10.25
▁studies	-10.2502
▁British	-10.2503
▁copy	-10.2504
▁Am	-10.251
▁animal	-10.2511
▁rumor	-10.2514
▁prove	-10.2517
▁shy	-10.2524
▁general	-10.2529
▁By	-10.2542
▁third	-10.2546
▁acted	-10.2548
ng	-10.2599
▁costs	-10.263
▁Life	-10.2633
▁relax	-10.2633
▁War	-10.2664
▁fed	-10.2664
▁attempt	-10.2671
▁shoulder	-10.2672
▁gives	-10.2722
▁progress	-10.2756
▁excuse	-10.2758
▁gentleman	-10.2768
▁stories	-10.2769
▁unusual	-10.2769
▁neither	-10.2769
▁grateful	-10.2772
▁effort	-10.2783
▁flying	-10.2783
▁poem	-10.2784
▁tight	-10.2797
▁election	-10.2805
▁weird	-10.2807
▁condition	-10.2822
▁30	-10.2832
▁papers	-10.2835
▁bite	-10.2835
▁hole	-10.2844
▁stomach	-10.2905
▁childhood	-10.2905
▁possibility	-10.2906
▁committee	-10.2906
▁amazing	-10.2906
▁diary	-10.2906
▁shelf	-10.2908
▁fallen	-10.2911
▁neighbor	-10.2921
▁airplane	-10.2923
▁email	-10.2926
▁worst	-10.2926
▁discussed	-10.2937
out	-10.2941
▁stranger	-10.2951
rew	-10.2957
▁band	-10.2972
▁sisters	-10.2983
▁belongs	-10.3017
▁harm	-10.3036
▁lies	-10.3037
▁foolish	-10.3039
▁granted	-10.3045
▁nurse	-10.3046
▁fortune	-10.3047
▁marriage	-10.3063
▁passengers	-10.307
▁crowded	-10.3071
▁R	-10.3129
S	-10.3133
arely	-10.3156
▁h	-10.3159
▁persuade	-10.3161
▁argue	-10.3164
▁obey	-10.3171
▁reply	-10.3174
▁local	-10.3179
▁gather	-10.3181
▁juice	-10.3185
▁rained	-10.3186
▁secretary	-10.3186
▁blind	-10.3187
▁Italy	-10.3187
▁chess	-10.3189
▁knowledge	-10.3189
▁main	-10.3199
▁extra	-10.3201
▁Th	-10.3206
▁forest	-10.3215
▁bedroom	-10.322
▁attended	-10.3229
▁mistaken	-10.3242
h	-10.3246
▁sleepy	-10.3255
▁i	-10.3261
▁tough	-10.3277
▁recommend	-10.3314
▁brave	-10.3315
▁education	-10.3326
▁Nancy	-10.3327
▁tongue	-10.3328
▁clever	-10.3328
▁occurred	-10.3328
▁bathroom	-10.3328
▁frightened	-10.333
▁deeply	-10.3336
▁wild	-10.3339
▁engine	-10.3341
▁theory	-10.3345
▁hired	-10.3351
▁highly	-10.3359
▁sometime	-10.3382
▁teachers	-10.3393
▁chose	-10.3406
▁depends	-10.3427
▁complain	-10.3436
▁prepare	-10.3449
▁windows	-10.3454
▁ignore	-10.3457
▁damage	-10.3469
▁Fuji	-10.3472
▁President	-10.3473
▁available	-10.3473
▁intelligent	-10.3474
▁stone	-10.3478
▁crossed	-10.3489
▁quietly	-10.349
▁drives	-10.349
▁diet	-10.3494
▁wasting	-10.3499
▁divorce	-10.3596
▁introduce	-10.3598
▁fifteen	-10.3617
▁basketball	-10.362
▁responsibility	-10.362
▁deserve	-10.362
▁safety	-10.3621
▁exhausted	-10.3621
▁fever	-10.3628
▁cover	-10.3639
▁intention	-10.3646
▁argument	-10.3647
▁elevator	-10.3647
▁bound	-10.365
▁leader	-10.365
▁matters	-10.3656
▁apart	-10.368
▁anger	-10.3721
▁ears	-10.3732
all	-10.3757
▁economy	-10.3769
▁depressed	-10.3769
▁patience	-10.377
▁shook	-10.377
▁pieces	-10.3776
ne	-10.3779
▁neck	-10.3794
▁disease	-10.3798
▁article	-10.3801
▁field	-10.3802
▁film	-10.3805
▁dreams	-10.3811
▁belong	-10.3827
▁warn	-10.3829
▁king	-10.3849
▁rough	-10.385
▁center	-10.3855
▁current	-10.3863
▁N	-10.3865
▁invite	-10.3896
ecause	-10.3901
though	-10.3906
▁polite	-10.3919
▁struck	-10.3921
▁accustom	-10.3924
▁percent	-10.3924
▁shall	-10.3925
▁knocked	-10.3925
▁w	-10.3929
▁burned	-10.3931
▁complained	-10.3935
▁alarm	-10.3936
▁spite	-10.3943
▁divorced	-10.3947
▁classmates	-10.3949
▁scene	-10.3949
▁conference	-10.3952
▁apologized	-10.3978
▁cleaned	-10.3985
▁worrying	-10.3985
▁Mt	-10.3991
▁seats	-10.4007
▁ear	-10.4019
▁parked	-10.4021
▁urgent	-10.407
▁speed	-10.4072
▁bottom	-10.4074
▁yellow	-10.4074
▁dentist	-10.4074
▁evidence	-10.4074
▁midnight	-10.4074
▁policy	-10.4075
▁embarrassed	-10.4076
▁climate	-10.4076
▁discovered	-10.4077
▁tastes	-10.4079
▁drew	-10.408
▁hire	-10.408
▁sang	-10.4081
▁add	-10.4093
▁loan	-10.4093
▁video	-10.4107
▁agreement	-10.4108
▁assistant	-10.411
▁Read	-10.4112
▁orders	-10.4115
▁Watch	-10.4117
xcuse	-10.414
▁holding	-10.4143
▁G	-10.4175
▁Mo	-10.4185
▁egg	-10.4194
sn	-10.4214
ccording	-10.4216
▁members	-10.4223
▁aside	-10.4227
▁Park	-10.4231
▁engaged	-10.4232
▁remain	-10.4238
ake	-10.4256
nfortunately	-10.4263
▁Sundays	-10.4266
▁envelope	-10.4266
▁Canadian	-10.4271
▁battle	-10.4271
▁pleasure	-10.4273
▁value	-10.4274
▁houses	-10.4302
he	-10.4308
▁l	-10.4322
▁upon	-10.4329
▁press	-10.4351
▁begins	-10.4387
▁mirror	-10.4389
▁suicide	-10.439
▁pale	-10.4392
▁switch	-10.4392
▁woods	-10.4393
▁jump	-10.4393
becoming	-10.4395
▁camping	-10.4395
▁Sh	-10.4406
▁Hey	-10.4424
▁cousin	-10.4429
▁beside	-10.4446
▁tells	-10.4486
▁thin	-10.451
▁skin	-10.4514
▁final	-10.4524
▁bright	-10.4543
▁Street	-10.455
▁typhoon	-10.455
▁department	-10.4551
▁silence	-10.4551
▁happiness	-10.4552
▁sofa	-10.4552
▁planned	-10.4554
▁abandoned	-10.4555
▁fairly	-10.4557
▁supplies	-10.4562
▁growing	-10.4566
aid	-10.4567
▁dry	-10.4569
ose	-10.4573
▁acting	-10.4575
▁introduced	-10.458
▁meals	-10.4591
▁professor	-10.4592
▁notebook	-10.4592
▁idiot	-10.4597
▁spread	-10.4604
▁tax	-10.461
ether	-10.4611
▁shoot	-10.4622
▁visiting	-10.4626
▁tend	-10.4628
3	-10.4639
▁tied	-10.466
▁exchange	-10.4692
▁bare	-10.4698
▁sudden	-10.471
▁careless	-10.4714
▁cheese	-10.4714
▁disappeared	-10.4717
▁everywhere	-10.4719
▁pond	-10.4724
▁hoped	-10.4747
▁fill	-10.475
▁page	-10.475
▁orange	-10.4764
▁forty	-10.4771
▁rose	-10.4772
▁glance	-10.4781
▁rainy	-10.4784
▁stamps	-10.4806
▁grown	-10.4824
▁Any	-10.4837
▁require	-10.4855
▁double	-10.4856
▁curious	-10.4875
▁desperate	-10.4877
▁income	-10.4878
▁thirteen	-10.4881
▁pity	-10.4881
▁pants	-10.4886
▁science	-10.4887
▁greatest	-10.4889
▁insisted	-10.4895
▁advance	-10.4896
▁hanging	-10.4899
▁socks	-10.4901
▁file	-10.4915
▁stock	-10.4917
▁maybe	-10.4917
▁artist	-10.4925
▁drawer	-10.493
▁closer	-10.493
▁describe	-10.4935
▁larger	-10.4937
▁parking	-10.4951
▁signed	-10.4953
ted	-10.4979
▁solved	-10.4979
▁wh	-10.4987
▁writer	-10.5004
▁ha	-10.5013
▁spare	-10.5023
▁survive	-10.5026
▁hurts	-10.5033
▁horses	-10.505
▁Italian	-10.505
▁smiling	-10.5051
▁joking	-10.5051
▁arguing	-10.5051
▁average	-10.5055
▁grass	-10.5071
▁gloves	-10.5073
▁selling	-10.509
▁wishes	-10.5098
▁website	-10.5098
▁invitation	-10.5099
▁incident	-10.51
No	-10.5103
▁master	-10.5106
▁expert	-10.511
▁model	-10.5124
▁grabb	-10.5125
▁dollar	-10.5127
▁Mak	-10.513
▁yes	-10.5186
▁push	-10.519
▁c	-10.5205
▁rate	-10.5206
▁cancel	-10.521
▁entire	-10.5218
▁entrance	-10.5223
▁kidding	-10.5223
▁discussion	-10.5224
▁twelve	-10.5224
▁denied	-10.5225
▁rarely	-10.5229
▁fought	-10.523
What	-10.5245
▁stepp	-10.5252
▁persuaded	-10.5254
▁castle	-10.5274
▁musician	-10.5275
▁cigarette	-10.5276
▁depend	-10.5293
her	-10.5298
▁hated	-10.5302
▁nor	-10.5308
▁package	-10.5326
c	-10.5331
▁thick	-10.5332
▁kinds	-10.5347
▁rat	-10.5396
▁Hokkaido	-10.5398
▁application	-10.5398
▁purse	-10.5398
▁preparing	-10.5399
▁politics	-10.5404
▁attractive	-10.5407
▁candy	-10.5416
▁birth	-10.5419
▁bags	-10.5445
▁towel	-10.5477
▁action	-10.5484
▁hopes	-10.5486
▁pressure	-10.5551
Tom	-10.5554
▁efforts	-10.5557
▁prevent	-10.5564
▁motorcycle	-10.5577
▁Spain	-10.5577
▁committed	-10.5579
▁illegal	-10.5579
▁announced	-10.5584
▁stealing	-10.5587
▁guard	-10.5589
▁punished	-10.5591
▁served	-10.5602
▁temper	-10.5606
▁suggesting	-10.562
▁traveled	-10.5623
▁repair	-10.5624
▁earns	-10.5653
▁firm	-10.5659
one	-10.5661
▁ex	-10.5665
▁lower	-10.5681
▁plants	-10.5712
▁modern	-10.5743
ness	-10.5745
▁research	-10.5746
▁fingers	-10.5753
▁April	-10.5758
▁Hurry	-10.5758
▁Chicago	-10.5759
▁luggage	-10.5759
▁horrible	-10.5759
▁refrigerator	-10.5759
▁thirsty	-10.576
▁winning	-10.576
▁equal	-10.5766
▁kindness	-10.5766
▁ruined	-10.5771
▁repaired	-10.5772
▁improve	-10.5783
▁higher	-10.5783
▁falling	-10.5788
▁intended	-10.5804
▁debt	-10.5841
▁lesson	-10.5842
▁shape	-10.5855
▁lovely	-10.5857
▁Won	-10.5862
▁rely	-10.5878
ver	-10.5892
▁mom	-10.5895
▁answers	-10.5895
▁novels	-10.5903
▁spends	-10.5936
▁Hawaii	-10.594
ers	-10.5942
▁baggage	-10.5944
▁robbed	-10.5944
▁Alice	-10.5944
▁scolded	-10.5946
▁Day	-10.595
▁apply	-10.5956
▁shocked	-10.5957
▁kilometers	-10.5957
▁classes	-10.5969
▁reasons	-10.5994
▁touched	-10.6016
▁prisoner	-10.6018
▁re	-10.6022
▁plate	-10.6023
▁ski	-10.603
▁Mrs	-10.607
▁program	-10.6097
▁hurried	-10.6127
▁contest	-10.6128
▁Brown	-10.6132
▁eleven	-10.6132
▁hobby	-10.6132
▁accent	-10.6132
▁optimistic	-10.6133
▁noisy	-10.6133
▁slipped	-10.6135
▁absence	-10.6135
▁Three	-10.6135
▁adopted	-10.6137
▁Taro	-10.6137
▁destroyed	-10.6138
▁reasonable	-10.6139
▁delayed	-10.6142
▁split	-10.6144
▁stronger	-10.6146
▁bills	-10.6151
▁mayor	-10.6168
▁Tomorrow	-10.6169
▁Writ	-10.617
▁steal	-10.6184
▁detail	-10.6187
▁strength	-10.6192
▁changes	-10.6196
▁regard	-10.6202
How	-10.6217
▁saving	-10.6221
▁spot	-10.6234
▁blamed	-10.6263
▁stars	-10.6274
▁approve	-10.6301
▁officer	-10.6304
▁flew	-10.6324
▁Listen	-10.6325
▁ceiling	-10.6325
▁potatoes	-10.6326
▁confidence	-10.6334
▁Good	-10.6335
▁attacked	-10.635
▁force	-10.6351
▁below	-10.6351
▁someday	-10.6358
▁beard	-10.6359
▁ruin	-10.6391
▁throat	-10.6396
▁cooked	-10.6415
▁Speak	-10.6427
▁knowing	-10.6457
it	-10.647
▁greet	-10.6486
▁resign	-10.6495
▁shock	-10.6499
ic	-10.6514
▁suspicious	-10.6516
▁eager	-10.6516
▁pleasant	-10.6517
▁okay	-10.652
▁Lincoln	-10.6521
▁dessert	-10.6521
▁engagement	-10.6521
▁importance	-10.6521
▁buried	-10.6521
▁Few	-10.6523
▁nearest	-10.6526
▁closet	-10.6527
▁possibl	-10.6533
▁mentioned	-10.6548
▁Thing	-10.6552
▁teaches	-10.6554
▁clouds	-10.6572
▁meters	-10.658
▁lecture	-10.6582
▁settle	-10.6587
▁worn	-10.6598
▁reservation	-10.6601
▁nation	-10.6626
u	-10.6639
▁actor	-10.6641
▁Africa	-10.6641
▁thre	-10.6645
▁compare	-10.6646
ach	-10.6646
uch	-10.665
▁bet	-10.6669
Yes	-10.668
▁advise	-10.6683
▁crash	-10.6707
▁behave	-10.6709
▁violin	-10.672
▁century	-10.6721
▁difficulties	-10.6723
▁taxes	-10.6725
▁Help	-10.6725
▁operation	-10.6729
▁loudly	-10.6731
▁burning	-10.6735
isn	-10.6735
▁suffering	-10.6736
▁baked	-10.674
▁smaller	-10.6749
▁ignored	-10.676
▁example	-10.68
▁poet	-10.6801
▁draw	-10.6835
▁India	-10.6853
▁ends	-10.6885
▁Ann	-10.6889
▁financial	-10.692
▁secrets	-10.6922
▁Brazil	-10.6925
▁silly	-10.6925
▁jogging	-10.6925
▁stare	-10.6925
▁downstairs	-10.6926
▁legal	-10.6926
▁threatened	-10.6926
▁strict	-10.693
▁complicated	-10.6932
us	-10.6934
▁dawn	-10.6934
▁demanded	-10.6937
▁lasted	-10.6941
▁professional	-10.6997
▁manners	-10.7
▁appearance	-10.701
▁sounded	-10.7011
▁criminal	-10.7016
▁total	-10.7016
You	-10.7035
▁rare	-10.7046
▁opening	-10.7059
▁lessons	-10.7062
▁witness	-10.7068
▁none	-10.7072
▁headed	-10.7073
▁Rome	-10.7125
▁briefcase	-10.7133
▁uncomfortable	-10.7133
▁cities	-10.7134
▁fluently	-10.7135
▁nearby	-10.7136
▁photos	-10.7137
▁helpful	-10.7137
▁slightly	-10.7137
▁political	-10.7138
▁June	-10.7139
▁contain	-10.7147
▁climbing	-10.7152
▁stage	-10.7152
use	-10.7175
me	-10.7177
▁friendship	-10.7219
▁weapon	-10.7223
▁bigge	-10.7231
as	-10.7246
▁products	-10.7253
▁nowhere	-10.7255
▁bomb	-10.7297
▁jobs	-10.7315
▁hug	-10.7316
▁promises	-10.7342
▁lobby	-10.7346
▁state	-10.7346
▁basement	-10.7346
▁ridiculous	-10.7346
▁insurance	-10.7346
▁salad	-10.7346
▁acquainted	-10.7348
▁square	-10.7348
▁arriving	-10.7349
▁electric	-10.7351
▁m	-10.7353
▁wounded	-10.7356
▁nap	-10.7365
▁wide	-10.7365
▁celebrate	-10.7374
▁spending	-10.7422
▁twins	-10.7424
▁search	-10.7424
▁experiment	-10.7424
▁court	-10.7435
▁ways	-10.7442
▁ease	-10.7444
▁sport	-10.7447
▁stamp	-10.7447
▁Time	-10.7459
Who	-10.7464
▁product	-10.7483
▁deserves	-10.7525
▁narrow	-10.7547
▁generous	-10.7557
▁soft	-10.7558
king	-10.7562
▁basket	-10.7563
▁happier	-10.7563
▁funeral	-10.7563
▁subway	-10.7563
▁Betty	-10.7563
▁chairman	-10.7564
▁Price	-10.7565
▁annoying	-10.757
pointed	-10.7573
▁shows	-10.7574
▁starts	-10.7582
▁searched	-10.7583
1	-10.7587
▁receive	-10.7602
▁holidays	-10.7606
▁pounds	-10.7609
▁dozen	-10.761
▁translated	-10.7619
▁expenses	-10.7619
▁voted	-10.762
▁understands	-10.7623
▁accidents	-10.7633
up	-10.7655
▁impression	-10.7656
▁level	-10.7659
▁relationship	-10.766
▁direction	-10.7662
▁burn	-10.7663
▁drug	-10.7664
▁Well	-10.767
▁yard	-10.7683
▁task	-10.769
▁players	-10.7713
▁roses	-10.7718
▁wasted	-10.7725
▁flat	-10.7741
▁admire	-10.7752
▁repeat	-10.776
▁uses	-10.7766
▁cap	-10.7775
▁Peter	-10.7785
▁performance	-10.7785
▁simply	-10.7786
▁convenient	-10.7788
▁devoted	-10.7788
ally	-10.7798
▁removed	-10.78
▁capable	-10.7802
▁owns	-10.7805
▁retired	-10.7808
▁relaxed	-10.7809
▁quality	-10.7812
▁Oh	-10.7816
▁understanding	-10.784
▁However	-10.7855
▁increase	-10.7859
ry	-10.7861
▁demand	-10.7861
ies	-10.7864
looking	-10.7869
▁spell	-10.7874
▁dealing	-10.7885
▁toilet	-10.7888
▁exist	-10.7889
▁valuable	-10.7889
▁soldier	-10.7889
▁blanket	-10.7889
▁turns	-10.7891
▁document	-10.7892
ous	-10.7899
▁goal	-10.7912
▁Exc	-10.7913
▁urge	-10.7922
▁oranges	-10.795
ke	-10.7969
▁fog	-10.7993
▁cab	-10.8005
▁cherry	-10.8012
▁garbage	-10.8012
▁actress	-10.8013
▁School	-10.8013
▁explosion	-10.8013
▁authority	-10.8013
▁slight	-10.8013
▁sunglasses	-10.8013
▁nodded	-10.8013
▁invented	-10.8014
▁vase	-10.8014
▁White	-10.8014
▁Water	-10.8019
▁Non	-10.8025
▁crashed	-10.8028
▁plant	-10.8029
▁canceled	-10.8031
▁shorter	-10.8032
▁visitors	-10.8057
rushed	-10.8074
▁complaints	-10.8085
▁computers	-10.809
▁desire	-10.8095
▁concern	-10.811
▁diamond	-10.8121
▁carpet	-10.8121
claimed	-10.8139
▁skirt	-10.8141
It	-10.8167
▁self	-10.8186
2	-10.819
▁mission	-10.8196
▁pot	-10.8224
▁oppose	-10.8232
▁rescue	-10.8233
▁ugly	-10.8245
▁Women	-10.8245
▁enemies	-10.8245
▁hidden	-10.8245
▁departure	-10.8245
▁presence	-10.8245
▁assistance	-10.8245
▁terribly	-10.8245
▁attitude	-10.8245
▁eighteen	-10.8246
▁sheep	-10.8247
▁unlocked	-10.8247
pplied	-10.8248
▁betrayed	-10.8252
▁encouraged	-10.8254
▁riding	-10.8268
▁itself	-10.8271
▁tries	-10.8283
lent	-10.8296
▁hi	-10.8302
▁belt	-10.8308
▁tire	-10.832
▁scream	-10.8326
▁cleared	-10.8331
▁loose	-10.8336
▁graduate	-10.8337
▁talent	-10.8344
▁form	-10.8347
▁ocean	-10.8355
▁adult	-10.836
▁CD	-10.8366
▁original	-10.8367
▁documents	-10.8373
▁Fro	-10.8374
▁f	-10.8376
year	-10.8381
▁latest	-10.8399
i	-10.8413
▁rush	-10.8414
▁iron	-10.8422
▁Sit	-10.8445
▁furious	-10.8478
▁walks	-10.8478
▁severe	-10.848
▁album	-10.8483
▁jeans	-10.8483
▁October	-10.8483
▁mystery	-10.8483
▁heavily	-10.8483
▁reputation	-10.8483
▁begun	-10.8488
▁deny	-10.8489
▁smarter	-10.8493
▁lines	-10.8494
▁track	-10.85
▁active	-10.851
▁Send	-10.851
▁score	-10.8524
▁scare	-10.8527
▁watches	-10.8529
▁author	-10.8533
ill	-10.8536
▁Of	-10.8542
▁customers	-10.856
▁breaking	-10.856
ily	-10.8561
▁volunteer	-10.8576
▁swear	-10.8588
▁quarrel	-10.8591
▁bullet	-10.8593
▁content	-10.8593
▁drugs	-10.8614
▁weapons	-10.8623
▁row	-10.8636
▁mis	-10.8638
▁Russian	-10.8641
p	-10.8643
▁smells	-10.8674
id	-10.8676
▁edge	-10.871
▁insist	-10.8719
▁genius	-10.8724
▁apology	-10.8727
▁romantic	-10.8727
▁composition	-10.8727
▁conceal	-10.8727
▁surrounded	-10.8727
▁Open	-10.8728
▁Meg	-10.8729
▁captured	-10.8729
▁folded	-10.8729
▁nature	-10.8731
▁cheating	-10.8731
▁boots	-10.8734
▁relieved	-10.8736
▁mathematics	-10.8739
▁Miss	-10.8741
▁addition	-10.8742
▁treaty	-10.8742
▁jam	-10.8742
▁note	-10.8743
▁informed	-10.8748
▁Though	-10.875
▁shake	-10.8754
▁settled	-10.8758
▁survived	-10.8764
▁resist	-10.8764
▁packed	-10.8765
▁surprising	-10.8766
▁fashion	-10.8773
▁200	-10.8777
▁command	-10.8777
▁options	-10.8796
▁snowing	-10.8797
▁stays	-10.8803
▁pressed	-10.8805
▁raw	-10.8808
▁photograph	-10.882
▁serve	-10.8821
▁doll	-10.8822
▁object	-10.8831
▁pilot	-10.8852
▁Dr	-10.8862
▁odd	-10.8864
misunderstanding	-10.8868
▁stands	-10.8923
▁sons	-10.8926
▁led	-10.8944
▁Paul	-10.8958
the	-10.8963
▁plain	-10.8972
▁Mexico	-10.8977
▁sensitive	-10.8978
▁reliable	-10.8978
▁bookstore	-10.8979
▁downtown	-10.898
▁expectations	-10.8983
▁annoyed	-10.8983
▁Dad	-10.8984
▁determined	-10.8986
▁newspapers	-10.8986
▁released	-10.8989
▁recovered	-10.8989
▁chances	-10.8991
▁nuts	-10.8991
▁hello	-10.8993
▁warmer	-10.8993
bviously	-10.9008
▁earn	-10.9028
▁oven	-10.9029
▁honor	-10.9035
▁strike	-10.905
▁social	-10.9066
▁sand	-10.9087
▁hero	-10.9102
▁alibi	-10.9102
▁bargain	-10.9108
▁character	-10.9108
▁flag	-10.9112
▁suitcases	-10.9127
▁warning	-10.9131
▁bell	-10.915
▁answering	-10.9162
▁Eat	-10.9195
▁shame	-10.9211
▁text	-10.9227
▁direct	-10.9232
▁gym	-10.9232
▁electricity	-10.9234
▁scratch	-10.9234
▁bleeding	-10.9236
▁tallest	-10.9236
▁vain	-10.9237
leaned	-10.924
▁July	-10.924
▁entirely	-10.924
▁talented	-10.9249
▁dust	-10.9249
▁stove	-10.9253
▁boxes	-10.9254
▁organized	-10.9256
▁budget	-10.9258
▁path	-10.9258
▁style	-10.9261
▁increased	-10.9262
▁added	-10.9268
▁differ	-10.9273
▁economic	-10.9273
▁tools	-10.9278
▁discussing	-10.9279
▁Mom	-10.9279
▁damaged	-10.9279
▁cloth	-10.9281
▁And	-10.9298
▁killing	-10.9299
▁flu	-10.9299
▁delay	-10.9321
▁disagree	-10.9324
fully	-10.9331
▁retire	-10.9339
▁danced	-10.9349
▁fan	-10.9349
▁decen	-10.935
▁joy	-10.9356
▁chosen	-10.936
▁scientist	-10.9373
▁evil	-10.9375
▁cell	-10.9378
▁dislike	-10.9381
▁sweat	-10.9389
▁attract	-10.9398
▁dancer	-10.9404
nless	-10.9429
▁breathe	-10.9437
▁trade	-10.9442
▁tail	-10.9444
▁trains	-10.9456
sually	-10.9477
▁Men	-10.9483
▁environment	-10.9495
▁absorb	-10.9496
▁Kobe	-10.9496
▁Mayuko	-10.9496
▁Harvard	-10.9496
▁ceremony	-10.9496
▁fantastic	-10.9496
▁humor	-10.9496
▁arrival	-10.9496
▁Money	-10.9497
▁amazed	-10.9499
▁hunting	-10.9499
▁changing	-10.9499
▁society	-10.9503
ion	-10.9504
▁confessed	-10.9505
▁sink	-10.951
▁ladder	-10.951
▁thanks	-10.951
▁amused	-10.9511
▁unconscious	-10.9514
▁chew	-10.9515
▁Re	-10.9517
▁related	-10.9518
▁appeal	-10.9522
▁based	-10.9523
▁access	-10.9533
▁lit	-10.9535
▁murdered	-10.9537
▁South	-10.9537
▁employees	-10.9544
▁camp	-10.9546
▁practical	-10.9559
▁Yumi	-10.9564
▁notes	-10.9586
▁grades	-10.9604
▁Hav	-10.9609
▁resemble	-10.9618
▁causes	-10.9625
▁limit	-10.9627
▁flashlight	-10.963
▁trunk	-10.9638
▁wound	-10.964
▁rise	-10.9648
▁length	-10.9664
▁cave	-10.9666
▁parts	-10.9683
▁pages	-10.9685
▁ones	-10.97
▁dish	-10.97
nce	-10.9703
ar	-10.971
▁cares	-10.9724
▁poems	-10.9734
▁concentrate	-10.9741
aybe	-10.9747
▁decisions	-10.975
▁crush	-10.9753
▁First	-10.9766
▁World	-10.9766
▁south	-10.9767
▁construction	-10.9767
▁salesman	-10.9767
▁property	-10.9767
▁Smoking	-10.9767
▁imagination	-10.9767
▁rejected	-10.9768
▁dumb	-10.9768
▁appropriate	-10.9768
▁embarrassing	-10.9769
▁keeping	-10.9774
▁useless	-10.9774
▁instructions	-10.9776
▁Find	-10.9782
▁owner	-10.9796
gged	-10.9802
▁improved	-10.9804
▁swam	-10.9812
▁safely	-10.9814
▁considering	-10.9818
▁coins	-10.984
▁minor	-10.9854
▁wa	-10.9862
ary	-10.9873
▁visa	-10.9873
▁trap	-10.9902
▁import	-10.9909
▁turning	-10.9911
▁sum	-10.9912
▁Learn	-10.9914
▁treatment	-10.9915
▁method	-10.9916
▁detective	-10.9918
▁cheek	-10.9921
▁gain	-10.993
▁pack	-10.9949
▁allergi	-10.9954
▁coach	-11.0008
▁hesitate	-11.0019
▁interview	-11.003
▁false	-11.0039
▁Jones	-11.0041
▁confident	-11.0042
niversity	-11.0043
▁Washington	-11.0044
▁circumstances	-11.0045
▁delighted	-11.0045
▁drowned	-11.0046
▁mouse	-11.0047
▁leather	-11.0049
▁sandwiches	-11.0051
▁national	-11.0052
▁tune	-11.0053
▁reduce	-11.0055
▁hugged	-11.0056
▁security	-11.0058
▁doors	-11.006
▁divided	-11.0065
▁de	-11.0068
idn	-11.0072
▁oldest	-11.0079
▁rented	-11.0087
▁counting	-11.0088
▁located	-11.0093
▁kissing	-11.0098
▁independent	-11.0098
▁knee	-11.01
▁completed	-11.0118
▁skill	-11.0123
▁crops	-11.0131
▁worker	-11.0141
▁errors	-11.0147
b	-11.0167
▁flood	-11.0177
ation	-11.0179
▁Sever	-11.019
▁trick	-11.0191
▁lamp	-11.0192
▁racket	-11.0195
ntil	-11.0201
▁statement	-11.0202
▁custom	-11.0205
▁gunshot	-11.0205
▁politician	-11.0206
te	-11.0253
▁grade	-11.0254
▁remains	-11.0269
▁sleeps	-11.027
▁shoe	-11.03
▁influence	-11.0303
▁interrupt	-11.0305
▁cruel	-11.0324
▁sells	-11.0325
▁impatient	-11.0327
▁exact	-11.0329
▁jazz	-11.0329
▁staff	-11.033
▁Britain	-11.033
▁embassy	-11.033
▁stubborn	-11.033
▁nonsense	-11.033
▁discount	-11.033
▁poker	-11.033
▁haircut	-11.033
▁carelessness	-11.0331
▁sunny	-11.0331
▁Close	-11.0331
▁scarce	-11.0332
▁scary	-11.0336
▁Next	-11.0336
▁naked	-11.0336
▁Station	-11.0337
▁cheaper	-11.0338
▁remembered	-11.0344
▁satisfactory	-11.0344
▁Love	-11.0349
▁counter	-11.0351
▁incredible	-11.0352
▁guide	-11.0371
▁Wh	-11.0381
▁mild	-11.0392
▁seated	-11.0428
▁affairs	-11.043
▁Gra	-11.0431
dical	-11.0438
le	-11.0443
▁toys	-11.047
▁flow	-11.0481
▁points	-11.0493
efore	-11.0494
▁occasion	-11.0496
▁religion	-11.0496
▁essay	-11.0497
▁swimmer	-11.0498
▁effect	-11.0498
▁ghost	-11.05
ctually	-11.0505
▁prisoners	-11.0521
▁twin	-11.0527
▁career	-11.0561
▁Ro	-11.0573
▁foods	-11.0577
▁north	-11.0582
▁recover	-11.0592
▁consist	-11.0594
▁poison	-11.0598
▁ages	-11.0604
▁Susan	-11.0608
▁arrest	-11.062
▁Lucy	-11.0624
▁pianist	-11.0624
▁popcorn	-11.0624
▁positive	-11.0624
▁plastic	-11.0624
▁laundry	-11.0624
▁promotion	-11.0624
▁supply	-11.0625
▁consideration	-11.0625
▁data	-11.0626
▁international	-11.0626
▁battery	-11.0626
▁pride	-11.0627
▁remarkable	-11.0627
▁screamed	-11.0642
They	-11.0643
▁include	-11.0646
▁North	-11.0646
▁asks	-11.0648
▁conduct	-11.0659
▁appointed	-11.0662
aren	-11.0665
il	-11.0665
▁closely	-11.0673
▁sake	-11.0688
▁deposit	-11.0705
▁nerves	-11.0718
▁snakes	-11.0719
▁dreaming	-11.072
▁degrees	-11.0734
▁alike	-11.0755
▁effective	-11.0765
▁culture	-11.0778
▁drawing	-11.0805
▁term	-11.081
Do	-11.0817
▁goods	-11.0823
▁cigarettes	-11.0834
▁tooth	-11.0837
▁11	-11.0843
▁wet	-11.0871
▁mile	-11.0872
▁strangers	-11.0889
▁collect	-11.0899
▁compromise	-11.09
▁disappoint	-11.0901
▁bitter	-11.0926
▁complex	-11.0927
▁alcohol	-11.0927
▁fridge	-11.0927
▁appetite	-11.0927
▁Suddenly	-11.0927
▁unwilling	-11.0927
▁typical	-11.0927
▁daily	-11.0927
▁insane	-11.0928
yon	-11.0929
▁published	-11.093
▁charming	-11.0931
▁essential	-11.0932
▁properly	-11.0933
▁wealthy	-11.0933
▁shouted	-11.0933
▁Choos	-11.0945
▁billion	-11.0945
▁honesty	-11.0968
▁gained	-11.0973
▁punch	-11.0998
▁shared	-11.1009
▁doubts	-11.1019
▁owes	-11.1027
▁Chris	-11.1033
▁deliver	-11.1035
▁Say	-11.1042
▁ghosts	-11.1055
red	-11.1072
A	-11.1083
▁puzzle	-11.1085
▁steak	-11.1094
▁necklace	-11.11
▁pipe	-11.11
▁burglar	-11.1102
▁bowl	-11.1102
▁appreciated	-11.1104
▁engineer	-11.1113
▁risks	-11.1115
▁opinions	-11.1121
▁g	-11.113
▁grab	-11.1131
▁wheel	-11.1142
▁painful	-11.1152
shirt	-11.1158
▁pet	-11.1158
▁blow	-11.1164
▁di	-11.1165
▁pockets	-11.1169
om	-11.1219
▁treasure	-11.1229
▁brief	-11.1234
▁Laurie	-11.1239
▁silver	-11.1239
▁nowadays	-11.1239
▁families	-11.1239
▁anniversary	-11.124
▁yourselves	-11.124
▁coincidence	-11.124
▁personality	-11.124
▁sophisticated	-11.1241
▁drowning	-11.1241
▁overweight	-11.1241
▁rapidly	-11.1242
▁pulse	-11.1242
▁Shut	-11.1242
▁established	-11.1243
▁pink	-11.1243
▁dining	-11.1244
▁directly	-11.1245
▁resources	-11.125
▁screaming	-11.1254
▁arranged	-11.1255
▁Judg	-11.1255
▁chest	-11.1256
▁qualified	-11.1257
▁co	-11.1265
▁crossing	-11.1267
thirty	-11.1271
▁doctors	-11.1274
▁exchanged	-11.1289
▁buildings	-11.1291
▁beef	-11.1296
▁trained	-11.1312
▁foreigners	-11.133
ate	-11.1339
▁candles	-11.1344
▁whistle	-11.1374
▁assure	-11.1411
▁communicate	-11.1413
▁clerk	-11.1431
▁handkerchief	-11.1434
k	-11.1435
▁circle	-11.1436
▁curtain	-11.1438
▁shave	-11.144
man	-11.1445
▁coward	-11.1446
▁quarter	-11.1448
▁nail	-11.1486
▁panic	-11.1512
▁participate	-11.1516
▁coin	-11.1541
▁pure	-11.1541
you	-11.1543
▁official	-11.1549
▁confirm	-11.1552
▁assist	-11.1554
▁charges	-11.1555
▁unexpected	-11.1558
▁recent	-11.1558
▁junk	-11.1561
▁Judy	-11.1562
▁equipment	-11.1562
▁Cookie	-11.1562
▁community	-11.1562
▁opposite	-11.1562
▁previous	-11.1562
▁sunset	-11.1562
▁minister	-11.1562
▁permitted	-11.1563
▁otherwise	-11.1563
▁Generally	-11.1564
▁parties	-11.1565
▁suitable	-11.1566
▁fox	-11.1566
▁spy	-11.1571
▁barking	-11.1571
▁copies	-11.1572
▁examined	-11.1572
▁disturbed	-11.1578
▁carrots	-11.1581
nuclear	-11.1584
▁personally	-11.1587
▁cure	-11.1592
▁entering	-11.1598
▁approved	-11.1607
▁ringing	-11.1613
▁records	-11.1615
▁sending	-11.1632
▁waiter	-11.1639
▁imagined	-11.1657
▁sings	-11.1676
▁Think	-11.1677
▁customs	-11.1704
▁adults	-11.1732
▁bent	-11.1742
That	-11.1743
▁bucket	-11.1753
▁role	-11.1756
▁pepper	-11.1768
▁candidate	-11.177
aimed	-11.1771
Where	-11.1772
▁password	-11.1774
▁manner	-11.1775
▁error	-11.1777
▁degree	-11.1779
▁brain	-11.1785
▁tense	-11.1786
▁regrets	-11.1817
▁sincere	-11.1821
and	-11.1826
▁stops	-11.1826
▁becomes	-11.1842
▁conditions	-11.1861
▁crack	-11.1866
▁approach	-11.1867
▁interfere	-11.1869
▁respond	-11.1871
▁challenge	-11.1882
▁physical	-11.189
▁consult	-11.1892
▁adapt	-11.1894
▁Hotel	-11.1895
▁awkward	-11.1895
▁scissors	-11.1895
▁Bible	-11.1895
▁innocence	-11.1895
▁disappointment	-11.1895
▁freedom	-11.1895
▁March	-11.1896
▁classical	-11.1897
▁practicing	-11.1898
▁ordinary	-11.1898
▁sank	-11.1899
▁yelling	-11.1901
▁scarf	-11.1904
▁fastest	-11.1905
▁collecting	-11.1907
▁deceived	-11.1908
▁clothing	-11.1917
▁soap	-11.192
▁Hello	-11.1923
▁mud	-11.1927
▁Play	-11.1945
▁pretending	-11.1946
▁inform	-11.1963
▁motion	-11.1964
1,000	-11.1966
▁la	-11.1982
▁proof	-11.1983
▁operate	-11.2004
▁wipe	-11.201
coming	-11.2017
▁west	-11.2025
▁tour	-11.2028
▁charged	-11.2043
ance	-11.2049
ped	-11.2054
▁dis	-11.2065
rolled	-11.2073
▁demands	-11.2084
▁period	-11.2096
▁Tuesday	-11.2099
▁tip	-11.21
▁competition	-11.2105
▁objection	-11.2114
▁textbook	-11.2116
▁suits	-11.2118
▁comment	-11.212
▁cookie	-11.2121
▁block	-11.2121
▁citizen	-11.2124
▁farmer	-11.2126
▁wealth	-11.2147
▁commit	-11.2148
▁maid	-11.2152
▁referr	-11.2179
▁faces	-11.219
▁fortunate	-11.219
▁lion	-11.2235
▁predict	-11.2237
▁potato	-11.2237
▁selfish	-11.224
▁target	-11.224
▁Nagoya	-11.224
▁crisis	-11.224
▁punctual	-11.224
▁journey	-11.224
▁charity	-11.224
▁principal	-11.224
▁surgery	-11.224
▁industry	-11.224
▁stabbed	-11.224
▁cabinet	-11.2241
▁skating	-11.2241
▁troops	-11.2241
▁response	-11.2243
▁Hang	-11.2243
▁prohibited	-11.2243
▁violent	-11.2244
▁gray	-11.2245
▁growth	-11.2247
▁crew	-11.2248
▁Ho	-11.225
▁achieved	-11.2254
▁limited	-11.2258
aking	-11.2263
▁resigned	-11.2265
▁postponed	-11.2265
▁consequences	-11.2274
▁grows	-11.2275
▁Fr	-11.2282
▁longest	-11.2283
▁insects	-11.2286
▁pills	-11.2287
▁shortly	-11.2288
▁forgetting	-11.2291
▁beating	-11.2324
,000	-11.2341
▁pitch	-11.2345
▁colors	-11.2364
▁load	-11.2365
▁armed	-11.2374
▁abuse	-11.2377
law	-11.2388
▁handy	-11.2395
▁helps	-11.2405
▁defend	-11.2425
▁debate	-11.2441
▁rifle	-11.2451
▁grave	-11.2461
▁pillow	-11.2462
▁investigation	-11.2462
▁receipt	-11.2465
▁automobile	-11.2467
▁assignment	-11.2468
▁brand	-11.247
▁translation	-11.247
▁Year	-11.2472
▁affair	-11.2473
▁underestimate	-11.2478
▁guest	-11.2493
Whatever	-11.2506
▁protest	-11.2506
▁topic	-11.251
▁Man	-11.2545
nd	-11.2547
▁soul	-11.2548
hile	-11.255
▁falls	-11.255
▁develop	-11.2583
▁crawl	-11.2587
▁suggestions	-11.2588
▁comfort	-11.2591
▁regular	-11.2593
▁magic	-11.2595
▁January	-11.2597
▁precious	-11.2597
▁February	-11.2597
▁military	-11.2597
▁literature	-11.2597
▁bottles	-11.2597
▁powerful	-11.2597
▁deadline	-11.2598
▁universe	-11.2598
▁collection	-11.2598
▁sixty	-11.2599
▁lightning	-11.2599
▁Great	-11.26
▁celebrating	-11.26
▁Frankly	-11.26
▁dumped	-11.2604
▁shoulders	-11.2604
▁cheated	-11.2605
▁violence	-11.2607
▁fellow	-11.2608
▁Compare	-11.2608
▁louder	-11.2608
▁hunger	-11.2611
▁awoke	-11.2611
▁delivered	-11.2613
▁searching	-11.2615
▁fork	-11.2615
owed	-11.2615
▁ancient	-11.2622
▁recommended	-11.2633
▁Walk	-11.2636
▁strongly	-11.2638
▁frozen	-11.2638
▁admired	-11.2639
▁avoiding	-11.2642
cause	-11.2643
▁Stand	-11.2649
▁height	-11.265
▁required	-11.2652
▁driven	-11.2662
ssed	-11.268
▁passing	-11.27
▁safer	-11.2715
▁skills	-11.2727
▁experienced	-11.2729
▁reported	-11.2743
▁finishing	-11.2757
ie	-11.2771
▁handled	-11.2785
▁hurting	-11.2798
▁showing	-11.2802
▁tattoo	-11.2815
▁Add	-11.2818
ithout	-11.2823
▁individual	-11.2832
▁Right	-11.2836
▁invention	-11.2838
▁disaster	-11.2839
▁rabbit	-11.2842
g	-11.2843
ity	-11.2847
▁candle	-11.2848
▁nerve	-11.2851
▁actions	-11.2855
▁Hand	-11.2872
▁weekends	-11.2874
way	-11.2898
▁float	-11.291
▁Ten	-11.2913
▁sales	-11.2919
▁thoughts	-11.2922
▁San	-11.2926
▁gifts	-11.2929
▁training	-11.2934
▁postpone	-11.2946
▁fake	-11.2959
▁desert	-11.296
▁hammer	-11.2962
▁constant	-11.2963
▁planet	-11.2966
▁Check	-11.2967
▁naive	-11.2967
▁pistol	-11.2967
▁awesome	-11.2967
▁Remember	-11.2967
▁lottery	-11.2967
▁overseas	-11.2967
▁California	-11.2967
▁misunderstood	-11.2967
▁modest	-11.2968
▁handwriting	-11.2968
▁sides	-11.2969
▁hiking	-11.2974
▁waved	-11.2976
▁knocking	-11.2977
▁highest	-11.2979
▁rising	-11.2981
▁Hol	-11.2982
▁proposed	-11.2983
special	-11.2985
▁affected	-11.2988
▁deaf	-11.2989
▁praised	-11.299
▁mall	-11.2991
▁Internet	-11.2995
▁lawn	-11.2999
▁Fill	-11.3002
▁rescued	-11.3008
▁requested	-11.3011
▁produce	-11.3014
▁chairs	-11.3025
five	-11.303
▁fate	-11.3032
rely	-11.3036
▁toast	-11.3039
▁deserved	-11.3044
▁magazines	-11.3048
▁accomplish	-11.3061
go	-11.3066
age	-11.3072
▁claims	-11.3085
▁tourists	-11.3085
rs	-11.3086
▁greatly	-11.3095
▁But	-11.31
▁snowed	-11.3108
▁formed	-11.311
▁tape	-11.3125
▁phoned	-11.3166
▁hike	-11.3167
▁directions	-11.3178
ge	-11.3186
▁savings	-11.3201
rode	-11.3205
▁exception	-11.3205
ch	-11.3216
day	-11.3223
▁railroad	-11.3225
▁partner	-11.3226
▁material	-11.3226
▁conclusion	-11.3227
▁snake	-11.3229
▁customer	-11.3232
▁forces	-11.3233
▁files	-11.3234
▁crop	-11.3234
▁Pu	-11.3249
▁listens	-11.3272
▁ba	-11.3296
▁aim	-11.3298
▁fare	-11.3304
▁Los	-11.3307
▁metal	-11.3309
▁tag	-11.3316
▁squeeze	-11.3317
▁remove	-11.3328
▁balance	-11.3335
▁impress	-11.3337
▁Hi	-11.3341
▁unfair	-11.3347
▁leak	-11.3349
▁Nara	-11.3351
▁Linda	-11.3351
▁forehead	-11.3352
▁description	-11.3352
▁Dinner	-11.3352
▁majority	-11.3352
▁steady	-11.3353
▁frequently	-11.3354
▁extent	-11.3354
▁slamm	-11.3355
▁beg	-11.3355
▁miserable	-11.3355
▁chopsticks	-11.3355
▁prime	-11.3355
▁sushi	-11.3356
▁puppy	-11.3361
▁fifth	-11.3361
▁significant	-11.3361
▁yelled	-11.3361
▁cooperate	-11.3361
▁temporary	-11.3362
▁approaching	-11.3364
▁blowing	-11.3365
▁dare	-11.3365
▁approached	-11.3368
▁declined	-11.3368
▁created	-11.3372
▁reluctant	-11.3372
▁Maria	-11.3373
▁outdoors	-11.3373
▁volunteered	-11.3375
▁correctly	-11.3377
▁Beth	-11.3384
▁blossoms	-11.3389
▁lips	-11.3392
▁arrives	-11.3393
▁hopeless	-11.341
▁advanced	-11.3411
▁loaded	-11.3415
▁pronounce	-11.3416
▁argued	-11.3422
▁weigh	-11.3428
▁affect	-11.3434
▁buses	-11.3435
▁hook	-11.3447
▁checking	-11.3461
▁scar	-11.3464
either	-11.348
SA	-11.3491
▁tru	-11.3492
▁tower	-11.3498
sh	-11.3501
▁curtains	-11.3502
ripped	-11.3507
▁bake	-11.3529
▁scientists	-11.354
▁prom	-11.3576
▁deals	-11.3578
▁negotiate	-11.3587
▁regards	-11.3603
nything	-11.3604
el	-11.3612
▁Ca	-11.3616
▁expression	-11.362
▁statue	-11.3622
▁uniform	-11.3627
▁source	-11.3634
▁patients	-11.3634
▁musical	-11.3635
▁border	-11.3645
▁bribe	-11.3652
▁signal	-11.3654
▁numbers	-11.3678
▁sip	-11.3694
▁wage	-11.3706
▁separate	-11.3728
▁coast	-11.3736
▁cheerful	-11.3747
▁branch	-11.3749
dependent	-11.3751
ated	-11.3751
▁Birds	-11.3751
▁junior	-11.3752
▁August	-11.3752
▁dizzy	-11.3752
▁stadium	-11.3752
▁pajamas	-11.3752
▁semester	-11.3752
▁surface	-11.3752
▁Apparently	-11.3752
▁helicopter	-11.3752
▁pollution	-11.3752
▁Esperanto	-11.3752
▁doubtful	-11.3752
▁haunted	-11.3752
▁governor	-11.3753
▁fussy	-11.3754
▁scenery	-11.3754
▁technology	-11.3754
▁declared	-11.3755
▁section	-11.3755
▁laughter	-11.3756
▁despise	-11.3757
▁promoted	-11.3757
▁distracted	-11.3758
▁rooms	-11.376
▁Johnson	-11.3761
▁carries	-11.3761
▁princess	-11.3761
▁someplace	-11.3764
▁offended	-11.3764
▁defeated	-11.3765
▁stream	-11.377
▁conditioner	-11.377
▁bunch	-11.377
▁millionaire	-11.3772
▁conscious	-11.3778
▁Soon	-11.3783
▁fee	-11.3784
▁dresses	-11.3795
▁shift	-11.3804
▁faults	-11.3811
▁Korean	-11.3816
▁guns	-11.3816
▁attending	-11.3826
▁autumn	-11.3826
▁bones	-11.3828
▁menu	-11.3834
▁Cat	-11.3839
▁blown	-11.3842
▁holds	-11.3843
ger	-11.3846
housand	-11.3854
▁basic	-11.3869
▁remarks	-11.387
▁opera	-11.392
▁presents	-11.3979
▁reserve	-11.3983
▁paintings	-11.3989
▁v	-11.399
▁telephoned	-11.4003
▁ca	-11.4013
▁remark	-11.4018
▁speakers	-11.4018
▁debts	-11.4022
▁elbow	-11.4039
▁prince	-11.4042
▁blank	-11.4053
▁pause	-11.4054
▁threat	-11.4068
▁accompanie	-11.4068
▁acts	-11.4073
bout	-11.4078
▁ours	-11.4085
▁Russia	-11.4095
▁complaint	-11.4115
ardly	-11.4116
▁shown	-11.4118
▁stores	-11.4128
▁voices	-11.413
▁incredibl	-11.4137
▁bloom	-11.4139
▁knock	-11.4141
▁disturb	-11.4143
▁proceed	-11.4158
wimming	-11.4162
▁occur	-11.4166
▁vague	-11.4167
▁porch	-11.4167
▁stiff	-11.4167
▁Latin	-11.4167
▁exams	-11.4168
▁solid	-11.4168
▁victory	-11.4168
▁Spring	-11.4168
▁Yokohama	-11.4168
▁forecast	-11.4168
▁gorgeous	-11.4168
▁religious	-11.4168
▁potential	-11.4168
▁district	-11.4168
▁volleyball	-11.4168
▁impolite	-11.4168
▁trash	-11.4168
▁punishment	-11.4168
▁gradually	-11.4168
▁grandparents	-11.4168
▁cellphone	-11.4168
▁rotten	-11.4169
▁Recently	-11.4169
▁slip	-11.4169
▁accompany	-11.4169
▁labor	-11.4171
▁ambulance	-11.4172
▁fluent	-11.4173
▁reluctantly	-11.4173
▁constantly	-11.4174
▁bitten	-11.4174
▁spilled	-11.4174
▁incorrect	-11.4175
▁hometown	-11.4175
▁horror	-11.4178
▁Tanaka	-11.4178
▁dug	-11.4178
▁seventeen	-11.4178
▁creative	-11.4178
▁bark	-11.4179
▁matches	-11.418
▁grapes	-11.4182
▁accurate	-11.4183
▁developed	-11.4185
▁blocked	-11.4186
▁exit	-11.4187
▁chief	-11.4187
▁coal	-11.4191
▁separated	-11.4196
▁online	-11.4197
▁design	-11.42
▁e	-11.4201
▁homeless	-11.4202
▁puzzled	-11.4203
▁somehow	-11.4205
▁necessar	-11.4208
▁breathing	-11.422
▁cups	-11.4233
▁wrapped	-11.4236
▁slice	-11.4248
▁aboard	-11.4249
▁east	-11.4252
Will	-11.4259
10,000	-11.426
▁earned	-11.4268
▁colder	-11.4269
by	-11.4274
▁12	-11.428
gave	-11.4283
▁seconds	-11.4293
▁inch	-11.4297
▁chat	-11.4319
ile	-11.4324
ked	-11.433
▁cared	-11.434
room	-11.4343
▁utter	-11.4348
▁tricks	-11.4354
▁proper	-11.4385
▁shine	-11.4392
▁breaks	-11.4425
▁director	-11.4452
▁conservative	-11.4459
▁resort	-11.4469
▁fuel	-11.4471
▁region	-11.4473
▁alternative	-11.4474
▁connection	-11.4474
▁elephant	-11.4477
▁option	-11.448
▁Sam	-11.4483
▁cousins	-11.4493
▁foreigner	-11.45
▁freak	-11.4511
ren	-11.4513
▁pace	-11.4534
▁cakes	-11.4551
0,000	-11.4555
▁cop	-11.4558
▁flour	-11.4559
▁faith	-11.4569
▁lid	-11.4569
▁owed	-11.458
▁comic	-11.4581
▁pray	-11.4581
▁observe	-11.4581
▁cough	-11.4585
▁praise	-11.4587
▁destroy	-11.4588
▁register	-11.4589
▁honeymoon	-11.4589
▁reconsider	-11.4593
▁K	-11.4595
▁smokes	-11.4596
▁smooth	-11.4596
▁frank	-11.4597
▁minimum	-11.4601
▁privacy	-11.4601
▁recipe	-11.4601
▁stunned	-11.4601
▁Robert	-11.4601
▁laptop	-11.4601
▁shelter	-11.4601
▁estate	-11.4602
▁wisdom	-11.4602
▁parade	-11.4602
▁reality	-11.4603
▁Dick	-11.4603
ealand	-11.4603
▁attorney	-11.4603
▁festival	-11.4603
▁Francisco	-11.4603
▁Roosevelt	-11.4603
▁atmosphere	-11.4603
▁Students	-11.4603
▁Switzerland	-11.4603
▁cooperation	-11.4603
▁organization	-11.4603
▁companies	-11.4603
▁impressive	-11.4603
alentine	-11.4606
▁cloudy	-11.4608
▁acquired	-11.4608
▁boiling	-11.461
▁waist	-11.461
▁discouraged	-11.461
▁spoiled	-11.4611
▁eyesight	-11.4611
▁accidentally	-11.4616
▁fainted	-11.4617
▁contributed	-11.4617
▁accomplished	-11.4621
▁tricked	-11.4624
▁packing	-11.4624
▁objected	-11.4628
▁beaten	-11.4631
▁according	-11.4631
▁upside	-11.4648
▁cage	-11.4649
▁landed	-11.465
▁sword	-11.4655
▁messages	-11.4668
▁port	-11.4668
ipped	-11.4669
▁avoided	-11.4673
▁fixing	-11.4683
▁claim	-11.4691
▁Work	-11.4704
▁welcomed	-11.4705
▁victims	-11.471
▁hint	-11.472
▁cops	-11.472
▁fails	-11.4729
▁scheduled	-11.4737
do	-11.4748
▁walls	-11.4751
▁citizens	-11.4762
▁Old	-11.477
▁confess	-11.4803
▁Fred	-11.4811
▁pens	-11.4817
▁apt	-11.4819
made	-11.4847
▁cope	-11.4881
▁cast	-11.4884
▁skip	-11.4903
well	-11.4904
▁insult	-11.4905
▁ink	-11.4906
▁murderer	-11.4924
▁generation	-11.4926
▁monkey	-11.4929
▁tourist	-11.4939
our	-11.4948
▁export	-11.4956
▁leaders	-11.4971
▁faint	-11.4972
▁tires	-11.4983
▁Korea	-11.4983
▁defeat	-11.5042
▁anticipate	-11.5042
▁tear	-11.5043
▁betray	-11.5044
▁harvest	-11.505
▁brilliant	-11.505
▁Congress	-11.5056
▁Thursday	-11.5056
▁Wednesday	-11.5056
▁custody	-11.5056
▁irrelevant	-11.5056
▁magnificent	-11.5056
▁scandal	-11.5056
▁Pacific	-11.5056
▁Arabic	-11.5056
▁permanent	-11.5056
▁kidnapped	-11.5056
▁ankle	-11.5056
▁James	-11.5056
▁jewelry	-11.5056
▁priest	-11.5056
▁memories	-11.5056
▁increasing	-11.5056
▁terrified	-11.5056
▁thankful	-11.5056
▁greedy	-11.5056
▁doorbell	-11.5056
▁transferred	-11.5056
▁blackboard	-11.5056
▁Finally	-11.5056
▁starving	-11.5056
▁production	-11.5056
▁uneasy	-11.5056
▁queen	-11.5057
▁sidewalk	-11.5057
▁backyard	-11.5057
▁thrilled	-11.5058
▁enable	-11.5059
▁relief	-11.5059
▁valid	-11.5059
▁attached	-11.506
▁gentle	-11.506
▁pathetic	-11.506
▁tiny	-11.5061
▁dedicated	-11.5063
▁tightly	-11.5069
▁steam	-11.507
▁indoors	-11.5072
▁struggled	-11.5074
▁tidy	-11.5075
▁mobile	-11.5075
▁congratulated	-11.5077
▁trapped	-11.508
▁shooting	-11.5085
▁lowered	-11.5087
▁jewels	-11.509
▁emotional	-11.5093
!"	-11.5099
▁follows	-11.5103
▁sights	-11.5104
▁eighty	-11.5107
▁associate	-11.5117
▁fooled	-11.5125
▁aspirin	-11.513
▁streets	-11.5131
ko	-11.5133
▁arrangements	-11.5135
▁steps	-11.5154
▁mist	-11.5165
▁tasted	-11.5168
▁receiv	-11.5184
of	-11.5206
▁investigate	-11.5213
▁comments	-11.5218
▁flights	-11.5219
▁nails	-11.5241
▁dates	-11.5265
▁pig	-11.5268
▁Cut	-11.5271
▁Drink	-11.5281
Why	-11.5282
▁imports	-11.5299
▁quote	-11.53
▁events	-11.5315
picking	-11.5342
▁Mar	-11.5342
▁cheer	-11.5345
▁peel	-11.5366
Are	-11.537
▁shade	-11.5389
▁shortage	-11.539
▁Red	-11.5396
▁overcoat	-11.5397
▁cloud	-11.54
▁superior	-11.5401
▁vegetarian	-11.5402
▁ambition	-11.5405
▁sentences	-11.543
▁bow	-11.5445
▁cow	-11.5463
▁mix	-11.5465
▁event	-11.5485
ble	-11.5487
▁focus	-11.5504
▁replace	-11.5509
▁memorize	-11.5513
▁log	-11.5514
▁barn	-11.5515
▁surrender	-11.5518
▁punish	-11.5518
▁recall	-11.5519
▁stress	-11.5524
▁thorough	-11.5527
nstead	-11.5529
▁efficient	-11.5529
▁attribute	-11.553
▁civil	-11.5532
▁Halloween	-11.5532
▁September	-11.5532
▁bathtub	-11.5532
▁calendar	-11.5532
▁fascinating	-11.5532
▁genuine	-11.5532
▁iPad	-11.5532
▁tunnel	-11.5532
▁activity	-11.5532
▁temptation	-11.5532
▁destination	-11.5532
▁Luckily	-11.5532
▁curiosity	-11.5532
▁software	-11.5532
▁Angeles	-11.5532
▁Brian	-11.5532
▁heavier	-11.5532
▁management	-11.5533
▁represent	-11.5533
▁campus	-11.5534
▁alert	-11.5535
▁stopping	-11.5535
▁policemen	-11.5538
▁trial	-11.5541
▁Four	-11.5542
▁coughing	-11.5542
▁Lake	-11.5542
▁ninety	-11.5545
▁worries	-11.5546
▁stretched	-11.5547
▁irritated	-11.5548
▁jury	-11.5549
▁ma	-11.5549
▁deer	-11.555
3,000	-11.5552
▁collected	-11.5555
▁solving	-11.5562
▁consent	-11.557
▁behaving	-11.5572
▁reserved	-11.5575
▁Clean	-11.5584
▁Joe	-11.5592
▁beans	-11.5595
▁funds	-11.56
▁sore	-11.56
▁shout	-11.5603
▁behaved	-11.5616
▁justice	-11.5619
▁somewhat	-11.5622
▁sir	-11.5623
▁excused	-11.5626
▁ti	-11.5628
▁relatives	-11.5637
▁rights	-11.5648
▁lawyers	-11.566
▁addressed	-11.5662
▁loses	-11.5663
don	-11.5667
▁bat	-11.5669
▁uniforms	-11.5683
▁wheat	-11.5695
▁knees	-11.571
omic	-11.5711
▁ditch	-11.5721
▁stretch	-11.5739
▁ID	-11.5739
▁Co	-11.5744
▁bush	-11.5747
2,000	-11.5752
ring	-11.5753
am	-11.5757
▁Saturdays	-11.5763
▁shirts	-11.5775
▁Fi	-11.5779
▁tap	-11.5788
▁moral	-11.5825
nna	-11.5835
▁Mondays	-11.5841
arents	-11.5862
▁dated	-11.5865
▁dri	-11.587
▁Whe	-11.588
▁permit	-11.5888
▁image	-11.5893
▁compliment	-11.5894
▁volume	-11.5894
▁kitten	-11.5895
▁athlete	-11.5902
▁Wood	-11.5902
▁Greek	-11.5903
ack	-11.5903
▁postcard	-11.5905
▁temple	-11.5906
▁victim	-11.5908
▁runner	-11.5908
▁expense	-11.5916
cal	-11.5919
led	-11.592
▁spoon	-11.592
▁mark	-11.5925
▁fields	-11.5932
▁skate	-11.5948
▁thrown	-11.5949
▁relative	-11.5952
▁root	-11.5975
▁excuses	-11.5978
▁Pick	-11.5978
▁complains	-11.5979
▁rumors	-11.5981
▁pop	-11.5987
▁pro	-11.5994
▁meetings	-11.6
▁arrange	-11.6009
▁accuse	-11.6011
▁create	-11.6018
D	-11.6018
ither	-11.6021
▁sauce	-11.6023
▁abandon	-11.6024
▁Jiro	-11.6032
▁cafeteria	-11.6032
▁neglect	-11.6032
▁remote	-11.6032
▁sympathy	-11.6032
▁voyage	-11.6032
▁sensible	-11.6032
▁zero	-11.6032
▁cliff	-11.6032
▁criticism	-11.6032
▁fountain	-11.6032
▁Greece	-11.6032
▁Follow	-11.6032
▁platform	-11.6032
▁blouse	-11.6032
▁creepy	-11.6032
▁unlucky	-11.6032
▁mailbox	-11.6032
▁poverty	-11.6033
▁ignorance	-11.6033
▁gambling	-11.6033
▁rudeness	-11.6033
▁Food	-11.6033
▁amusing	-11.6034
▁shaking	-11.6034
▁protection	-11.6035
▁astonished	-11.6035
▁prettier	-11.6035
▁dismissed	-11.6035
▁occupied	-11.6036
▁secretive	-11.6037
▁typewriter	-11.6038
▁Jimmy	-11.6038
▁notified	-11.6038
▁cabin	-11.6044
▁spicy	-11.6044
▁ladies	-11.6045
▁web	-11.6048
▁suburbs	-11.6049
▁acknowledged	-11.605
▁politely	-11.6051
▁criticized	-11.6051
▁locker	-11.6054
▁overnight	-11.6057
▁compete	-11.6059
▁kilograms	-11.6062
▁jumping	-11.6067
▁sever	-11.6081
▁landing	-11.6083
▁critical	-11.6087
▁fried	-11.6089
▁overtime	-11.6112
▁pays	-11.6123
▁Had	-11.6124
▁measures	-11.6135
ears	-11.614
May	-11.615
▁sheets	-11.615
▁Pay	-11.6154
▁pets	-11.616
▁ripe	-11.6161
designed	-11.6173
▁wins	-11.6183
uit	-11.6184
ral	-11.6197
▁materials	-11.6198
ery	-11.6199
▁babysit	-11.6202
▁daughters	-11.6208
▁se	-11.6209
▁flipp	-11.621
▁Air	-11.6211
▁blocks	-11.6214
Is	-11.6219
▁weighs	-11.622
▁catching	-11.6233
ite	-11.6253
▁J	-11.6256
▁odds	-11.6273
▁vari	-11.6286
▁planes	-11.6287
▁economics	-11.6292
▁sits	-11.6294
▁groups	-11.6295
▁volunteers	-11.6299
▁cease	-11.6301
▁adore	-11.6301
▁riches	-11.6312
▁Ei	-11.6321
▁needle	-11.6357
▁sour	-11.6358
▁guarantee	-11.638
▁tests	-11.6397
▁van	-11.6415
▁oblig	-11.6418
▁Sha	-11.642
▁robber	-11.6422
▁roommate	-11.6427
▁jar	-11.6428
▁teenager	-11.6433
▁client	-11.6434
▁profit	-11.6448
▁holes	-11.645
▁forgiven	-11.6455
▁lean	-11.646
▁laws	-11.6467
▁lung	-11.6488
▁Y	-11.6496
▁Li	-11.6505
▁agrees	-11.6523
▁annoy	-11.6535
▁release	-11.6536
▁pound	-11.6539
▁screen	-11.654
00.	-11.6541
▁employ	-11.6541
▁advertise	-11.6546
▁absolute	-11.6554
▁sixteen	-11.6556
hat	-11.6557
▁Michael	-11.6558
▁Narita	-11.6558
▁Promise	-11.6558
▁campaign	-11.6558
▁parcel	-11.6558
▁physics	-11.6558
▁turkey	-11.6558
▁Facebook	-11.6558
▁Business	-11.6558
▁chemistry	-11.6558
▁Talk	-11.6559
▁digging	-11.6559
▁Milk	-11.6559
▁adjust	-11.6559
▁resignation	-11.6559
▁terrific	-11.6559
▁babysitter	-11.6559
▁whispered	-11.656
▁Shakespeare	-11.656
▁blog	-11.656
▁curry	-11.656
▁cattle	-11.6561
▁honey	-11.6563
▁aggressive	-11.6563
▁sewing	-11.6564
▁nasty	-11.6564
▁diligent	-11.6566
▁Sato	-11.6566
▁lab	-11.6566
▁circus	-11.6567
▁East	-11.6567
▁Helen	-11.6568
▁bald	-11.6569
▁acceptable	-11.657
▁collapsed	-11.6571
ive	-11.6574
▁overheard	-11.6576
▁Obviously	-11.6576
til	-11.6578
▁shallow	-11.6578
▁predicted	-11.658
▁mechanic	-11.658
▁youngest	-11.6581
▁interrupted	-11.6585
▁repeated	-11.6587
▁anticipated	-11.6592
▁loser	-11.6594
▁relations	-11.6596
ling	-11.6596
▁negotiations	-11.6603
▁Black	-11.6604
▁Buy	-11.6606
▁agent	-11.6609
▁Health	-11.6614
▁windy	-11.6615
▁bone	-11.6619
▁killer	-11.6624
▁votes	-11.6627
▁items	-11.6629
▁sheet	-11.6632
▁habits	-11.6654
▁boiled	-11.6655
▁bug	-11.6663
▁swor	-11.6664
▁bothered	-11.6689
▁pencils	-11.6697
▁sticks	-11.6704
ify	-11.6705
ck	-11.6708
▁torn	-11.671
over	-11.672
▁neat	-11.6723
▁300	-11.6735
▁shaken	-11.6736
his	-11.6744
have	-11.6758
x	-11.6769
▁wink	-11.6771
▁guessed	-11.6781
come	-11.6783
nyone	-11.6788
▁respects	-11.6795
ice	-11.6805
▁heading	-11.6812
▁bars	-11.682
arious	-11.6831
handed	-11.685
▁con	-11.6852
▁troubled	-11.6919
ong	-11.6958
▁horizon	-11.6966
▁affection	-11.6967
▁boil	-11.697
▁barber	-11.6973
▁dispute	-11.6975
▁version	-11.6981
▁acquaintance	-11.6984
▁banana	-11.6989
▁snack	-11.6992
▁hunter	-11.6997
▁thumb	-11.6998
chased	-11.701
hand	-11.7011
▁string	-11.7014
▁mask	-11.7017
▁painter	-11.7027
▁defense	-11.7035
▁Asia	-11.7041
▁Carol	-11.7061
▁unfortunate	-11.7062
▁manual	-11.7068
▁chain	-11.7069
▁formal	-11.7072
ine	-11.7073
▁counts	-11.7077
▁congratulate	-11.709
▁owned	-11.7091
▁click	-11.7093
▁measure	-11.7096
▁rocks	-11.7097
▁ver	-11.71
▁wreck	-11.71
▁drama	-11.7102
▁cheat	-11.7102
▁visits	-11.7104
▁immediate	-11.7109
▁distinguish	-11.7112
▁Catholic	-11.7114
▁delicate	-11.7114
▁faucet	-11.7114
▁Jefferson	-11.7114
▁Scotland	-11.7114
▁announcement	-11.7114
▁trigger	-11.7114
▁Yoko	-11.7114
▁monster	-11.7114
▁cotton	-11.7114
▁grammar	-11.7114
▁swept	-11.7114
▁elderly	-11.7114
▁Airport	-11.7114
▁envy	-11.7114
▁freezing	-11.7114
▁oxygen	-11.7114
▁harmful	-11.7115
▁straw	-11.7115
▁Jessie	-11.7115
▁City	-11.7115
▁thoughtful	-11.7115
▁Consider	-11.7115
▁handbag	-11.7116
▁novelist	-11.7116
▁pork	-11.7116
▁allowance	-11.7116
▁slapped	-11.7116
▁slavery	-11.7116
▁ambitious	-11.7116
▁stew	-11.7116
▁humiliated	-11.7116
▁sweep	-11.7116
▁motor	-11.7116
▁rested	-11.7119
▁flirting	-11.7119
▁closing	-11.7119
▁timid	-11.712
▁discovery	-11.712
▁checks	-11.712
▁Mark	-11.7121
▁homesick	-11.7122
▁robbery	-11.7122
▁sailing	-11.7122
▁businessman	-11.7123
▁Thai	-11.7124
▁melted	-11.7126
▁Kim	-11.7127
▁attic	-11.7127
▁flies	-11.7133
▁believing	-11.7133
▁behalf	-11.7133
▁deserted	-11.7134
▁Doctors	-11.7134
▁insulted	-11.7135
▁questioned	-11.7139
▁adopt	-11.714
▁Bad	-11.7143
▁replaced	-11.7146
▁Gold	-11.7146
▁fist	-11.7154
▁former	-11.7158
▁Run	-11.717
▁farther	-11.7177
▁belonged	-11.7177
llness	-11.7182
▁yell	-11.7194
▁inherit	-11.7195
▁roll	-11.7197
▁differently	-11.72
▁trace	-11.7202
▁contacted	-11.7205
▁Indians	-11.7213
▁makeup	-11.7219
▁secure	-11.7233
▁shove	-11.7233
▁respected	-11.7239
▁bananas	-11.7241
▁anytime	-11.7241
▁fries	-11.7242
▁restaurants	-11.7243
▁Par	-11.7248
▁imitate	-11.7261
▁traditional	-11.7262
▁hundreds	-11.7268
▁Ford	-11.7289
▁heated	-11.7299
▁helpless	-11.7338
▁kindly	-11.7348
▁Start	-11.7359
z	-11.7367
▁code	-11.737
▁plead	-11.7391
▁states	-11.74
hings	-11.7411
▁burns	-11.7435
▁Sa	-11.7442
light	-11.7451
▁plates	-11.7461
▁theft	-11.7464
turn	-11.7473
▁wrap	-11.7485
house	-11.7501
▁decline	-11.7512
▁sneak	-11.7514
leaning	-11.752
oth	-11.7528
▁intersection	-11.7553
▁conflict	-11.7555
▁Stri	-11.7562
▁orphan	-11.7566
▁medication	-11.7569
▁adventure	-11.7571
▁journalist	-11.7571
▁element	-11.7576
▁blonde	-11.758
men	-11.7596
▁organ	-11.76
▁remembering	-11.7602
▁benefit	-11.7609
cial	-11.7616
▁sh	-11.7627
▁mo	-11.763
The	-11.763
▁sew	-11.7655
Did	-11.7658
▁services	-11.7659
▁propose	-11.7679
ier	-11.7681
▁process	-11.7683
▁wi	-11.7689
▁reception	-11.7702
▁Egypt	-11.7702
▁FBI	-11.7702
▁Hilton	-11.7702
▁Kyushu	-11.7702
▁Ocean	-11.7702
▁absurd	-11.7702
▁activities	-11.7702
▁cottage	-11.7702
▁opportunities	-11.7702
▁strategy	-11.7702
▁trousers	-11.7702
▁bracelet	-11.7702
▁gossip	-11.7702
▁Thomas	-11.7702
▁William	-11.7702
▁naughty	-11.7702
▁Mexican	-11.7702
▁variety	-11.7702
▁skeptical	-11.7702
▁Earth	-11.7702
▁excitement	-11.7702
▁Step	-11.7702
▁confusing	-11.7702
▁concentrating	-11.7702
▁spaghetti	-11.7702
▁gasoline	-11.7703
▁improving	-11.7703
▁gently	-11.7703
▁extraordinary	-11.7703
▁permitting	-11.7703
▁fascinated	-11.7703
▁chairperson	-11.7703
▁objective	-11.7703
▁dirt	-11.7703
▁worthwhile	-11.7703
▁babies	-11.7703
▁belongings	-11.7704
▁causing	-11.7704
▁bluffing	-11.7704
▁fireplace	-11.7705
▁deciding	-11.7705
▁suspicion	-11.7705
▁smashed	-11.7705
▁survey	-11.7706
▁villagers	-11.7706
▁flute	-11.7706
▁advertising	-11.7706
▁medal	-11.7706
▁precise	-11.7707
▁title	-11.7707
▁thoroughly	-11.7708
▁hardworking	-11.7709
▁interpreter	-11.7709
aving	-11.7709
▁Allies	-11.7712
▁adjusted	-11.7718
▁earrings	-11.7722
▁normally	-11.7724
▁union	-11.7725
▁Boys	-11.7726
▁confirmed	-11.7727
no	-11.7728
▁dyed	-11.773
▁spelling	-11.773
▁heels	-11.7731
▁sober	-11.7733
▁housework	-11.7734
▁quitting	-11.7735
▁King	-11.7739
▁wings	-11.7744
▁instincts	-11.7745
▁alcoholic	-11.7748
▁jet	-11.7748
▁emotions	-11.775
▁nervously	-11.7755
▁employed	-11.7755
▁loving	-11.7756
▁waitress	-11.7758
▁Fish	-11.7758
▁swims	-11.776
▁risky	-11.7761
▁darker	-11.7762
▁charm	-11.7762
▁flames	-11.7765
▁spirits	-11.7767
▁folks	-11.777
▁pole	-11.7777
▁weeds	-11.7782
▁accommodate	-11.7796
▁brakes	-11.7801
▁seeds	-11.7807
▁reports	-11.7833
▁rational	-11.7837
▁stain	-11.7838
▁lo	-11.784
▁gear	-11.7842
▁clients	-11.7844
▁wages	-11.7846
▁returning	-11.7848
▁travels	-11.7852
▁pump	-11.7853
▁explaining	-11.7864
▁worthy	-11.7878
▁conclusions	-11.7898
▁textbooks	-11.7921
▁sleeve	-11.7922
▁wire	-11.7997
minute	-11.7999
▁goals	-11.8008
▁rewrit	-11.801
free	-11.801
▁pin	-11.8019
▁meter	-11.803
▁mug	-11.803
▁remembers	-11.8051
pped	-11.806
▁liter	-11.806
▁gains	-11.8063
▁criminals	-11.8065
▁smiles	-11.807
▁reservations	-11.8081
▁Light	-11.8091
▁programs	-11.8099
ial	-11.812
▁choke	-11.8126
ends	-11.8142
here	-11.8145
▁leads	-11.8158
▁swallow	-11.8158
▁laughs	-11.8164
▁cent	-11.8172
ches	-11.8174
ad	-11.8178
▁background	-11.818
▁Canadians	-11.818
▁female	-11.8188
side	-11.8188
▁helmet	-11.8196
▁13	-11.8196
▁hamburger	-11.8198
▁investment	-11.8199
▁spider	-11.8201
▁vegetable	-11.8201
▁articles	-11.8203
ard	-11.8205
▁tiger	-11.8206
▁watering	-11.8208
▁miracle	-11.8211
▁screw	-11.8211
get	-11.8214
▁European	-11.8235
▁visitor	-11.8265
▁horn	-11.8266
▁ignor	-11.8269
▁phrase	-11.827
inter	-11.828
▁issues	-11.8282
When	-11.8298
proved	-11.83
▁confuse	-11.8302
▁struggle	-11.8303
▁encourage	-11.8303
▁achieve	-11.8304
▁reward	-11.8314
▁maintain	-11.8314
▁silk	-11.8319
minded	-11.8319
▁negative	-11.8321
▁rapid	-11.8323
ike	-11.8326
▁Beijing	-11.8327
▁Fortunately	-11.8327
▁Professor	-11.8327
▁Shanghai	-11.8327
▁Shinjuku	-11.8327
▁chimney	-11.8327
▁enormous	-11.8327
▁frustrated	-11.8327
▁hilarious	-11.8327
▁marathon	-11.8327
▁scientific	-11.8327
▁suspended	-11.8327
▁telescope	-11.8327
▁abilities	-11.8327
▁angrily	-11.8327
▁capacity	-11.8327
▁happiest	-11.8327
▁inclined	-11.8327
▁injuries	-11.8327
▁duties	-11.8327
▁Cathy	-11.8327
▁Change	-11.8327
▁expelled	-11.8327
▁species	-11.8327
▁unpleasant	-11.8327
▁unique	-11.8327
▁Miller	-11.8327
▁Cross	-11.8327
▁retirement	-11.8327
▁forbidden	-11.8327
▁shuttle	-11.8327
▁Santa	-11.8328
▁uncertain	-11.8328
▁senior	-11.8328
▁River	-11.8328
▁communication	-11.8328
▁dishonest	-11.8328
▁intrigued	-11.8328
▁unnecessary	-11.8328
▁thieves	-11.8328
▁Harry	-11.8328
▁improvement	-11.8328
▁summit	-11.8328
▁skinny	-11.8328
▁inviting	-11.8328
▁overslept	-11.8329
▁regardless	-11.8329
▁penny	-11.8329
▁backpack	-11.8329
▁beggar	-11.8329
▁talkative	-11.8329
▁approval	-11.833
▁specific	-11.833
▁tomatoes	-11.833
▁apparently	-11.8331
▁applauded	-11.8331
▁childish	-11.8331
▁convenience	-11.8331
▁withdrew	-11.8332
▁sail	-11.8332
▁mercy	-11.8332
▁intense	-11.8332
▁darkness	-11.8332
▁Henry	-11.8333
▁snowman	-11.8333
▁convicted	-11.8334
▁regularly	-11.8335
▁connected	-11.8337
▁halfway	-11.8338
▁shouting	-11.8338
▁startled	-11.8339
▁immigrants	-11.834
▁facing	-11.8341
▁disturbing	-11.8344
▁mixed	-11.8345
▁baking	-11.8346
▁focused	-11.8346
▁cheered	-11.8346
▁Sally	-11.8346
▁refugees	-11.8349
▁sickness	-11.8349
▁thunder	-11.835
▁signs	-11.8351
▁interrupting	-11.8352
▁silently	-11.8354
▁prayed	-11.8354
▁jerk	-11.8355
▁shaved	-11.8356
▁raising	-11.8356
▁footprints	-11.8357
▁educated	-11.8358
▁bedtime	-11.8364
▁ambassador	-11.8365
▁speeches	-11.8367
▁stable	-11.8368
▁pushing	-11.8368
▁filling	-11.8375
▁involve	-11.8376
▁fled	-11.838
▁Lend	-11.8393
▁admission	-11.8393
▁dull	-11.8401
▁amounts	-11.8402
▁colleagues	-11.8405
▁Apple	-11.8411
▁base	-11.8419
▁tent	-11.8423
yo	-11.8424
▁grounded	-11.8424
▁damp	-11.8426
▁secretly	-11.843
▁machines	-11.8436
▁gang	-11.8438
▁peanuts	-11.8438
▁fax	-11.8442
▁Feel	-11.8452
▁practiced	-11.8472
▁stuffed	-11.8472
▁pairs	-11.8479
▁Wall	-11.8483
ized	-11.8487
▁wool	-11.849
▁offering	-11.8496
▁minds	-11.8512
nion	-11.8521
He	-11.8547
▁print	-11.8554
▁brains	-11.8557
▁farmers	-11.8562
▁spoil	-11.8567
ster	-11.8587
▁quarters	-11.859
▁effects	-11.8605
▁politicians	-11.861
▁cheeks	-11.8616
▁Mac	-11.8616
▁methods	-11.8619
nite	-11.8623
▁estimate	-11.8635
▁Count	-11.8638
appy	-11.8684
▁Sue	-11.8719
▁figur	-11.8732
▁experiences	-11.8749
▁towels	-11.8759
ld	-11.8762
▁jog	-11.8778
for	-11.8783
Let	-11.8785
▁deprive	-11.8797
▁range	-11.8813
▁nights	-11.8824
▁Word	-11.8825
▁bride	-11.8832
ook	-11.8852
▁instrument	-11.8859
▁balloon	-11.8859
▁diseases	-11.886
▁wrist	-11.8864
▁slave	-11.8868
▁classmate	-11.8869
▁employee	-11.8872
▁reform	-11.8876
▁clue	-11.8876
▁sorrow	-11.8879
▁belief	-11.8879
▁questioning	-11.888
▁passenger	-11.8883
▁medica	-11.8889
▁dial	-11.8894
▁ships	-11.892
ley	-11.8934
▁seize	-11.8935
▁Strange	-11.8937
▁blam	-11.8944
▁endure	-11.8954
▁roads	-11.8956
▁deceive	-11.8971
took	-11.8978
▁addict	-11.898
▁media	-11.8981
▁trusts	-11.8985
▁guilt	-11.8987
▁harsh	-11.8989
▁peaceful	-11.899
▁heater	-11.8992
▁tomato	-11.8992
▁gum	-11.8992
▁sec	-11.8993
▁Jeff	-11.8994
▁Berlin	-11.8994
▁Florida	-11.8994
▁Nowadays	-11.8994
▁Okinawa	-11.8994
▁glimpse	-11.8994
▁inevitable	-11.8994
▁jungle	-11.8994
▁telegram	-11.8994
▁Charles	-11.8994
▁graduation	-11.8994
▁revolution	-11.8994
▁recession	-11.8994
▁Yamada	-11.8994
▁surgeon	-11.8994
▁valley	-11.8994
▁scholarship	-11.8994
▁spinach	-11.8994
▁cooperative	-11.8994
▁domestic	-11.8994
▁whiskey	-11.8994
▁Hanako	-11.8994
▁trumpet	-11.8994
▁groceries	-11.8994
▁toothache	-11.8994
▁muddy	-11.8994
▁exhibition	-11.8994
▁unemployed	-11.8994
▁gesture	-11.8994
▁thermometer	-11.8994
▁biology	-11.8994
▁gentlemen	-11.8994
▁Except	-11.8994
▁factories	-11.8994
▁Middle	-11.8994
▁Summer	-11.8995
▁snoring	-11.8995
▁shining	-11.8995
▁primary	-11.8995
▁offensive	-11.8995
▁knitting	-11.8995
▁rubber	-11.8995
▁refreshed	-11.8995
▁massage	-11.8995
▁bee	-11.8996
▁slightest	-11.8996
▁choosing	-11.8996
▁protective	-11.8996
▁withdraw	-11.8996
▁riot	-11.8996
▁furnished	-11.8996
▁hospitality	-11.8997
▁seventy	-11.8997
▁location	-11.8998
▁fatter	-11.8998
▁wandered	-11.9001
▁Long	-11.9001
▁ideal	-11.9001
▁smoothly	-11.9001
▁angel	-11.9002
▁injury	-11.9002
▁exploded	-11.9006
▁discreet	-11.9007
▁severely	-11.9007
▁performed	-11.9008
▁heaven	-11.9009
▁Texas	-11.9009
▁exposed	-11.901
▁recovery	-11.9011
▁Pass	-11.9012
▁crawling	-11.9014
▁cooler	-11.902
▁snows	-11.9021
▁Englishman	-11.9021
▁consulted	-11.9022
▁naturally	-11.9022
▁flooded	-11.9027
▁registered	-11.9031
▁crushed	-11.9036
▁relieve	-11.9037
▁react	-11.9041
▁fiction	-11.9045
▁Mc	-11.9045
▁detailed	-11.9046
▁backwards	-11.9048
▁Tim	-11.9054
▁hesitated	-11.9057
▁muscles	-11.906
▁rear	-11.906
▁sung	-11.9062
▁leaf	-11.9065
▁thread	-11.9067
▁hostages	-11.9069
▁invest	-11.9074
▁va	-11.9079
ave	-11.9079
▁travelers	-11.908
▁tempted	-11.908
▁cr	-11.909
▁arrow	-11.9096
like	-11.9097
▁choices	-11.9116
my	-11.9119
▁picky	-11.9122
▁tenth	-11.9122
▁cows	-11.9132
Would	-11.9136
▁Jacksons	-11.9144
▁pile	-11.9146
▁profits	-11.9154
▁impose	-11.9159
▁non	-11.9166
▁exports	-11.9177
▁Desp	-11.9178
▁li	-11.9178
▁dolls	-11.9179
▁heating	-11.918
uite	-11.9196
early	-11.9201
ond	-11.9203
▁meets	-11.9207
▁figures	-11.9212
nder	-11.925
▁appointments	-11.9262
tting	-11.9266
▁closest	-11.9276
▁buys	-11.928
▁curse	-11.9292
▁moments	-11.9293
N	-11.9299
▁restless	-11.9306
▁host	-11.9344
▁interests	-11.9353
▁CDs	-11.9353
▁download	-11.9363
▁subjects	-11.941
decorated	-11.9416
▁boats	-11.9417
lcome	-11.9432
▁rates	-11.9458
Can	-11.9474
▁Mi	-11.9489
▁po	-11.9498
aware	-11.9504
▁sigh	-11.9513
▁rug	-11.9532
▁purchase	-11.9539
▁leap	-11.954
ment	-11.9541
▁forms	-11.955
▁sa	-11.955
ter	-11.9553
▁signature	-11.9557
▁accountant	-11.956
▁cowboy	-11.9568
▁scholar	-11.9571
▁executive	-11.9573
▁parent	-11.9574
▁champion	-11.9575
▁intentions	-11.9576
▁procedure	-11.9578
▁restroom	-11.9579
▁opponent	-11.9579
▁peanut	-11.9582
▁arrangement	-11.9583
▁brake	-11.9596
njoy	-11.9598
▁flash	-11.9618
▁scale	-11.962
▁reporter	-11.9645
0.	-11.9648
▁Music	-11.9663
▁eater	-11.9673
ow	-11.9674
ful	-11.9674
▁perform	-11.9678
▁determine	-11.9686
▁dig	-11.9689
▁fulfill	-11.969
▁extend	-11.9696
▁slid	-11.9698
▁fierce	-11.9702
▁instant	-11.9704
▁irritate	-11.9704
▁mosquito	-11.9705
▁discover	-11.9706
▁transfer	-11.9707
▁confront	-11.9708
▁bankrupt	-11.9708
▁Picasso	-11.9708
▁Channel	-11.9708
▁November	-11.9708
▁footsteps	-11.9708
▁luxury	-11.9708
▁prescription	-11.9708
▁slippery	-11.9708
▁vacuum	-11.9708
▁grammatical	-11.9708
▁crowbar	-11.9708
▁flexible	-11.9708
▁entitle	-11.9708
▁strawberry	-11.9708
▁microphone	-11.9708
▁parallel	-11.9708
▁Keiko	-11.9708
▁pregnant	-11.9708
▁liquor	-11.9708
▁Wilson	-11.9708
▁butterfly	-11.9708
▁yacht	-11.9708
▁existence	-11.9708
▁knives	-11.9708
▁Kenji	-11.9708
▁humid	-11.9708
▁stomachache	-11.9708
▁lipstick	-11.9708
▁loyal	-11.9708
▁reflection	-11.9708
▁happily	-11.9708
▁dictionaries	-11.9708
▁intelligence	-11.9708
▁opposition	-11.9708
▁Eventually	-11.9708
▁sunrise	-11.9709
▁bartender	-11.9709
▁judgment	-11.9709
▁defendant	-11.9709
▁trustworthy	-11.9709
▁agitated	-11.9709
▁priority	-11.9709
▁mansion	-11.9709
▁wolf	-11.9709
▁identify	-11.9709
▁inflation	-11.9709
▁Study	-11.9709
▁spouse	-11.9709
▁accusing	-11.9709
▁Republican	-11.9709
▁unfinished	-11.9709
▁unknown	-11.971
▁hardware	-11.971
▁investigating	-11.9711
▁criticize	-11.9712
▁possibilities	-11.9713
▁teasing	-11.9714
▁paperwork	-11.9714
▁worthless	-11.9714
▁launched	-11.9715
▁peacefully	-11.9715
▁freezer	-11.9715
▁Naok	-11.9716
▁winner	-11.9717
▁House	-11.9717
▁attentive	-11.9717
▁teens	-11.9718
▁Wash	-11.972
▁widely	-11.9721
▁ancestors	-11.9723
▁athletic	-11.9724
▁subscribe	-11.9724
▁competitive	-11.9725
▁delivery	-11.9725
▁cutting	-11.9726
▁interpret	-11.9731
▁ab	-11.9731
▁splash	-11.9735
▁protested	-11.9738
▁weighed	-11.9738
▁privately	-11.9741
▁differences	-11.9741
▁starved	-11.9747
▁aliens	-11.9747
▁observed	-11.9751
▁repairing	-11.9752
▁su	-11.9755
▁existed	-11.9755
▁skippe	-11.9755
▁thirties	-11.9758
▁organize	-11.976
▁preparations	-11.9761
▁gathering	-11.9766
▁logical	-11.9768
▁relaxing	-11.9768
ittle	-11.9775
▁stirr	-11.9781
▁drift	-11.9782
▁lighter	-11.9783
▁22	-11.9783
▁survivors	-11.9788
▁waves	-11.9791
▁desired	-11.9792
▁forgets	-11.9797
▁types	-11.9801
▁tendenc	-11.9812
▁passes	-11.9814
ight	-11.9829
▁Roll	-11.9829
▁exercises	-11.9836
▁protected	-11.9838
▁Indian	-11.9842
▁Pa	-11.9844
▁substitute	-11.9853
▁technical	-11.9871
les	-11.9871
▁snacks	-11.9872
▁resent	-11.9889
▁function	-11.989
▁joining	-11.9897
ir	-11.9897
▁march	-11.9902
▁alley	-11.9903
▁mid	-11.991
▁Ben	-11.9916
▁doubted	-11.9924
▁areas	-11.9926
▁sacrifice	-11.9937
▁rabbits	-11.9959
▁Lee	-11.9961
▁founded	-11.9967
ying	-11.9984
▁clearing	-11.9984
▁bull	-11.9986
▁drawn	-11.9988
ia	-11.999
▁pan	-11.999
▁canoe	-12.0004
▁warming	-12.0008
▁Roy	-12.0024
▁site	-12.0031
▁smoked	-12.0051
▁Jean	-12.0062
na	-12.0069
▁tool	-12.007
▁photographs	-12.0087
▁limits	-12.0091
▁bore	-12.0128
ra	-12.0143
ize	-12.015
ink	-12.0169
ered	-12.0189
mail	-12.0219
▁bu	-12.0227
ay	-12.0246
▁architect	-12.0253
boarding	-12.0253
▁grip	-12.0256
▁gaze	-12.0271
ish	-12.0279
▁ho	-12.0289
▁demonstrate	-12.0293
▁delete	-12.0294
um	-12.0302
ities	-12.0306
▁championship	-12.0325
▁cases	-12.0333
▁nephew	-12.0336
▁swimsuit	-12.0337
▁resolution	-12.0342
▁banks	-12.0343
▁movement	-12.0343
We	-12.0344
▁nightmare	-12.0345
▁sample	-12.0352
▁beginner	-12.0353
▁regain	-12.0353
nybody	-12.0355
▁standard	-12.0356
nswer	-12.0368
▁antique	-12.037
▁link	-12.0375
ical	-12.0376
▁frog	-12.0383
▁review	-12.0395
▁froze	-12.0405
▁cleaner	-12.0411
▁Eve	-12.0441
ybe	-12.0441
▁tolerate	-12.0449
▁disappear	-12.0451
▁enthusiastic	-12.0454
▁contribute	-12.0455
raffic	-12.0458
ating	-12.047
cientists	-12.0471
▁Le	-12.0477
undreds	-12.0477
▁Education	-12.0477
▁Portugal	-12.0477
▁Singapore	-12.0477
▁Sweden	-12.0477
▁Swedish	-12.0477
▁broadcast	-12.0477
▁devastated	-12.0477
▁expedition	-12.0477
▁gratitude	-12.0477
▁immature	-12.0477
▁impulse	-12.0477
▁ketchup	-12.0477
▁ribbon	-12.0477
▁shampoo	-12.0477
▁compartment	-12.0477
▁windshield	-12.0477
▁cradle	-12.0477
▁refrain	-12.0477
▁representative	-12.0477
▁conscience	-12.0477
▁Hiroshima	-12.0477
ctly	-12.0477
▁proposition	-12.0477
▁Columbus	-12.0478
▁carpenter	-12.0478
▁Nations	-12.0478
▁reunion	-12.0478
▁loyalty	-12.0478
▁Sign	-12.0478
▁sunshine	-12.0478
▁ignorant	-12.0478
▁Alex	-12.0478
▁diplomatic	-12.0478
▁mahjong	-12.0478
▁persuasive	-12.0478
▁brass	-12.0478
▁paranoid	-12.0479
ttle	-12.0479
▁carbon	-12.0479
▁convincing	-12.0479
▁Kong	-12.0479
▁microwave	-12.0479
▁unmarried	-12.0479
▁forgetful	-12.0479
▁inspired	-12.0479
▁loaf	-12.0479
▁competent	-12.048
▁prompt	-12.048
▁Lisa	-12.048
▁pub	-12.0481
▁Jill	-12.0481
▁typing	-12.0481
▁promising	-12.0481
▁translating	-12.0481
▁Emily	-12.0481
▁grasp	-12.0481
▁Deal	-12.0482
▁spotted	-12.0482
▁household	-12.0483
▁tapped	-12.0483
▁Easter	-12.0483
▁tropic	-12.0483
▁Giants	-12.0484
▁centimeters	-12.0484
▁harbor	-12.0485
▁unsure	-12.0485
▁persistent	-12.0486
▁roast	-12.0487
▁refund	-12.0487
▁Bank	-12.0489
▁unexpectedly	-12.0489
▁instantly	-12.049
▁pitcher	-12.049
▁disguised	-12.0491
▁mustache	-12.0492
▁shaving	-12.0492
▁softly	-12.0493
▁addicted	-12.0494
▁maintained	-12.0495
▁assembled	-12.0498
▁origin	-12.0498
▁Cold	-12.05
▁Trust	-12.05
▁corn	-12.0502
▁emptie	-12.0503
▁reaction	-12.0505
▁attendant	-12.0508
▁sinking	-12.0511
▁guts	-12.0511
▁cracked	-12.0511
▁speechless	-12.0512
▁euros	-12.0513
▁contented	-12.0523
▁joint	-12.0526
▁speeding	-12.053
▁fairy	-12.0531
▁broad	-12.0533
▁produced	-12.0535
▁chips	-12.0536
▁Wow	-12.0539
▁tank	-12.054
▁honestly	-12.0548
▁hardest	-12.0548
▁mice	-12.0554
▁disagreed	-12.0558
▁acknowledge	-12.0559
▁onions	-12.056
▁relie	-12.0566
▁anti	-12.0566
▁included	-12.0568
ried	-12.0582
▁distant	-12.0592
▁sailors	-12.0595
ved	-12.0596
▁Australian	-12.0597
▁wig	-12.0607
▁ashes	-12.0615
▁refer	-12.0619
▁bathing	-12.062
▁bump	-12.062
▁Anne	-12.0625
▁Mars	-12.0642
▁pa	-12.0657
▁teenagers	-12.0671
▁numb	-12.0675
▁Throw	-12.0679
▁touching	-12.0691
▁sprain	-12.0697
▁drivers	-12.0705
▁ch	-12.0709
▁rings	-12.0722
▁dam	-12.0728
▁booked	-12.0737
ible	-12.074
▁mass	-12.0742
water	-12.075
pe	-12.0752
▁candidates	-12.0778
▁convert	-12.0785
fall	-12.0787
▁wheels	-12.0787
rubbed	-12.08
▁sp	-12.0816
▁slim	-12.0819
ashed	-12.0829
▁wounds	-12.0848
▁bo	-12.0853
▁Human	-12.0861
da	-12.0863
▁label	-12.0894
▁pl	-12.0895
▁misse	-12.0898
▁talents	-12.0909
▁singers	-12.0911
▁sack	-12.092
▁blankets	-12.092
Not	-12.0974
▁pre	-12.0979
▁ruins	-12.0981
▁guards	-12.1019
▁repairs	-12.1046
lways	-12.1052
▁heads	-12.1057
are	-12.106
300	-12.1071
▁ending	-12.1074
▁fur	-12.1078
▁depart	-12.1083
ned	-12.1086
P	-12.1102
▁rack	-12.111
▁collar	-12.1114
▁La	-12.1118
▁Ric	-12.1124
▁exaggerate	-12.1135
▁dye	-12.1136
rop	-12.1141
▁technique	-12.1158
▁trips	-12.1167
▁stake	-12.1167
▁proverb	-12.1169
▁chemical	-12.1169
▁astronaut	-12.1169
FO	-12.1171
▁freeze	-12.1172
▁bachelor	-12.1174
▁costume	-12.1175
▁highway	-12.118
▁exhibit	-12.1181
▁payment	-12.1182
▁shadow	-12.1183
▁sailor	-12.1187
ied	-12.1196
▁State	-12.1203
▁offend	-12.1208
▁repay	-12.1228
part	-12.1238
▁soil	-12.1258
▁St	-12.1261
▁Drive	-12.1262
▁Nic	-12.1274
▁pill	-12.1281
▁mature	-12.1285
▁disgust	-12.1285
▁Green	-12.1287
▁indicate	-12.1292
▁distract	-12.1294
▁Asian	-12.1294
▁draft	-12.1295
▁butcher	-12.1295
▁polish	-12.1301
▁wander	-12.1304
▁practices	-12.1304
▁splendid	-12.1305
nternational	-12.1305
▁apparent	-12.1306
▁weakness	-12.1309
▁disco	-12.131
ietnam	-12.131
▁duck	-12.1311
▁Monroe	-12.1311
▁Toyota	-12.1311
▁orchestra	-12.1311
▁Austria	-12.1311
▁December	-12.1311
▁Foreign	-12.1311
▁Turkish	-12.1311
▁certificate	-12.1311
▁contagious	-12.1311
▁doorknob	-12.1311
▁encounter	-12.1311
▁global	-12.1311
▁gullible	-12.1311
▁liberal	-12.1311
▁liberty	-12.1311
▁mysterious	-12.1311
▁penalty	-12.1311
▁perfume	-12.1311
▁sarcastic	-12.1311
▁satellite	-12.1311
▁symbol	-12.1311
▁toothpaste	-12.1311
▁vodka	-12.1311
▁Disneyland	-12.1311
▁kindergarten	-12.1311
▁purple	-12.1311
▁slippers	-12.1311
▁nickname	-12.1311
▁Brazilian	-12.1311
▁philosophy	-12.1311
▁hockey	-12.1311
▁unreasonable	-12.1311
▁identity	-12.1311
▁reckless	-12.1311
▁vanished	-12.1311
▁grandchildren	-12.1311
▁struggling	-12.1311
▁reflect	-12.1311
▁editor	-12.1311
▁rugby	-12.1311
▁batteries	-12.1311
▁invade	-12.1311
▁Daddy	-12.1311
▁butterflies	-12.1311
▁Honesty	-12.1311
▁clapped	-12.1311
▁chuckled	-12.1311
▁navy	-12.1312
▁emerged	-12.1312
▁railway	-12.1312
▁obtain	-12.1312
▁tragedy	-12.1312
▁Lions	-12.1312
▁gross	-12.1312
▁Six	-12.1312
▁playground	-12.1312
▁series	-12.1312
▁airmail	-12.1312
▁sunlight	-12.1313
▁inconvenience	-12.1313
▁bakery	-12.1313
▁seaside	-12.1313
▁healthier	-12.1313
▁hangover	-12.1313
▁destiny	-12.1313
▁pacing	-12.1314
▁intently	-12.1314
▁status	-12.1315
▁disobey	-12.1315
▁hunch	-12.1316
▁breast	-12.1316
▁David	-12.1317
▁suppress	-12.1318
▁abolished	-12.1318
▁consciousness	-12.1319
▁countryside	-12.1319
▁blushed	-12.132
▁photographer	-12.1321
▁considerate	-12.1322
▁disgusting	-12.1322
▁orbit	-12.1322
▁revealed	-12.1322
▁passion	-12.1324
▁outstanding	-12.1324
▁disgusted	-12.1325
▁Tower	-12.1326
▁relevant	-12.1327
▁outfit	-12.1329
▁portrait	-12.1329
▁weaker	-12.1332
▁misplace	-12.1332
▁driveway	-12.1332
▁motivated	-12.1333
▁wicked	-12.1333
▁tribe	-12.1335
▁stressed	-12.1335
▁twenties	-12.1339
▁golfer	-12.1339
▁fingerprints	-12.1339
▁bowling	-12.1341
▁slower	-12.1342
▁cycling	-12.1343
▁sweets	-12.1344
▁virus	-12.1347
▁ironing	-12.1348
▁poisoned	-12.1352
▁seventh	-12.1353
▁resigning	-12.1359
▁chickens	-12.1362
▁sets	-12.1363
supplied	-12.1367
ham	-12.1368
▁equi	-12.1372
▁remaining	-12.1373
▁spill	-12.1373
▁faithful	-12.1377
▁pressing	-12.1383
▁cured	-12.1388
▁concentrated	-12.1394
▁terrorists	-12.1397
cy	-12.1402
▁vision	-12.1402
▁feared	-12.1405
▁coma	-12.141
▁Bar	-12.1411
▁earthquakes	-12.1418
▁poorly	-12.1421
cience	-12.1425
▁drums	-12.1432
▁display	-12.1432
ear	-12.1434
▁fame	-12.1436
▁beginners	-12.1449
▁batter	-12.1454
▁tigers	-12.1478
▁risked	-12.1482
▁Europeans	-12.1483
▁male	-12.1489
▁fined	-12.1489
zed	-12.1491
▁com	-12.1509
▁Oliv	-12.153
▁sued	-12.1537
▁delegate	-12.1547
▁parks	-12.1549
▁Moder	-12.1551
▁tube	-12.1553
▁elephants	-12.1563
▁grill	-12.1567
▁owners	-12.1582
▁patch	-12.1585
▁Rais	-12.159
fore	-12.1592
▁starve	-12.1592
▁fruits	-12.1596
rious	-12.1603
▁sources	-12.1605
▁museums	-12.1606
▁Onl	-12.1614
C	-12.1616
▁marks	-12.1628
▁exceptions	-12.1631
▁Dan	-12.1645
▁dash	-12.1666
▁assum	-12.1672
▁occasions	-12.1687
▁seek	-12.1692
▁gunshots	-12.1695
▁ar	-12.1698
urrently	-12.17
▁belts	-12.17
ball	-12.1713
▁dislikes	-12.1715
▁wit	-12.1752
▁contents	-12.1756
ide	-12.1756
▁correspond	-12.1758
▁sketch	-12.177
Thank	-12.1779
▁Star	-12.1789
ant	-12.179
▁exists	-12.1799
▁concerts	-12.1802
hour	-12.182
▁dangers	-12.1838
▁Ka	-12.1854
▁plot	-12.1866
elieve	-12.1878
▁unit	-12.188
▁parted	-12.1882
▁nations	-12.1885
▁nicer	-12.1889
▁balls	-12.1891
▁shore	-12.1898
now	-12.1904
B	-12.1941
ning	-12.1979
▁notebooks	-12.1983
▁Hal	-12.1983
▁cameras	-12.2008
line	-12.2012
back	-12.2014
▁films	-12.2019
▁cuts	-12.2023
▁Teach	-12.2024
▁Car	-12.203
▁stones	-12.204
▁camel	-12.2046
▁includ	-12.2056
▁sin	-12.2066
▁Rain	-12.2069
▁blinds	-12.2075
▁casual	-12.2082
▁infection	-12.2084
▁recommendation	-12.2091
▁lemon	-12.2091
▁errand	-12.2092
▁insect	-12.2096
▁pearl	-12.2096
▁disk	-12.2101
▁glove	-12.2103
▁diplomat	-12.2117
▁st	-12.2137
▁setting	-12.2141
▁unt	-12.2144
▁kite	-12.2149
▁tale	-12.2151
▁Frank	-12.218
▁connect	-12.2193
▁evacuate	-12.2193
▁bicycles	-12.2205
posed	-12.2206
▁satisfy	-12.2208
▁shovel	-12.2211
▁warrant	-12.2211
▁rank	-12.2212
▁cultur	-12.2216
▁Emi	-12.2217
▁sympathetic	-12.2219
▁renew	-12.2219
▁grocer	-12.222
▁alphabet	-12.222
▁disgrace	-12.222
responsibilities	-12.222
▁CIA	-12.222
▁Hamlet	-12.222
▁Jesus	-12.222
▁Language	-12.222
▁Portuguese	-12.222
▁arrogant	-12.222
▁balcony	-12.222
▁bundle	-12.222
▁condemn	-12.222
▁consumption	-12.222
▁fabulous	-12.222
▁harmonica	-12.222
▁hobbies	-12.222
▁inspiration	-12.222
▁landlord	-12.222
▁leisure	-12.222
▁obstinate	-12.222
▁pronunciation	-12.222
▁quantity	-12.222
▁welfare	-12.222
▁kanji	-12.222
▁Dutch	-12.222
▁instructor	-12.222
▁pattern	-12.222
▁Hollywood	-12.222
▁Susie	-12.222
▁Marika	-12.222
▁magician	-12.222
▁wheelchair	-12.222
▁cocktail	-12.222
▁unreliable	-12.222
▁slope	-12.222
▁contrary	-12.222
▁pessimistic	-12.222
▁palace	-12.222
▁hesitant	-12.222
▁Sendai	-12.222
▁Stock	-12.222
▁pharmacy	-12.222
▁nonstop	-12.222
▁examine	-12.222
▁earliest	-12.222
▁snowstorm	-12.222
▁colony	-12.222
▁contributing	-12.222
▁yield	-12.222
▁blessing	-12.222
▁Everest	-12.222
▁mysteries	-12.222
▁continent	-12.2221
▁spade	-12.2221
▁tackle	-12.2221
▁testify	-12.2221
▁utmost	-12.2221
▁caution	-12.2221
▁terror	-12.2221
▁exercising	-12.2221
▁idle	-12.2221
▁raincoat	-12.2221
▁announcer	-12.2221
▁paycheck	-12.2222
▁altogether	-12.2222
▁frowned	-12.2222
▁whistling	-12.2223
▁Small	-12.2223
▁truthful	-12.2223
▁nude	-12.2223
▁trading	-12.2223
▁hospitalized	-12.2224
▁executed	-12.2224
▁isolated	-12.2224
▁pierced	-12.2224
▁cellar	-12.2224
▁democracy	-12.2224
▁admiring	-12.2224
▁printer	-12.2224
▁concluded	-12.2224
▁guitarist	-12.2225
▁controlled	-12.2225
▁basis	-12.2225
▁mugged	-12.2226
▁solar	-12.2226
▁faded	-12.2228
▁grand	-12.2228
▁therapist	-12.2229
▁scold	-12.2229
▁separately	-12.2231
▁award	-12.2231
▁Somehow	-12.2231
▁folding	-12.2231
▁mankind	-12.2231
▁administration	-12.2232
▁hunted	-12.2232
▁overhead	-12.2232
▁flattered	-12.2232
▁Finish	-12.2232
▁Over	-12.2233
▁outraged	-12.2233
ueen	-12.2234
▁fireman	-12.2234
▁General	-12.2234
▁burden	-12.2234
▁Rio	-12.2235
▁Cuba	-12.2235
▁Cent	-12.2235
▁specialist	-12.2235
▁agency	-12.2235
▁elsewhere	-12.2235
▁sunk	-12.2238
▁palm	-12.2238
▁diving	-12.2238
▁frost	-12.2241
▁golden	-12.2243
▁robe	-12.2243
▁designer	-12.2244
▁printed	-12.2245
▁freaked	-12.2245
▁resumed	-12.2247
▁surrendered	-12.2248
▁wisely	-12.2252
▁oak	-12.2255
▁disappointing	-12.2256
▁recovering	-12.2256
▁sweating	-12.2259
▁satisfaction	-12.2261
▁quarreling	-12.2263
▁cello	-12.2264
▁measurements	-12.2264
▁stroke	-12.2269
▁tension	-12.2272
▁ironed	-12.2274
▁pinch	-12.2274
▁inexpensive	-12.2275
appiness	-12.2277
▁warmly	-12.2293
▁conditioning	-12.2298
can	-12.2302
▁willingly	-12.2302
▁colds	-12.2305
▁lifetime	-12.2323
▁strangely	-12.2336
▁Olympics	-12.2337
▁recording	-12.2337
▁gardener	-12.2349
▁recorded	-12.2352
▁Sport	-12.2364
▁standards	-12.2373
▁filed	-12.2388
▁icy	-12.2398
▁Ted	-12.2403
▁corrected	-12.2406
▁spiders	-12.2409
▁Yes	-12.2415
lo	-12.2416
▁lungs	-12.2418
▁fourth	-12.2418
▁boils	-12.243
▁risen	-12.2443
▁mow	-12.2448
▁restrain	-12.2457
▁gardening	-12.2459
▁fuse	-12.2461
▁races	-12.2466
▁Jo	-12.2467
▁item	-12.247
et	-12.2473
known	-12.2479
ro	-12.2491
20	-12.2499
▁pies	-12.2519
▁tender	-12.2522
▁bold	-12.253
▁economical	-12.2557
▁tide	-12.2563
long	-12.2588
▁officials	-12.259
▁rod	-12.2592
▁knit	-12.2596
▁African	-12.2602
▁rises	-12.2603
▁hood	-12.2604
▁engineers	-12.2608
bel	-12.2609
▁refill	-12.2629
▁Natur	-12.2635
O	-12.2635
▁identi	-12.2642
▁characters	-12.2691
▁tracks	-12.2692
▁Sea	-12.2695
ward	-12.2698
chi	-12.27
ho	-12.273
▁diamonds	-12.2739
ca	-12.2741
▁desires	-12.2742
▁Mari	-12.2751
▁hats	-12.2758
▁graduates	-12.276
▁concerns	-12.2762
▁manufacture	-12.2763
▁accounts	-12.2763
▁tradition	-12.2796
▁behaves	-12.28
▁Bear	-12.2804
op	-12.2829
▁Germans	-12.2833
▁loosen	-12.2838
box	-12.2839
▁handl	-12.2853
▁drum	-12.2853
▁Fre	-12.2856
▁pe	-12.2869
▁fund	-12.2883
sides	-12.2889
▁experts	-12.289
eight	-12.2895
▁rinse	-12.2906
▁hotels	-12.291
gen	-12.2912
▁Ne	-12.2921
100	-12.2937
▁skirts	-12.294
MP	-12.2945
proof	-12.2949
headed	-12.2969
ron	-12.2982
▁definite	-12.2984
▁bridges	-12.3007
So	-12.3018
four	-12.303
▁bandage	-12.3036
▁resting	-12.3044
▁rats	-12.3057
▁bang	-12.3064
▁frame	-12.3064
▁robot	-12.3069
used	-12.3078
▁Roman	-12.3079
▁translator	-12.3088
▁Olympic	-12.3092
▁colleague	-12.3093
▁youth	-12.3095
▁motive	-12.3096
▁critic	-12.3096
▁folk	-12.3104
co	-12.3109
▁principle	-12.3111
▁dine	-12.3111
▁le	-12.3117
door	-12.3123
▁Steve	-12.3125
▁skis	-12.3131
▁crow	-12.3139
ancy	-12.3141
▁traveler	-12.3157
▁lap	-12.3158
▁finance	-12.317
axed	-12.3176
▁Lo	-12.3176
▁sock	-12.3181
▁reveal	-12.3192
▁interprete	-12.3194
▁frighten	-12.3194
▁resume	-12.3194
▁cha	-12.3197
▁divide	-12.3198
itting	-12.3201
▁troubles	-12.3208
▁proofread	-12.3208
▁flirt	-12.3212
▁bleed	-12.3213
▁spontaneous	-12.3214
▁abrupt	-12.3214
▁rip	-12.3215
▁flatter	-12.3217
▁profession	-12.3218
lephants	-12.3219
▁AIDS	-12.322
▁Chopin	-12.322
▁Napoleon	-12.322
▁Sapporo	-12.322
▁Sydney	-12.322
▁abundant	-12.322
▁binoculars	-12.322
▁champagne	-12.322
▁clarinet	-12.322
▁comparison	-12.322
▁decreasing	-12.322
▁deficit	-12.322
▁energetic	-12.322
▁frustrating	-12.322
▁iPhone	-12.322
▁mutual	-12.322
▁obnoxious	-12.322
▁privilege	-12.322
▁territory	-12.322
▁tournament	-12.322
▁trombone	-12.322
▁vanilla	-12.322
▁verdict	-12.322
▁vocabulary	-12.322
▁Hebrew	-12.322
▁nauseous	-12.322
▁perspective	-12.322
▁psychic	-12.322
▁realistic	-12.322
▁romance	-12.322
▁Express	-12.322
▁banquet	-12.322
▁sunscreen	-12.322
▁enthusiasm	-12.322
▁vacant	-12.322
▁humming	-12.322
▁toothbrush	-12.322
▁Thailand	-12.322
▁seatbelt	-12.322
▁bankruptcy	-12.322
▁garlic	-12.322
▁barefoot	-12.322
▁Norway	-12.322
▁grinned	-12.322
▁masterpiece	-12.322
▁formula	-12.322
▁policies	-12.322
▁babbling	-12.322
▁Swiss	-12.322
▁cricket	-12.322
ienna	-12.322
▁Teresa	-12.322
▁disposal	-12.322
▁route	-12.322
▁sweetheart	-12.322
▁supervisor	-12.322
▁Thames	-12.322
▁psychology	-12.322
▁pardon	-12.322
▁poisonous	-12.322
▁chores	-12.322
▁Poland	-12.322
▁hairstyle	-12.3221
▁independence	-12.3221
▁graduating	-12.3221
▁steep	-12.3221
▁Kelly	-12.3221
▁crude	-12.3221
▁deceiving	-12.3221
▁violinist	-12.3221
▁firewood	-12.3221
▁Large	-12.3221
▁southern	-12.3221
▁insecure	-12.3221
▁plunge	-12.3221
▁cancelled	-12.3221
▁biased	-12.3222
▁artistic	-12.3222
▁whispering	-12.3222
▁popularity	-12.3222
▁humanity	-12.3222
▁depression	-12.3222
▁stingy	-12.3222
▁surfing	-12.3222
▁escaping	-12.3222
▁busiest	-12.3222
▁cautiously	-12.3222
▁groaned	-12.3222
▁witty	-12.3222
▁tasty	-12.3222
▁worship	-12.3222
▁knob	-12.3223
▁Party	-12.3223
▁occasionally	-12.3223
▁Claus	-12.3223
▁mosquitoes	-12.3224
▁publisher	-12.3224
▁mailman	-12.3224
▁brightest	-12.3224
▁affectionate	-12.3225
▁vocation	-12.3225
▁yank	-12.3226
▁inappropriate	-12.3226
▁cafe	-12.3226
▁frequent	-12.3226
▁bookcase	-12.3227
▁passage	-12.3228
▁thinner	-12.3229
▁polluted	-12.3229
▁allergies	-12.3229
▁actual	-12.323
▁creeps	-12.323
▁sensation	-12.323
▁deck	-12.3232
▁installed	-12.3232
▁hiring	-12.3233
▁slack	-12.3233
▁raft	-12.3234
▁Nick	-12.3234
▁Pole	-12.3234
▁govern	-12.3234
▁hatred	-12.3234
▁exceptional	-12.3237
▁ballet	-12.3239
▁reacted	-12.324
▁kidnappers	-12.3241
▁pickup	-12.3241
▁lyrics	-12.3241
▁Blood	-12.3241
▁passionate	-12.3242
▁conserv	-12.3243
▁swallowed	-12.3244
▁rewarded	-12.3244
▁financially	-12.3244
▁framed	-12.3245
▁firmly	-12.3245
▁suspiciously	-12.3245
▁threatening	-12.3246
▁calorie	-12.3246
▁eighth	-12.3247
▁Sleep	-12.3247
▁overlooked	-12.3249
▁brightly	-12.325
▁recorder	-12.3251
▁optimist	-12.3252
▁expires	-12.3255
▁rebels	-12.3258
▁hunt	-12.3261
▁plague	-12.3262
▁enjoyable	-12.3263
▁surroundings	-12.3268
▁slump	-12.3268
▁volunteering	-12.3268
▁server	-12.3268
▁leftovers	-12.327
▁repeating	-12.3272
▁Paulo	-12.3273
▁Adams	-12.3275
▁Fire	-12.3275
▁toaster	-12.3276
▁afterwards	-12.3279
ray	-12.3281
▁pluck	-12.3283
▁lip	-12.3287
▁messy	-12.3292
▁patiently	-12.3293
▁witnesses	-12.3293
▁grain	-12.3297
▁interfered	-12.3302
▁Police	-12.3306
▁exceed	-12.3309
▁everyday	-12.331
▁chill	-12.3312
▁alarmed	-12.3319
▁crown	-12.3319
fire	-12.3319
▁vitamins	-12.3322
▁bruises	-12.3324
▁planting	-12.3328
▁allies	-12.3342
▁fasten	-12.3347
▁overlook	-12.3348
▁principles	-12.3349
▁peek	-12.3359
athematics	-12.3362
rate	-12.3375
enice	-12.3398
▁bully	-12.3403
▁bury	-12.3404
▁posted	-12.3414
▁dear	-12.3415
▁shops	-12.342
▁tripped	-12.3422
occer	-12.3423
▁crimes	-12.3424
▁sleeves	-12.3424
▁lightly	-12.3425
▁thumbs	-12.344
▁signing	-12.344
▁locks	-12.3442
▁Me	-12.3449
▁dec	-12.3452
▁counted	-12.3469
▁cruise	-12.3471
▁strain	-12.3476
▁slices	-12.3487
going	-12.349
right	-12.3491
▁Smoke	-12.3496
▁farms	-12.3499
▁grounds	-12.3501
▁runners	-12.3502
▁however	-12.3503
▁islands	-12.3509
▁chase	-12.3512
▁scen	-12.3519
▁West	-12.3534
▁surprises	-12.3536
▁heights	-12.3559
hi	-12.3573
▁Sin	-12.3606
▁lame	-12.3617
▁donate	-12.362
▁hanged	-12.362
▁fans	-12.3628
▁comb	-12.3635
▁pursue	-12.3659
▁donut	-12.3669
▁Hu	-12.3671
▁snuggle	-12.3681
ent	-12.3682
ty	-12.3688
xplain	-12.3688
▁gamble	-12.3694
▁girlfriends	-12.3727
▁ban	-12.3731
ural	-12.3738
ac	-12.3744
▁suffere	-12.375
▁witch	-12.377
ak	-12.3776
▁scrap	-12.3777
▁objects	-12.3781
▁en	-12.3789
▁returns	-12.3797
ap	-12.3801
▁chopp	-12.3807
▁valuables	-12.3809
land	-12.381
▁Times	-12.3818
▁bears	-12.3822
ang	-12.3838
▁bi	-12.3848
▁jack	-12.3854
▁rub	-12.386
▁Si	-12.3866
▁fo	-12.3869
E	-12.3905
▁dive	-12.3906
▁drops	-12.3919
▁plug	-12.3944
umbled	-12.396
▁ro	-12.396
▁Du	-12.3968
▁span	-12.3971
officially	-12.3974
gs	-12.3978
▁assign	-12.3983
▁Big	-12.4001
▁undergo	-12.4009
ori	-12.4019
▁tub	-12.402
▁idiots	-12.403
ru	-12.4063
end	-12.4063
▁hu	-12.4095
calculated	-12.4103
forests	-12.4112
▁coats	-12.4117
ugged	-12.4123
▁beers	-12.4125
▁realizes	-12.4129
ze	-12.415
▁mini	-12.4165
▁cigar	-12.417
▁watermelon	-12.4176
▁tablecloth	-12.4176
▁keyboard	-12.4178
▁legend	-12.4183
▁autograph	-12.4188
▁rocket	-12.419
▁obligation	-12.4194
▁liquid	-12.4194
▁traitor	-12.4195
▁development	-12.4197
▁clubs	-12.4199
▁mushroom	-12.4199
▁pigeon	-12.4201
▁servant	-12.4203
▁survivor	-12.4205
▁hostage	-12.4206
▁spirit	-12.4207
ist	-12.421
▁flame	-12.4213
▁stool	-12.4213
▁whale	-12.4236
▁bites	-12.4254
Please	-12.4259
▁blink	-12.4285
▁boo	-12.4293
▁rage	-12.4293
▁rides	-12.4293
▁commute	-12.4297
ded	-12.4297
▁considerabl	-12.4302
▁dep	-12.4305
▁collapse	-12.4308
▁fuss	-12.4313
▁expose	-12.4314
▁intrude	-12.4323
▁annual	-12.4325
skirts	-12.4325
▁prior	-12.4326
▁thirst	-12.4327
▁Iceland	-12.4331
▁microscope	-12.4331
▁siblings	-12.4331
▁Darwin	-12.4331
▁Einstein	-12.4331
▁Embassy	-12.4331
▁Finnish	-12.4331
▁Hyogo	-12.4331
▁Nixon	-12.4331
▁Taylor	-12.4331
▁adequate	-12.4331
▁asylum	-12.4331
▁chauffeur	-12.4331
▁corridor	-12.4331
▁emphasis	-12.4331
▁escort	-12.4331
▁fraud	-12.4331
▁hurricane	-12.4331
▁intriguing	-12.4331
▁irresponsible	-12.4331
▁mortgage	-12.4331
▁pamphlet	-12.4331
▁pancakes	-12.4331
▁perplexed	-12.4331
▁physician	-12.4331
▁sociable	-12.4331
▁tuxedo	-12.4331
▁woozy	-12.4331
▁Suzuki	-12.4331
▁apologies	-12.4331
▁council	-12.4331
▁flavor	-12.4331
▁necessity	-12.4331
▁Titanic	-12.4331
▁Turkey	-12.4331
▁guidance	-12.4331
▁pesos	-12.4331
▁reckon	-12.4331
▁screwdriver	-12.4331
▁depressing	-12.4331
▁dissatisfied	-12.4331
▁Marriage	-12.4331
▁toolbox	-12.4331
▁typist	-12.4331
▁institution	-12.4331
▁steadily	-12.4331
▁drenched	-12.4331
▁pudding	-12.4331
▁survival	-12.4331
▁bilingual	-12.4331
Friendship	-12.4331
▁drugstore	-12.4331
▁gallery	-12.4331
▁inhabitants	-12.4331
▁spinning	-12.4331
▁Clinton	-12.4331
▁tobacco	-12.4331
▁anxiety	-12.4331
▁headphones	-12.4331
▁Thanksgiving	-12.4331
▁nationality	-12.4331
▁confession	-12.4331
▁commitment	-12.4331
▁gravity	-12.4331
▁armchair	-12.4331
▁pry	-12.4331
▁cardboard	-12.4332
▁programmer	-12.4332
▁encouraging	-12.4332
▁analysis	-12.4332
▁Alps	-12.4332
▁chalk	-12.4332
▁infected	-12.4332
▁bookshelf	-12.4332
▁dropping	-12.4332
▁studio	-12.4332
▁celebration	-12.4332
▁seafood	-12.4332
▁rusty	-12.4332
▁disagreement	-12.4332
▁motel	-12.4332
▁Bush	-12.4332
▁ballpoint	-12.4332
▁surviving	-12.4332
▁deliberately	-12.4333
▁embraced	-12.4333
▁snowfall	-12.4333
▁pony	-12.4333
▁compass	-12.4333
▁banned	-12.4333
▁Nikko	-12.4333
▁prettie	-12.4333
▁unfolded	-12.4333
▁decorating	-12.4334
▁harmless	-12.4334
▁tanker	-12.4334
▁drought	-12.4334
illions	-12.4334
▁serving	-12.4334
▁clown	-12.4334
▁transportation	-12.4335
▁handful	-12.4335
▁strawberries	-12.4335
▁steering	-12.4335
▁shipment	-12.4336
▁applause	-12.4336
▁dependable	-12.4336
▁neatly	-12.4336
▁accu	-12.4336
▁twisted	-12.4337
▁horseback	-12.4337
▁dense	-12.4337
▁indeed	-12.4337
down	-12.4337
▁evolution	-12.4338
▁agenda	-12.4338
▁bacon	-12.4338
▁undone	-12.4338
▁distributed	-12.4339
▁violated	-12.4339
▁unbelievable	-12.4341
▁headlights	-12.4341
▁clutch	-12.4341
▁elders	-12.4341
▁parrot	-12.4342
▁nodding	-12.4343
▁frankly	-12.4343
▁approximate	-12.4344
▁sneaky	-12.4344
▁cries	-12.4344
▁composer	-12.4345
▁bushes	-12.4346
▁visible	-12.4348
▁prejudiced	-12.4349
▁housewife	-12.4349
▁performing	-12.4349
▁Wi	-12.435
▁upload	-12.4353
▁extended	-12.4353
▁ducked	-12.4354
▁flatly	-12.4354
▁submitted	-12.4354
▁regulations	-12.4355
▁Atlantic	-12.4355
▁hardships	-12.4356
▁scatter	-12.4356
▁shortest	-12.4356
▁cheering	-12.4358
▁Someday	-12.4359
▁pleasantly	-12.4359
▁alter	-12.436
▁bolt	-12.436
▁tricky	-12.4362
▁sealed	-12.4362
▁install	-12.4364
▁desperately	-12.4364
▁losses	-12.4366
▁fastened	-12.4367
▁symptoms	-12.437
▁barked	-12.437
▁Grant	-12.4373
▁Cover	-12.4374
▁purchased	-12.4375
▁begging	-12.4375
night	-12.4375
▁sharply	-12.4376
▁hammered	-12.4376
▁patrol	-12.4377
ootball	-12.4378
▁responded	-12.438
▁successfully	-12.4389
▁lunchtime	-12.439
▁demanding	-12.439
▁broom	-12.4391
▁revolt	-12.4397
▁obstacles	-12.44
▁theories	-12.4401
▁doorway	-12.4403
▁bodies	-12.4403
▁kisser	-12.4404
▁soda	-12.4417
▁salty	-12.4421
abbits	-12.4424
▁compose	-12.4426
▁worm	-12.4427
▁rash	-12.4428
▁marked	-12.443
▁understandable	-12.4432
▁withered	-12.4442
▁dorm	-12.4443
▁burger	-12.4444
▁vice	-12.4449
ot	-12.446
▁obeyed	-12.4467
▁dresser	-12.4468
▁trout	-12.447
▁bucks	-12.4471
▁rung	-12.4474
▁protecting	-12.4475
car	-12.4497
▁pawn	-12.4506
dding	-12.4512
▁Bot	-12.4512
warming	-12.4514
▁doubled	-12.4518
▁bossy	-12.4531
▁beliefs	-12.4535
▁Ha	-12.454
oldiers	-12.4541
▁Lu	-12.4546
▁partly	-12.4547
▁Remo	-12.4556
▁masks	-12.456
▁strings	-12.457
eno	-12.4577
ick	-12.4582
▁pat	-12.4586
▁boxer	-12.4588
signed	-12.4592
▁applies	-12.4596
▁pigs	-12.46
▁roller	-12.4601
▁Lie	-12.4605
▁robbers	-12.4618
▁Patt	-12.4625
▁temples	-12.4625
▁Fast	-12.4627
▁postcards	-12.4629
▁unite	-12.4633
nable	-12.4647
▁Su	-12.465
was	-12.4653
▁monkeys	-12.466
▁millions	-12.4666
▁liking	-12.4672
▁wan	-12.4676
▁nicely	-12.4694
▁brew	-12.4719
▁railroads	-12.4721
▁topics	-12.4724
▁beautifully	-12.4729
▁boxing	-12.4741
cked	-12.4753
tory	-12.4793
tion	-12.4817
▁mat	-12.4822
▁vend	-12.4837
▁dim	-12.4841
▁planets	-12.4846
▁closes	-12.485
via	-12.4851
▁glue	-12.4855
▁aid	-12.4871
▁pr	-12.4873
ran	-12.4909
erial	-12.491
assured	-12.4911
point	-12.4912
▁oppos	-12.492
▁tested	-12.4923
▁obsess	-12.4928
▁21	-12.4941
girlfriend	-12.495
▁dread	-12.495
attle	-12.4951
▁Fl	-12.4952
▁repli	-12.4962
▁dock	-12.4967
▁yards	-12.4971
ulated	-12.4977
ving	-12.4978
etween	-12.4979
▁heal	-12.4979
▁shuffle	-12.4987
boyfriend	-12.5
tter	-12.5008
11	-12.5015
ul	-12.5028
▁experiments	-12.503
read	-12.5032
▁k	-12.5043
ping	-12.505
anna	-12.5059
▁bumpe	-12.5072
erous	-12.5077
eel	-12.5083
▁ache	-12.5086
▁unkind	-12.5088
▁Lot	-12.5117
son	-12.5123
eaten	-12.5125
▁cl	-12.5134
wrote	-12.5146
smoking	-12.5148
not	-12.5163
▁Ja	-12.518
▁drain	-12.5182
▁putt	-12.5191
lump	-12.5207
▁writers	-12.5227
umped	-12.5242
▁bass	-12.5245
▁Ar	-12.525
familiar	-12.5279
mouth	-12.5286
▁arguments	-12.5342
ki	-12.535
▁fi	-12.5357
▁du	-12.5357
ups	-12.536
came	-12.5372
▁respectful	-12.5372
▁sue	-12.5374
judge	-12.5381
▁brick	-12.5382
ivide	-12.5383
utumn	-12.5394
▁commission	-12.5421
▁bruise	-12.5422
▁demonstration	-12.5425
▁amateur	-12.5426
▁dolphin	-12.5426
▁grudge	-12.5426
▁advertisement	-12.5426
▁judgement	-12.5427
▁cereal	-12.543
▁niece	-12.5437
▁commercial	-12.5438
▁finals	-12.5439
▁device	-12.5439
▁bulb	-12.5441
▁edition	-12.5443
▁napkin	-12.5444
▁shark	-12.5446
▁buck	-12.5454
▁terrorist	-12.5455
▁consequence	-12.5455
▁muscle	-12.5455
▁skipp	-12.5461
ccidents	-12.5462
▁ham	-12.5463
▁wave	-12.5467
▁airplanes	-12.5468
▁Ri	-12.5473
ailed	-12.5477
▁vitamin	-12.5478
▁High	-12.5479
▁humans	-12.5483
2.	-12.5488
▁drag	-12.5507
▁logic	-12.551
▁Bell	-12.5515
▁imagin	-12.5518
▁super	-12.5519
▁Sing	-12.5531
estimated	-12.5552
▁exhaust	-12.5556
▁resolve	-12.5558
ucked	-12.5565
▁establish	-12.5567
▁concept	-12.5574
▁environmental	-12.5576
valent	-12.5576
▁widow	-12.5578
▁excess	-12.5581
▁janitor	-12.5581
▁Akiko	-12.5581
▁Amazon	-12.5581
▁Constitution	-12.5581
▁Department	-12.5581
▁Elizabeth	-12.5581
▁Hamilton	-12.5581
▁Jenny	-12.5581
▁Oxford	-12.5581
▁Taninna	-12.5581
▁YouTube	-12.5581
▁abstract	-12.5581
▁ammunition	-12.5581
▁anonymous	-12.5581
▁arrogance	-12.5581
▁ashtray	-12.5581
▁combination	-12.5581
▁confiscated	-12.5581
▁cynical	-12.5581
▁elaborate	-12.5581
▁exaggerating	-12.5581
▁filthy	-12.5581
▁fugitive	-12.5581
▁grapefruit	-12.5581
▁grumpy	-12.5581
▁horrified	-12.5581
▁incompetent	-12.5581
▁influential	-12.5581
▁karaoke	-12.5581
▁karate	-12.5581
▁legitimate	-12.5581
▁lunatic	-12.5581
▁manuscript	-12.5581
▁monument	-12.5581
▁oatmeal	-12.5581
▁paragraph	-12.5581
▁photogenic	-12.5581
▁preoccupied	-12.5581
▁ukulele	-12.5581
▁Finland	-12.5581
▁Kennedy	-12.5581
▁advocate	-12.5581
▁indignant	-12.5581
▁underneath	-12.5581
▁Kingdom	-12.5581
▁flustered	-12.5581
▁hypothesis	-12.5581
▁materialistic	-12.5581
▁tragic	-12.5581
▁appalled	-12.5581
▁astonishment	-12.5581
▁goggles	-12.5581
▁sailboat	-12.5581
▁Windows	-12.5581
▁circulation	-12.5581
▁eagle	-12.5581
▁impact	-12.5581
▁prescribed	-12.5581
▁Coffee	-12.5581
▁outrageous	-12.5581
▁stagger	-12.5581
▁accusation	-12.5581
▁fourteen	-12.5581
▁hamster	-12.5581
▁Peace	-12.5581
▁perseverance	-12.5581
▁Games	-12.5581
▁vouch	-12.5581
▁appreciation	-12.5581
▁dioxide	-12.5581
▁sincerity	-12.5581
▁currency	-12.5581
▁defensive	-12.5581
esteem	-12.5581
▁bodyguard	-12.5581
▁automatically	-12.5581
▁Minister	-12.5581
▁Sachiko	-12.5581
▁bullied	-12.5581
▁Bridge	-12.5581
▁calculator	-12.5581
▁muggy	-12.5581
▁campfire	-12.5581
▁cherishe	-12.5581
▁interfering	-12.5581
▁Kumi	-12.5581
▁nagging	-12.5581
▁Twenty	-12.5581
▁unfriendly	-12.5581
▁rainbow	-12.5581
▁uncommon	-12.5581
▁laboratory	-12.5581
▁situat	-12.5581
▁retiring	-12.5582
▁invaders	-12.5582
▁grandma	-12.5582
▁oysters	-12.5582
▁Court	-12.5582
▁comfortably	-12.5582
▁motionless	-12.5582
▁overwhelmed	-12.5582
▁whisky	-12.5582
▁trailer	-12.5582
▁whereabouts	-12.5582
▁dormitory	-12.5582
▁moonlight	-12.5583
▁voting	-12.5583
▁pox	-12.5583
▁uninteresting	-12.5583
▁2003	-12.5583
▁Square	-12.5583
▁conviction	-12.5583
▁courageous	-12.5583
▁detest	-12.5583
▁baffled	-12.5583
▁panicked	-12.5583
▁lifeguard	-12.5584
▁irritating	-12.5584
▁lifestyle	-12.5584
▁tuition	-12.5584
▁grace	-12.5584
▁giggled	-12.5584
▁Girl	-12.5584
▁implying	-12.5584
▁Aoi	-12.5584
▁forgiveness	-12.5584
▁fanatic	-12.5585
▁fluid	-12.5585
▁powerless	-12.5585
▁trimmed	-12.5585
▁Juan	-12.5586
▁workaholic	-12.5586
▁processor	-12.5586
▁specialty	-12.5586
▁mentally	-12.5586
▁poetry	-12.5586
▁hallway	-12.5586
▁prudent	-12.5587
▁supportive	-12.5587
▁intentionally	-12.5587
▁throne	-12.5587
▁Computer	-12.5587
▁presentation	-12.5588
▁urban	-12.5588
▁soaked	-12.5588
▁Luis	-12.5588
▁Joan	-12.5589
▁breakdown	-12.5589
▁branches	-12.559
▁racing	-12.559
▁prediction	-12.559
▁mower	-12.559
▁tiptoe	-12.5591
▁bugged	-12.5591
▁Romania	-12.5591
▁shoelaces	-12.5591
▁bravery	-12.5591
▁Beatles	-12.5591
▁mental	-12.5592
▁braces	-12.5592
▁chilly	-12.5593
▁update	-12.5594
▁priceless	-12.5594
upper	-12.5594
▁Bread	-12.5595
▁straightened	-12.5595
▁gambler	-12.5595
▁methodical	-12.5595
▁educational	-12.5596
▁frightening	-12.5596
▁pointless	-12.5596
▁favorable	-12.5597
▁insured	-12.5597
▁sharpen	-12.5598
▁supporters	-12.5599
▁decreased	-12.56
▁porter	-12.56
▁Johnny	-12.5601
▁briefly	-12.5601
▁chef	-12.5603
▁departed	-12.5605
▁peeled	-12.5605
▁proportion	-12.5606
▁vulnerable	-12.5606
▁routine	-12.5606
▁dreadful	-12.5606
▁readily	-12.5607
▁eyebrows	-12.5608
▁productive	-12.5609
▁grind	-12.5609
▁literally	-12.561
▁assemble	-12.5612
▁printing	-12.5612
per	-12.5613
▁eagerly	-12.5613
▁Must	-12.5614
▁treason	-12.5614
▁Need	-12.5617
▁coughed	-12.5617
ako	-12.5619
▁plus	-12.562
G	-12.562
▁impos	-12.562
▁carelessly	-12.5621
▁quicker	-12.5622
▁convict	-12.5622
▁saint	-12.5625
▁foundation	-12.5625
▁ingredients	-12.5625
▁cracking	-12.5626
▁oneself	-12.5626
▁turtles	-12.5626
▁artificial	-12.5627
▁Land	-12.5629
▁toy	-12.5633
▁grant	-12.5634
▁spin	-12.5635
▁boasts	-12.5636
lousy	-12.5636
▁seasons	-12.5639
▁retreat	-12.5642
▁stinks	-12.5647
▁descend	-12.5648
▁guaranteed	-12.5648
▁coke	-12.565
▁session	-12.565
▁interviewed	-12.565
▁blast	-12.5652
ichi	-12.5653
▁straighten	-12.5655
▁calmly	-12.566
▁admirer	-12.5663
▁memorized	-12.5663
▁moody	-12.5664
▁Senat	-12.5664
treating	-12.5664
▁Anna	-12.5669
▁melts	-12.5673
▁indifferent	-12.5674
▁touches	-12.5674
▁prohibit	-12.5676
▁conquer	-12.568
▁heroes	-12.5681
▁dances	-12.5683
▁n	-12.5683
▁banker	-12.5685
▁aloud	-12.5686
▁zone	-12.5686
▁challenged	-12.5689
▁honored	-12.569
▁chapters	-12.5695
▁Rose	-12.5695
▁whales	-12.5698
▁balanced	-12.57
▁Sir	-12.5701
▁evident	-12.5702
▁confine	-12.5703
▁Forgive	-12.5705
▁pier	-12.5705
zipped	-12.571
▁simpler	-12.5712
▁Juliet	-12.5714
▁dragg	-12.5715
▁blinded	-12.5717
▁watered	-12.5719
▁gown	-12.5725
▁servants	-12.5728
▁pigeons	-12.573
▁sc	-12.5736
▁advantages	-12.574
that	-12.574
▁laps	-12.5741
▁donuts	-12.5745
▁badge	-12.5745
▁Abo	-12.5746
▁Boil	-12.5758
▁errands	-12.5764
▁qui	-12.5769
▁True	-12.5783
▁hasty	-12.5784
▁horns	-12.5792
▁antiques	-12.5798
▁chop	-12.5798
▁handles	-12.5801
▁tray	-12.5804
▁Cook	-12.581
▁licked	-12.5816
▁opponents	-12.5817
▁proficien	-12.5818
▁tales	-12.5818
never	-12.5819
▁reporters	-12.5825
▁slaves	-12.5833
▁Po	-12.5833
▁gladly	-12.5836
▁investments	-12.5852
▁tours	-12.5852
▁jo	-12.5853
▁daylight	-12.5862
▁learner	-12.5867
▁Nati	-12.5871
other	-12.5878
ided	-12.5882
board	-12.5888
▁dwell	-12.5893
▁cents	-12.5899
▁spit	-12.5904
ig	-12.5907
▁hay	-12.5916
▁comics	-12.5922
▁ne	-12.5938
▁j	-12.5944
▁floats	-12.5945
torical	-12.5955
reakfast	-12.5956
▁raises	-12.596
▁Di	-12.5965
thing	-12.5968
▁outgoing	-12.5968
▁Fall	-12.5969
▁sw	-12.5984
▁elbows	-12.599
boo	-12.5996
▁Personal	-12.5996
▁Ba	-12.6
▁33	-12.6014
ions	-12.602
▁partners	-12.6022
▁unpack	-12.6026
10	-12.6028
▁bait	-12.6031
▁vest	-12.6038
ou	-12.6048
▁Hard	-12.6051
▁Years	-12.6057
▁buyer	-12.6067
▁pointing	-12.6074
▁objections	-12.6077
away	-12.6087
life	-12.6093
▁bum	-12.6093
▁contradict	-12.6098
dy	-12.6103
▁hers	-12.6123
ows	-12.6123
▁Far	-12.6141
▁puzzles	-12.6142
▁cycle	-12.6143
unch	-12.6144
▁visibl	-12.6144
▁hut	-12.6148
▁sho	-12.6155
tick	-12.6187
0,	-12.6187
▁Cheer	-12.6198
ured	-12.6206
▁scores	-12.6209
▁arouse	-12.6209
ian	-12.6213
▁submit	-12.6217
▁fry	-12.6226
▁sta	-12.6236
im	-12.6242
▁ke	-12.6245
ander	-12.6248
low	-12.6249
▁tab	-12.6256
▁packs	-12.6257
▁stroll	-12.6269
▁retires	-12.627
mi	-12.6272
▁ev	-12.6293
Could	-12.6295
▁fetch	-12.6314
ts	-12.632
word	-12.6322
▁Yama	-12.6322
▁hum	-12.6347
debt	-12.635
round	-12.6351
▁relationships	-12.6356
wife	-12.6358
▁increases	-12.6366
▁brushe	-12.6366
class	-12.6378
▁disapprove	-12.6378
alking	-12.6386
▁Ski	-12.6393
▁examinations	-12.6395
▁forth	-12.6397
ug	-12.6402
some	-12.6418
▁Books	-12.6426
▁im	-12.6433
any	-12.6439
▁actors	-12.6448
▁dies	-12.6455
▁mop	-12.6468
trip	-12.6478
ler	-12.6489
▁officers	-12.6495
eat	-12.6504
She	-12.6517
▁flunk	-12.6519
▁blush	-12.6522
▁Pe	-12.6537
tripped	-12.6539
▁app	-12.6569
▁len	-12.6592
▁Ra	-12.6593
▁stocks	-12.66
▁professors	-12.663
▁partial	-12.6638
▁Dea	-12.6639
▁Kei	-12.6644
▁floors	-12.6651
let	-12.666
Kin	-12.666
▁towns	-12.667
speaking	-12.6687
where	-12.669
ely	-12.6716
▁scribble	-12.6717
Sure	-12.6723
dollar	-12.6727
cooked	-12.673
fashioned	-12.6733
▁gaz	-12.675
▁Fat	-12.6759
▁Pap	-12.6761
▁buzz	-12.6785
▁Sad	-12.6786
▁damages	-12.6791
zens	-12.6791
pon	-12.6798
▁attach	-12.6801
▁Dog	-12.6803
33	-12.6805
▁liars	-12.6815
▁freed	-12.6817
▁situations	-12.6822
tracted	-12.6834
▁sneeze	-12.6836
▁factor	-12.6847
▁digest	-12.6848
wood	-12.6849
▁pedestrian	-12.6853
▁pumpkin	-12.6854
▁encyclopedia	-12.6854
▁bubble	-12.6866
▁possession	-12.6866
▁civilization	-12.6867
▁Civil	-12.6868
▁Weather	-12.6874
▁chapter	-12.688
ha	-12.6882
▁talker	-12.6882
▁negotiation	-12.6883
arrots	-12.6889
dmission	-12.6893
▁angle	-12.6901
▁initial	-12.6911
pping	-12.6914
ouched	-12.6917
▁fa	-12.6923
▁introduc	-12.6959
▁theirs	-12.6975
▁harp	-12.6978
▁Ko	-12.6979
▁yawn	-12.698
▁disguise	-12.6983
▁embarrass	-12.6984
▁discourage	-12.6984
nounced	-12.6985
▁torture	-12.6985
▁explode	-12.6986
▁locate	-12.6986
▁abstain	-12.6992
▁National	-12.6994
▁Meet	-12.6996
▁launch	-12.6996
▁abolish	-12.6996
▁unlock	-12.6997
▁tremble	-12.6998
nding	-12.7002
▁sufficient	-12.7003
▁vivid	-12.7004
▁disorder	-12.7005
▁bombs	-12.7005
▁1,	-12.7006
ably	-12.7008
xercise	-12.7008
▁snore	-12.7009
▁frantic	-12.7009
▁extinct	-12.7009
▁corrupt	-12.7009
▁contempt	-12.7009
kraine	-12.7009
▁Barbara	-12.7009
▁Belgium	-12.7009
▁CEO	-12.7009
▁Celsius	-12.7009
▁Correct	-12.7009
▁Hakata	-12.7009
▁Hakone	-12.7009
▁Hitler	-12.7009
▁Jordan	-12.7009
▁Mandarin	-12.7009
▁Museum	-12.7009
▁Obama	-12.7009
▁Panama	-12.7009
▁Sasayama	-12.7009
▁Selena	-12.7009
▁Shibuya	-12.7009
▁barbecue	-12.7009
▁bewildered	-12.7009
▁cholesterol	-12.7009
▁cocaine	-12.7009
▁crutches	-12.7009
▁destruction	-12.7009
▁dishwasher	-12.7009
▁distraught	-12.7009
▁epidemic	-12.7009
▁exaggeration	-12.7009
▁fabric	-12.7009
▁fundamental	-12.7009
▁inseparable	-12.7009
▁irresistible	-12.7009
▁mammal	-12.7009
▁margarine	-12.7009
▁paralyzed	-12.7009
▁peculiar	-12.7009
▁premonition	-12.7009
▁rhetorical	-12.7009
▁sloppy	-12.7009
▁sneezing	-12.7009
▁spectacular	-12.7009
▁swollen	-12.7009
▁transplant	-12.7009
▁trophy	-12.7009
▁unavoidable	-12.7009
▁unbiased	-12.7009
▁unplugg	-12.7009
▁yogurt	-12.7009
▁Animals	-12.7009
▁Edison	-12.7009
▁Matsuyama	-12.7009
▁Pedro	-12.7009
▁abreast	-12.7009
▁banjo	-12.7009
▁delirious	-12.7009
▁grumbling	-12.7009
▁messenger	-12.7009
▁occupation	-12.7009
▁parlor	-12.7009
▁registration	-12.7009
▁summoned	-12.7009
▁superficial	-12.7009
▁Caesar	-12.7009
▁breeze	-12.7009
▁confusion	-12.7009
▁hesitation	-12.7009
▁scheme	-12.7009
▁snooze	-12.7009
▁assault	-12.7009
▁grandpa	-12.7009
▁diabetic	-12.7009
▁grief	-12.7009
▁prosperity	-12.7009
▁recognition	-12.7009
▁Laura	-12.7009
▁Truman	-12.7009
▁amusement	-12.7009
▁starvation	-12.7009
▁unacceptable	-12.7009
▁Goodbye	-12.701
▁schizophrenic	-12.701
▁Polish	-12.701
CR	-12.701
▁Chuck	-12.701
▁observant	-12.701
▁audition	-12.701
▁lemonade	-12.701
▁stereo	-12.701
▁rehearsal	-12.701
▁Second	-12.701
▁altitude	-12.701
▁plumber	-12.701
▁Plastic	-12.701
▁delusional	-12.701
▁whatsoever	-12.701
▁bassoon	-12.701
▁buddy	-12.701
▁cheeseburger	-12.701
▁philosopher	-12.701
▁stressful	-12.701
▁humble	-12.701
▁terminal	-12.701
▁deceased	-12.701
▁revenge	-12.701
▁cheesecake	-12.701
▁adorable	-12.701
▁reduction	-12.701
▁bonus	-12.701
▁leopard	-12.701
▁disappearance	-12.701
▁universal	-12.701
▁shattered	-12.701
▁Empire	-12.701
▁greasy	-12.701
▁disrespectful	-12.701
▁Harrison	-12.701
▁Kathy	-12.701
▁unemployment	-12.701
▁pension	-12.701
▁courtesy	-12.701
▁overconfident	-12.701
▁unarmed	-12.701
▁membership	-12.701
▁sightseeing	-12.701
▁Avenue	-12.701
▁convention	-12.701
▁zipper	-12.701
▁jammed	-12.701
▁civilian	-12.701
▁drugged	-12.7011
▁chubby	-12.7011
▁tractor	-12.7011
▁receptionist	-12.7011
▁enlisted	-12.7011
▁snapped	-12.7011
▁introverted	-12.7011
▁scrubbed	-12.7011
▁cockroaches	-12.7011
▁conceited	-12.7011
▁jaw	-12.7011
▁sexy	-12.7011
▁steel	-12.7011
▁refusal	-12.7011
▁cooperating	-12.7011
▁shivering	-12.7011
▁riddle	-12.7011
▁prospect	-12.7011
overty	-12.7011
▁underwear	-12.7012
▁fireworks	-12.7012
▁Martin	-12.7012
▁moderate	-12.7012
▁crocodile	-12.7012
▁cupboard	-12.7012
▁2010	-12.7012
▁refreshing	-12.7012
▁clinic	-12.7012
▁shrine	-12.7012
▁Clearly	-12.7012
▁impartial	-12.7012
▁dazed	-12.7013
▁invalid	-12.7013
▁architecture	-12.7013
▁apologizing	-12.7013
▁nightclub	-12.7013
▁volcano	-12.7013
▁excluded	-12.7013
ame	-12.7013
ncle	-12.7014
▁tulips	-12.7014
▁wrestler	-12.7014
▁weaknesses	-12.7014
▁meaningless	-12.7014
▁Orange	-12.7014
▁noticing	-12.7015
▁Karen	-12.7015
▁distressed	-12.7015
▁folder	-12.7015
▁debating	-12.7015
▁Diet	-12.7015
▁passionately	-12.7017
▁entertained	-12.7017
▁bragging	-12.7017
▁120	-12.7017
▁overreacting	-12.7017
▁crooked	-12.7017
▁transported	-12.7017
▁unbearable	-12.7017
▁hopeful	-12.7018
▁untidy	-12.7018
▁melting	-12.7018
▁underwater	-12.7018
▁barrel	-12.702
xperience	-12.702
▁Carlo	-12.702
▁conform	-12.702
▁saddle	-12.702
▁workshop	-12.702
▁shelves	-12.702
▁bounced	-12.702
▁inconvenient	-12.7021
▁devil	-12.7021
▁tariffs	-12.7021
▁explorers	-12.7021
▁shortcomings	-12.7021
▁madman	-12.7022
▁exhausting	-12.7023
▁combined	-12.7023
▁Line	-12.7023
▁intervened	-12.7024
▁alright	-12.7024
▁Mario	-12.7025
▁racist	-12.7025
▁rebellion	-12.7026
▁checkers	-12.7026
▁honorable	-12.7028
▁confide	-12.7028
▁operating	-12.7029
▁erase	-12.703
▁bedside	-12.7031
▁explored	-12.7032
▁bitterly	-12.7034
▁investing	-12.7034
▁machinery	-12.7036
▁Taste	-12.7036
▁squash	-12.7036
▁confidential	-12.7037
▁strongest	-12.7037
▁decay	-12.7038
ey	-12.7039
▁rolling	-12.704
▁resolved	-12.7042
▁sunburn	-12.7042
▁sighed	-12.7043
▁roughly	-12.705
▁Fa	-12.7051
▁gorilla	-12.7051
▁teased	-12.7052
▁beforehand	-12.7052
▁Gate	-12.7053
▁agreeable	-12.7055
ings	-12.7055
▁courses	-12.7056
uccess	-12.7058
▁soared	-12.7059
▁mustard	-12.706
▁bravely	-12.706
▁dealer	-12.7062
▁Frankl	-12.7062
▁engineering	-12.7065
aring	-12.7065
▁dinosaurs	-12.7066
▁denie	-12.7068
▁spra	-12.7073
▁grams	-12.7074
▁Scott	-12.7076
▁pushy	-12.7079
▁Meat	-12.7081
▁achievements	-12.7081
▁foul	-12.7082
▁Paula	-12.7082
▁crane	-12.7085
▁riser	-12.7091
▁Pack	-12.7093
▁arose	-12.7093
▁quarreled	-12.7103
▁stoop	-12.7103
▁scam	-12.7105
▁sting	-12.7105
▁spreading	-12.7117
▁digit	-12.7119
▁sustain	-12.7119
urned	-12.712
▁beaches	-12.712
▁vehicles	-12.7122
bringing	-12.7123
ium	-12.7125
▁Certainly	-12.7126
▁initials	-12.7126
▁angles	-12.7128
▁chart	-12.7128
▁mule	-12.713
▁Dry	-12.7134
▁disclose	-12.7142
moto	-12.7145
▁bloody	-12.7146
▁compromised	-12.7147
▁pandas	-12.7148
wrapped	-12.7151
▁stern	-12.7151
R	-12.7152
▁intent	-12.7153
ade	-12.7166
▁Horse	-12.7166
▁realise	-12.7168
▁Beer	-12.7169
mounted	-12.7171
▁endless	-12.7175
▁boast	-12.7179
▁scraps	-12.7183
▁stormy	-12.7185
▁motives	-12.7193
inning	-12.7194
▁knot	-12.7194
▁identifie	-12.7197
▁Mona	-12.72
▁failing	-12.7202
▁hanger	-12.7204
▁ironic	-12.7217
▁ax	-12.7221
▁fears	-12.7223
▁recommendations	-12.7223
▁attacks	-12.7226
▁regrett	-12.7227
▁mince	-12.723
▁soundly	-12.7237
▁exhibits	-12.7242
▁fists	-12.7243
▁Asians	-12.7244
▁solo	-12.7246
▁conve	-12.7247
▁freezes	-12.7248
▁Cars	-12.7248
▁Way	-12.725
nine	-12.7259
▁samples	-12.7259
▁suspects	-12.726
▁freely	-12.727
raveling	-12.7275
▁majors	-12.7276
wards	-12.7282
▁procedures	-12.7284
▁reforms	-12.7289
▁23	-12.7291
▁bugs	-12.7291
▁drill	-12.73
▁moves	-12.7304
▁carp	-12.7308
▁mor	-12.7311
▁cons	-12.7311
▁compet	-12.732
▁hamburgers	-12.7325
▁specialize	-12.7345
▁finest	-12.7349
▁shots	-12.7372
▁kn	-12.7399
▁Sales	-12.74
nyway	-12.7406
▁fl	-12.741
▁prey	-12.7414
▁Translat	-12.7416
▁Gue	-12.7421
▁Beat	-12.7431
ney	-12.7434
▁belly	-12.744
▁Ana	-12.7453
▁insults	-12.7459
ure	-12.7462
▁Ch	-12.7466
▁lions	-12.7483
▁provoke	-12.7484
▁threats	-12.7488
ovie	-12.7489
T	-12.7519
▁strip	-12.7524
place	-12.7527
▁Carr	-12.7539
ened	-12.755
ba	-12.7551
▁mock	-12.7551
▁reader	-12.7551
▁Ya	-12.7559
▁tickle	-12.756
▁translations	-12.7567
There	-12.757
▁candid	-12.7578
priced	-12.7582
ors	-12.7584
▁peppers	-12.7607
lly	-12.7614
▁medic	-12.7615
▁unload	-12.7631
▁remed	-12.7639
ency	-12.7639
ut	-12.7643
opping	-12.7659
tted	-12.7683
▁essays	-12.7688
▁pose	-12.769
shi	-12.7703
▁par	-12.7707
eachers	-12.7725
▁detectives	-12.7728
▁Farm	-12.7734
lie	-12.776
put	-12.7768
▁flock	-12.7768
▁industrial	-12.7772
▁nest	-12.7775
▁honors	-12.7788
▁misunderstand	-12.7791
▁disagrees	-12.7796
▁era	-12.78
▁duff	-12.7809
▁blaz	-12.7819
▁overestimate	-12.7826
rink	-12.7829
▁bullets	-12.7833
▁swears	-12.7835
abies	-12.7866
▁gut	-12.7867
we	-12.7869
ore	-12.7882
▁screams	-12.7902
▁ta	-12.7929
▁cu	-12.793
▁erect	-12.7943
off	-12.7945
▁Prim	-12.7953
▁Democrat	-12.7959
▁lover	-12.796
▁da	-12.7975
▁tails	-12.7994
▁Ladi	-12.7996
located	-12.7999
lipped	-12.8009
raw	-12.801
▁appearances	-12.801
▁hack	-12.8016
▁Fort	-12.8022
void	-12.8027
▁plum	-12.8032
▁hospitals	-12.8037
▁winds	-12.8054
▁stumble	-12.8063
de	-12.8067
F	-12.8074
rush	-12.8084
▁pad	-12.8098
▁judg	-12.8116
▁tha	-12.813
▁Ki	-12.8149
▁Tak	-12.8161
▁overcom	-12.8167
pelled	-12.8167
duct	-12.8176
▁fighter	-12.8182
▁snob	-12.8187
▁drawers	-12.8192
▁flee	-12.82
▁Naka	-12.82
▁Iraq	-12.8207
six	-12.8207
Don	-12.8208
veral	-12.8218
nit	-12.8226
▁applie	-12.8227
▁mon	-12.8236
covered	-12.8249
run	-12.8256
▁blade	-12.827
him	-12.8271
▁thesis	-12.8271
▁pleasures	-12.8271
▁sole	-12.8272
▁hills	-12.8282
▁poke	-12.8288
native	-12.8289
emphasized	-12.8296
nel	-12.8308
▁Se	-12.831
rgent	-12.8323
▁pursu	-12.8324
ri	-12.8328
election	-12.8335
nother	-12.8338
▁hens	-12.8351
ious	-12.8352
▁Real	-12.8369
about	-12.8373
▁sniff	-12.8393
▁gr	-12.8396
wide	-12.8396
▁homes	-12.8397
boiled	-12.8405
ged	-12.8406
▁swamp	-12.8411
fourth	-12.8415
▁clip	-12.8419
ise	-12.8421
▁Prepar	-12.843
▁engines	-12.8449
K	-12.8452
airy	-12.8457
la	-12.849
▁Julia	-12.8495
cent	-12.8496
▁prejudice	-12.8501
▁emotion	-12.8504
rospect	-12.8504
▁Suppos	-12.8512
▁Julie	-12.8514
▁dialect	-12.852
▁lobster	-12.852
Mary	-12.852
▁shortcut	-12.8522
▁dodge	-12.8523
▁classic	-12.8527
▁souvenir	-12.8532
▁wagon	-12.8533
▁employer	-12.8537
▁pirate	-12.854
▁paramedic	-12.8544
▁creature	-12.8544
▁jewel	-12.8545
▁vehicle	-12.8545
▁Inca	-12.8548
▁instinct	-12.8548
▁kilometer	-12.8548
▁preparation	-12.8549
▁panda	-12.8549
▁relation	-12.8551
▁prayer	-12.8555
▁Ke	-12.8561
▁slap	-12.8569
▁backward	-12.8571
test	-12.8576
▁snap	-12.8581
▁blossom	-12.8582
warded	-12.8586
▁Chance	-12.8587
▁pickpocket	-12.8588
▁slit	-12.8596
stern	-12.8601
seven	-12.8617
▁melon	-12.8633
▁explore	-12.8639
▁Liv	-12.8645
▁compensate	-12.8647
▁venture	-12.8648
▁reschedule	-12.8648
▁decrease	-12.865
▁preserve	-12.8655
▁devote	-12.8655
▁dedicate	-12.866
▁monitor	-12.8661
▁acquaint	-12.8662
▁zip	-12.8663
za	-12.8663
▁qual	-12.8665
▁tempt	-12.8666
▁diagnos	-12.8668
▁Luck	-12.867
▁hysterical	-12.8671
▁Certain	-12.8671
▁despi	-12.8672
welve	-12.8674
▁Friends	-12.8676
▁dramatic	-12.8676
▁eccentric	-12.8676
▁Akira	-12.8676
▁Alaska	-12.8676
▁Ankara	-12.8676
▁Antarctic	-12.8676
▁Basque	-12.8676
▁Beauty	-12.8676
▁Beethoven	-12.8676
▁Berber	-12.8676
▁Building	-12.8676
▁Congratulations	-12.8676
▁Denmark	-12.8676
▁Fukuoka	-12.8676
▁Geneva	-12.8676
▁Government	-12.8676
▁Hashimoto	-12.8676
▁Madrid	-12.8676
▁Malaysia	-12.8676
▁Moscow	-12.8676
▁Mozart	-12.8676
▁Nagasaki	-12.8676
▁Netherlands	-12.8676
▁Norwegian	-12.8676
▁Public	-12.8676
▁Shikoku	-12.8676
▁Shizuoka	-12.8676
▁adjourned	-12.8676
▁aerobics	-12.8676
▁auditorium	-12.8676
▁autopsy	-12.8676
▁bizarre	-12.8676
▁blizzard	-12.8676
▁buddies	-12.8676
▁caviar	-12.8676
▁characteristic	-12.8676
▁clumsy	-12.8676
▁coconut	-12.8676
▁controversial	-12.8676
▁cremated	-12.8676
▁emergencies	-12.8676
▁episode	-12.8676
▁flabbergasted	-12.8676
▁fracture	-12.8676
▁humiliating	-12.8676
▁hybrid	-12.8676
▁immense	-12.8676
▁inconsiderate	-12.8676
▁indispensable	-12.8676
▁inflexible	-12.8676
▁invisible	-12.8676
▁irregular	-12.8676
▁kimono	-12.8676
▁moderation	-12.8676
▁obstruct	-12.8676
▁painkiller	-12.8676
▁profusely	-12.8676
▁razor	-12.8676
▁reassuring	-12.8676
▁stewardess	-12.8676
▁temporarily	-12.8676
▁terrifying	-12.8676
▁unforgettable	-12.8676
▁untrustworthy	-12.8676
▁vulgar	-12.8676
▁Georgia	-12.8676
▁Monica	-12.8676
▁Naomi	-12.8676
▁abhor	-12.8676
▁finicky	-12.8676
▁lettuce	-12.8676
▁sculpture	-12.8676
▁sedative	-12.8676
▁Airlines	-12.8676
▁Grandpa	-12.8676
▁auction	-12.8676
▁groggy	-12.8676
▁identification	-12.8676
▁inferior	-12.8676
▁integrity	-12.8676
▁melody	-12.8676
▁plastered	-12.8676
▁Competition	-12.8676
▁asthma	-12.8676
▁exploring	-12.8676
▁imaginative	-12.8676
▁landscape	-12.8676
▁Arctic	-12.8676
▁Milton	-12.8676
▁laziness	-12.8676
▁context	-12.8676
▁external	-12.8676
▁geography	-12.8676
▁oboe	-12.8676
▁Gomez	-12.8676
▁abnormal	-12.8676
▁friction	-12.8676
▁incurable	-12.8676
▁marvelous	-12.8676
▁Fifth	-12.8676
▁Grandmother	-12.8676
▁Pochi	-12.8676
▁cathedral	-12.8676
▁displeased	-12.8676
▁embarrassment	-12.8676
▁Biwa	-12.8676
▁Grandma	-12.8676
▁requirements	-12.8676
▁unsophisticated	-12.8676
▁warehouse	-12.8676
▁accordion	-12.8676
▁assertive	-12.8676
▁linguistics	-12.8676
▁boycott	-12.8676
▁Flash	-12.8676
▁comedian	-12.8676
▁illiterate	-12.8676
▁corruption	-12.8676
▁cemetery	-12.8676
▁powder	-12.8676
▁eliminate	-12.8676
▁foggy	-12.8676
▁iceberg	-12.8676
▁clogged	-12.8676
▁Northern	-12.8676
▁authorities	-12.8676
▁humidity	-12.8676
▁crunch	-12.8676
▁ethnic	-12.8676
▁diagram	-12.8676
▁grinning	-12.8676
▁citizenship	-12.8676
▁northern	-12.8676
▁bygones	-12.8677
▁obese	-12.8677
▁Richard	-12.8677
ietnamese	-12.8677
▁cashier	-12.8677
▁index	-12.8677
▁shrank	-12.8677
▁beneath	-12.8677
▁unhealthy	-12.8677
▁unsolved	-12.8677
▁waltz	-12.8677
▁Anderson	-12.8677
▁random	-12.8677
▁trivial	-12.8677
▁gravy	-12.8677
▁determination	-12.8677
▁colonies	-12.8677
▁leadership	-12.8677
▁Milan	-12.8677
▁curb	-12.8677
▁Hawking	-12.8677
▁unnoticed	-12.8677
▁peasant	-12.8677
▁browser	-12.8677
▁statesman	-12.8677
▁storage	-12.8677
▁detour	-12.8677
▁hugging	-12.8677
▁defenseless	-12.8677
▁Argentina	-12.8677
▁seasick	-12.8677
▁feverish	-12.8677
▁detained	-12.8678
▁gangster	-12.8678
▁undressing	-12.8678
▁brainwashed	-12.8678
▁omelet	-12.8678
▁panting	-12.8678
▁wolves	-12.8678
▁decode	-12.8678
▁unzipped	-12.8678
▁blessed	-12.8678
▁lenses	-12.8678
▁dynamite	-12.8678
▁overwhelming	-12.8678
▁underground	-12.8678
▁nametag	-12.8678
▁freight	-12.8678
▁documentary	-12.8678
▁tequila	-12.8678
▁peaches	-12.8678
▁Gulf	-12.8678
▁Coast	-12.8679
▁smartphone	-12.8679
▁negotiator	-12.8679
▁giant	-12.8679
▁lovable	-12.8679
▁exhaled	-12.8679
▁stalled	-12.8679
▁sobbing	-12.8679
▁courtroom	-12.8679
▁complicate	-12.868
▁Burr	-12.868
▁saxophone	-12.868
▁hydro	-12.868
▁darts	-12.868
▁Nile	-12.868
▁restricted	-12.868
▁alleged	-12.868
▁fearless	-12.8681
▁Surely	-12.8681
▁Center	-12.8681
▁Rosa	-12.8681
ilence	-12.8681
▁indulge	-12.8682
▁medium	-12.8682
▁guidebook	-12.8682
▁entertaining	-12.8683
▁selected	-12.8683
▁Report	-12.8683
▁chili	-12.8683
▁consultant	-12.8683
▁tightened	-12.8684
▁Lucky	-12.8684
▁Practic	-12.8684
▁daydreaming	-12.8684
▁curly	-12.8685
▁pastime	-12.8686
▁Loose	-12.8686
▁communist	-12.8686
▁insensitive	-12.8687
▁elegant	-12.8687
▁glared	-12.8687
▁sharing	-12.8688
▁arithmetic	-12.8689
▁affirm	-12.8689
▁unsaid	-12.8689
▁pedal	-12.8689
powered	-12.8689
▁genetic	-12.869
▁disadvantages	-12.869
▁Newspapers	-12.869
▁blushing	-12.869
▁sharpening	-12.8691
▁passive	-12.8691
▁Hope	-12.8691
▁beverage	-12.8691
▁Forty	-12.8691
▁consumed	-12.8691
▁nick	-12.8692
isiting	-12.8692
▁wrinkles	-12.8692
▁trans	-12.8692
▁antibiotics	-12.8694
▁trail	-12.8694
▁blinking	-12.8694
▁hideous	-12.8694
▁accuracy	-12.8696
▁inquired	-12.8696
▁fluor	-12.8696
▁agony	-12.8698
▁chatt	-12.8698
▁continuous	-12.8698
1.	-12.8699
▁connecting	-12.8699
▁cheerfully	-12.8699
▁smack	-12.8699
▁unsuccessful	-12.8699
▁rattled	-12.87
▁overworked	-12.87
▁violently	-12.8701
▁booth	-12.8702
▁renewed	-12.8703
▁physically	-12.8703
▁disappearing	-12.8703
▁polished	-12.8704
03	-12.8706
▁blend	-12.8706
▁civilized	-12.8706
▁Pres	-12.8706
▁exceeding	-12.8708
▁fifteenth	-12.8708
▁rental	-12.8709
▁stunning	-12.871
▁brandy	-12.871
▁wrestling	-12.8711
▁pounding	-12.8711
▁profile	-12.8712
▁Louis	-12.8713
▁Mid	-12.8713
▁defects	-12.8713
▁Muslims	-12.8714
▁bulk	-12.8715
▁dishonor	-12.8715
▁sub	-12.8716
▁unlike	-12.8716
▁virtue	-12.8721
▁mole	-12.8721
▁probable	-12.8722
▁wrecked	-12.8722
▁Hall	-12.8726
▁ranch	-12.8728
▁spying	-12.8729
▁breed	-12.873
▁rail	-12.873
▁curve	-12.873
▁leaking	-12.8731
▁sirens	-12.8732
three	-12.8732
aching	-12.8736
▁minerals	-12.8737
▁recalled	-12.8738
emocracy	-12.8739
300,000	-12.874
▁healed	-12.8741
▁commander	-12.8742
▁consumes	-12.8743
▁calf	-12.8743
▁revolve	-12.8748
▁Edo	-12.8749
▁meantime	-12.8752
▁texting	-12.8753
▁endeavors	-12.8753
▁Salt	-12.8755
eddy	-12.8756
▁overwork	-12.8757
▁sizes	-12.8758
▁firing	-12.8762
wa	-12.8763
▁Climb	-12.8763
▁Wind	-12.8768
▁Pri	-12.8768
▁obedient	-12.877
upplies	-12.8771
▁gallons	-12.8771
▁ugli	-12.8772
njam	-12.8774
▁31	-12.8774
▁academic	-12.8775
▁kilos	-12.8777
eath	-12.8781
eval	-12.8783
▁spine	-12.8783
▁peep	-12.8785
▁Frenchman	-12.8785
▁features	-12.8786
▁vi	-12.879
▁jealousy	-12.8795
ept	-12.8802
comprehend	-12.8804
▁vices	-12.8807
▁creatures	-12.881
▁pickpockets	-12.8811
▁paramedics	-12.8811
▁donations	-12.8814
▁bells	-12.8816
▁sponge	-12.8818
▁wives	-12.882
inosaurs	-12.8822
terior	-12.8822
ifferent	-12.8833
▁quieter	-12.8834
▁poorer	-12.8839
▁outlook	-12.8842
▁influenced	-12.885
alley	-12.8853
▁halt	-12.8862
▁traded	-12.8865
▁cola	-12.887
▁vital	-12.887
▁Romeo	-12.8874
▁medi	-12.8875
▁kites	-12.8876
ncient	-12.8878
un	-12.8884
▁mushrooms	-12.8886
▁keen	-12.8892
▁Hide	-12.8899
▁limb	-12.8902
replaceable	-12.8903
▁stuffy	-12.8907
▁bragg	-12.8912
▁camels	-12.8915
▁marketing	-12.8917
ware	-12.8924
▁lemons	-12.8927
▁arise	-12.8928
▁stains	-12.8937
▁glanc	-12.8951
▁shadows	-12.8952
▁sails	-12.8953
▁accounting	-12.8958
▁ultimate	-12.8965
▁pressured	-12.8965
▁failures	-12.8969
▁reviews	-12.8969
▁Sum	-12.8972
▁unfi	-12.8978
▁scales	-12.8982
▁steer	-12.8983
▁seal	-12.8986
ue	-12.8986
23	-12.899
▁dough	-12.899
▁headaches	-12.8991
▁cable	-12.8999
quet	-12.9004
▁Cal	-12.9017
▁showered	-12.9022
▁screws	-12.9034
▁ru	-12.9035
▁earning	-12.9042
ab	-12.9051
▁daytime	-12.9053
▁miracles	-12.9055
▁Plant	-12.9061
▁elements	-12.9064
2,	-12.9072
shed	-12.9073
▁blondes	-12.9074
▁benefits	-12.9075
▁bro	-12.9076
▁tonic	-12.9085
▁calculate	-12.9089
▁ants	-12.9097
▁buttons	-12.9099
ternal	-12.91
▁acquaintances	-12.9102
air	-12.9103
tapping	-12.9113
saw	-12.9115
▁possib	-12.9115
▁distances	-12.9127
▁accompani	-12.9127
working	-12.9131
▁spoons	-12.9135
▁benefi	-12.9138
▁Greeks	-12.9148
lined	-12.9153
▁Math	-12.9168
▁console	-12.9174
▁vegetarians	-12.9174
▁noises	-12.9176
▁operat	-12.9177
▁opener	-12.919
▁ruler	-12.9191
▁Elv	-12.9191
nuck	-12.9197
▁inning	-12.9198
▁generations	-12.9198
▁Sp	-12.9199
▁hurrying	-12.9216
▁umbrellas	-12.9216
▁connections	-12.9222
▁alternatives	-12.9223
▁nam	-12.9227
▁skimm	-12.9233
ontinue	-12.9236
▁borders	-12.9247
rated	-12.9254
▁blanks	-12.9267
owing	-12.9274
work	-12.9278
▁expresse	-12.9284
▁busi	-12.9291
▁honk	-12.9296
▁Pl	-12.9297
▁fools	-12.93
▁clocks	-12.9304
▁token	-12.9307
▁disasters	-12.9318
▁protests	-12.9319
▁Amy	-12.9332
▁kne	-12.9337
▁guessing	-12.9343
▁assignments	-12.9344
itch	-12.9344
▁tables	-12.9345
▁listener	-12.9348
has	-12.9362
ni	-12.937
two	-12.9374
book	-12.9379
▁derive	-12.9382
berry	-12.9385
▁Ever	-12.9386
week	-12.9388
▁spray	-12.9392
view	-12.9396
▁circles	-12.9404
▁dais	-12.9406
▁beings	-12.9416
▁handkerchiefs	-12.9417
▁Plan	-12.9421
▁lighting	-12.9421
▁cowards	-12.9423
▁evaporate	-12.9432
▁pipes	-12.9432
▁bowls	-12.9442
▁cru	-12.9442
▁burglars	-12.9448
▁inter	-12.9452
▁limp	-12.9453
▁poster	-12.9454
que	-12.9471
30,	-12.9471
avy	-12.9472
▁swimmers	-12.9483
▁inspect	-12.9487
▁trusting	-12.9497
▁floods	-12.9518
▁insufficient	-12.9522
iffe	-12.9527
▁Ow	-12.9527
▁forks	-12.9537
▁Com	-12.9551
lowed	-12.956
▁chin	-12.956
ga	-12.9563
▁compos	-12.9569
▁warnings	-12.9577
▁cro	-12.9595
▁Masa	-12.9614
▁bou	-12.9615
▁strikes	-12.9617
rite	-12.962
val	-12.9623
▁Eli	-12.963
mple	-12.9641
▁conc	-12.9653
▁Rid	-12.9656
▁Electric	-12.9676
▁Seven	-12.9683
▁Trad	-12.9685
▁Grand	-12.9688
food	-12.9691
▁rivers	-12.9693
▁carpets	-12.9696
▁aches	-12.9719
yama	-12.9724
▁Set	-12.9726
▁lively	-12.9737
bo	-12.9737
▁levels	-12.9737
▁cramm	-12.9741
etting	-12.9748
ess	-12.9765
▁Gu	-12.9766
▁Na	-12.9767
▁Mu	-12.9787
▁coll	-12.9793
▁Asa	-12.9794
W	-12.9799
▁lane	-12.9808
▁rum	-12.9816
rge	-12.9821
▁produc	-12.9822
war	-12.9824
▁cont	-12.9824
▁taxis	-12.9826
▁spots	-12.9831
▁rowing	-12.9836
▁likeable	-12.9837
▁Canal	-12.9842
▁tame	-12.9845
▁examples	-12.9848
▁Lea	-12.985
▁dared	-12.9861
▁recit	-12.9864
ton	-12.9897
▁swarm	-12.9904
pposed	-12.9909
ars	-12.9924
ost	-12.9936
▁suggests	-12.9947
▁trim	-12.9965
▁possess	-12.9968
lowers	-12.9978
alf	-12.9986
▁chip	-12.9993
vin	-13.0006
front	-13.0006
▁packages	-13.0022
der	-13.0032
▁models	-13.0039
▁musicians	-13.0044
▁Wha	-13.0044
hood	-13.0047
▁min	-13.0059
▁incidents	-13.0066
ami	-13.0075
uttered	-13.0085
▁anticipat	-13.0087
nt	-13.0113
iling	-13.0114
▁stack	-13.0117
▁quiz	-13.0117
▁Break	-13.012
ugar	-13.0121
escent	-13.0122
▁beck	-13.014
third	-13.0145
▁numer	-13.0149
▁values	-13.0167
ickness	-13.0176
▁Har	-13.0178
uki	-13.0178
husband	-13.0181
▁Travel	-13.0184
oney	-13.0185
iding	-13.0189
▁Che	-13.0197
nze	-13.0202
ching	-13.0203
▁Know	-13.021
▁para	-13.0212
▁goose	-13.022
grandfather	-13.0221
▁compar	-13.0237
than	-13.024
▁sno	-13.0243
▁psycho	-13.025
▁Physic	-13.0267
▁Christ	-13.0281
power	-13.0295
distance	-13.0304
▁flip	-13.0321
▁scrape	-13.0322
This	-13.0323
ma	-13.0325
rung	-13.0363
know	-13.0363
blood	-13.0365
bed	-13.0366
birth	-13.037
witch	-13.037
▁marriages	-13.0378
▁imitat	-13.0383
aged	-13.0388
▁ineffective	-13.0392
▁whip	-13.0395
lung	-13.0409
thirds	-13.0417
phrase	-13.0418
▁holster	-13.0419
uke	-13.0422
▁publish	-13.0427
▁imp	-13.0446
erry	-13.0451
▁Yoshi	-13.0452
▁bathe	-13.0453
▁rattle	-13.0455
ock	-13.0467
▁dice	-13.0475
aves	-13.0477
star	-13.0495
▁nut	-13.0496
ulture	-13.0503
▁squirrel	-13.0518
▁pineapple	-13.0519
▁radical	-13.052
▁hears	-13.0522
▁structure	-13.0524
▁prevail	-13.0525
▁Whi	-13.053
▁thunderstorm	-13.0531
▁Christian	-13.0532
▁psychiatrist	-13.0532
▁giraffe	-13.0532
▁kno	-13.0536
▁misfortune	-13.0538
▁senator	-13.0538
uclear	-13.0538
▁contribution	-13.0539
▁necktie	-13.0539
▁collector	-13.0539
▁reference	-13.054
▁feature	-13.0544
▁Other	-13.0545
▁obstacle	-13.0547
▁kilogram	-13.0549
▁expand	-13.0553
▁carrot	-13.0553
▁clarif	-13.0557
ual	-13.0564
ix	-13.0565
▁rival	-13.0566
▁feather	-13.0569
▁stink	-13.0569
▁cube	-13.0569
▁alien	-13.0579
▁twist	-13.058
▁Roo	-13.0583
▁tamper	-13.0585
▁De	-13.0591
hopped	-13.0611
▁assembl	-13.0616
▁invent	-13.0625
▁wrench	-13.0632
▁rag	-13.0632
▁memoriz	-13.0635
▁budge	-13.0641
▁constitution	-13.0644
▁brag	-13.0645
▁sympathize	-13.0648
▁intimidate	-13.0649
▁engage	-13.0649
▁measur	-13.0652
ny	-13.0658
▁recycle	-13.0658
▁elect	-13.0661
▁appoint	-13.0661
▁Gar	-13.0662
▁applaud	-13.0662
▁dismiss	-13.0662
▁villa	-13.0663
▁promote	-13.0663
▁acquire	-13.0663
▁urg	-13.0665
trawberries	-13.0668
tatistics	-13.0669
▁overreact	-13.0669
Dang	-13.067
▁tactful	-13.067
▁moist	-13.067
▁cautious	-13.0671
▁destin	-13.0671
mashed	-13.0672
▁hits	-13.0674
▁dump	-13.0674
▁restore	-13.0674
▁overhear	-13.0675
▁automatic	-13.0676
▁journal	-13.0676
▁pessimist	-13.0676
▁Hiroshi	-13.0676
Tatoeba	-13.0676
▁ATM	-13.0676
▁Alcohol	-13.0676
▁Barcelona	-13.0676
▁Buddhism	-13.0676
▁Cambridge	-13.0676
▁Captain	-13.0676
▁DNA	-13.0676
▁Detroit	-13.0676
▁Honolulu	-13.0676
▁Hungarian	-13.0676
▁Joseph	-13.0676
▁Madonna	-13.0676
▁Microsoft	-13.0676
▁Nagano	-13.0676
▁Orleans	-13.0676
▁Pakistan	-13.0676
▁Philip	-13.0676
▁Serbia	-13.0676
▁Shinano	-13.0676
▁Tahiti	-13.0676
▁Takuya	-13.0676
▁Tennessee	-13.0676
▁abominabl	-13.0676
▁accelerated	-13.0676
▁adventurous	-13.0676
▁aggravat	-13.0676
▁antenna	-13.0676
▁apprehensive	-13.0676
▁aquarium	-13.0676
▁astrology	-13.0676
▁badminton	-13.0676
▁bathrobe	-13.0676
▁bond	-13.0676
▁buffalo	-13.0676
▁bureau	-13.0676
▁cassette	-13.0676
▁celebrity	-13.0676
▁ceremonies	-13.0676
▁chaperone	-13.0676
▁claustrophobic	-13.0676
▁competitors	-13.0676
▁contaminated	-13.0676
▁counterfeit	-13.0676
▁courteous	-13.0676
▁cultivate	-13.0676
▁deteriorating	-13.0676
▁earplugs	-13.0676
▁gloomy	-13.0676
▁hairdresser	-13.0676
▁handcuffs	-13.0676
▁hibernate	-13.0676
▁immoral	-13.0676
▁inconsistent	-13.0676
▁indecisive	-13.0676
▁infectious	-13.0676
▁instructed	-13.0676
▁invasion	-13.0676
▁irrational	-13.0676
▁knapsack	-13.0676
▁koala	-13.0676
▁magnitude	-13.0676
▁maximum	-13.0676
▁mischievous	-13.0676
▁nuisance	-13.0676
▁orchard	-13.0676
▁phenomenon	-13.0676
▁pneumonia	-13.0676
▁questionnaire	-13.0676
▁rectangle	-13.0676
▁residence	-13.0676
▁sashimi	-13.0676
▁sunbathing	-13.0676
▁syllable	-13.0676
▁tornado	-13.0676
▁tremendous	-13.0676
▁unimaginative	-13.0676
▁unprejudiced	-13.0676
▁unrealistic	-13.0676
▁unsociable	-13.0676
▁Birthday	-13.0676
▁Haiti	-13.0676
▁Relax	-13.0676
▁coroner	-13.0676
▁discrimination	-13.0676
▁duplicate	-13.0676
▁gauge	-13.0676
▁margin	-13.0676
▁molehill	-13.0676
▁necessities	-13.0676
▁samurai	-13.0676
▁Reagan	-13.0676
▁antagoni	-13.0676
▁gadget	-13.0676
▁hypocrite	-13.0676
▁jackpot	-13.0676
▁misconduct	-13.0676
▁motorbike	-13.0676
▁perfectionist	-13.0676
▁probability	-13.0676
▁ruthless	-13.0676
▁sermon	-13.0676
▁Murder	-13.0676
▁bookworm	-13.0676
▁demented	-13.0676
▁facilities	-13.0676
▁handicapped	-13.0676
▁motivation	-13.0676
▁Twain	-13.0676
▁aimlessly	-13.0676
▁negligence	-13.0676
▁qualities	-13.0676
▁resourceful	-13.0676
▁rubbish	-13.0676
▁unambitious	-13.0676
▁Kanda	-13.0676
▁Liberty	-13.0676
▁dedication	-13.0676
▁mattress	-13.0676
▁vicious	-13.0676
▁disrespect	-13.0676
▁gulp	-13.0676
▁hacksaw	-13.0676
▁sloshed	-13.0676
▁Rhine	-13.0676
▁mixture	-13.0676
▁skull	-13.0676
▁Croatia	-13.0676
▁Ogawa	-13.0676
▁crystal	-13.0676
▁graveyard	-13.0676
▁mischief	-13.0676
▁swindle	-13.0676
▁granddaughter	-13.0676
▁shoreline	-13.0676
▁Israel	-13.0676
▁disorganized	-13.0676
▁curfew	-13.0676
▁toothpick	-13.0676
▁commotion	-13.0676
▁Robinson	-13.0676
▁wristwatch	-13.0676
▁dictator	-13.0676
▁handcuffed	-13.0676
▁suicidal	-13.0676
▁Guys	-13.0676
▁investors	-13.0676
▁salmon	-13.0676
▁unicycle	-13.0676
▁encouragement	-13.0676
▁Beautiful	-13.0676
▁Spider	-13.0676
▁Possibly	-13.0676
▁jelly	-13.0676
▁unhappiness	-13.0676
▁videotape	-13.0676
▁disposable	-13.0676
▁employment	-13.0676
▁2013	-13.0676
▁malice	-13.0677
▁replacement	-13.0677
▁dusk	-13.0677
▁Fifty	-13.0677
▁anchor	-13.0677
▁viral	-13.0677
▁interpretation	-13.0677
▁Athens	-13.0677
▁cozy	-13.0677
▁imaginary	-13.0677
▁sedated	-13.0677
▁fluency	-13.0677
▁measles	-13.0677
▁meditating	-13.0677
▁mumbling	-13.0677
▁Roland	-13.0677
▁pocketknife	-13.0677
▁southeast	-13.0677
▁shotgun	-13.0677
▁airtight	-13.0677
▁profound	-13.0677
▁extension	-13.0677
▁prophecy	-13.0677
▁settlement	-13.0677
▁Drunk	-13.0677
▁handshake	-13.0677
▁drastic	-13.0677
▁noodles	-13.0677
▁unpopular	-13.0677
▁clueless	-13.0677
▁Ichiro	-13.0677
▁smallpox	-13.0677
▁Scout	-13.0677
▁Isabel	-13.0677
▁resistance	-13.0677
wing	-13.0677
▁Coca	-13.0677
▁skyscraper	-13.0677
▁democratic	-13.0677
▁mountaineering	-13.0677
▁Power	-13.0677
▁cheerleader	-13.0678
▁chapped	-13.0678
▁Television	-13.0678
▁complexion	-13.0678
▁inspection	-13.0678
▁violation	-13.0678
▁gender	-13.0678
▁minority	-13.0678
▁unwise	-13.0678
▁miniskirt	-13.0678
▁humorous	-13.0678
▁cranky	-13.0678
▁shiny	-13.0678
▁literal	-13.0678
▁Albert	-13.0678
▁constructive	-13.0678
▁evicted	-13.0678
▁stifle	-13.0678
▁hollow	-13.0678
▁psychologist	-13.0678
▁Written	-13.0678
▁Navy	-13.0678
▁stitches	-13.0678
▁vaccine	-13.0678
▁overcast	-13.0678
▁Atlanta	-13.0679
▁whining	-13.0679
▁extinguisher	-13.0679
▁detector	-13.0679
▁suntan	-13.0679
▁stalling	-13.0679
▁Matsu	-13.0679
▁skydiving	-13.0679
▁Ea	-13.0679
▁Corporation	-13.0679
▁impulsive	-13.0679
▁cartoon	-13.0679
▁downstream	-13.0679
▁Ireland	-13.068
▁swig	-13.068
▁unimportant	-13.068
▁itchy	-13.068
▁calculating	-13.068
▁aisle	-13.068
▁overemotional	-13.068
▁undecided	-13.068
▁untrue	-13.068
▁skillfully	-13.068
▁panel	-13.068
▁ensure	-13.068
▁123	-13.0681
▁Rich	-13.0681
▁envied	-13.0681
▁airline	-13.0681
▁nursing	-13.0681
▁endanger	-13.0681
▁3,	-13.0681
▁predictable	-13.0681
▁trample	-13.0682
▁Cool	-13.0682
▁growled	-13.0682
▁regrettable	-13.0682
▁brightened	-13.0682
▁believable	-13.0682
▁Senator	-13.0682
▁distraction	-13.0683
▁audio	-13.0683
▁canteen	-13.0683
▁Night	-13.0683
▁Ikeda	-13.0683
▁disagreeable	-13.0683
▁meteor	-13.0683
▁Marco	-13.0684
▁Later	-13.0684
▁enforce	-13.0684
▁Rats	-13.0684
▁Enter	-13.0684
▁perceive	-13.0684
▁pasture	-13.0684
▁Goro	-13.0685
▁offense	-13.0685
▁Army	-13.0685
▁revised	-13.0686
▁Blow	-13.0686
▁advisor	-13.0686
▁stung	-13.0686
▁fr	-13.0686
▁fiftie	-13.0686
▁waterfall	-13.0686
▁performer	-13.0686
▁oversight	-13.0687
▁bunk	-13.0687
▁stupidity	-13.0688
▁fashionable	-13.0688
▁managing	-13.0688
▁promptly	-13.0688
▁auto	-13.0688
▁nerd	-13.0688
▁conceive	-13.0689
▁attraction	-13.0689
▁exiled	-13.069
▁overdose	-13.069
▁bumper	-13.069
▁squad	-13.069
▁blackmailed	-13.0691
▁assets	-13.0691
▁Saint	-13.0693
▁uptight	-13.0693
▁yawning	-13.0693
asoline	-13.0694
▁spectators	-13.0694
▁nomination	-13.0694
▁chestnuts	-13.0694
▁monitored	-13.0694
▁eloquent	-13.0694
▁Suz	-13.0695
▁tiring	-13.0695
▁booze	-13.0695
▁foxes	-13.0695
▁Law	-13.0696
▁tailor	-13.0696
▁therapy	-13.0697
▁repeatedly	-13.0697
▁Through	-13.0697
▁110	-13.0698
▁crate	-13.0699
▁Job	-13.0699
▁illustrated	-13.07
▁heartless	-13.07
Donald	-13.07
▁accountable	-13.0701
▁stab	-13.0701
▁Peru	-13.0701
▁requests	-13.0701
▁troubling	-13.0702
▁hedge	-13.0702
▁virtu	-13.0702
▁drown	-13.0703
▁blunt	-13.0703
▁newsstand	-13.0703
▁lumber	-13.0703
▁intimidated	-13.0704
▁edible	-13.0704
▁sympathized	-13.0704
▁tempting	-13.0704
▁oath	-13.0704
Cola	-13.0705
▁significantly	-13.0705
▁unfairly	-13.0705
▁peach	-13.0709
marine	-13.0709
▁hatched	-13.0709
own	-13.0712
▁hatch	-13.0713
▁dozing	-13.0713
▁grey	-13.0716
upreme	-13.0716
▁illusion	-13.0716
▁nineteen	-13.0717
▁hazard	-13.0717
▁neutral	-13.0717
▁tortured	-13.0718
▁streetcar	-13.0718
▁Washing	-13.0719
▁Common	-13.0722
▁pupils	-13.0722
▁knuckles	-13.0723
▁Pray	-13.0723
▁Thirty	-13.0723
hearted	-13.0724
▁conductor	-13.0726
▁combat	-13.0727
▁trembled	-13.0727
▁producer	-13.0728
▁stretching	-13.0729
▁informal	-13.0729
▁thorns	-13.073
earch	-13.073
▁winked	-13.0732
On	-13.0733
▁err	-13.0733
▁insulting	-13.0733
▁easygoing	-13.0733
▁meddle	-13.0733
▁blooming	-13.0734
▁contemporar	-13.0735
▁astronomy	-13.0736
▁bandaged	-13.0736
▁association	-13.0736
▁miners	-13.0737
▁meanings	-13.074
▁anyplace	-13.0741
▁deeds	-13.0741
▁Mine	-13.0742
▁funnie	-13.0744
▁protesting	-13.0745
aughter	-13.0746
▁Tonight	-13.0747
▁peas	-13.0749
▁neighbours	-13.075
▁clay	-13.0751
▁fatal	-13.0752
▁reconsidered	-13.0752
▁channels	-13.0752
▁electronics	-13.0753
▁precautions	-13.0753
▁unclear	-13.0753
▁responding	-13.0753
▁arisen	-13.0755
▁benches	-13.0756
▁foolishly	-13.0757
▁meditate	-13.0757
ennis	-13.0762
32	-13.0762
▁praying	-13.0762
▁poisoning	-13.0763
▁flooding	-13.0766
▁skateboard	-13.0767
▁housing	-13.0771
▁pi	-13.0773
▁swing	-13.0773
▁Ru	-13.0776
▁heap	-13.0777
▁groom	-13.0779
▁penguins	-13.0783
▁Ready	-13.0784
▁rudely	-13.0786
▁Yuki	-13.0788
▁freshly	-13.0791
ecutive	-13.0793
▁feathers	-13.0796
orkers	-13.0796
▁experimenting	-13.0796
term	-13.0797
▁pastor	-13.0798
▁agriculture	-13.08
▁acute	-13.0801
▁Mail	-13.0802
ridden	-13.0804
▁Politic	-13.0807
magine	-13.0809
▁rap	-13.0809
▁Fox	-13.0811
▁griev	-13.0812
but	-13.0816
▁shined	-13.082
▁spelled	-13.0833
▁faked	-13.0834
▁timetable	-13.0836
▁pouring	-13.0838
▁prayers	-13.0841
▁weaving	-13.0846
▁skater	-13.0849
cule	-13.085
gnore	-13.0856
▁sticky	-13.0859
▁anthem	-13.0859
▁replying	-13.0861
gar	-13.0862
▁worms	-13.0868
▁Driver	-13.0869
▁stubb	-13.087
▁puncture	-13.087
ol	-13.0879
ph	-13.0879
ana	-13.0886
▁pear	-13.0891
▁yo	-13.0893
▁dieting	-13.0901
▁bricks	-13.0901
▁workman	-13.0902
▁gra	-13.0904
orrying	-13.0911
▁blackmail	-13.0911
▁fade	-13.0913
▁Mix	-13.0916
▁powers	-13.0919
▁lens	-13.092
li	-13.092
▁succeeds	-13.0921
▁prude	-13.0926
gest	-13.0926
▁gracious	-13.0926
ons	-13.0927
▁developments	-13.0934
▁designate	-13.0934
holstered	-13.094
▁prizes	-13.0941
▁splint	-13.0943
▁spike	-13.0944
▁melt	-13.0945
▁goats	-13.0947
▁lett	-13.095
▁repaint	-13.0961
▁costly	-13.0962
sing	-13.0962
▁Precis	-13.0963
▁Romans	-13.0967
▁translators	-13.0967
▁lodge	-13.097
gging	-13.0971
▁pearls	-13.0973
phone	-13.0973
▁piles	-13.0974
▁donation	-13.0979
▁undertake	-13.0988
0-	-13.0988
oni	-13.0992
▁clash	-13.0997
▁chocolates	-13.0998
▁links	-13.1
▁endings	-13.1003
▁hog	-13.1005
▁gums	-13.1005
▁swell	-13.102
▁inbox	-13.1021
▁nearer	-13.1023
▁traditions	-13.1027
▁Hunt	-13.103
itz	-13.1036
skinned	-13.1039
ship	-13.1044
ified	-13.1045
your	-13.1046
▁pains	-13.1048
▁markets	-13.105
▁regulate	-13.1056
▁payments	-13.106
▁Confe	-13.1064
rdly	-13.1065
▁Davi	-13.1079
▁ac	-13.1085
▁Giv	-13.1086
▁pu	-13.1087
this	-13.1087
▁reign	-13.1089
▁pope	-13.1097
hin	-13.1098
ease	-13.11
▁paged	-13.1101
▁clues	-13.1105
cially	-13.1111
▁ju	-13.1117
lying	-13.1122
▁exert	-13.1124
▁creat	-13.1131
▁Yuri	-13.1136
▁var	-13.1137
▁phrases	-13.1145
▁penetrate	-13.1163
▁journalists	-13.1171
▁adventures	-13.1171
ternet	-13.1172
ina	-13.1182
ada	-13.1187
▁timing	-13.1197
▁demonstrat	-13.1204
▁corners	-13.1208
▁Crim	-13.1226
anged	-13.1229
▁fashioned	-13.1232
tail	-13.1236
yen	-13.1239
ontrol	-13.1239
▁roommates	-13.1241
▁skates	-13.1241
▁Gr	-13.1243
▁husbands	-13.1247
retend	-13.1251
▁Br	-13.1252
▁freaks	-13.126
▁gritt	-13.1261
hard	-13.1262
▁bearing	-13.1262
ontact	-13.1267
unning	-13.1274
bar	-13.1277
ental	-13.1277
▁athletes	-13.1282
▁Bro	-13.1286
▁judges	-13.1286
mped	-13.1289
▁ambitions	-13.1291
ei	-13.1293
▁Wild	-13.1311
▁springs	-13.1316
▁Fridays	-13.1322
good	-13.1336
▁Sure	-13.1338
▁regions	-13.134
knack	-13.1341
gunned	-13.1345
▁bribes	-13.1351
▁Kat	-13.1352
English	-13.1358
serted	-13.1362
▁decorate	-13.1362
done	-13.1366
▁twinkl	-13.1368
▁signals	-13.1385
▁Jun	-13.1387
▁sleeper	-13.1388
parked	-13.1389
▁views	-13.1395
▁pla	-13.1396
▁tips	-13.1396
▁defuse	-13.141
▁statues	-13.1415
rying	-13.1454
▁Pol	-13.1455
▁unenthusiastic	-13.1461
▁nun	-13.1467
▁audit	-13.1471
H	-13.1471
▁sacr	-13.1472
▁inventions	-13.1474
▁Andre	-13.1488
▁dreamer	-13.149
Here	-13.1491
glas	-13.1494
▁Sanda	-13.1498
with	-13.1499
▁verif	-13.1502
ading	-13.1502
▁automobiles	-13.1507
▁embark	-13.1513
rept	-13.1516
▁hostil	-13.1525
ten	-13.1545
▁Kuni	-13.1545
▁allerg	-13.1547
foresee	-13.1548
▁aging	-13.1565
▁passwords	-13.1569
lease	-13.1576
ravity	-13.1583
▁kit	-13.1595
▁pasta	-13.1596
▁Bu	-13.1616
▁Eric	-13.1621
Have	-13.164
ew	-13.1642
▁Kno	-13.1644
▁dressing	-13.1652
▁News	-13.1657
▁canned	-13.1658
▁spun	-13.1662
▁religions	-13.168
▁Dark	-13.1683
kling	-13.1695
▁Sho	-13.171
▁continu	-13.1711
▁preferabl	-13.1711
▁aims	-13.1717
▁reasoning	-13.1721
▁Dra	-13.1724
boy	-13.1727
▁Employe	-13.1735
opped	-13.1735
▁provid	-13.1749
ell	-13.1762
atched	-13.1774
▁input	-13.1786
did	-13.1797
▁keeper	-13.1801
▁veto	-13.1807
▁cells	-13.1812
▁flags	-13.1815
arched	-13.1819
mile	-13.182
fetched	-13.1833
ightning	-13.1835
care	-13.1837
▁div	-13.1855
▁barbe	-13.186
▁origina	-13.1867
tress	-13.1874
▁fashions	-13.1882
▁res	-13.1889
▁spark	-13.1901
espe	-13.1909
ila	-13.1912
shot	-13.1922
▁weekly	-13.1924
▁trucks	-13.1946
great	-13.1952
uess	-13.1954
▁resembl	-13.1962
ired	-13.1966
aza	-13.1968
icked	-13.1971
▁spells	-13.1972
▁wip	-13.1979
▁fe	-13.1986
▁sprinkle	-13.199
▁proven	-13.1998
hole	-13.1999
derate	-13.2015
armers	-13.2033
▁Driv	-13.2049
▁syn	-13.2067
ast	-13.2077
ering	-13.2083
▁hail	-13.2088
▁Yo	-13.2088
▁toes	-13.2108
izing	-13.2115
elt	-13.2131
▁bra	-13.2139
▁dime	-13.2145
cer	-13.2156
prints	-13.2166
▁cuff	-13.2172
▁chi	-13.2174
▁natives	-13.218
▁lectures	-13.2187
adway	-13.2195
Japanese	-13.2199
ta	-13.2205
uck	-13.2211
ished	-13.223
▁Taj	-13.2235
very	-13.2249
▁ached	-13.2293
▁Hans	-13.2294
▁Da	-13.2296
▁steals	-13.2304
▁Ed	-13.2312
into	-13.2329
etter	-13.2335
oyal	-13.2337
▁Spend	-13.2339
wls	-13.234
aft	-13.2359
▁Ga	-13.236
▁receives	-13.2364
▁castles	-13.2373
woman	-13.2398
▁senses	-13.2408
My	-13.2411
rust	-13.2413
dn	-13.2436
wise	-13.2442
▁pil	-13.2446
▁detect	-13.2447
ump	-13.2449
rang	-13.2457
▁untied	-13.2476
serves	-13.2485
American	-13.2491
lavery	-13.2498
race	-13.2499
take	-13.2515
▁ga	-13.2515
tatue	-13.2521
born	-13.2524
tes	-13.253
▁Part	-13.2533
wer	-13.2537
den	-13.2541
▁Motor	-13.2543
▁thr	-13.2546
▁Shin	-13.255
▁envelopes	-13.2551
asically	-13.2565
▁assistants	-13.2572
▁stat	-13.259
ja	-13.259
▁newly	-13.2593
▁weep	-13.2599
▁outlive	-13.2606
▁fees	-13.2611
rish	-13.2613
ag	-13.2614
▁conferences	-13.2615
quality	-13.2622
▁pou	-13.2634
▁Exact	-13.2664
tempted	-13.2665
▁net	-13.2665
▁narrati	-13.2672
Nothing	-13.2679
Go	-13.2696
elling	-13.2697
▁ge	-13.2699
ants	-13.27
cover	-13.2701
▁disc	-13.2706
▁bounds	-13.2707
▁rul	-13.2729
▁distinct	-13.2729
ially	-13.2744
▁Hill	-13.2747
fight	-13.2766
con	-13.2776
▁deepe	-13.2779
▁emails	-13.2788
▁punche	-13.279
thematics	-13.2793
▁authorize	-13.2799
tic	-13.2804
ability	-13.2806
▁drinker	-13.2808
▁swerve	-13.2811
style	-13.2838
liable	-13.2841
igned	-13.2843
▁Kawa	-13.2853
▁elections	-13.2853
▁tents	-13.2856
▁subsid	-13.2862
By	-13.2867
worthy	-13.2868
mo	-13.2868
▁lick	-13.2869
length	-13.2869
tempered	-13.2875
oko	-13.2875
Oh	-13.2879
people	-13.2892
▁fri	-13.2894
defense	-13.2896
▁gu	-13.2897
▁ropes	-13.2901
guard	-13.292
▁Examin	-13.2921
Thanks	-13.2926
▁mob	-13.2938
minated	-13.2959
boys	-13.2973
▁reluctan	-13.2995
liked	-13.2999
went	-13.3009
mbassador	-13.3012
▁hummingbird	-13.3018
▁observation	-13.3018
▁interruption	-13.3021
▁decade	-13.3021
longed	-13.3025
▁portion	-13.3025
▁Wa	-13.3027
▁kilo	-13.3027
▁misprint	-13.3032
▁bikini	-13.3032
▁firefighter	-13.3032
▁hiccup	-13.3033
exist	-13.3036
▁setback	-13.3038
▁penguin	-13.3041
▁achievement	-13.3045
▁mathematic	-13.3046
rent	-13.3047
▁measurement	-13.3048
▁consumer	-13.3048
▁footprint	-13.3048
▁surrounding	-13.305
▁euro	-13.305
bra	-13.3055
▁Rock	-13.3062
▁bounce	-13.3066
▁afterward	-13.3067
ization	-13.3071
tha	-13.3076
ust	-13.3081
▁Ni	-13.3083
row	-13.3083
▁liver	-13.3084
▁Cherr	-13.3085
▁dragon	-13.3092
band	-13.3094
▁dreame	-13.3097
trusted	-13.3097
▁trend	-13.3103
▁experienc	-13.3105
▁Measure	-13.3105
L	-13.3107
▁Class	-13.3111
▁dwel	-13.3119
▁winters	-13.3125
▁spi	-13.3126
▁postpon	-13.3128
▁trembl	-13.3137
▁cult	-13.3139
▁blond	-13.3143
▁verb	-13.3145
▁fatigue	-13.3145
▁aggressi	-13.3151
▁combine	-13.3153
▁illustrate	-13.3154
▁inquir	-13.3155
▁extinguish	-13.3157
eenagers	-13.3157
▁Gol	-13.3158
▁entertain	-13.3158
▁intervene	-13.3158
▁multi	-13.3159
▁transport	-13.3162
▁volcan	-13.3164
▁crook	-13.3165
▁flush	-13.3165
▁accord	-13.3166
▁capitals	-13.3166
ecurity	-13.3167
▁threaten	-13.3168
▁grouch	-13.3169
nformation	-13.317
▁alphabetical	-13.317
▁shrink	-13.3171
▁Republic	-13.3172
▁inventor	-13.3172
00,000	-13.3172
▁shorthand	-13.3172
▁Clear	-13.3173
▁stitch	-13.3175
▁walker	-13.3175
▁micro	-13.3176
▁patriot	-13.3176
isdom	-13.3176
▁rheumat	-13.3176
▁ALS	-13.3176
▁Afghanistan	-13.3176
▁Amsterdam	-13.3176
▁Anthony	-13.3176
▁CNN	-13.3176
▁Catherine	-13.3176
▁Cinderella	-13.3176
▁Colombia	-13.3176
▁Daniel	-13.3176
▁Fahrenheit	-13.3176
▁Ferrari	-13.3176
▁Filipino	-13.3176
▁Gentlemen	-13.3176
▁Ginza	-13.3176
▁Hurricane	-13.3176
▁JavaScript	-13.3176
▁Kanazawa	-13.3176
▁Karuizawa	-13.3176
▁Madison	-13.3176
▁Mediterranean	-13.3176
▁NTT	-13.3176
▁Opinion	-13.3176
▁Parliament	-13.3176
▁Pluto	-13.3176
▁Siberia	-13.3176
▁Stradivarius	-13.3176
▁Tamori	-13.3176
▁Twitter	-13.3176
▁Typhoon	-13.3176
▁Wikipedia	-13.3176
▁accomplice	-13.3176
▁anthropology	-13.3176
▁antidote	-13.3176
▁archaeologist	-13.3176
▁arthritis	-13.3176
▁backgammon	-13.3176
▁ballerina	-13.3176
▁barricade	-13.3176
▁breadwinner	-13.3176
▁brooch	-13.3176
▁cannibals	-13.3176
▁charismatic	-13.3176
▁comprehension	-13.3176
▁condolences	-13.3176
▁conscientious	-13.3176
▁corporation	-13.3176
▁cuisine	-13.3176
▁database	-13.3176
▁declining	-13.3176
▁deputy	-13.3176
▁destructive	-13.3176
▁dilemma	-13.3176
▁eclipse	-13.3176
▁emigrate	-13.3176
▁equator	-13.3176
▁evaluate	-13.3176
▁excursion	-13.3176
▁eyepatch	-13.3176
▁fantasy	-13.3176
▁fossil	-13.3176
▁fundraiser	-13.3176
▁gigantic	-13.3176
▁graffiti	-13.3176
▁gymnasium	-13.3176
▁hydrant	-13.3176
▁hypocritical	-13.3176
▁iPod	-13.3176
▁immortal	-13.3176
▁invincible	-13.3176
▁jittery	-13.3176
▁kabuki	-13.3176
▁klutz	-13.3176
▁kosher	-13.3176
▁lizard	-13.3176
▁luxuries	-13.3176
▁manslaughter	-13.3176
▁melodramatic	-13.3176
▁merchandise	-13.3176
▁mesmerized	-13.3176
▁migrate	-13.3176
▁militia	-13.3176
▁moustache	-13.3176
▁nitrogen	-13.3176
▁oblivious	-13.3176
▁obscene	-13.3176
▁parliament	-13.3176
▁presumptuous	-13.3176
▁pyramid	-13.3176
▁recruit	-13.3176
▁reflexes	-13.3176
▁seashore	-13.3176
▁shrimp	-13.3176
▁sponsor	-13.3176
▁stylish	-13.3176
▁syrup	-13.3176
▁tempura	-13.3176
▁unpredictable	-13.3176
▁veterinarian	-13.3176
▁voluntary	-13.3176
▁windsurfing	-13.3176
▁Bucharest	-13.3176
▁Ethiopia	-13.3176
▁Normally	-13.3176
▁corporal	-13.3176
▁explicit	-13.3176
▁premier	-13.3176
▁ritual	-13.3176
▁staircase	-13.3176
▁synonym	-13.3176
▁universities	-13.3176
▁Dragons	-13.3176
▁density	-13.3176
▁flabby	-13.3176
▁hawk	-13.3176
▁sheriff	-13.3176
▁specimen	-13.3176
▁Calvin	-13.3176
▁Kansa	-13.3176
▁concrete	-13.3176
▁Swallow	-13.3176
▁disoriented	-13.3176
▁secrecy	-13.3176
▁Bruce	-13.3176
▁Hungary	-13.3176
▁Lucia	-13.3176
▁Organi	-13.3176
▁disregard	-13.3176
▁ponytail	-13.3176
▁punctuation	-13.3176
▁skunk	-13.3176
▁widespread	-13.3176
▁Jewish	-13.3176
▁Kimura	-13.3176
▁concentration	-13.3176
▁meditation	-13.3176
▁clipboard	-13.3176
▁kingdom	-13.3176
▁relativity	-13.3176
▁ambiguous	-13.3176
▁spacious	-13.3176
▁warrior	-13.3176
▁Skype	-13.3176
▁forefinger	-13.3176
▁grappl	-13.3176
▁reverse	-13.3176
▁assumption	-13.3176
▁detention	-13.3176
▁documentaries	-13.3176
▁attachment	-13.3176
▁rambling	-13.3176
▁Koko	-13.3176
▁puppies	-13.3176
▁cabbage	-13.3176
▁Tango	-13.3176
▁industries	-13.3176
▁recollection	-13.3176
▁reconfirm	-13.3176
▁cringed	-13.3176
▁eyewitness	-13.3176
▁famished	-13.3176
▁pioneer	-13.3176
▁priorities	-13.3176
▁phase	-13.3176
▁temperament	-13.3176
▁gunpowder	-13.3176
▁limitations	-13.3176
▁untalented	-13.3176
▁casualties	-13.3176
▁Scottish	-13.3176
▁Holland	-13.3176
▁pitied	-13.3176
▁cluttered	-13.3176
▁curveball	-13.3176
▁Hopefully	-13.3176
▁Kabu	-13.3176
▁spoonful	-13.3176
▁Kerry	-13.3176
▁default	-13.3176
▁dealership	-13.3176
▁extinction	-13.3176
▁savage	-13.3176
▁centigrade	-13.3177
▁earache	-13.3177
▁jeep	-13.3177
▁Degas	-13.3177
▁disposition	-13.3177
▁Fashion	-13.3177
▁Mahal	-13.3177
▁Ohio	-13.3177
▁heartburn	-13.3177
▁Diner	-13.3177
▁Mariko	-13.3177
▁harmony	-13.3177
▁puddle	-13.3177
▁recess	-13.3177
▁salesgirl	-13.3177
▁DJ	-13.3177
▁drastically	-13.3177
▁kidnap	-13.3177
▁troublemaker	-13.3177
▁pantry	-13.3177
▁accomplishment	-13.3177
▁ethical	-13.3177
▁cider	-13.3177
▁enhance	-13.3177
▁tango	-13.3177
▁hostel	-13.3177
▁Icelandic	-13.3177
▁Sixty	-13.3177
▁unbutton	-13.3177
▁grandson	-13.3177
venge	-13.3177
▁Prize	-13.3177
▁advisable	-13.3177
▁lamb	-13.3177
▁cocoa	-13.3177
▁teapot	-13.3177
▁Further	-13.3177
▁residents	-13.3177
▁frantically	-13.3177
▁merchant	-13.3177
pliers	-13.3177
▁delicacy	-13.3177
▁punctuality	-13.3177
▁superb	-13.3177
▁unconvinced	-13.3177
▁Perfect	-13.3177
▁flask	-13.3177
▁lodging	-13.3177
▁stapler	-13.3177
▁Sarah	-13.3177
▁slaughter	-13.3177
▁dangling	-13.3177
▁jiffy	-13.3177
▁screech	-13.3177
▁globe	-13.3177
▁hatchet	-13.3177
▁baggy	-13.3177
▁sociology	-13.3177
▁budding	-13.3177
▁Oscar	-13.3177
▁Ellen	-13.3177
▁introduction	-13.3177
▁jig	-13.3178
▁programming	-13.3178
▁psyched	-13.3178
▁orphanage	-13.3178
▁kidney	-13.3178
▁meaningful	-13.3178
uckle	-13.3178
▁Kansai	-13.3178
▁lawsuit	-13.3178
▁secretaries	-13.3178
▁heartbroken	-13.3178
▁broccoli	-13.3178
▁eavesdropping	-13.3178
▁selfishness	-13.3178
▁bacteria	-13.3178
▁coerced	-13.3178
▁brat	-13.3178
▁striking	-13.3178
▁Mount	-13.3178
▁bellboy	-13.3178
▁Robin	-13.3178
▁juggle	-13.3178
▁innovative	-13.3178
▁Molly	-13.3178
▁distinction	-13.3178
▁momentarily	-13.3178
▁riverbank	-13.3178
▁classified	-13.3178
▁petty	-13.3179
▁investigator	-13.3179
▁Dennis	-13.3179
▁heroic	-13.3179
▁contrast	-13.3179
gnition	-13.3179
▁Pope	-13.3179
▁Fruit	-13.3179
▁widened	-13.3179
▁ferry	-13.3179
▁fertilizer	-13.3179
▁studious	-13.3179
▁viewpoint	-13.3179
▁telegraph	-13.3179
town	-13.318
▁division	-13.318
▁Rub	-13.318
▁wasteful	-13.318
▁alternat	-13.318
▁choking	-13.318
▁nitpick	-13.318
▁acres	-13.318
▁Attach	-13.3181
▁twig	-13.3181
▁digger	-13.3181
▁reasonably	-13.3181
▁Surprisingly	-13.3181
▁symphony	-13.3181
▁gunfire	-13.3181
▁sucker	-13.3181
▁stepfather	-13.3181
▁Acid	-13.3181
▁wrinkled	-13.3181
▁abated	-13.3181
▁inefficient	-13.3181
▁2001	-13.3182
▁foreman	-13.3182
ckered	-13.3182
▁roared	-13.3182
▁glowing	-13.3182
▁mosque	-13.3183
▁Mommy	-13.3183
▁leftover	-13.3183
▁patio	-13.3184
buckled	-13.3184
▁inventory	-13.3184
▁schoolyard	-13.3184
▁delud	-13.3184
▁obscure	-13.3184
▁reassured	-13.3184
witted	-13.3185
▁greenhouse	-13.3185
▁thrilling	-13.3185
▁endeavor	-13.3185
▁gasped	-13.3185
▁Double	-13.3186
▁remarried	-13.3186
▁viruses	-13.3186
▁sadness	-13.3186
▁tipsy	-13.3186
▁constructed	-13.3186
▁breeding	-13.3186
▁outrage	-13.3187
▁freshman	-13.3187
▁leash	-13.3187
▁copyrighted	-13.3187
▁tenderly	-13.3187
▁filter	-13.3188
▁occasional	-13.3188
▁overjoyed	-13.3188
▁entry	-13.3188
▁strangled	-13.3188
▁diagnosis	-13.3188
ometer	-13.3188
▁unrest	-13.3188
▁describ	-13.3189
▁drunkard	-13.3189
▁biking	-13.319
▁bookshop	-13.319
▁inexperienced	-13.319
▁shack	-13.319
▁define	-13.3191
▁playful	-13.3191
▁Poet	-13.3192
▁Coke	-13.3192
▁extinguished	-13.3192
▁administrati	-13.3193
12	-13.3193
pool	-13.3193
▁flushed	-13.3193
legged	-13.3193
▁reef	-13.3195
▁dragging	-13.3195
▁Gambl	-13.3195
▁invaluable	-13.3195
▁attentively	-13.3196
▁heroine	-13.3196
▁livid	-13.3196
▁outsmart	-13.3197
▁discharged	-13.3197
▁quickest	-13.3197
▁glum	-13.3197
▁Egg	-13.3197
▁Monkey	-13.3197
▁Burns	-13.3198
▁blisters	-13.3198
▁hijackers	-13.3199
▁admitting	-13.3199
▁constellations	-13.3199
▁videogames	-13.3199
▁slob	-13.32
▁likable	-13.3202
▁limo	-13.3202
▁approaches	-13.3202
▁cameraman	-13.3203
▁pollute	-13.3204
▁rafting	-13.3204
▁brownies	-13.3204
▁chilled	-13.3206
▁grim	-13.3206
▁voters	-13.3206
▁efficiently	-13.3206
▁Shinj	-13.3207
▁Kazu	-13.3209
▁extravagant	-13.3209
▁proofreading	-13.3209
▁sharpened	-13.3209
▁impractica	-13.321
▁Forest	-13.321
▁businessmen	-13.321
▁accurately	-13.3211
▁weekdays	-13.3212
▁Western	-13.3212
▁Meeting	-13.3212
▁restored	-13.3213
▁Shake	-13.3214
▁avail	-13.3215
▁banner	-13.3215
ounding	-13.3216
▁runny	-13.3217
▁homeland	-13.3217
▁underage	-13.3218
sburg	-13.3218
▁incorrectly	-13.3219
laws	-13.322
▁rescheduled	-13.3221
▁compensated	-13.3221
▁eternal	-13.3221
▁restrained	-13.3223
▁Catch	-13.3223
▁implies	-13.3224
▁Fight	-13.3225
▁censu	-13.3227
▁impatiently	-13.3227
▁conspicuous	-13.3227
▁reputable	-13.3227
▁Chile	-13.3227
▁Kiss	-13.3228
▁falsely	-13.3228
▁denial	-13.3228
▁disciplined	-13.3228
▁pri	-13.3228
▁Jump	-13.3229
▁Global	-13.3229
▁triangle	-13.3229
▁negotiable	-13.3229
▁statistics	-13.3229
atigue	-13.3233
▁olives	-13.3233
▁ribs	-13.3234
▁brighter	-13.3235
▁10.	-13.3235
escribe	-13.3235
hower	-13.3237
di	-13.3237
▁migraines	-13.3237
▁doughnuts	-13.3237
▁kangaroos	-13.3237
▁floorboards	-13.3238
▁Cup	-13.3238
▁furiously	-13.3238
▁gab	-13.3239
▁crackers	-13.3239
▁bruised	-13.3239
▁callous	-13.3241
▁skier	-13.3242
▁checkup	-13.3243
▁amaze	-13.3244
▁salon	-13.3246
▁almonds	-13.3246
▁intentional	-13.3248
IP	-13.3249
▁overdone	-13.3249
▁intellectual	-13.3249
▁burglary	-13.3249
▁updated	-13.325
▁squeak	-13.325
▁proceeding	-13.3251
▁outdoor	-13.3252
▁gases	-13.3252
▁aspects	-13.3253
▁hurriedly	-13.3254
▁distinguished	-13.3254
▁equally	-13.3256
▁skies	-13.3257
▁feast	-13.3257
▁defi	-13.3257
▁hives	-13.326
▁Andy	-13.3264
▁trifles	-13.3265
▁evacuated	-13.3265
▁grin	-13.3265
▁charter	-13.3266
▁sweaty	-13.3267
▁remodel	-13.3268
oliticians	-13.327
▁Heaven	-13.3271
▁trench	-13.3272
▁Prince	-13.3273
▁ballot	-13.3273
▁bulletin	-13.3274
▁speculat	-13.3275
▁Min	-13.3275
▁calculations	-13.3276
▁Islands	-13.3276
▁discriminate	-13.3277
▁cupcakes	-13.3277
▁fingernails	-13.3277
▁coworkers	-13.3278
▁tolerated	-13.3279
rendered	-13.3282
▁bonds	-13.3283
▁tiles	-13.329
▁trends	-13.329
▁hassle	-13.329
▁Greene	-13.3291
▁tattooed	-13.3295
linked	-13.3297
▁IRS	-13.3298
▁soothe	-13.3298
cussion	-13.3301
▁puff	-13.3302
▁correction	-13.3302
▁cables	-13.3303
▁tacks	-13.3304
▁rays	-13.3304
▁marking	-13.3305
▁payday	-13.3306
▁Yeah	-13.331
▁container	-13.3313
▁consumers	-13.3314
▁cheaply	-13.3316
▁tissue	-13.3317
epression	-13.3319
▁Short	-13.3321
covering	-13.3322
▁deeper	-13.3326
▁anxiously	-13.3326
▁Bay	-13.3327
▁lun	-13.3328
mmed	-13.3329
▁flicker	-13.3333
▁purposely	-13.3334
ole	-13.3335
▁earnings	-13.3335
▁cubes	-13.3339
▁itching	-13.3343
▁nod	-13.3343
▁takeoff	-13.3347
▁camper	-13.3351
▁melons	-13.3351
▁references	-13.3353
▁Ku	-13.3355
▁contributions	-13.3355
▁senators	-13.3356
▁neckties	-13.3357
▁Stan	-13.3357
▁misfortunes	-13.3359
▁conversations	-13.3361
▁mortal	-13.3365
▁swearing	-13.3372
▁ret	-13.3375
▁kicking	-13.3375
▁applicants	-13.3376
▁burp	-13.3376
▁atoms	-13.3378
▁researcher	-13.3379
▁narrowed	-13.3379
racy	-13.3386
▁bomber	-13.3386
▁goodness	-13.339
▁lotion	-13.3391
ahara	-13.3393
▁pirates	-13.3394
▁ticking	-13.3395
ese	-13.3395
▁chord	-13.3397
▁cranes	-13.3397
eiko	-13.3397
▁dearly	-13.3405
cia	-13.3407
▁bombing	-13.3408
▁thorn	-13.3412
▁punches	-13.3413
▁Mont	-13.3424
▁chops	-13.3424
▁ointment	-13.3425
▁admirabl	-13.343
▁amuse	-13.343
▁progressing	-13.3432
▁Atlanti	-13.3432
▁Chi	-13.3433
▁Boy	-13.3434
ended	-13.3434
▁bigot	-13.3434
▁Osam	-13.3438
▁spear	-13.3441
▁bombed	-13.3442
▁mattered	-13.3443
▁Gas	-13.3445
ets	-13.3447
▁fold	-13.3449
▁drying	-13.3449
▁sadly	-13.3452
met	-13.3455
lip	-13.3456
▁schoolgirl	-13.3457
▁floss	-13.3471
▁stocking	-13.3472
▁napkins	-13.3475
tained	-13.3476
▁accidental	-13.348
▁clearer	-13.3487
▁surve	-13.349
▁goodnight	-13.3491
interested	-13.3495
nts	-13.3497
▁adhere	-13.3511
▁traitors	-13.3513
▁liquids	-13.3514
▁obligations	-13.3515
want	-13.3527
▁comply	-13.3528
▁freeway	-13.3528
▁units	-13.3528
▁readers	-13.3531
▁frogs	-13.3532
▁petition	-13.354
To	-13.3545
▁rally	-13.3549
▁unle	-13.3553
▁farming	-13.3558
▁Cor	-13.3566
▁deliberate	-13.3568
▁acid	-13.3571
ederal	-13.3574
▁cigars	-13.3574
▁sixth	-13.3575
▁paddle	-13.3581
▁harmed	-13.3586
▁infections	-13.3592
▁clam	-13.3595
▁ox	-13.3599
▁manipulate	-13.3602
een	-13.3607
▁drow	-13.3611
▁Alan	-13.3619
▁astound	-13.3625
▁ridicule	-13.3625
hopping	-13.3626
▁costumes	-13.3634
dged	-13.3634
▁bachelors	-13.3634
▁shells	-13.364
uc	-13.3645
ilient	-13.3651
▁sacrifices	-13.3653
▁moron	-13.3662
▁pong	-13.3665
▁Glass	-13.3671
▁nightmares	-13.3672
▁resolutions	-13.3673
▁intensi	-13.3674
▁movements	-13.3675
harge	-13.3676
od	-13.3678
ik	-13.3682
▁chains	-13.3685
▁clasp	-13.3687
▁beep	-13.3692
top	-13.3699
▁Ticket	-13.3701
▁champions	-13.3703
uinea	-13.3712
▁restrooms	-13.3713
▁executives	-13.3713
xactly	-13.3716
paid	-13.3733
▁spared	-13.3733
▁wrists	-13.3735
▁origins	-13.3744
▁copie	-13.3747
▁balloons	-13.3752
racking	-13.3752
▁instruments	-13.3753
▁wires	-13.3753
▁picnics	-13.3754
▁dyes	-13.3759
▁2,	-13.3764
▁sorted	-13.3765
▁schools	-13.3769
pper	-13.3774
▁helmets	-13.3778
▁Environment	-13.3778
▁souls	-13.3786
▁sane	-13.3787
▁onion	-13.3792
petition	-13.3802
▁stoned	-13.3804
▁logs	-13.3808
▁br	-13.3815
▁organs	-13.3829
▁medications	-13.3833
▁orphans	-13.3837
nighter	-13.3841
▁Pre	-13.3849
▁painters	-13.3856
▁hunters	-13.3856
▁reload	-13.3865
▁comp	-13.3866
▁backup	-13.3867
▁losers	-13.3868
▁lu	-13.3872
▁noted	-13.3875
▁needles	-13.3877
▁defenses	-13.3877
▁inhale	-13.3879
esson	-13.388
▁scanne	-13.389
▁suck	-13.389
▁maids	-13.3892
lapped	-13.3894
▁chatte	-13.39
▁Slave	-13.3905
▁Want	-13.391
tering	-13.3915
3,	-13.3918
▁gifted	-13.3922
▁Takak	-13.3932
▁Allan	-13.3932
lf	-13.3945
▁seller	-13.3951
tuna	-13.3958
more	-13.3965
lphins	-13.3971
▁scu	-13.3974
▁superiors	-13.3978
▁leaks	-13.3988
▁hungri	-13.3996
▁permits	-13.4004
▁diale	-13.4011
▁evolve	-13.4026
heart	-13.4034
▁num	-13.4035
▁beds	-13.4035
if	-13.4039
▁outsider	-13.4041
▁contacts	-13.4054
▁depriv	-13.4054
spect	-13.4058
sman	-13.407
▁licensed	-13.4071
iving	-13.4074
▁sal	-13.408
v	-13.4088
▁openly	-13.41
ung	-13.4104
▁tighten	-13.4106
▁daydream	-13.4111
11.	-13.4124
see	-13.4124
hair	-13.4128
gic	-13.4128
▁bees	-13.4129
ax	-13.4131
iyaki	-13.4132
▁Ge	-13.414
▁expressions	-13.4152
▁creak	-13.4155
ali	-13.4159
▁rebuild	-13.4172
▁sca	-13.4179
▁varie	-13.4184
▁shameful	-13.4184
▁goner	-13.4187
ime	-13.4193
▁deed	-13.4198
▁Mor	-13.4206
sex	-13.4216
▁Ev	-13.4217
▁bugg	-13.4232
▁google	-13.4232
iled	-13.4233
▁Remin	-13.4247
▁vacations	-13.4256
amed	-13.426
▁condo	-13.4264
▁receipts	-13.4269
story	-13.4277
lace	-13.4278
▁stem	-13.4295
tell	-13.4299
▁skim	-13.4306
iki	-13.431
arly	-13.4329
uchi	-13.4331
▁manufactur	-13.4335
tired	-13.435
stating	-13.4354
fitting	-13.4363
▁Ned	-13.4368
▁sham	-13.439
estern	-13.4412
berg	-13.442
dressed	-13.4433
▁pans	-13.4447
▁plains	-13.4449
▁Ang	-13.4456
▁easie	-13.4468
▁ve	-13.4471
person	-13.4472
eating	-13.4474
usage	-13.4481
ending	-13.4481
▁cultures	-13.4482
▁delet	-13.4483
▁violat	-13.4499
acked	-13.4501
▁wimp	-13.4503
▁enters	-13.4505
▁bl	-13.4533
act	-13.4535
▁equip	-13.4538
▁hip	-13.4546
▁showers	-13.4548
▁statements	-13.4549
idge	-13.4553
▁heel	-13.4566
oo	-13.4571
ace	-13.458
▁treatments	-13.4589
▁wor	-13.4598
▁careers	-13.4599
what	-13.4606
willed	-13.4607
▁bodi	-13.4621
oned	-13.4623
▁Edw	-13.4624
▁lengths	-13.4629
▁En	-13.4638
▁donor	-13.4643
▁Paint	-13.4656
vy	-13.4674
▁Tho	-13.4676
▁dancers	-13.4678
▁Share	-13.4681
▁Ref	-13.4696
▁quot	-13.47
▁Cha	-13.4705
▁tasks	-13.4717
kemi	-13.4722
ians	-13.4723
bus	-13.4737
nged	-13.4745
▁harass	-13.4763
immer	-13.4768
Any	-13.4784
▁compassion	-13.4785
▁spender	-13.4786
Sh	-13.4799
▁gay	-13.4804
▁moan	-13.4811
▁oceans	-13.4824
iest	-13.4826
rry	-13.4836
rowing	-13.486
she	-13.4871
▁Fo	-13.488
▁justif	-13.4884
▁authors	-13.4889
olera	-13.4894
▁toilets	-13.49
▁villages	-13.4903
▁multipl	-13.4915
▁kings	-13.4916
liver	-13.4924
og	-13.4928
list	-13.4935
ceased	-13.4937
stepp	-13.4937
▁unc	-13.4939
nnie	-13.4949
▁storms	-13.4954
▁lazie	-13.4962
so	-13.4966
▁chas	-13.4967
▁Appl	-13.4971
▁vet	-13.4971
axes	-13.4978
reading	-13.4986
com	-13.4992
▁courts	-13.5011
▁coop	-13.5015
▁rep	-13.502
▁fasting	-13.5028
hes	-13.5042
▁goat	-13.5042
unk	-13.5043
▁Ali	-13.5046
ds	-13.5049
mpty	-13.5054
▁forum	-13.5058
▁lad	-13.5059
nock	-13.5082
eline	-13.5085
▁viola	-13.5091
▁spoils	-13.5106
conditioned	-13.511
packed	-13.5131
lick	-13.5133
ky	-13.5138
▁boyfriends	-13.515
fi	-13.5158
▁mu	-13.5162
▁spur	-13.5177
▁Mon	-13.5184
▁miser	-13.5188
unting	-13.5189
▁beards	-13.519
▁grop	-13.5194
▁Con	-13.5197
▁overtake	-13.5205
▁fend	-13.5206
ex	-13.5212
▁coloni	-13.5214
▁mill	-13.5214
eturn	-13.5217
▁Cl	-13.5224
▁desks	-13.523
▁boot	-13.5234
▁governments	-13.5234
▁strengths	-13.5235
▁Ky	-13.5241
▁Danc	-13.5245
igible	-13.5249
esar	-13.5258
bur	-13.5263
▁seiz	-13.5264
▁firms	-13.5278
▁ki	-13.5278
ago	-13.5288
▁Cop	-13.5292
▁gro	-13.5296
waiting	-13.5299
▁Lad	-13.5309
maker	-13.5316
lled	-13.5329
Just	-13.533
▁numbered	-13.533
pen	-13.5343
vied	-13.5362
erms	-13.5378
loaded	-13.5379
closed	-13.5384
▁Tea	-13.5392
face	-13.5393
▁devou	-13.5394
lea	-13.5408
sy	-13.5409
Give	-13.5416
rum	-13.5418
reedom	-13.5427
Does	-13.5435
▁Win	-13.5443
sed	-13.5457
▁invitations	-13.546
200	-13.547
▁provok	-13.5474
port	-13.5503
▁improves	-13.5508
▁artists	-13.5525
ourists	-13.5527
▁bud	-13.5544
assive	-13.5558
ind	-13.5566
ries	-13.5569
▁Bur	-13.5571
▁uncor	-13.559
▁spa	-13.5598
case	-13.5614
▁advances	-13.5617
▁prob	-13.563
pa	-13.5636
▁Pat	-13.5645
had	-13.5648
oiled	-13.5648
Re	-13.5668
ka	-13.5678
▁generate	-13.5678
▁sto	-13.5683
unge	-13.569
kers	-13.5693
▁lever	-13.5694
orn	-13.5696
▁reject	-13.5706
mates	-13.5711
▁pursui	-13.5713
▁embezzle	-13.5718
check	-13.5721
ition	-13.5729
djust	-13.5738
ousand	-13.5739
ere	-13.5744
▁pros	-13.5752
▁orient	-13.5761
oid	-13.5769
ris	-13.5783
▁Bus	-13.5786
oes	-13.5807
▁elevators	-13.5807
awa	-13.5812
▁Defen	-13.582
certain	-13.5823
espec	-13.5824
weight	-13.5836
han	-13.5843
laying	-13.5847
▁rust	-13.5851
pears	-13.5861
Keep	-13.5864
hen	-13.5883
▁fil	-13.5899
▁Cock	-13.59
Was	-13.5904
▁lag	-13.591
lay	-13.5911
wed	-13.5915
atience	-13.5915
oku	-13.5918
stained	-13.5919
▁Tate	-13.5919
spite	-13.5921
▁bedrooms	-13.5924
ging	-13.5927
click	-13.5937
chan	-13.5959
ahead	-13.5961
ingly	-13.597
skirt	-13.5975
▁acknowledg	-13.5983
▁stationed	-13.5983
▁interrogati	-13.5987
written	-13.5994
▁astonish	-13.6006
built	-13.6008
▁si	-13.6009
boat	-13.6013
licked	-13.6022
eading	-13.6033
▁wax	-13.6042
▁smok	-13.6044
▁sur	-13.6047
keeper	-13.6051
Fi	-13.6053
▁involv	-13.6055
▁brim	-13.606
▁sn	-13.6063
held	-13.6065
▁knitt	-13.6065
deep	-13.6073
▁indefinitely	-13.6073
answered	-13.6074
▁Gett	-13.6077
▁sl	-13.6079
eye	-13.6081
ence	-13.6085
main	-13.6085
▁attempts	-13.6086
▁rebel	-13.6098
▁rake	-13.61
▁Act	-13.6103
hese	-13.6104
▁communicat	-13.6107
date	-13.6112
earth	-13.6115
ern	-13.6117
bedroom	-13.6117
▁begg	-13.6127
uled	-13.6136
▁infinite	-13.6144
ters	-13.6147
▁eavesdrop	-13.6147
▁soak	-13.6155
▁cho	-13.6162
hal	-13.6166
ub	-13.6169
capable	-13.6174
active	-13.6177
talking	-13.6183
related	-13.619
▁axe	-13.6194
100,000	-13.6209
▁Expect	-13.6214
lifting	-13.6215
alcoholic	-13.6219
grade	-13.622
track	-13.622
▁Je	-13.6224
Certainly	-13.6227
aries	-13.6229
wheel	-13.6229
▁backs	-13.623
fiction	-13.6232
▁ties	-13.6233
▁brow	-13.6235
level	-13.6236
loving	-13.6237
hill	-13.6238
alk	-13.6242
▁Liz	-13.6243
Of	-13.6247
nium	-13.6258
vol	-13.6259
mended	-13.6261
bal	-13.6264
ester	-13.6269
bodies	-13.6272
▁Fact	-13.6277
yard	-13.6278
▁na	-13.6281
wives	-13.6282
wi	-13.6297
griculture	-13.6312
▁systems	-13.6316
▁refus	-13.6318
cademic	-13.6318
how	-13.6321
▁donkey	-13.6324
zu	-13.6325
▁diploma	-13.6327
▁scalp	-13.6327
▁consume	-13.6336
▁expire	-13.6343
▁imitation	-13.6348
ties	-13.6348
earing	-13.635
▁subtitle	-13.6351
▁implication	-13.6351
ption	-13.6351
▁Mountain	-13.6353
▁sunflower	-13.6353
▁infant	-13.6361
▁Corp	-13.6362
▁noun	-13.6363
▁pal	-13.6364
irplanes	-13.6365
▁brochure	-13.6365
▁substance	-13.6365
▁Egyptian	-13.6365
▁newcomer	-13.6365
▁revenue	-13.6365
flower	-13.6369
▁coworker	-13.6371
▁fingernail	-13.6371
▁cupcake	-13.6374
▁precaution	-13.6374
▁applicant	-13.6374
divided	-13.6375
▁channel	-13.6375
▁electronic	-13.6376
▁dinosaur	-13.6378
amoto	-13.6378
▁resource	-13.6378
▁instruction	-13.6379
▁ingredient	-13.6379
suit	-13.6379
▁neighbour	-13.6379
▁symptom	-13.638
▁turtle	-13.638
mark	-13.638
▁fingerprint	-13.638
▁suburb	-13.6381
▁twentie	-13.6381
▁grape	-13.6383
ces	-13.6385
▁criticiz	-13.639
▁earring	-13.6391
▁gallon	-13.6392
▁calculation	-13.6392
▁Adam	-13.6392
▁shutter	-13.6393
▁mineral	-13.6393
▁clo	-13.6395
▁basin	-13.6397
▁trifle	-13.6397
olo	-13.6401
blo	-13.6403
▁network	-13.6405
rtificial	-13.6409
unger	-13.6415
▁siren	-13.6416
▁Bulgaria	-13.6417
▁refugee	-13.6417
ociety	-13.6426
▁overeat	-13.6428
▁Butter	-13.6428
vidently	-13.6429
▁Imp	-13.6431
pplicants	-13.6438
▁Bang	-13.644
members	-13.6442
ips	-13.6443
inner	-13.6444
▁Juli	-13.6446
▁Island	-13.6448
does	-13.645
▁fianc	-13.6454
▁replac	-13.6461
ipe	-13.6462
Cle	-13.6472
▁refuge	-13.6472
▁furnish	-13.6474
NP	-13.6474
▁Doctor	-13.6475
▁unbelievabl	-13.6477
▁improvise	-13.6477
▁thi	-13.6479
▁smash	-13.6482
log	-13.6482
▁discharge	-13.6482
uses	-13.6483
▁Rev	-13.6483
▁capture	-13.6483
elephone	-13.6484
▁discipline	-13.6489
echnology	-13.649
▁imprison	-13.6492
▁cramp	-13.6492
▁injure	-13.6493
ologist	-13.6494
▁distress	-13.6497
▁thrill	-13.6497
▁contemplat	-13.6497
▁embroider	-13.6497
ature	-13.6498
▁overflow	-13.6498
quirrels	-13.6499
▁bluff	-13.6499
▁perish	-13.65
▁repri	-13.6501
▁exile	-13.6501
▁miserabl	-13.6501
▁declare	-13.6502
▁copyright	-13.6503
ushrooms	-13.6504
▁specif	-13.6504
nflation	-13.6504
▁graceful	-13.6504
▁biograph	-13.6505
▁Brad	-13.6506
orted	-13.6506
▁Final	-13.6506
roduction	-13.6506
▁cockroach	-13.6507
ircumstances	-13.6507
peech	-13.6507
▁skillful	-13.6507
▁Recent	-13.6508
thousand	-13.6508
nemployment	-13.6508
rofessional	-13.6508
▁Church	-13.6508
arthquakes	-13.6508
hou	-13.6508
▁influen	-13.6509
▁favo	-13.6509
iolence	-13.6509
▁renovat	-13.6509
igure	-13.6509
▁coincide	-13.6509
▁Industrial	-13.6509
▁prosper	-13.6509
▁Pizza	-13.6509
sequence	-13.6509
▁Disney	-13.6509
▁oversimplif	-13.6509
analyzing	-13.6509
inflicted	-13.6509
irginia	-13.6509
krainian	-13.6509
▁Akita	-13.6509
▁Armenia	-13.6509
▁Buddhist	-13.6509
▁Buffalo	-13.6509
▁Cabinet	-13.6509
▁Colorado	-13.6509
▁Concentrate	-13.6509
▁Continent	-13.6509
▁Customer	-13.6509
▁Czech	-13.6509
▁Danube	-13.6509
▁Ecuador	-13.6509
▁Florence	-13.6509
▁Galileo	-13.6509
▁Harajuku	-13.6509
▁Jamaica	-13.6509
▁Jupiter	-13.6509
▁Kamakura	-13.6509
▁Kleenex	-13.6509
▁Koizumi	-13.6509
▁Linux	-13.6509
▁Liverpool	-13.6509
▁Magdalena	-13.6509
▁Margaret	-13.6509
▁Massachusetts	-13.6509
▁Melbourne	-13.6509
▁Minogue	-13.6509
▁Morocco	-13.6509
▁Nagashima	-13.6509
▁Nicholas	-13.6509
▁Obihiro	-13.6509
▁Oklahoma	-13.6509
▁Organization	-13.6509
▁Prefecture	-13.6509
▁Rachel	-13.6509
▁SMS	-13.6509
▁Shinkansen	-13.6509
▁Swahili	-13.6509
▁Syria	-13.6509
▁Taiwan	-13.6509
▁Takahashi	-13.6509
▁YMCA	-13.6509
▁acquisition	-13.6509
▁acquitted	-13.6509
▁acrobat	-13.6509
▁adamant	-13.6509
▁alligator	-13.6509
▁ambidextrous	-13.6509
▁anchovies	-13.6509
▁anorexic	-13.6509
▁apparatus	-13.6509
▁aristocracy	-13.6509
▁aristocrat	-13.6509
▁asparagus	-13.6509
▁authentic	-13.6509
▁avalanche	-13.6509
▁berserk	-13.6509
▁billionaire	-13.6509
▁bodybuilder	-13.6509
▁burrito	-13.6509
▁carbohydrates	-13.6509
▁categories	-13.6509
▁celebrities	-13.6509
▁centuries	-13.6509
▁claustrophobia	-13.6509
▁collision	-13.6509
▁column	-13.6509
▁companionship	-13.6509
▁condominium	-13.6509
▁controversy	-13.6509
▁cuckoo	-13.6509
▁dejected	-13.6509
▁demoted	-13.6509
▁deodorant	-13.6509
▁devastating	-13.6509
▁disconnected	-13.6509
▁discouraging	-13.6509
▁disloyal	-13.6509
▁disrupt	-13.6509
▁domineering	-13.6509
▁dumbfounded	-13.6509
▁eBay	-13.6509
▁educator	-13.6509
▁enlighten	-13.6509
▁evasive	-13.6509
▁exasperated	-13.6509
▁explosives	-13.6509
▁feminine	-13.6509
▁fertile	-13.6509
▁freckles	-13.6509
▁frisbee	-13.6509
▁furnace	-13.6509
▁geometry	-13.6509
▁haiku	-13.6509
▁hammock	-13.6509
▁hoodlums	-13.6509
▁hypocrisy	-13.6509
▁immigration	-13.6509
▁inadequate	-13.6509
▁incorrigible	-13.6509
▁inquisitive	-13.6509
▁insinuating	-13.6509
▁inspiring	-13.6509
▁instructive	-13.6509
▁intimidating	-13.6509
▁intolerant	-13.6509
▁intruding	-13.6509
▁involuntary	-13.6509
▁irritable	-13.6509
▁jurisdiction	-13.6509
▁lacrosse	-13.6509
▁lightbulb	-13.6509
▁likelihood	-13.6509
▁locomotive	-13.6509
▁luxurious	-13.6509
▁maggots	-13.6509
▁maintenance	-13.6509
▁malaria	-13.6509
▁mandolin	-13.6509
▁margarita	-13.6509
▁marshmallows	-13.6509
▁mayonnaise	-13.6509
▁metaphor	-13.6509
▁newlyweds	-13.6509
▁nonplussed	-13.6509
▁nutritious	-13.6509
▁pachinko	-13.6509
▁penniless	-13.6509
▁petrified	-13.6509
▁pheasant	-13.6509
▁physicist	-13.6509
▁plagiarism	-13.6509
▁prairie	-13.6509
▁premature	-13.6509
▁premises	-13.6509
▁procrastinati	-13.6509
▁quantities	-13.6509
▁reciprocated	-13.6509
▁recreation	-13.6509
▁redundant	-13.6509
▁refreshments	-13.6509
▁reggae	-13.6509
▁rehab	-13.6509
▁rehabilitation	-13.6509
▁retaliate	-13.6509
▁shrieked	-13.6509
▁snickered	-13.6509
▁sniper	-13.6509
▁snorkel	-13.6509
▁sophomore	-13.6509
▁soprano	-13.6509
▁subscription	-13.6509
▁substantia	-13.6509
▁suffocating	-13.6509
▁tangled	-13.6509
▁tortoise	-13.6509
▁transfusion	-13.6509
▁triathlon	-13.6509
▁ulcer	-13.6509
▁unconvincing	-13.6509
▁unethical	-13.6509
▁uninsured	-13.6509
▁unstoppable	-13.6509
▁unthinkable	-13.6509
▁vacancies	-13.6509
▁vacancy	-13.6509
▁venomous	-13.6509
▁victorious	-13.6509
▁voluntarily	-13.6509
▁wardrobe	-13.6509
▁wilderness	-13.6509
▁wizard	-13.6509
▁wobbly	-13.6509
▁Braille	-13.6509
▁League	-13.6509
▁Patricia	-13.6509
▁Philosoph	-13.6509
▁discretion	-13.6509
▁drapes	-13.6509
▁dribble	-13.6509
▁loophole	-13.6509
▁pitiful	-13.6509
▁rhyme	-13.6509
▁rhythm	-13.6509
▁vinegar	-13.6509
▁Fuku	-13.6509
▁Koji	-13.6509
▁Lennon	-13.6509
▁Samuel	-13.6509
▁bongos	-13.6509
▁citations	-13.6509
▁criteri	-13.6509
▁doodling	-13.6509
▁hustle	-13.6509
▁illogical	-13.6509
▁imminent	-13.6509
▁mantelpiece	-13.6509
▁notepad	-13.6509
▁paradise	-13.6509
▁philosophical	-13.6509
▁piercing	-13.6509
▁submerged	-13.6509
▁threshold	-13.6509
▁uncooperative	-13.6509
akitori	-13.6509
steroids	-13.6509
▁Texan	-13.6509
▁congratulations	-13.6509
▁dignified	-13.6509
▁dignity	-13.6509
▁egotistical	-13.6509
▁giddy	-13.6509
▁mittens	-13.6509
▁nutrition	-13.6509
▁peacock	-13.6509
▁pebble	-13.6509
▁submarine	-13.6509
▁ticklish	-13.6509
▁unfounded	-13.6509
▁veranda	-13.6509
dynamic	-13.6509
▁Alfred	-13.6509
▁Disease	-13.6509
▁Renaissance	-13.6509
▁Revolution	-13.6509
▁clippers	-13.6509
▁demolished	-13.6509
▁harassment	-13.6509
▁seaweed	-13.6509
▁Murata	-13.6509
▁Presley	-13.6509
▁brawl	-13.6509
▁casino	-13.6509
▁libraries	-13.6509
▁monotonous	-13.6509
▁polka	-13.6509
▁wavelength	-13.6509
▁clubbing	-13.651
▁deported	-13.651
▁diplomacy	-13.651
▁galaxies	-13.651
▁quibble	-13.651
▁supernatural	-13.651
▁bystander	-13.651
▁Charlie	-13.651
▁peephole	-13.651
▁occurrence	-13.651
▁presidency	-13.651
▁transition	-13.651
FL	-13.651
▁Louie	-13.651
▁eccentricities	-13.651
▁journalism	-13.651
▁manipulative	-13.651
▁tavern	-13.651
▁webpage	-13.651
▁Careful	-13.651
▁convertible	-13.651
▁despair	-13.651
▁entertainment	-13.651
▁guidelines	-13.651
▁Janeiro	-13.651
▁Research	-13.651
▁equation	-13.651
▁username	-13.651
▁intermission	-13.651
▁lifeboats	-13.651
▁lifespan	-13.651
▁misinformed	-13.651
▁Norton	-13.651
▁appetiz	-13.651
▁capsized	-13.651
▁shrugged	-13.651
▁unsteady	-13.651
▁Pizzaro	-13.651
▁Protest	-13.651
▁downsizing	-13.651
▁undefeated	-13.651
▁vertical	-13.651
▁prosperous	-13.651
▁brainstorm	-13.651
▁decoration	-13.651
▁fraternity	-13.651
▁remorse	-13.651
▁Albania	-13.651
▁barbaric	-13.651
▁shellfish	-13.651
▁barbershop	-13.651
▁category	-13.651
▁discrete	-13.651
▁loneliness	-13.651
▁unsuitable	-13.651
▁clapping	-13.651
▁ninja	-13.651
▁stamina	-13.651
▁Palace	-13.651
▁Petersburg	-13.651
▁battlefield	-13.651
▁refined	-13.651
▁twirl	-13.651
▁kidnapping	-13.651
▁slouch	-13.651
▁Kumiko	-13.651
▁undamaged	-13.651
▁Marconi	-13.651
▁creek	-13.651
▁Exchange	-13.651
▁unharmed	-13.651
▁cosmetic	-13.651
▁gratify	-13.651
▁penicillin	-13.651
▁Lamb	-13.651
▁Seattle	-13.651
▁bourbon	-13.651
▁desirable	-13.651
▁masculine	-13.651
▁sentimental	-13.651
▁caterpillar	-13.651
▁elusive	-13.651
▁ambush	-13.651
▁Manila	-13.651
▁divine	-13.651
▁negligent	-13.651
▁recaptured	-13.651
▁cartoonist	-13.651
▁electrician	-13.651
▁insanity	-13.651
▁urgency	-13.651
▁teaspoon	-13.651
▁solitary	-13.651
▁bishop	-13.651
▁counselor	-13.651
▁Shige	-13.651
▁Rumor	-13.651
▁disability	-13.651
▁Fiction	-13.651
▁idling	-13.651
▁blunder	-13.651
▁dispense	-13.651
guchi	-13.651
▁congressman	-13.651
▁entries	-13.651
▁grumbled	-13.651
▁Guide	-13.651
▁toenails	-13.651
▁caffeine	-13.651
▁scorpion	-13.651
▁headquarters	-13.651
▁plaza	-13.651
▁radar	-13.651
▁ounces	-13.651
▁tolerant	-13.651
▁hoops	-13.651
▁Alister	-13.651
▁Point	-13.651
▁jumpsuit	-13.651
▁spil	-13.651
▁yolks	-13.651
▁accessory	-13.651
▁godmother	-13.651
▁unscrupulous	-13.651
▁lapel	-13.651
▁chick	-13.651
▁handrail	-13.651
▁wholesale	-13.651
▁Office	-13.651
▁felony	-13.651
▁subordinate	-13.651
▁BBC	-13.651
▁enlarge	-13.651
▁uncomfortably	-13.651
▁homicide	-13.651
▁speculation	-13.651
▁aircraft	-13.651
▁ozone	-13.651
▁quotation	-13.651
▁inheritance	-13.6511
▁dramatically	-13.6511
▁Marcus	-13.6511
▁Silk	-13.6511
▁wholeheartedly	-13.6511
▁Federal	-13.6511
▁Blue	-13.6511
▁attacker	-13.6511
▁diagonally	-13.6511
▁simultaneously	-13.6511
▁scoote	-13.6511
▁provision	-13.6511
▁straightforward	-13.6511
▁tenacity	-13.6511
▁width	-13.6511
▁Karim	-13.6511
▁hoax	-13.6511
▁stepdaughter	-13.6511
▁unconcerned	-13.6511
▁radioactive	-13.6511
▁Carl	-13.6511
▁swans	-13.6511
▁whirl	-13.6511
▁discoveries	-13.6511
▁realization	-13.6511
▁bodybuilding	-13.6511
▁headlines	-13.6511
▁rematch	-13.6511
▁uncertainty	-13.6511
▁goldfish	-13.6511
▁excessive	-13.6511
▁frail	-13.6511
brainer	-13.6511
▁juicy	-13.6511
▁piggy	-13.6511
ealousy	-13.6511
▁rehearsing	-13.6511
lectronic	-13.6511
▁Carter	-13.6511
uiet	-13.6511
▁autobiography	-13.6511
▁aroma	-13.6511
▁quickened	-13.6511
▁Seine	-13.6511
▁Sara	-13.6511
▁perceptive	-13.6511
▁Passover	-13.6511
▁shuteye	-13.6512
▁referee	-13.6512
▁intuition	-13.6512
▁shoppers	-13.6512
▁conservation	-13.6512
▁unrelated	-13.6512
▁moldy	-13.6512
▁Ramu	-13.6512
▁skeleton	-13.6512
▁preacher	-13.6512
▁uneasily	-13.6512
▁earshot	-13.6512
mannered	-13.6512
▁smuggling	-13.6512
▁shaky	-13.6512
▁uninvited	-13.6512
▁ballpark	-13.6512
▁arranging	-13.6512
▁partnership	-13.6512
▁Coinciden	-13.6512
▁trespassing	-13.6512
▁lilies	-13.6512
▁observing	-13.6512
▁adjustment	-13.6512
▁republic	-13.6512
▁astronomer	-13.6512
▁lounge	-13.6512
▁rechecked	-13.6512
▁fisherman	-13.6513
▁swiftly	-13.6513
▁confer	-13.6513
▁Strait	-13.6513
▁Settle	-13.6513
▁unanimously	-13.6513
▁burglaries	-13.6513
▁Ferris	-13.6513
▁luckiest	-13.6513
▁moaned	-13.6513
caffein	-13.6513
▁discarded	-13.6513
▁Paste	-13.6513
▁tactic	-13.6513
agpipes	-13.6513
▁bowline	-13.6513
▁natto	-13.6513
▁dictated	-13.6513
▁Preventi	-13.6513
▁hypnotize	-13.6513
▁luncheon	-13.6513
▁confrontation	-13.6513
▁ashore	-13.6513
▁Yuka	-13.6513
▁tsunami	-13.6513
▁vampire	-13.6513
▁def	-13.6513
▁echo	-13.6514
▁unsafe	-13.6514
▁Noriko	-13.6514
▁sitcom	-13.6514
▁ransom	-13.6514
▁prank	-13.6514
▁crafty	-13.6514
▁shyness	-13.6514
▁taxpayer	-13.6514
▁unofficially	-13.6514
▁bladder	-13.6514
▁cement	-13.6515
▁stepmother	-13.6515
▁economist	-13.6515
▁slander	-13.6515
▁inspector	-13.6515
▁decisive	-13.6515
▁shopkeeper	-13.6515
▁Blend	-13.6515
▁stoic	-13.6515
▁snails	-13.6515
▁Grill	-13.6515
▁Buren	-13.6515
▁keyhole	-13.6515
manded	-13.6515
▁immune	-13.6515
▁blender	-13.6515
▁mode	-13.6515
▁Islam	-13.6515
▁gracefully	-13.6515
▁growling	-13.6515
▁slipping	-13.6516
▁extracted	-13.6516
▁crab	-13.6516
▁clover	-13.6516
▁amputated	-13.6516
▁Sister	-13.6516
▁profitable	-13.6516
▁unhurt	-13.6516
▁futon	-13.6516
▁revision	-13.6516
▁Face	-13.6517
▁preference	-13.6517
▁fiancee	-13.6517
▁ivy	-13.6517
▁spaceship	-13.6517
▁tryouts	-13.6517
▁overdue	-13.6518
▁corpse	-13.6518
capita	-13.6518
▁mountaintop	-13.6518
▁distort	-13.6518
▁Anyhow	-13.6518
▁hygiene	-13.6518
▁catastrophe	-13.6518
▁widower	-13.6518
▁Angel	-13.6518
▁brook	-13.6518
▁editing	-13.6518
▁obsessive	-13.6518
▁lisp	-13.6518
▁mimic	-13.6518
▁recharged	-13.6519
▁exterminat	-13.6519
sugi	-13.6519
▁trickle	-13.6519
▁Connect	-13.6519
▁extroverted	-13.6519
▁varnish	-13.6519
▁blindfolded	-13.6519
▁colour	-13.6519
shions	-13.652
▁adaptable	-13.652
▁prosecuted	-13.652
▁awareness	-13.652
▁insulated	-13.652
rossed	-13.652
▁insistent	-13.6521
▁grouchy	-13.6521
▁outcast	-13.6521
▁yoga	-13.6521
kusa	-13.6521
▁hysterically	-13.6521
▁contemplating	-13.6522
▁buzzer	-13.6522
▁helplessness	-13.6522
▁Rocky	-13.6522
▁subtract	-13.6522
▁Grey	-13.6522
▁cloak	-13.6523
▁fluke	-13.6523
▁Kissing	-13.6523
▁imply	-13.6523
arily	-13.6523
▁limping	-13.6523
▁bulky	-13.6523
ingle	-13.6523
▁vividly	-13.6523
▁knockout	-13.6524
▁Sony	-13.6524
ashi	-13.6524
▁Deaf	-13.6524
▁Masao	-13.6524
▁comedies	-13.6524
▁dipping	-13.6525
▁waterproof	-13.6525
▁flinched	-13.6525
▁insincere	-13.6525
▁cookbook	-13.6525
▁meddling	-13.6525
▁inquire	-13.6526
▁overflowed	-13.6526
▁Road	-13.6527
▁squeaked	-13.6527
▁levee	-13.6527
▁subjective	-13.6527
▁Kle	-13.6527
▁analyzed	-13.6527
▁doomed	-13.6527
▁supervised	-13.6527
▁mommy	-13.6528
▁eraser	-13.6528
▁negotiating	-13.6528
▁claws	-13.6528
▁clashed	-13.6528
▁Baker	-13.6528
▁Indonesian	-13.6529
▁marvel	-13.6529
▁overpriced	-13.653
▁abruptly	-13.653
▁handball	-13.653
▁expressway	-13.653
▁furnishing	-13.653
▁sixteenth	-13.653
▁Karl	-13.6531
▁backfired	-13.6531
▁escalat	-13.6531
▁binge	-13.6532
▁ordeal	-13.6532
▁moistur	-13.6532
▁semi	-13.6532
▁upbeat	-13.6532
▁hunk	-13.6532
▁captivate	-13.6532
▁Yoshio	-13.6533
▁halted	-13.6533
▁tenure	-13.6534
▁tumor	-13.6535
▁frown	-13.6535
▁fibers	-13.6538
▁pep	-13.6538
▁overhearing	-13.6538
▁stunt	-13.6538
mpire	-13.6538
▁intruder	-13.6539
00,	-13.6539
▁harshly	-13.6539
▁scout	-13.6539
▁knight	-13.654
▁Tigers	-13.654
▁pertinent	-13.654
▁haze	-13.654
▁patron	-13.654
▁lovingly	-13.654
▁Pink	-13.6541
▁railing	-13.6542
▁hippies	-13.6542
▁Bern	-13.6542
▁zombies	-13.6543
▁Philippines	-13.6543
▁generalizations	-13.6543
▁justified	-13.6543
▁stalls	-13.6543
▁considerably	-13.6543
▁stretcher	-13.6543
▁selection	-13.6543
▁dissolve	-13.6544
▁clap	-13.6544
▁sax	-13.6544
gainst	-13.6544
▁canaries	-13.6544
▁agoniz	-13.6544
▁presume	-13.6544
▁fisherm	-13.6544
▁Addition	-13.6544
▁daybreak	-13.6545
▁shorthanded	-13.6545
▁Force	-13.6546
▁bailed	-13.6547
▁Bach	-13.6547
▁interact	-13.6549
▁unmade	-13.655
ban	-13.655
pan	-13.655
▁distribute	-13.6551
▁imaginable	-13.6552
▁Arabia	-13.6552
▁respectable	-13.6552
▁Joneses	-13.6553
▁torch	-13.6553
▁Salva	-13.6553
▁layout	-13.6554
▁contradicted	-13.6554
▁handbook	-13.6554
▁avoidable	-13.6554
▁paperback	-13.6554
▁tuba	-13.6554
▁dialing	-13.6554
ndustrialization	-13.6557
▁credible	-13.6559
▁geniuses	-13.6559
▁satisfying	-13.656
▁accordingly	-13.6562
▁Dais	-13.6563
▁upsetting	-13.6563
▁mildly	-13.6563
▁sketching	-13.6563
corns	-13.6564
▁imposing	-13.6564
▁maze	-13.6564
▁altered	-13.6565
▁shopped	-13.6566
▁glow	-13.6566
▁mumble	-13.6566
▁drained	-13.6567
▁pardoned	-13.6568
▁pointers	-13.6568
▁squint	-13.6568
▁tripled	-13.6568
▁dryer	-13.6568
▁appli	-13.6568
▁blinker	-13.6569
mp	-13.657
▁blinked	-13.6571
▁Fund	-13.6571
▁Kum	-13.6571
▁soaring	-13.6571
▁ventured	-13.6571
▁unjust	-13.6572
▁Deni	-13.6572
▁Euros	-13.6573
▁Problem	-13.6574
▁Fran	-13.6574
▁modifi	-13.6574
▁anarchy	-13.6574
▁mama	-13.6576
▁Speed	-13.6577
▁cork	-13.6579
▁articulate	-13.658
reativity	-13.6581
▁showroom	-13.6581
▁Medi	-13.6581
▁saucer	-13.6582
▁spices	-13.6582
rimmed	-13.6583
▁hitter	-13.6583
▁drafted	-13.6583
▁handmade	-13.6583
▁autistic	-13.6584
▁yearbook	-13.6584
▁cruelly	-13.6584
▁conspiracy	-13.6585
▁preserved	-13.6585
▁directory	-13.6586
elegate	-13.6587
▁quart	-13.6587
▁sneezed	-13.6588
▁dispose	-13.6588
▁lining	-13.659
▁upbringing	-13.6592
▁marbles	-13.6594
geria	-13.6595
▁oversleep	-13.6595
▁prefecture	-13.6595
▁Herman	-13.6596
thnic	-13.6597
▁vine	-13.6598
▁barriers	-13.6598
▁muffins	-13.6598
▁appliances	-13.6598
▁Himalayas	-13.6599
▁cucumbers	-13.6599
▁historians	-13.6599
action	-13.6602
▁correspondent	-13.6603
▁glare	-13.6606
▁Bud	-13.6609
▁hotter	-13.6609
ipping	-13.6609
▁Greed	-13.661
▁creation	-13.6611
aseball	-13.6614
▁weirder	-13.6615
▁healing	-13.6616
▁construct	-13.6616
▁processed	-13.6618
▁playfully	-13.6621
▁drier	-13.6622
▁startle	-13.6622
▁Batt	-13.6623
▁stopover	-13.6623
assengers	-13.6624
▁marches	-13.6624
▁nests	-13.6625
▁Jona	-13.6626
will	-13.6627
▁rocker	-13.6627
▁Yuko	-13.6628
▁icon	-13.6628
mber	-13.6634
▁Candy	-13.6634
path	-13.6635
▁dent	-13.6636
▁jolt	-13.6636
▁matured	-13.6639
▁curiously	-13.664
▁aardvark	-13.664
▁magnets	-13.6641
▁faking	-13.6641
▁prim	-13.6642
▁bearer	-13.6644
teller	-13.6644
▁Feli	-13.6644
shima	-13.6646
▁urgently	-13.6649
▁quitter	-13.6649
▁mi	-13.6649
▁photography	-13.6651
▁Luna	-13.6651
▁dragonfl	-13.6652
▁myths	-13.6653
▁shutters	-13.6654
▁comforting	-13.6655
▁substances	-13.6656
▁newcomers	-13.6656
▁brochures	-13.6656
▁Egyptians	-13.6656
▁revenues	-13.6656
▁heroin	-13.6657
▁attackers	-13.6661
rd	-13.6662
▁gloat	-13.6665
▁Smile	-13.6669
mpulsive	-13.6671
▁wrestle	-13.6673
▁comedy	-13.6673
▁indifference	-13.6673
▁Eight	-13.6673
▁doorman	-13.668
▁transmit	-13.6681
▁grader	-13.6681
▁forests	-13.6682
▁possessed	-13.6683
▁Theory	-13.6684
talkie	-13.6684
ette	-13.6685
▁coaster	-13.6685
▁resisting	-13.6687
▁script	-13.669
▁Rem	-13.6691
arou	-13.6694
▁churches	-13.6697
▁Ger	-13.6698
▁corrections	-13.6698
▁Russ	-13.67
▁stammer	-13.6705
ddle	-13.6707
▁Clar	-13.6707
▁hiccups	-13.6713
▁bikinis	-13.6714
▁misprints	-13.6714
▁firefighters	-13.6715
tch	-13.6721
▁definit	-13.6722
▁ammo	-13.6723
▁pitches	-13.6723
▁expands	-13.6726
trained	-13.6729
▁appealing	-13.673
▁rivals	-13.6733
▁thud	-13.6733
▁warmth	-13.6735
▁falsif	-13.6735
roth	-13.6735
▁cooker	-13.6738
▁eng	-13.6742
▁Feder	-13.6743
▁manufacturer	-13.6746
ounds	-13.675
verbal	-13.6753
▁outsiders	-13.6753
▁implie	-13.6755
▁stings	-13.6756
zer	-13.6758
▁sins	-13.676
egas	-13.6763
uff	-13.6763
▁addresses	-13.6764
▁roar	-13.6765
write	-13.6766
IN	-13.6767
▁giraffes	-13.6772
▁psychiatrists	-13.6772
▁Christians	-13.6773
ewscaster	-13.6775
ushi	-13.6775
▁thunderstorms	-13.6775
▁sex	-13.6779
▁shocking	-13.6779
zaki	-13.678
ecretary	-13.6781
▁marche	-13.6782
tra	-13.6784
▁forties	-13.6785
▁Corporat	-13.6787
ustling	-13.6791
anning	-13.6795
▁info	-13.6795
▁rocky	-13.6796
▁drinkable	-13.6796
iff	-13.6798
▁hitchhike	-13.68
▁leveled	-13.6801
▁sinner	-13.6817
iance	-13.6817
▁Marie	-13.682
▁slide	-13.682
▁indige	-13.6821
ez	-13.6821
assed	-13.6824
▁pol	-13.6829
▁receiver	-13.683
▁souvenirs	-13.683
▁revive	-13.6831
▁100,000	-13.6835
racked	-13.6839
▁prejudices	-13.684
▁mic	-13.6841
▁squeez	-13.6842
▁linked	-13.6846
▁modernize	-13.6854
▁amends	-13.6854
▁Sch	-13.686
▁breathless	-13.6862
▁ecolog	-13.6865
▁blinding	-13.6868
▁Live	-13.6871
▁continues	-13.6871
ington	-13.6874
lothes	-13.6876
oli	-13.6878
▁Pear	-13.6879
lush	-13.6881
▁remarkabl	-13.6882
▁possessions	-13.6887
▁bubbles	-13.6887
▁Carolin	-13.6888
▁civilizations	-13.6888
▁sneezes	-13.689
▁Cost	-13.6892
▁tease	-13.6892
istakes	-13.6893
luted	-13.6896
▁Yoshik	-13.6899
▁qualif	-13.6905
olves	-13.6906
ns	-13.6908
▁carnation	-13.6908
▁gal	-13.6908
cinna	-13.6909
body	-13.691
▁Jac	-13.6911
▁flourish	-13.6913
▁rehearse	-13.6913
▁Emp	-13.6915
▁burie	-13.6919
▁wider	-13.6922
▁Concer	-13.6922
▁Ex	-13.6925
▁sharks	-13.6926
▁anyhow	-13.6928
mura	-13.6928
▁guitars	-13.6929
▁tuned	-13.693
▁pledge	-13.6931
▁editions	-13.6931
tories	-13.6931
▁itches	-13.6935
▁aground	-13.6937
trapped	-13.6939
laced	-13.6939
▁devices	-13.6942
▁Super	-13.6942
lection	-13.6946
▁commercials	-13.6946
▁Monte	-13.6947
▁nieces	-13.6948
▁plugs	-13.6948
▁itch	-13.6951
▁reap	-13.6956
▁Hug	-13.6966
▁stools	-13.6967
▁bulbs	-13.6973
sung	-13.6974
ire	-13.6981
▁cultured	-13.6987
▁10-	-13.6989
▁Dave	-13.699
high	-13.6993
▁nets	-13.6996
▁undo	-13.7003
just	-13.7004
▁autographs	-13.7004
▁surpass	-13.7006
▁outlet	-13.7013
▁Supp	-13.7016
▁Bab	-13.7025
▁settings	-13.7026
▁fla	-13.7045
▁disks	-13.7046
▁pine	-13.7052
▁oppressi	-13.7052
▁Aunt	-13.706
▁Full	-13.706
moving	-13.7061
thetic	-13.7061
bon	-13.7064
ula	-13.7069
em	-13.7069
strong	-13.7071
▁Theater	-13.7074
▁nonviolen	-13.7075
▁rob	-13.7076
▁promot	-13.7089
▁trader	-13.7092
▁avenue	-13.7094
rking	-13.7097
▁pamper	-13.7098
▁trainee	-13.7101
lava	-13.7108
▁reinsta	-13.712
reparations	-13.7135
▁diplomats	-13.7139
ucc	-13.7147
arter	-13.7153
▁respecting	-13.7154
▁Bond	-13.7155
▁magnet	-13.7155
▁showering	-13.7156
▁Deb	-13.716
ested	-13.7161
▁Late	-13.7161
FOs	-13.7169
▁fainte	-13.7169
▁chemicals	-13.7178
little	-13.7179
▁proverbs	-13.7179
▁exaggerates	-13.718
uri	-13.7181
uela	-13.7184
▁z	-13.7186
▁roots	-13.7193
▁tri	-13.7197
▁stray	-13.7198
kai	-13.72
▁mounted	-13.7202
dental	-13.7202
▁col	-13.7207
▁Rout	-13.7212
gi	-13.7216
inos	-13.7218
▁curt	-13.7218
▁astronauts	-13.7219
▁adj	-13.7219
ooner	-13.7224
iking	-13.7232
▁Leon	-13.7234
▁nephews	-13.7236
▁swimsuits	-13.7238
▁seasoning	-13.7245
▁Litt	-13.7247
▁Gle	-13.7248
▁Smo	-13.7253
lar	-13.7257
▁cleaners	-13.7263
ncy	-13.7269
▁Bi	-13.7272
▁y	-13.7272
▁scholars	-13.7272
latform	-13.7277
▁Scot	-13.7278
▁freshen	-13.7278
▁Gun	-13.728
tility	-13.7281
▁Physical	-13.7283
▁mitt	-13.7285
▁complet	-13.7286
▁Fe	-13.7287
▁heaters	-13.7289
▁feller	-13.7289
▁cowboys	-13.7294
▁Aya	-13.7296
▁scribbl	-13.7303
▁dispos	-13.7306
▁lunches	-13.7307
bility	-13.7308
py	-13.7312
▁sway	-13.7312
▁lifting	-13.7315
▁purchases	-13.7316
killed	-13.7323
▁reli	-13.7326
▁fad	-13.7331
position	-13.7334
▁tempered	-13.7347
head	-13.7353
ith	-13.7353
cho	-13.736
uddle	-13.7363
izes	-13.7368
▁besi	-13.737
▁Feed	-13.7373
win	-13.7376
enched	-13.738
▁pag	-13.7391
ens	-13.7394
▁Ming	-13.7402
▁females	-13.741
▁Apol	-13.741
ayed	-13.7418
oderate	-13.7425
▁hints	-13.7426
▁gears	-13.7435
erries	-13.7444
▁loop	-13.7447
▁reproach	-13.7447
[...]
