[PAD]	0
[UNK]	0
[BOS]	0
[EOS]	0
▁t	-0
▁a	-1
he	-2
in	-3
re	-4
ou	-5
▁the	-6
▁s	-7
▁w	-8
on	-9
er	-10
at	-11
▁c	-12
▁o	-13
nd	-14
▁b	-15
it	-16
is	-17
▁m	-18
ing	-19
▁f	-20
an	-21
or	-22
en	-23
▁to	-24
es	-25
▁p	-26
▁y	-27
▁d	-28
ed	-29
▁you	-30
al	-31
▁in	-32
▁of	-33
ar	-34
▁I	-35
▁h	-36
▁th	-37
▁n	-38
▁and	-39
▁l	-40
as	-41
om	-42
ic	-43
ll	-44
▁g	-45
ion	-46
ve	-47
le	-48
▁T	-49
et	-50
us	-51
ow	-52
ot	-53
▁e	-54
▁re	-55
ly	-56
▁be	-57
▁A	-58
ent	-59
▁S	-60
▁-	-61
▁is	-62
ct	-63
id	-64
ay	-65
▁that	-66
▁he	-67
▁on	-68
im	-69
ro	-70
▁it	-71
ig	-72
▁for	-73
st	-74
ut	-75
am	-76
ld	-77
▁ha	-78
ver	-79
▁W	-80
ac	-81
▁st	-82
▁your	-83
▁C	-84
se	-85
▁we	-86
▁wh	-87
ke	-88
ith	-89
ir	-90
ad	-91
▁do	-92
▁with	-93
▁M	-94
▁The	-95
▁an	-96
out	-97
ur	-98
▁as	-99
ation	-100
ol	-101
ce	-102
▁B	-103
if	-104
ill	-105
ter	-106
ch	-107
▁H	-108
▁was	-109
▁or	-110
il	-111
▁u	-112
her	-113
▁Y	-114
▁are	-115
▁r	-116
od	-117
▁me	-118
ht	-119
▁P	-120
▁1	-121
▁k	-122
▁se	-123
▁D	-124
op	-125
ra	-126
▁have	-127
ul	-128
▁con	-129
ant	-130
▁not	-131
▁(	-132
▁fr	-133
▁ne	-134
▁de	-135
▁You	-136
▁com	-137
ore	-138
▁at	-139
▁this	-140
▁can	-141
ge	-142
ight	-143
ist	-144
▁N	-145
ate	-146
pp	-147
ive	-148
▁go	-149
▁su	-150
ould	-151
▁2	-152
est	-153
ers	-154
ust	-155
th	-156
▁L	-157
▁G	-158
um	-159
ess	-160
▁sh	-161
▁pro	-162
ie	-163
▁F	-164
os	-165
▁al	-166
▁ex	-167
ain	-168
pe	-169
ome	-170
▁ab	-171
ab	-172
res	-173
▁"	-174
▁us	-175
un	-176
▁O	-177
art	-178
..	-179
▁by	-180
▁li	-181
▁from	-182
▁j	-183
ally	-184
▁Th	-185
▁v	-186
▁R	-187
ri	-188
em	-189
our	-190
nt	-191
and	-192
▁ch	-193
▁E	-194
el	-195
▁kn	-196
▁It	-197
ake	-198
▁wor	-199
▁so	-200
qu	-201
▁lo	-202
all	-203
ity	-204
▁whe	-205
ort	-206
ry	-207
ies	-208
ment	-209
▁all	-210
▁le	-211
ok	-212
▁know	-213
one	-214
ak	-215
ell	-216
▁out	-217
▁will	-218
ect	-219
▁my	-220
▁pl	-221
▁J	-222
oug	-223
▁they	-224
▁20	-225
ide	-226
▁about	-227
ure	-228
ine	-229
ast	-230
ard	-231
▁And	-232
iv	-233
ack	-234
▁up	-235
ong	-236
▁like	-237
ind	-238
ud	-239
▁what	-240
ap	-241
▁but	-242
▁her	-243
▁In	-244
▁one	-245
ci	-246
red	-247
ound	-248
▁U	-249
▁int	-250
▁get	-251
ther	-252
ag	-253
very	-254
ear	-255
▁if	-256
ime	-257
ame	-258
ink	-259
ep	-260
▁Wh	-261
▁19	-262
ich	-263
▁K	-264
ost	-265
so	-266
▁He	-267
▁has	-268
▁ar	-269
▁just	-270
▁cl	-271
aus	-272
▁there	-273
ber	-274
ice	-275
▁want	-276
▁them	-277
▁she	-278
ated	-279
▁who	-280
ia	-281
▁fe	-282
ions	-283
▁some	-284
pt	-285
ff	-286
▁more	-287
▁We	-288
▁tr	-289
iz	-290
age	-291
ous	-292
▁comp	-293
▁pe	-294
ough	-295
ip	-296
are	-297
▁man	-298
ace	-299
▁other	-300
act	-301
▁time	-302
ck	-303
hing	-304
▁If	-305
▁any	-306
▁were	-307
og	-308
▁im	-309
▁en	-310
▁Ch	-311
▁pr	-312
▁ad	-313
▁when	-314
▁which	-315
▁his	-316
ople	-317
▁him	-318
ause	-319
...	-320
reat	-321
per	-322
ian	-323
▁This	-324
ose	-325
ical	-326
▁co	-327
▁cont	-328
▁sa	-329
ary	-330
00	-331
▁may	-332
▁bec	-333
▁their	-334
cc	-335
▁work	-336
▁need	-337
ug	-338
ib	-339
▁V	-340
▁also	-341
▁think	-342
lo	-343
▁St	-344
own	-345
▁people	-346
▁had	-347
▁inc	-348
▁been	-349
▁here	-350
ress	-351
ase	-352
▁dis	-353
▁would	-354
▁ag	-355
ue	-356
▁So	-357
▁te	-358
▁no	-359
ass	-360
ater	-361
du	-362
▁part	-363
▁sp	-364
ans	-365
ick	-366
▁did	-367
ven	-368
ang	-369
▁app	-370
ings	-371
ub	-372
▁fo	-373
▁act	-374
▁right	-375
▁gr	-376
▁res	-377
ult	-378
▁see	-379
▁un	-380
▁over	-381
ations	-382
ays	-383
ere	-384
▁off	-385
ount	-386
irst	-387
▁year	-388
omet	-389
ile	-390
able	-391
▁into	-392
sel	-393
▁per	-394
▁201	-395
▁But	-396
▁than	-397
av	-398
ign	-399
orm	-400
ance	-401
▁make	-402
ire	-403
ite	-404
▁how	-405
▁hel	-406
ach	-407
▁back	-408
ree	-409
wo	-410
ish	-411
fter	-412
nder	-413
▁spe	-414
▁She	-415
▁help	-416
itt	-417
▁qu	-418
ence	-419
vel	-420
▁could	-421
▁br	-422
ial	-423
▁first	-424
▁our	-425
ond	-426
▁What	-427
▁got	-428
ord	-429
▁pre	-430
alk	-431
other	-432
ild	-433
▁look	-434
▁Do	-435
▁ro	-436
▁bet	-437
ens	-438
▁should	-439
pl	-440
▁mo	-441
▁now	-442
ition	-443
▁then	-444
mer	-445
▁sc	-446
▁these	-447
▁every	-448
▁two	-449
na	-450
▁imp	-451
▁am	-452
▁going	-453
▁way	-454
▁only	-455
▁bo	-456
ict	-457
ife	-458
int	-459
▁where	-460
▁somet	-461
ory	-462
ved	-463
▁3	-464
ade	-465
self	-466
▁new	-467
▁They	-468
iff	-469
▁That	-470
▁sy	-471
▁take	-472
▁under	-473
▁down	-474
▁good	-475
fore	-476
▁call	-477
▁its	-478
▁--	-479
amp	-480
ors	-481
▁thr	-482
▁feel	-483
ail	-484
we	-485
urn	-486
▁gu	-487
tern	-488
ark	-489
▁use	-490
▁after	-491
▁say	-492
erm	-493
ody	-494
vers	-495
ents	-496
orn	-497
ys	-498
wn	-499
▁ph	-500
ru	-501
▁po	-502
▁because	-503
▁comm	-504
ving	-505
▁rel	-506
▁rec	-507
▁No	-508
te	-509
ates	-510
▁Un	-511
▁inf	-512
▁ser	-513
uch	-514
▁rem	-515
ons	-516
ting	-517
▁ke	-518
▁very	-519
hen	-520
ces	-521
▁most	-522
lud	-523
▁diff	-524
ec	-525
ually	-526
▁ca	-527
hed	-528
iss	-529
▁200	-530
▁pers	-531
ction	-532
ily	-533
les	-534
▁something	-535
ah	-536
▁sm	-537
▁On	-538
▁As	-539
▁even	-540
ft	-541
ble	-542
▁dr	-543
▁des	-544
ave	-545
▁years	-546
aking	-547
▁such	-548
igh	-549
▁bu	-550
iet	-551
▁before	-552
▁pos	-553
ought	-554
ren	-555
),	-556
▁through	-557
▁does	-558
▁find	-559
▁fl	-560
▁tell	-561
▁sec	-562
ating	-563
▁includ	-564
▁wr	-565
▁How	-566
▁There	-567
ious	-568
als	-569
▁again	-570
▁day	-571
nds	-572
▁cons	-573
ph	-574
ath	-575
aw	-576
▁long	-577
▁talk	-578
▁said	-579
▁aw	-580
ise	-581
▁acc	-582
▁life	-583
▁used	-584
▁–	-585
▁much	-586
oth	-587
▁let	-588
ative	-589
▁person	-590
▁really	-591
ina	-592
▁well	-593
▁happ	-594
▁ac	-595
ied	-596
ower	-597
thing	-598
get	-599
▁start	-600
▁em	-601
ced	-602
ather	-603
▁world	-604
ational	-605
▁come	-606
▁reg	-607
▁try	-608
ves	-609
cial	-610
ular	-611
▁produ	-612
xt	-613
be	-614
ful	-615
hip	-616
▁att	-617
▁too	-618
▁min	-619
▁bl	-620
ited	-621
lic	-622
▁dec	-623
▁water	-624
olog	-625
▁many	-626
."	-627
▁cr	-628
ew	-629
oc	-630
ange	-631
▁being	-632
uring	-633
ob	-634
ittle	-635
ank	-636
ased	-637
▁med	-638
rain	-639
▁ind	-640
▁around	-641
▁things	-642
hes	-643
▁car	-644
ual	-645
).	-646
▁4	-647
ffect	-648
▁supp	-649
ull	-650
ific	-651
▁inv	-652
ject	-653
▁sur	-654
▁An	-655
ric	-656
▁pol	-657
▁frie	-658
ident	-659
▁differe	-660
▁met	-661
onna	-662
▁gen	-663
cess	-664
▁count	-665
▁Well	-666
▁little	-667
▁bel	-668
▁own	-669
ities	-670
▁those	-671
▁5	-672
ible	-673
imes	-674
ert	-675
oup	-676
▁gonna	-677
▁add	-678
▁For	-679
▁play	-680
▁rep	-681
ics	-682
ines	-683
▁form	-684
▁inst	-685
▁Al	-686
ince	-687
▁never	-688
▁che	-689
▁pres	-690
stem	-691
▁still	-692
▁ask	-693
lect	-694
▁made	-695
▁keep	-696
aug	-697
gan	-698
▁show	-699
▁num	-700
▁stud	-701
pect	-702
▁found	-703
▁ev	-704
ars	-705
▁sk	-706
▁fam	-707
▁sure	-708
▁wom	-709
old	-710
ady	-711
ix	-712
arn	-713
ween	-714
ty	-715
▁might	-716
▁kill	-717
▁yourself	-718
▁ob	-719
here	-720
velop	-721
▁mon	-722
ward	-723
▁op	-724
ng	-725
ever	-726
▁same	-727
ract	-728
▁child	-729
▁When	-730
▁str	-731
▁end	-732
gr	-733
▁place	-734
up	-735
ool	-736
▁mean	-737
its	-738
outh	-739
▁between	-740
arm	-741
▁sub	-742
▁thing	-743
any	-744
▁home	-745
▁Now	-746
llow	-747
▁cle	-748
▁give	-749
▁put	-750
ont	-751
▁great	-752
ook	-753
▁system	-754
▁three	-755
▁set	-756
▁different	-757
▁thought	-758
▁dist	-759
▁ent	-760
▁hum	-761
io	-762
▁name	-763
ments	-764
▁while	-765
▁care	-766
ek	-767
ize	-768
uc	-769
alth	-770
▁loc	-771
▁ins	-772
▁sim	-773
▁real	-774
▁high	-775
cept	-776
▁doing	-777
az	-778
▁sl	-779
ness	-780
atch	-781
▁Be	-782
ove	-783
▁last	-784
▁/	-785
▁fin	-786
▁sign	-787
▁old	-788
ouse	-789
ctor	-790
▁cent	-791
meric	-792
form	-793
▁prot	-794
▁develop	-795
▁ass	-796
vern	-797
arch	-798
ten	-799
▁each	-800
▁blo	-801
ier	-802
▁import	-803
▁trans	-804
▁cre	-805
▁inter	-806
▁away	-807
▁better	-808
▁exp	-809
▁plan	-810
chool	-811
▁ty	-812
ures	-813
▁Is	-814
air	-815
augh	-816
▁Ar	-817
▁Americ	-818
▁head	-819
ution	-820
ork	-821
ner	-822
▁effect	-823
▁Se	-824
▁why	-825
ax	-826
omm	-827
▁lead	-828
der	-829
ism	-830
ways	-831
cy	-832
▁Re	-833
ood	-834
ility	-835
ale	-836
blem	-837
▁def	-838
▁body	-839
akes	-840
▁conf	-841
▁Sh	-842
▁lot	-843
▁treat	-844
▁called	-845
▁Fr	-846
▁best	-847
day	-848
ember	-849
▁love	-850
▁both	-851
▁hand	-852
▁Pol	-853
ically	-854
irl	-855
rib	-856
▁mod	-857
ger	-858
▁10	-859
ros	-860
▁ear	-861
▁mus	-862
▁problem	-863
▁open	-864
▁mem	-865
land	-866
▁disc	-867
ntil	-868
▁second	-869
▁6	-870
▁belie	-871
ute	-872
▁bre	-873
oun	-874
▁De	-875
▁few	-876
▁el	-877
▁ref	-878
ning	-879
▁lar	-880
▁199	-881
▁run	-882
nam	-883
▁another	-884
eah	-885
▁pub	-886
▁exper	-887
ample	-888
ivers	-889
aughter	-890
ts	-891
▁follow	-892
▁gener	-893
ows	-894
▁small	-895
▁must	-896
ne	-897
ized	-898
▁important	-899
▁ret	-900
ital	-901
▁ide	-902
▁pain	-903
▁cap	-904
iness	-905
▁kind	-906
▁My	-907
▁happen	-908
ists	-909
rop	-910
▁during	-911
oid	-912
oney	-913
ional	-914
▁until	-915
▁All	-916
lease	-917
▁food	-918
▁known	-919
▁det	-920
▁family	-921
▁number	-922
ason	-923
000	-924
▁18	-925
ature	-926
▁China	-927
▁poss	-928
▁turn	-929
▁Oh	-930
kay	-931
cer	-932
ins	-933
vent	-934
▁pop	-935
▁av	-936
iting	-937
pr	-938
▁Br	-939
▁comple	-940
end	-941
▁left	-942
▁May	-943
▁dire	-944
ately	-945
orth	-946
stand	-947
▁pat	-948
▁always	-949
▁bus	-950
▁example	-951
ash	-952
ision	-953
▁night	-954
▁ext	-955
▁fun	-956
illion	-957
▁point	-958
▁list	-959
▁Why	-960
▁Le	-961
▁using	-962
▁coll	-963
▁Your	-964
▁big	-965
▁govern	-966
▁fact	-967
▁(1	-968
▁without	-969
▁anything	-970
ural	-971
con	-972
oh	-973
▁actually	-974
▁Z	-975
ried	-976
▁group	-977
▁men	-978
▁prov	-979
▁contro	-980
▁often	-981
▁hard	-982
▁art	-983
oy	-984
ished	-985
▁power	-986
▁tra	-987
▁week	-988
ters	-989
ared	-990
▁rest	-991
ues	-992
▁fil	-993
▁ey	-994
▁cour	-995
▁'	-996
ral	-997
▁United	-998
▁giv	-999
li	-1000
▁Let	-1001
▁stop	-1002
▁school	-1003
▁health	-1004
▁someone	-1005
▁cur	-1006
ered	-1007
▁girl	-1008
body	-1009
▁ant	-1010
▁incre	-1011
▁hour	-1012
▁beh	-1013
led	-1014
iew	-1015
ene	-1016
▁sit	-1017
▁mat	-1018
ages	-1019
▁Yeah	-1020
erest	-1021
▁7	-1022
ret	-1023
oss	-1024
▁sol	-1025
▁move	-1026
▁Mr	-1027
ants	-1028
▁eas	-1029
uss	-1030
utes	-1031
ense	-1032
▁char	-1033
▁less	-1034
gy	-1035
ets	-1036
und	-1037
gether	-1038
▁together	-1039
cent	-1040
▁build	-1041
▁resp	-1042
,000	-1043
▁8	-1044
ases	-1045
▁quest	-1046
▁prom	-1047
osed	-1048
chn	-1049
▁mar	-1050
▁At	-1051
▁sw	-1052
▁enough	-1053
▁Cl	-1054
ium	-1055
▁col	-1056
▁wo	-1057
▁human	-1058
gg	-1059
▁pass	-1060
▁top	-1061
▁change	-1062
▁Just	-1063
▁partic	-1064
▁next	-1065
▁light	-1066
▁ed	-1067
▁interest	-1068
▁friend	-1069
▁process	-1070
▁mark	-1071
▁spec	-1072
▁ever	-1073
▁later	-1074
uth	-1075
man	-1076
▁side	-1077
ices	-1078
ott	-1079
▁women	-1080
▁kid	-1081
ov	-1082
ider	-1083
▁appro	-1084
▁dep	-1085
ries	-1086
▁sing	-1087
▁var	-1088
▁against	-1089
▁done	-1090
▁result	-1091
aj	-1092
▁To	-1093
▁since	-1094
▁month	-1095
ames	-1096
▁stand	-1097
ired	-1098
ology	-1099
istr	-1100
ird	-1101
▁learn	-1102
▁told	-1103
min	-1104
ury	-1105
▁Pr	-1106
▁Some	-1107
▁These	-1108
▁word	-1109
▁term	-1110
▁understand	-1111
ross	-1112
▁days	-1113
▁four	-1114
▁Go	-1115
▁Not	-1116
▁test	-1117
▁activ	-1118
▁main	-1119
less	-1120
▁level	-1121
▁es	-1122
▁skin	-1123
▁mind	-1124
▁Ad	-1125
br	-1126
ient	-1127
▁within	-1128
▁getting	-1129
▁grow	-1130
inal	-1131
▁hy	-1132
▁Can	-1133
▁able	-1134
▁came	-1135
▁Or	-1136
▁198	-1137
▁money	-1138
▁country	-1139
med	-1140
itive	-1141
▁state	-1142
▁mil	-1143
▁area	-1144
ruct	-1145
▁hair	-1146
ection	-1147
▁making	-1148
▁9	-1149
▁class	-1150
▁gra	-1151
▁Viet	-1152
▁including	-1153
ister	-1154
▁prof	-1155
ably	-1156
pend	-1157
ead	-1158
ese	-1159
ined	-1160
▁include	-1161
▁wa	-1162
▁organ	-1163
▁blood	-1164
▁,	-1165
oms	-1166
▁times	-1167
▁States	-1168
▁inform	-1169
▁house	-1170
▁Ind	-1171
▁stay	-1172
ik	-1173
▁commun	-1174
▁Af	-1175
▁father	-1176
▁government	-1177
▁Look	-1178
iversity	-1179
▁polit	-1180
ock	-1181
▁est	-1182
▁support	-1183
▁friends	-1184
▁cell	-1185
ying	-1186
conom	-1187
▁cor	-1188
▁common	-1189
ention	-1190
ron	-1191
▁occ	-1192
▁Vietnam	-1193
▁law	-1194
▁Mar	-1195
▁meet	-1196
▁product	-1197
reen	-1198
▁looking	-1199
uck	-1200
▁15	-1201
ope	-1202
cus	-1203
yl	-1204
▁ve	-1205
▁chang	-1206
▁experi	-1207
▁requ	-1208
▁Pro	-1209
▁design	-1210
▁gl	-1211
▁believe	-1212
▁New	-1213
▁techn	-1214
▁One	-1215
▁others	-1216
▁children	-1217
▁trying	-1218
▁vis	-1219
▁di	-1220
▁bad	-1221
▁leave	-1222
▁job	-1223
▁minutes	-1224
,"	-1225
▁beg	-1226
ior	-1227
▁else	-1228
▁leg	-1229
tain	-1230
▁cho	-1231
▁contin	-1232
gen	-1233
▁air	-1234
leep	-1235
▁doctor	-1236
iter	-1237
▁become	-1238
▁Q	-1239
▁pot	-1240
▁const	-1241
▁pur	-1242
vice	-1243
▁free	-1244
ee	-1245
ertain	-1246
ently	-1247
ats	-1248
ple	-1249
▁After	-1250
ams	-1251
▁Ph	-1252
▁book	-1253
▁read	-1254
bers	-1255
▁relations	-1256
▁business	-1257
▁hold	-1258
ling	-1259
ai	-1260
▁val	-1261
ulation	-1262
▁hist	-1263
ote	-1264
▁Pl	-1265
▁having	-1266
acter	-1267
me	-1268
▁control	-1269
▁face	-1270
alf	-1271
▁drug	-1272
▁live	-1273
ready	-1274
uro	-1275
▁ris	-1276
▁took	-1277
▁everything	-1278
▁guy	-1279
▁based	-1280
▁today	-1281
ung	-1282
ush	-1283
▁elect	-1284
▁wanted	-1285
▁means	-1286
▁mom	-1287
▁idea	-1288
▁American	-1289
arent	-1290
▁dem	-1291
angu	-1292
▁case	-1293
▁expl	-1294
▁sym	-1295
ption	-1296
▁press	-1297
▁sever	-1298
▁rele	-1299
▁Bec	-1300
▁already	-1301
row	-1302
ield	-1303
▁nothing	-1304
une	-1305
▁tem	-1306
▁Sp	-1307
▁allow	-1308
▁once	-1309
▁cond	-1310
▁Then	-1311
20	-1312
▁pri	-1313
▁cause	-1314
▁went	-1315
ides	-1316
ape	-1317
▁econom	-1318
▁sal	-1319
ator	-1320
▁order	-1321
▁Ex	-1322
▁public	-1323
▁caus	-1324
▁redu	-1325
side	-1326
▁saf	-1327
▁fore	-1328
▁seem	-1329
▁Are	-1330
▁hear	-1331
▁least	-1332
ither	-1333
▁equ	-1334
▁heart	-1335
▁mother	-1336
▁direct	-1337
▁Because	-1338
▁full	-1339
▁large	-1340
mber	-1341
att	-1342
▁seen	-1343
rent	-1344
▁near	-1345
ze	-1346
▁million	-1347
ison	-1348
▁possible	-1349
cle	-1350
▁working	-1351
▁South	-1352
▁miss	-1353
▁Tr	-1354
▁coming	-1355
▁several	-1356
▁close	-1357
▁five	-1358
apan	-1359
▁Afric	-1360
▁197	-1361
▁report	-1362
bs	-1363
▁However	-1364
▁walk	-1365
▁room	-1366
▁became	-1367
eng	-1368
ised	-1369
ording	-1370
eth	-1371
ains	-1372
ted	-1373
err	-1374
rap	-1375
▁information	-1376
iron	-1377
line	-1378
ane	-1379
▁phys	-1380
▁talking	-1381
anc	-1382
▁opp	-1383
ories	-1384
▁cal	-1385
▁bas	-1386
ering	-1387
▁whole	-1388
▁langu	-1389
els	-1390
▁war	-1391
▁typ	-1392
atic	-1393
zy	-1394
ization	-1395
▁bring	-1396
▁young	-1397
soci	-1398
".	-1399
▁death	-1400
ton	-1401
▁comput	-1402
iod	-1403
▁tri	-1404
▁cut	-1405
▁Japan	-1406
ata	-1407
▁dead	-1408
▁clean	-1409
▁intern	-1410
▁hours	-1411
▁taking	-1412
▁12	-1413
Laughter	-1414
▁Comm	-1415
▁social	-1416
ole	-1417
▁sleep	-1418
▁break	-1419
▁past	-1420
▁fre	-1421
ox	-1422
ots	-1423
0.	-1424
▁relationship	-1425
app	-1426
oint	-1427
▁progr	-1428
cially	-1429
osp	-1430
▁city	-1431
▁Germ	-1432
▁pay	-1433
▁oil	-1434
▁game	-1435
▁offic	-1436
ajor	-1437
mi	-1438
▁bro	-1439
▁sci	-1440
ccess	-1441
ks	-1442
way	-1443
▁iss	-1444
▁along	-1445
▁company	-1446
▁film	-1447
lf	-1448
orry	-1449
▁course	-1450
▁appear	-1451
ern	-1452
work	-1453
▁Con	-1454
▁return	-1455
ivid	-1456
▁line	-1457
▁arm	-1458
▁woman	-1459
ann	-1460
▁started	-1461
erc	-1462
▁short	-1463
▁present	-1464
▁eng	-1465
▁God	-1466
▁north	-1467
▁medic	-1468
▁Get	-1469
▁perform	-1470
fort	-1471
ination	-1472
aster	-1473
▁Did	-1474
▁Hey	-1475
▁bit	-1476
▁ele	-1477
ump	-1478
▁par	-1479
▁early	-1480
ex	-1481
▁treatment	-1482
▁story	-1483
▁University	-1484
▁half	-1485
ality	-1486
▁rece	-1487
▁low	-1488
▁team	-1489
▁train	-1490
itions	-1491
▁dog	-1492
▁sex	-1493
idd	-1494
▁strong	-1495
▁land	-1496
▁prob	-1497
▁Sy	-1498
aces	-1499
▁rese	-1500
▁oper	-1501
ged	-1502
▁saw	-1503
▁okay	-1504
▁fight	-1505
inese	-1506
▁Co	-1507
orld	-1508
erv	-1509
▁deal	-1510
nce	-1511
▁Eng	-1512
▁clear	-1513
▁Her	-1514
▁remember	-1515
uff	-1516
▁Min	-1517
▁makes	-1518
▁ago	-1519
▁Where	-1520
▁far	-1521
aken	-1522
▁adv	-1523
▁Euro	-1524
▁conn	-1525
acy	-1526
▁Poland	-1527
iver	-1528
▁dra	-1529
▁wind	-1530
▁brain	-1531
ministr	-1532
▁wrong	-1533
▁drink	-1534
ike	-1535
ives	-1536
▁sound	-1537
▁US	-1538
▁vill	-1539
▁Ke	-1540
aut	-1541
▁guys	-1542
▁Pe	-1543
▁Am	-1544
▁local	-1545
▁situ	-1546
▁Make	-1547
▁success	-1548
▁bab	-1549
▁invol	-1550
▁certain	-1551
▁nat	-1552
ured	-1553
▁cat	-1554
ified	-1555
▁dam	-1556
▁focus	-1557
ones	-1558
▁begin	-1559
▁Try	-1560
▁mag	-1561
▁brother	-1562
ards	-1563
ilar	-1564
▁usually	-1565
▁cult	-1566
▁red	-1567
ief	-1568
▁meth	-1569
▁X	-1570
por	-1571
▁30	-1572
ential	-1573
▁music	-1574
▁Chinese	-1575
lish	-1576
▁complete	-1577
▁196	-1578
▁Europe	-1579
▁invest	-1580
▁check	-1581
▁i	-1582
ived	-1583
▁orig	-1584
▁likely	-1585
▁period	-1586
eral	-1587
▁thinking	-1588
ipp	-1589
▁neg	-1590
▁17	-1591
▁World	-1592
▁type	-1593
by	-1594
▁percent	-1595
▁ann	-1596
▁age	-1597
que	-1598
▁Car	-1599
▁win	-1600
lished	-1601
▁special	-1602
aper	-1603
▁major	-1604
sy	-1605
▁born	-1606
ety	-1607
pecially	-1608
▁countries	-1609
▁Yes	-1610
ances	-1611
▁tre	-1612
▁market	-1613
▁proper	-1614
▁self	-1615
▁hands	-1616
▁reason	-1617
tend	-1618
1,	-1619
ergy	-1620
▁following	-1621
ta	-1622
",	-1623
▁son	-1624
▁boy	-1625
▁question	-1626
aps	-1627
idence	-1628
▁months	-1629
▁sho	-1630
▁vide	-1631
omp	-1632
ream	-1633
most	-1634
urt	-1635
▁16	-1636
▁With	-1637
cl	-1638
rict	-1639
uture	-1640
▁Who	-1641
▁pract	-1642
▁current	-1643
ama	-1644
▁la	-1645
▁Use	-1646
▁single	-1647
icult	-1648
▁infl	-1649
▁Come	-1650
▁protect	-1651
ept	-1652
ogn	-1653
wards	-1654
▁lab	-1655
▁dise	-1656
▁due	-1657
ients	-1658
▁phone	-1659
▁comb	-1660
▁saying	-1661
▁amount	-1662
▁sent	-1663
ided	-1664
▁inside	-1665
▁six	-1666
▁mess	-1667
▁post	-1668
▁instead	-1669
▁Gr	-1670
▁anim	-1671
▁record	-1672
▁though	-1673
▁particular	-1674
▁hot	-1675
▁risk	-1676
▁needs	-1677
▁$	-1678
ode	-1679
where	-1680
▁quick	-1681
▁either	-1682
par	-1683
▁cost	-1684
▁probably	-1685
vious	-1686
▁avoid	-1687
amm	-1688
▁non	-1689
▁specific	-1690
▁star	-1691
▁mass	-1692
▁194	-1693
▁future	-1694
▁fig	-1695
selves	-1696
raph	-1697
ober	-1698
▁profess	-1699
▁Sc	-1700
▁yet	-1701
itary	-1702
▁soon	-1703
▁impro	-1704
omb	-1705
sw	-1706
▁Cent	-1707
▁parent	-1708
▁fall	-1709
▁rad	-1710
▁dry	-1711
▁cir	-1712
▁ste	-1713
ler	-1714
▁Intern	-1715
▁happened	-1716
▁difficult	-1717
▁z	-1718
ffic	-1719
▁hig	-1720
▁step	-1721
▁emp	-1722
▁prevent	-1723
▁expect	-1724
▁killed	-1725
estern	-1726
ana	-1727
▁Take	-1728
▁creat	-1729
▁bott	-1730
▁eyes	-1731
▁norm	-1732
▁Te	-1733
oon	-1734
cing	-1735
▁Gu	-1736
▁eat	-1737
▁energy	-1738
bal	-1739
▁Ear	-1740
▁Maybe	-1741
▁matter	-1742
▁lim	-1743
▁deep	-1744
▁Dr	-1745
▁century	-1746
▁object	-1747
▁works	-1748
▁watch	-1749
amed	-1750
▁foot	-1751
▁political	-1752
uly	-1753
though	-1754
viron	-1755
▁Inst	-1756
▁speak	-1757
▁space	-1758
▁safe	-1759
▁jo	-1760
au	-1761
▁bar	-1762
▁outside	-1763
▁especially	-1764
ilt	-1765
ude	-1766
▁lost	-1767
▁experience	-1768
▁comes	-1769
▁history	-1770
4,	-1771
▁given	-1772
orts	-1773
ression	-1774
rew	-1775
▁compet	-1776
▁maybe	-1777
▁language	-1778
to	-1779
▁195	-1780
▁computer	-1781
▁says	-1782
▁ident	-1783
▁listen	-1784
5,	-1785
▁bed	-1786
▁party	-1787
▁Chr	-1788
ored	-1789
uthor	-1790
▁desc	-1791
▁sorry	-1792
▁late	-1793
▁alone	-1794
▁Ser	-1795
▁contain	-1796
ians	-1797
aim	-1798
ery	-1799
▁avail	-1800
▁addition	-1801
▁sympt	-1802
▁Joh	-1803
▁pie	-1804
▁create	-1805
▁data	-1806
▁phot	-1807
▁occur	-1808
▁project	-1809
▁club	-1810
▁Every	-1811
▁event	-1812
▁village	-1813
▁fac	-1814
▁behav	-1815
orning	-1816
ouble	-1817
▁ap	-1818
▁news	-1819
af	-1820
▁sour	-1821
▁cop	-1822
hy	-1823
▁account	-1824
loy	-1825
▁released	-1826
▁pick	-1827
ched	-1828
▁trad	-1829
▁individ	-1830
resent	-1831
▁breat	-1832
▁By	-1833
ially	-1834
ball	-1835
▁rather	-1836
▁administr	-1837
▁National	-1838
ony	-1839
▁wife	-1840
▁heard	-1841
ental	-1842
▁En	-1843
▁Okay	-1844
read	-1845
▁problems	-1846
▁consider	-1847
▁Em	-1848
▁similar	-1849
3,	-1850
▁mult	-1851
▁exact	-1852
▁whether	-1853
rand	-1854
hern	-1855
urity	-1856
▁attack	-1857
▁Fe	-1858
▁meas	-1859
ges	-1860
▁fail	-1861
▁longer	-1862
▁study	-1863
9,	-1864
▁please	-1865
the	-1866
8,	-1867
▁building	-1868
▁song	-1869
rodu	-1870
▁hon	-1871
▁effects	-1872
▁knew	-1873
ences	-1874
ency	-1875
bo	-1876
2,	-1877
▁tw	-1878
▁taken	-1879
7,	-1880
▁moment	-1881
▁leav	-1882
▁view	-1883
▁white	-1884
▁mater	-1885
▁answ	-1886
cum	-1887
▁vir	-1888
▁pret	-1889
▁ill	-1890
ki	-1891
▁among	-1892
▁available	-1893
▁Bl	-1894
ouch	-1895
▁Russ	-1896
▁associ	-1897
▁baby	-1898
gest	-1899
oud	-1900
▁educ	-1901
▁town	-1902
view	-1903
anna	-1904
▁mot	-1905
▁morning	-1906
6,	-1907
▁front	-1908
▁App	-1909
▁began	-1910
▁eye	-1911
▁series	-1912
▁entire	-1913
co	-1914
▁100	-1915
fer	-1916
▁environ	-1917
itor	-1918
unch	-1919
▁black	-1920
hib	-1921
▁position	-1922
odes	-1923
▁affect	-1924
iol	-1925
▁Pres	-1926
▁positive	-1927
▁ra	-1928
▁km	-1929
avor	-1930
▁across	-1931
▁Jan	-1932
▁abs	-1933
▁prop	-1934
▁(19	-1935
born	-1936
▁dest	-1937
▁hope	-1938
▁Man	-1939
▁method	-1940
lor	-1941
▁sometimes	-1942
▁video	-1943
▁natural	-1944
▁feeling	-1945
▁vers	-1946
▁almost	-1947
▁contact	-1948
▁tot	-1949
▁emot	-1950
aring	-1951
imately	-1952
▁daughter	-1953
▁ways	-1954
ively	-1955
▁sun	-1956
▁cy	-1957
▁sold	-1958
▁die	-1959
ny	-1960
com	-1961
▁trust	-1962
▁exerc	-1963
▁beaut	-1964
▁react	-1965
ued	-1966
ills	-1967
▁connect	-1968
▁key	-1969
▁symptoms	-1970
▁glo	-1971
▁asked	-1972
gar	-1973
asing	-1974
now	-1975
▁anyone	-1976
arr	-1977
▁11	-1978
▁author	-1979
▁field	-1980
▁store	-1981
▁access	-1982
iety	-1983
▁box	-1984
urther	-1985
▁aut	-1986
▁pretty	-1987
ograph	-1988
go	-1989
▁ready	-1990
let	-1991
▁spend	-1992
▁medical	-1993
▁true	-1994
▁gave	-1995
▁King	-1996
▁flo	-1997
▁ur	-1998
▁Gen	-1999
▁behind	-2000
▁attention	-2001
▁material	-2002
▁John	-2003
▁Me	-2004
▁obs	-2005
▁super	-2006
▁Ne	-2007
▁War	-2008
ift	-2009
▁swe	-2010
ival	-2011
ained	-2012
use	-2013
▁weight	-2014
▁Sec	-2015
▁While	-2016
▁cases	-2017
ability	-2018
▁sugg	-2019
▁wants	-2020
▁suggest	-2021
▁sense	-2022
▁development	-2023
ising	-2024
iddle	-2025
▁Per	-2026
medi	-2027
▁text	-2028
▁died	-2029
ify	-2030
▁plant	-2031
▁chem	-2032
▁weeks	-2033
aly	-2034
▁general	-2035
▁everyone	-2036
▁population	-2037
ume	-2038
▁areas	-2039
▁hell	-2040
▁third	-2041
▁wait	-2042
face	-2043
▁disease	-2044
▁myself	-2045
▁serious	-2046
▁chance	-2047
anger	-2048
▁March	-2049
▁acid	-2050
▁stress	-2051
▁soft	-2052
▁national	-2053
▁personal	-2054
▁West	-2055
ches	-2056
bit	-2057
▁Keep	-2058
▁words	-2059
▁Here	-2060
▁bene	-2061
ster	-2062
▁cra	-2063
▁respons	-2064
omer	-2065
▁lives	-2066
▁squ	-2067
▁repl	-2068
▁worked	-2069
▁pict	-2070
▁east	-2071
▁Ab	-2072
▁camp	-2073
olution	-2074
fr	-2075
▁opt	-2076
▁research	-2077
▁rights	-2078
▁season	-2079
▁living	-2080
▁Acc	-2081
▁Col	-2082
▁Count	-2083
▁14	-2084
▁(2	-2085
▁happy	-2086
ley	-2087
imate	-2088
▁Have	-2089
▁necess	-2090
▁His	-2091
of	-2092
▁teac	-2093
▁clot	-2094
▁13	-2095
ocr	-2096
▁represent	-2097
▁role	-2098
ma	-2099
▁imag	-2100
▁enc	-2101
▁military	-2102
aced	-2103
▁dri	-2104
▁convers	-2105
▁crit	-2106
▁Earth	-2107
▁vol	-2108
▁environment	-2109
▁President	-2110
vices	-2111
▁sir	-2112
▁nice	-2113
▁Part	-2114
▁program	-2115
▁parents	-2116
itch	-2117
▁Aug	-2118
▁respect	-2119
band	-2120
▁increase	-2121
▁temper	-2122
▁pressure	-2123
▁capital	-2124
ological	-2125
▁situation	-2126
itting	-2127
▁net	-2128
▁police	-2129
▁hu	-2130
▁ground	-2131
▁spr	-2132
ka	-2133
reet	-2134
▁Rem	-2135
ement	-2136
ps	-2137
▁Kore	-2138
fect	-2139
istic	-2140
irm	-2141
ply	-2142
rest	-2143
uary	-2144
▁bi	-2145
▁exist	-2146
▁character	-2147
omin	-2148
▁cold	-2149
▁easy	-2150
▁America	-2151
▁June	-2152
▁burn	-2153
▁kids	-2154
ully	-2155
ission	-2156
sych	-2157
▁slow	-2158
▁lower	-2159
rench	-2160
▁soci	-2161
▁gun	-2162
▁fire	-2163
▁priv	-2164
▁recogn	-2165
▁Even	-2166
▁August	-2167
0,	-2168
▁estab	-2169
▁located	-2170
▁send	-2171
▁wond	-2172
▁Oct	-2173
▁partner	-2174
▁gone	-2175
▁model	-2176
artment	-2177
▁cells	-2178
atever	-2179
omen	-2180
▁terr	-2181
▁Su	-2182
▁fine	-2183
▁tit	-2184
▁claim	-2185
▁products	-2186
▁Thank	-2187
ware	-2188
▁struct	-2189
▁deg	-2190
▁fear	-2191
▁track	-2192
▁coup	-2193
▁buy	-2194
▁questions	-2195
▁Sw	-2196
▁Par	-2197
▁cool	-2198
▁becom	-2199
▁rul	-2200
The	-2201
port	-2202
▁popular	-2203
orrow	-2204
▁sens	-2205
▁Africa	-2206
▁Christ	-2207
ands	-2208
▁south	-2209
▁district	-2210
▁German	-2211
▁Will	-2212
▁sell	-2213
irth	-2214
▁gets	-2215
▁members	-2216
eptember	-2217
▁tele	-2218
ples	-2219
▁deb	-2220
▁member	-2221
ables	-2222
▁fat	-2223
▁dark	-2224
rab	-2225
ule	-2226
ned	-2227
▁card	-2228
cul	-2229
▁select	-2230
▁cover	-2231
▁ton	-2232
▁accept	-2233
▁hyd	-2234
▁pull	-2235
era	-2236
▁sum	-2237
▁English	-2238
head	-2239
▁named	-2240
▁office	-2241
▁dig	-2242
itten	-2243
▁paper	-2244
5.	-2245
▁further	-2246
▁II	-2247
▁port	-2248
▁People	-2249
▁signific	-2250
izing	-2251
▁stuff	-2252
irr	-2253
▁El	-2254
aged	-2255
▁lay	-2256
▁fem	-2257
▁Once	-2258
ara	-2259
▁negative	-2260
▁Che	-2261
▁Rep	-2262
▁won	-2263
▁determ	-2264
▁jour	-2265
bum	-2266
▁concer	-2267
▁color	-2268
▁exactly	-2269
icy	-2270
ica	-2271
▁North	-2272
chie	-2273
▁warm	-2274
▁grad	-2275
nal	-2276
▁div	-2277
▁October	-2278
▁running	-2279
▁September	-2280
▁kil	-2281
▁however	-2282
dd	-2283
▁hit	-2284
▁physical	-2285
▁mach	-2286
pril	-2287
over	-2288
▁hus	-2289
▁quite	-2290
fully	-2291
osing	-2292
ises	-2293
▁Miss	-2294
▁immedi	-2295
my	-2296
yle	-2297
▁international	-2298
oura	-2299
▁save	-2300
▁tom	-2301
gress	-2302
▁Any	-2303
▁da	-2304
▁held	-2305
▁goes	-2306
▁block	-2307
▁Cal	-2308
▁Most	-2309
▁prim	-2310
▁Brit	-2311
▁simple	-2312
▁indust	-2313
▁address	-2314
▁president	-2315
▁former	-2316
▁developed	-2317
▁Bar	-2318
▁changes	-2319
het	-2320
▁193	-2321
ateg	-2322
▁cook	-2323
ites	-2324
uel	-2325
▁July	-2326
▁drop	-2327
son	-2328
▁click	-2329
▁levels	-2330
atory	-2331
▁official	-2332
▁approx	-2333
▁Res	-2334
1.	-2335
▁looks	-2336
▁feelings	-2337
▁January	-2338
▁April	-2339
▁itself	-2340
2.	-2341
▁init	-2342
▁Polish	-2343
ask	-2344
▁+	-2345
▁economic	-2346
▁50	-2347
▁door	-2348
sh	-2349
▁wanna	-2350
▁comfort	-2351
▁suff	-2352
▁needed	-2353
fact	-2354
▁reduce	-2355
▁Ge	-2356
▁sett	-2357
▁vo	-2358
▁provide	-2359
▁higher	-2360
▁regular	-2361
gn	-2362
▁normal	-2363
▁French	-2364
▁touch	-2365
▁built	-2366
reme	-2367
▁Vo	-2368
▁Cons	-2369
vere	-2370
▁favor	-2371
▁hurt	-2372
▁Tell	-2373
ospital	-2374
▁0	-2375
▁stra	-2376
▁coun	-2377
▁share	-2378
idered	-2379
uted	-2380
▁screen	-2381
▁Med	-2382
▁prin	-2383
▁husband	-2384
▁ep	-2385
▁aff	-2386
order	-2387
▁couple	-2388
▁online	-2389
▁manage	-2390
▁size	-2391
▁completely	-2392
▁benef	-2393
▁York	-2394
▁achie	-2395
▁imm	-2396
▁sus	-2397
▁answer	-2398
9.	-2399
▁brought	-2400
ique	-2401
vision	-2402
▁influ	-2403
oph	-2404
erve	-2405
ublic	-2406
▁simply	-2407
▁surv	-2408
▁service	-2409
▁behavior	-2410
▁Nove	-2411
▁healthy	-2412
ires	-2413
cember	-2414
▁function	-2415
▁release	-2416
ging	-2417
iding	-2418
▁inde	-2419
4.	-2420
agn	-2421
▁created	-2422
▁ge	-2423
ino	-2424
lex	-2425
ivil	-2426
iful	-2427
▁guess	-2428
▁significant	-2429
▁La	-2430
pped	-2431
dy	-2432
ortun	-2433
iot	-2434
astic	-2435
empt	-2436
▁growth	-2437
▁del	-2438
▁chall	-2439
▁security	-2440
▁considered	-2441
▁cust	-2442
▁November	-2443
ga	-2444
ein	-2445
oe	-2446
▁cancer	-2447
▁technology	-2448
▁quickly	-2449
joy	-2450
▁According	-2451
▁action	-2452
uit	-2453
▁employ	-2454
▁community	-2455
▁travel	-2456
lement	-2457
▁loss	-2458
▁Aust	-2459
▁wall	-2460
▁effective	-2461
▁jud	-2462
▁married	-2463
▁surface	-2464
▁above	-2465
▁scient	-2466
▁25	-2467
▁ble	-2468
amb	-2469
▁extra	-2470
▁write	-2471
▁mouth	-2472
▁December	-2473
▁diet	-2474
▁activity	-2475
8.	-2476
ining	-2477
▁flu	-2478
▁vict	-2479
▁received	-2480
dom	-2481
ault	-2482
ishing	-2483
haps	-2484
▁ess	-2485
▁themselves	-2486
▁various	-2487
▁birth	-2488
▁recomm	-2489
load	-2490
▁gotta	-2491
▁takes	-2492
3.	-2493
▁Many	-2494
cz	-2495
▁viol	-2496
ibility	-2497
▁improve	-2498
7.	-2499
▁parts	-2500
▁pack	-2501
▁List	-2502
▁fast	-2503
aid	-2504
ribed	-2505
ration	-2506
icle	-2507
▁separ	-2508
sc	-2509
for	-2510
lled	-2511
▁prison	-2512
▁host	-2513
▁ice	-2514
ague	-2515
eding	-2516
more	-2517
▁page	-2518
▁region	-2519
▁remove	-2520
▁ones	-2521
▁announ	-2522
6.	-2523
▁approximately	-2524
▁introdu	-2525
val	-2526
enn	-2527
sequ	-2528
lying	-2529
▁games	-2530
▁table	-2531
▁playing	-2532
▁indic	-2533
▁moving	-2534
▁feet	-2535
▁related	-2536
▁tradition	-2537
▁Like	-2538
▁lose	-2539
▁media	-2540
▁therap	-2541
▁force	-2542
▁condition	-2543
lt	-2544
▁sn	-2545
▁patients	-2546
▁results	-2547
▁Good	-2548
▁Act	-2549
▁psych	-2550
▁First	-2551
▁worth	-2552
▁af	-2553
ails	-2554
▁planet	-2555
▁shot	-2556
reng	-2557
▁worry	-2558
▁production	-2559
ney	-2560
hel	-2561
▁date	-2562
▁Since	-2563
▁knows	-2564
atures	-2565
▁County	-2566
▁value	-2567
▁figure	-2568
▁Other	-2569
ait	-2570
ips	-2571
inary	-2572
▁drive	-2573
airs	-2574
raid	-2575
▁mist	-2576
▁total	-2577
▁compan	-2578
▁Av	-2579
▁During	-2580
▁eff	-2581
▁bank	-2582
▁threat	-2583
▁Qu	-2584
ria	-2585
▁album	-2586
▁file	-2587
▁fish	-2588
▁published	-2589
hem	-2590
overed	-2591
▁kilomet	-2592
ellow	-2593
▁infect	-2594
ems	-2595
▁Har	-2596
▁rout	-2597
▁issues	-2598
▁emer	-2599
mina	-2600
▁secret	-2601
bru	-2602
▁hor	-2603
▁systems	-2604
icro	-2605
▁Im	-2606
▁tried	-2607
▁depend	-2608
hers	-2609
▁exc	-2610
▁education	-2611
▁giving	-2612
▁corn	-2613
▁wide	-2614
▁yes	-2615
▁ang	-2616
▁=	-2617
▁stri	-2618
avy	-2619
▁pred	-2620
men	-2621
ached	-2622
ounds	-2623
▁eight	-2624
▁City	-2625
▁liter	-2626
▁exam	-2627
?"	-2628
eter	-2629
▁subject	-2630
▁writing	-2631
▁tar	-2632
▁enjoy	-2633
▁network	-2634
▁discuss	-2635
▁From	-2636
▁opportun	-2637
▁heat	-2638
▁moved	-2639
mb	-2640
▁administrative	-2641
▁led	-2642
bruary	-2643
▁TV	-2644
elt	-2645
▁streng	-2646
umb	-2647
▁choose	-2648
ij	-2649
ege	-2650
▁remain	-2651
▁subst	-2652
▁sort	-2653
▁danger	-2654
ols	-2655
▁multip	-2656
▁Somet	-2657
ilities	-2658
▁leaders	-2659
▁recommend	-2660
▁spread	-2661
utions	-2662
▁African	-2663
ators	-2664
▁fill	-2665
ili	-2666
▁communic	-2667
▁ce	-2668
▁sil	-2669
erg	-2670
▁promot	-2671
▁beautiful	-2672
etic	-2673
▁ord	-2674
ensive	-2675
▁rate	-2676
▁supposed	-2677
room	-2678
▁ver	-2679
light	-2680
▁Give	-2681
▁minute	-2682
▁February	-2683
▁consum	-2684
ruction	-2685
▁offer	-2686
arily	-2687
▁middle	-2688
▁necessary	-2689
▁aud	-2690
▁collect	-2691
▁species	-2692
▁arg	-2693
▁engine	-2694
▁rock	-2695
▁caused	-2696
▁foods	-2697
▁flow	-2698
iction	-2699
▁draw	-2700
▁grand	-2701
▁exercise	-2702
▁cross	-2703
▁Right	-2704
ades	-2705
▁attempt	-2706
▁Ho	-2707
▁afraid	-2708
▁students	-2709
▁conversation	-2710
▁piece	-2711
▁evidence	-2712
▁truth	-2713
▁potential	-2714
▁Pre	-2715
▁infection	-2716
ano	-2717
▁ox	-2718
▁Mon	-2719
▁frequ	-2720
eds	-2721
▁bottom	-2722
resh	-2723
anian	-2724
▁types	-2725
▁fing	-2726
oles	-2727
▁particip	-2728
▁Of	-2729
atter	-2730
itation	-2731
▁Japanese	-2732
▁perfect	-2733
iend	-2734
▁docum	-2735
▁stat	-2736
come	-2737
▁stick	-2738
▁Add	-2739
ada	-2740
▁doll	-2741
▁et	-2742
▁lies	-2743
.,	-2744
▁mur	-2745
▁choice	-2746
▁bacter	-2747
▁involved	-2748
▁thous	-2749
▁International	-2750
▁window	-2751
▁career	-2752
▁complex	-2753
▁telling	-2754
itted	-2755
▁green	-2756
▁See	-2757
▁anti	-2758
▁wish	-2759
ighb	-2760
▁final	-2761
▁upon	-2762
▁ball	-2763
coh	-2764
oul	-2765
▁conc	-2766
▁ten	-2767
▁happens	-2768
▁inj	-2769
▁groups	-2770
hood	-2771
▁continue	-2772
duct	-2773
▁Was	-2774
▁regional	-2775
▁reported	-2776
▁chemical	-2777
ledge	-2778
▁himself	-2779
▁goal	-2780
▁tend	-2781
erence	-2782
▁whatever	-2783
▁source	-2784
▁require	-2785
▁global	-2786
unk	-2787
▁professional	-2788
ales	-2789
▁temperature	-2790
ids	-2791
▁dad	-2792
▁served	-2793
▁mov	-2794
oke	-2795
unt	-2796
▁bag	-2797
urs	-2798
▁search	-2799
▁science	-2800
▁School	-2801
cohol	-2802
▁carb	-2803
za	-2804
ners	-2805
▁shoot	-2806
▁asking	-2807
amin	-2808
oub	-2809
pper	-2810
iment	-2811
urch	-2812
itution	-2813
osis	-2814
▁played	-2815
yn	-2816
ivodes	-2817
▁relig	-2818
▁previous	-2819
▁individual	-2820
irt	-2821
ivodeship	-2822
▁poor	-2823
▁changed	-2824
wh	-2825
idge	-2826
▁applic	-2827
▁pow	-2828
▁pen	-2829
▁Ag	-2830
▁bur	-2831
ufact	-2832
▁practice	-2833
▁modern	-2834
▁fix	-2835
▁prep	-2836
attle	-2837
▁training	-2838
▁India	-2839
oman	-2840
▁conditions	-2841
▁shall	-2842
▁neighb	-2843
lands	-2844
▁ability	-2845
▁sister	-2846
▁bal	-2847
▁tonight	-2848
▁appe	-2849
undred	-2850
▁hang	-2851
▁esc	-2852
▁billion	-2853
▁link	-2854
▁cup	-2855
▁tour	-2856
▁seems	-2857
▁Voivodeship	-2858
▁nut	-2859
mit	-2860
▁Central	-2861
▁24	-2862
uk	-2863
ressed	-2864
▁Comp	-2865
▁activities	-2866
▁mix	-2867
itude	-2868
▁version	-2869
ae	-2870
▁meeting	-2871
oo	-2872
▁vac	-2873
▁decided	-2874
▁drugs	-2875
▁Ed	-2876
▁cast	-2877
▁written	-2878
▁target	-2879
▁western	-2880
▁band	-2881
▁Please	-2882
▁Cr	-2883
set	-2884
▁produced	-2885
▁arch	-2886
ivity	-2887
▁terms	-2888
▁girls	-2889
cri	-2890
roy	-2891
▁numbers	-2892
ien	-2893
▁daily	-2894
▁attend	-2895
▁cam	-2896
▁Char	-2897
▁reach	-2898
ius	-2899
▁interact	-2900
▁road	-2901
▁appoint	-2902
▁Cont	-2903
▁contrib	-2904
▁generally	-2905
▁civil	-2906
used	-2907
▁original	-2908
▁companies	-2909
▁shows	-2910
▁0.	-2911
friend	-2912
▁directly	-2913
▁Ac	-2914
▁disp	-2915
▁trade	-2916
▁picture	-2917
verage	-2918
▁°	-2919
▁immediately	-2920
▁origin	-2921
ding	-2922
▁trouble	-2923
usion	-2924
▁peace	-2925
rect	-2926
ification	-2927
▁hospital	-2928
▁fund	-2929
ucle	-2930
▁agre	-2931
▁path	-2932
▁rev	-2933
▁studies	-2934
▁hydro	-2935
ulf	-2936
eg	-2937
ops	-2938
▁maintain	-2939
▁associated	-2940
▁site	-2941
aur	-2942
▁Gmina	-2943
▁surpr	-2944
▁active	-2945
adem	-2946
rate	-2947
▁events	-2948
▁cry	-2949
▁clos	-2950
▁thoughts	-2951
▁throughout	-2952
▁places	-2953
▁wonder	-2954
▁society	-2955
▁purp	-2956
▁seven	-2957
uy	-2958
▁solution	-2959
▁alive	-2960
like	-2961
▁40	-2962
▁1.	-2963
▁blue	-2964
▁straight	-2965
inc	-2966
▁forg	-2967
▁range	-2968
▁glass	-2969
▁British	-2970
▁emb	-2971
▁Mus	-2972
▁Put	-2973
▁State	-2974
▁foreign	-2975
▁1,	-2976
▁states	-2977
ula	-2978
▁anx	-2979
ugg	-2980
▁meaning	-2981
▁pregn	-2982
▁thank	-2983
inner	-2984
istry	-2985
▁eating	-2986
ened	-2987
iber	-2988
cient	-2989
aff	-2990
▁hundred	-2991
asons	-2992
ancy	-2993
▁damage	-2994
▁forget	-2995
▁god	-2996
mon	-2997
▁command	-2998
▁animals	-2999
▁Mal	-3000
▁center	-3001
▁Our	-3002
▁culture	-3003
▁relax	-3004
cles	-3005
onse	-3006
▁arr	-3007
▁pet	-3008
cil	-3009
iy	-3010
▁Op	-3011
hest	-3012
istrict	-3013
book	-3014
▁notice	-3015
▁west	-3016
▁beginning	-3017
▁gas	-3018
rated	-3019
▁services	-3020
chan	-3021
▁cit	-3022
iger	-3023
onst	-3024
▁Although	-3025
▁shown	-3026
▁manufact	-3027
▁print	-3028
apt	-3029
▁Pa	-3030
▁leaving	-3031
atin	-3032
▁image	-3033
▁turned	-3034
ha	-3035
ato	-3036
▁according	-3037
▁Cong	-3038
istics	-3039
▁message	-3040
▁European	-3041
▁alcohol	-3042
ped	-3043
▁felt	-3044
▁luck	-3045
▁degree	-3046
▁tow	-3047
itness	-3048
▁decision	-3049
▁television	-3050
itis	-3051
ico	-3052
▁nature	-3053
de	-3054
▁displ	-3055
▁waiting	-3056
▁Je	-3057
▁egg	-3058
▁aware	-3059
▁Phil	-3060
▁webs	-3061
▁impact	-3062
▁ens	-3063
▁code	-3064
▁wear	-3065
NA	-3066
▁smell	-3067
▁Fo	-3068
▁lik	-3069
ension	-3070
orthern	-3071
▁resour	-3072
rom	-3073
▁Dep	-3074
▁General	-3075
▁king	-3076
eration	-3077
▁produce	-3078
▁rob	-3079
▁voice	-3080
▁tomorrow	-3081
▁Sm	-3082
fl	-3083
▁discovered	-3084
▁Bra	-3085
ym	-3086
zcz	-3087
▁carry	-3088
ów	-3089
▁Wind	-3090
▁seconds	-3091
▁Bo	-3092
▁movement	-3093
▁repe	-3094
▁Des	-3095
uals	-3096
▁private	-3097
▁towards	-3098
ibly	-3099
▁increased	-3100
▁Asia	-3101
▁Avoid	-3102
▁announced	-3103
ores	-3104
aries	-3105
▁central	-3106
▁designed	-3107
50	-3108
▁gold	-3109
aging	-3110
▁Red	-3111
ampions	-3112
ls	-3113
▁Spe	-3114
▁refer	-3115
ram	-3116
▁response	-3117
▁easier	-3118
▁France	-3119
han	-3120
rum	-3121
▁lack	-3122
▁tax	-3123
▁ple	-3124
▁sweet	-3125
ening	-3126
▁sexual	-3127
▁ideas	-3128
▁growing	-3129
▁interested	-3130
▁arrest	-3131
▁particularly	-3132
▁191	-3133
▁Minister	-3134
rag	-3135
▁Click	-3136
arian	-3137
▁typically	-3138
▁anymore	-3139
▁Ant	-3140
▁independ	-3141
▁Rec	-3142
▁base	-3143
▁forward	-3144
lin	-3145
ky	-3146
▁visit	-3147
▁conv	-3148
▁21	-3149
▁medication	-3150
▁wrote	-3151
▁coff	-3152
▁spir	-3153
▁policy	-3154
▁option	-3155
reg	-3156
aling	-3157
▁starting	-3158
201	-3159
▁sat	-3160
▁intell	-3161
imin	-3162
▁issue	-3163
▁machine	-3164
▁books	-3165
▁court	-3166
▁Find	-3167
cip	-3168
▁tree	-3169
▁somebody	-3170
▁Ask	-3171
▁install	-3172
▁difference	-3173
▁stage	-3174
▁disapp	-3175
▁extreme	-3176
▁looked	-3177
▁goals	-3178
▁Party	-3179
▁respond	-3180
ience	-3181
cious	-3182
App	-3183
▁remo	-3184
▁plants	-3185
▁Cap	-3186
lier	-3187
▁patient	-3188
▁Cor	-3189
▁largest	-3190
▁harm	-3191
▁defin	-3192
▁helps	-3193
▁female	-3194
▁mid	-3195
▁enter	-3196
▁causes	-3197
▁recept	-3198
▁round	-3199
rian	-3200
▁Instead	-3201
itute	-3202
iation	-3203
▁included	-3204
oring	-3205
▁bird	-3206
▁spent	-3207
▁journal	-3208
iant	-3209
▁anal	-3210
▁comfortable	-3211
▁uh	-3212
▁Two	-3213
erman	-3214
▁title	-3215
entle	-3216
ping	-3217
▁although	-3218
enced	-3219
▁investig	-3220
▁East	-3221
▁location	-3222
▁mis	-3223
ey	-3224
▁magn	-3225
▁severe	-3226
▁veget	-3227
ctions	-3228
▁Fl	-3229
▁broad	-3230
▁quality	-3231
▁kilometres	-3232
▁sick	-3233
▁relative	-3234
▁lif	-3235
▁worse	-3236
iles	-3237
▁except	-3238
▁victim	-3239
▁Ro	-3240
ager	-3241
▁weap	-3242
▁mount	-3243
ees	-3244
iny	-3245
▁described	-3246
edom	-3247
▁apply	-3248
▁den	-3249
ondon	-3250
▁ast	-3251
▁mine	-3252
▁Coll	-3253
asc	-3254
▁histor	-3255
ament	-3256
▁learning	-3257
wise	-3258
▁inhib	-3259
▁clothes	-3260
▁Sim	-3261
▁lock	-3262
▁dream	-3263
▁names	-3264
▁finally	-3265
sec	-3266
▁purch	-3267
▁Austral	-3268
▁nucle	-3269
▁larger	-3270
▁variety	-3271
▁Govern	-3272
▁Fin	-3273
▁easily	-3274
▁Korea	-3275
enty	-3276
verse	-3277
▁stories	-3278
▁football	-3279
ken	-3280
gency	-3281
▁increasing	-3282
▁consist	-3283
▁192	-3284
▁bath	-3285
▁virus	-3286
▁seek	-3287
▁fresh	-3288
▁ai	-3289
ength	-3290
▁London	-3291
▁hop	-3292
osition	-3293
▁concent	-3294
▁Dad	-3295
▁cand	-3296
▁ship	-3297
▁destroy	-3298
▁interesting	-3299
▁rap	-3300
▁pattern	-3301
▁sugar	-3302
▁below	-3303
▁House	-3304
ceed	-3305
▁der	-3306
▁sea	-3307
▁onto	-3308
isions	-3309
arc	-3310
▁meant	-3311
▁seeing	-3312
urg	-3313
▁points	-3314
▁bow	-3315
▁mechan	-3316
▁2004	-3317
▁concept	-3318
▁Bel	-3319
▁explain	-3320
▁measure	-3321
▁loved	-3322
▁structure	-3323
anch	-3324
▁Ty	-3325
ests	-3326
ician	-3327
▁established	-3328
▁inn	-3329
▁antib	-3330
atives	-3331
▁hyp	-3332
▁farm	-3333
▁ing	-3334
ronic	-3335
round	-3336
ourage	-3337
▁assist	-3338
▁theory	-3339
anda	-3340
▁forms	-3341
▁2016	-3342
▁Vietnamese	-3343
▁Geor	-3344
▁clin	-3345
▁District	-3346
lause	-3347
▁currently	-3348
▁novel	-3349
▁Art	-3350
ties	-3351
▁Under	-3352
▁legal	-3353
▁lived	-3354
▁soil	-3355
▁style	-3356
▁resist	-3357
▁Does	-3358
▁bud	-3359
▁imagine	-3360
ban	-3361
▁mill	-3362
▁Reg	-3363
▁coffee	-3364
▁approach	-3365
pite	-3366
▁finan	-3367
▁Women	-3368
▁Would	-3369
▁Ben	-3370
iam	-3371
▁regard	-3372
SA	-3373
▁tea	-3374
▁catch	-3375
pir	-3376
▁Think	-3377
▁High	-3378
▁fair	-3379
▁sales	-3380
▁Germany	-3381
▁feed	-3382
▁floor	-3383
▁powerful	-3384
▁protein	-3385
▁Republic	-3386
▁Ma	-3387
▁exec	-3388
▁belong	-3389
rial	-3390
abor	-3391
viet	-3392
ero	-3393
▁Com	-3394
▁multiple	-3395
▁average	-3396
▁gives	-3397
▁price	-3398
iel	-3399
▁irr	-3400
▁whose	-3401
▁Soviet	-3402
▁leading	-3403
▁Jack	-3404
rol	-3405
▁attract	-3406
▁Remember	-3407
icon	-3408
▁concern	-3409
▁match	-3410
aint	-3411
▁strength	-3412
▁rule	-3413
▁Sun	-3414
▁2011	-3415
▁Park	-3416
▁park	-3417
▁rules	-3418
▁signs	-3419
vert	-3420
▁Dis	-3421
▁crazy	-3422
▁stars	-3423
▁learned	-3424
▁humans	-3425
▁allowed	-3426
▁pan	-3427
▁2012	-3428
ux	-3429
▁forces	-3430
▁economy	-3431
▁dev	-3432
▁dom	-3433
▁management	-3434
ightly	-3435
▁weak	-3436
▁device	-3437
ube	-3438
lling	-3439
Applause	-3440
▁letter	-3441
olic	-3442
▁software	-3443
▁added	-3444
▁adult	-3445
▁earth	-3446
▁2000	-3447
▁Union	-3448
▁board	-3449
outhern	-3450
▁&	-3451
▁rich	-3452
▁Russian	-3453
▁recent	-3454
▁Russia	-3455
▁followed	-3456
▁deli	-3457
▁yours	-3458
uty	-3459
board	-3460
aign	-3461
rupt	-3462
▁progress	-3463
▁opportunity	-3464
iving	-3465
▁document	-3466
▁animal	-3467
▁leaves	-3468
▁feature	-3469
▁Consider	-3470
▁cred	-3471
▁earn	-3472
aches	-3473
lebr	-3474
ropri	-3475
mp	-3476
▁pal	-3477
▁salt	-3478
▁More	-3479
▁Windows	-3480
ring	-3481
▁firm	-3482
▁huh	-3483
▁altern	-3484
▁wood	-3485
▁memory	-3486
▁Pomer	-3487
▁Pri	-3488
▁options	-3489
▁distrib	-3490
▁speed	-3491
▁mention	-3492
▁San	-3493
bed	-3494
▁contract	-3495
▁everybody	-3496
▁sod	-3497
▁pu	-3498
▁ahead	-3499
▁Uh	-3500
▁gradu	-3501
uman	-3502
ously	-3503
▁quar	-3504
ipe	-3505
▁citiz	-3506
▁street	-3507
▁Sea	-3508
▁includes	-3509
cean	-3510
ming	-3511
hal	-3512
yond	-3513
▁standard	-3514
▁finished	-3515
▁commer	-3516
▁knowledge	-3517
▁Year	-3518
itect	-3519
▁tiss	-3520
▁bacteria	-3521
▁traditional	-3522
▁Mor	-3523
▁features	-3524
acing	-3525
▁Internet	-3526
ache	-3527
▁muscle	-3528
▁button	-3529
▁director	-3530
ulate	-3531
▁rid	-3532
hold	-3533
▁basic	-3534
ett	-3535
lock	-3536
▁smaller	-3537
▁rub	-3538
▁lines	-3539
▁compl	-3540
▁content	-3541
▁eventually	-3542
rabic	-3543
▁x	-3544
▁Mart	-3545
gin	-3546
▁Frank	-3547
▁mor	-3548
▁2.	-3549
key	-3550
▁lie	-3551
iverse	-3552
▁surround	-3553
▁mi	-3554
▁greater	-3555
▁gar	-3556
▁Mac	-3557
iling	-3558
▁Open	-3559
▁dro	-3560
amine	-3561
▁OK	-3562
▁spot	-3563
▁contr	-3564
▁Po	-3565
lly	-3566
aste	-3567
ID	-3568
▁2014	-3569
▁industry	-3570
▁Val	-3571
▁scale	-3572
egr	-3573
▁neck	-3574
▁achieve	-3575
ech	-3576
▁uses	-3577
▁breath	-3578
▁democr	-3579
iqu	-3580
▁older	-3581
▁fell	-3582
▁throw	-3583
▁gentle	-3584
erson	-3585
▁prior	-3586
▁shape	-3587
▁ju	-3588
lict	-3589
▁performance	-3590
▁ter	-3591
▁er	-3592
▁2015	-3593
▁Start	-3594
▁Us	-3595
▁allows	-3596
odies	-3597
▁becoming	-3598
▁Cour	-3599
enge	-3600
▁therapy	-3601
cell	-3602
oses	-3603
▁Sometimes	-3604
▁Ir	-3605
▁Syria	-3606
▁decre	-3607
▁scr	-3608
▁Only	-3609
▁arri	-3610
▁Ca	-3611
▁Ste	-3612
▁eth	-3613
ground	-3614
▁fold	-3615
▁Pomeranian	-3616
▁shut	-3617
▁60	-3618
▁dinner	-3619
▁unc	-3620
▁minim	-3621
▁celebr	-3622
▁Dav	-3623
iers	-3624
▁bra	-3625
▁capt	-3626
aked	-3627
▁kept	-3628
▁mole	-3629
▁distance	-3630
▁moist	-3631
▁sitting	-3632
▁Ital	-3633
inct	-3634
▁wash	-3635
ray	-3636
▁Stud	-3637
▁2010	-3638
▁trig	-3639
▁happening	-3640
▁campaign	-3641
cast	-3642
▁mer	-3643
▁jump	-3644
▁honest	-3645
▁Another	-3646
▁nation	-3647
▁station	-3648
▁rank	-3649
▁smart	-3650
▁Before	-3651
▁Pal	-3652
▁freedom	-3653
▁returned	-3654
▁successful	-3655
bing	-3656
▁founded	-3657
▁perhaps	-3658
▁standing	-3659
▁player	-3660
▁resources	-3661
no	-3662
▁Bet	-3663
▁menu	-3664
▁Sal	-3665
anish	-3666
▁brand	-3667
▁movie	-3668
▁dangerous	-3669
▁commonly	-3670
anced	-3671
▁purpose	-3672
▁rare	-3673
▁developing	-3674
▁appl	-3675
▁kiss	-3676
gery	-3677
▁earlier	-3678
▁dip	-3679
zz	-3680
▁showed	-3681
▁2017	-3682
azing	-3683
▁correct	-3684
▁twice	-3685
▁length	-3686
▁decl	-3687
▁reve	-3688
▁conflict	-3689
▁arms	-3690
▁(201	-3691
oma	-3692
▁circ	-3693
nces	-3694
riage	-3695
▁boys	-3696
▁website	-3697
▁wearing	-3698
▁Ob	-3699
▁dollars	-3700
▁reasons	-3701
aught	-3702
ampionship	-3703
▁somewhere	-3704
▁award	-3705
▁qual	-3706
▁Sam	-3707
▁mob	-3708
icles	-3709
▁shop	-3710
ye	-3711
▁section	-3712
▁Commun	-3713
▁corner	-3714
▁keeping	-3715
▁heavy	-3716
▁obvious	-3717
▁organization	-3718
do	-3719
▁Mc	-3720
reci	-3721
▁calling	-3722
▁contains	-3723
▁recently	-3724
erved	-3725
▁hom	-3726
▁hur	-3727
▁miles	-3728
▁radio	-3729
▁dress	-3730
▁reaction	-3731
raft	-3732
▁doub	-3733
▁pun	-3734
▁Alex	-3735
▁Associ	-3736
▁Que	-3737
▁Listen	-3738
▁beyond	-3739
asion	-3740
▁diagn	-3741
▁Great	-3742
▁express	-3743
▁studied	-3744
▁watching	-3745
▁financial	-3746
ils	-3747
▁Western	-3748
▁responsible	-3749
ari	-3750
▁Cho	-3751
▁vit	-3752
▁Those	-3753
▁remind	-3754
▁actions	-3755
▁Mich	-3756
▁reading	-3757
▁ult	-3758
▁critic	-3759
▁hate	-3760
▁review	-3761
▁sounds	-3762
▁gain	-3763
▁detect	-3764
▁counter	-3765
▁teacher	-3766
▁skills	-3767
itz	-3768
▁2013	-3769
▁favorite	-3770
▁beat	-3771
▁Tur	-3772
▁sad	-3773
▁required	-3774
▁conduct	-3775
▁effic	-3776
raw	-3777
▁gal	-3778
intend	-3779
▁rat	-3780
▁Air	-3781
ms	-3782
▁Sir	-3783
earch	-3784
▁stock	-3785
▁prefer	-3786
agon	-3787
▁items	-3788
▁Wr	-3789
▁willing	-3790
put	-3791
▁huge	-3792
▁becomes	-3793
back	-3794
▁liqu	-3795
▁strugg	-3796
▁Mex	-3797
▁nearly	-3798
olute	-3799
ittee	-3800
▁autom	-3801
▁realize	-3802
▁paid	-3803
▁languages	-3804
▁milk	-3805
▁determine	-3806
▁handle	-3807
dden	-3808
AN	-3809
▁thus	-3810
▁walking	-3811
▁individuals	-3812
▁ut	-3813
▁plans	-3814
▁Net	-3815
oster	-3816
▁hero	-3817
▁feels	-3818
▁holding	-3819
▁tick	-3820
▁tap	-3821
▁Szcz	-3822
▁meat	-3823
▁instance	-3824
▁enem	-3825
▁sudden	-3826
▁Mo	-3827
▁acqu	-3828
▁chann	-3829
▁dance	-3830
▁summer	-3831
▁toward	-3832
elling	-3833
▁plastic	-3834
▁ensure	-3835
▁primary	-3836
▁challeng	-3837
uan	-3838
30	-3839
▁legs	-3840
ography	-3841
iced	-3842
▁northern	-3843
▁cream	-3844
▁anxiety	-3845
▁constant	-3846
arden	-3847
ught	-3848
▁Mary	-3849
▁carbon	-3850
▁additional	-3851
ita	-3852
▁custom	-3853
zil	-3854
▁descri	-3855
▁2,	-3856
just	-3857
▁highly	-3858
aves	-3859
▁email	-3860
▁und	-3861
▁depression	-3862
▁breast	-3863
▁flight	-3864
▁prec	-3865
▁border	-3866
▁Black	-3867
iven	-3868
olar	-3869
▁Check	-3870
che	-3871
▁Gree	-3872
▁Also	-3873
▁micro	-3874
▁breathing	-3875
German	-3876
▁transfer	-3877
▁Wars	-3878
▁bound	-3879
▁emotions	-3880
▁causing	-3881
ogle	-3882
ko	-3883
▁fruit	-3884
▁river	-3885
▁Play	-3886
▁Paul	-3887
▁fully	-3888
▁Bill	-3889
▁Coun	-3890
▁labor	-3891
▁Its	-3892
▁transl	-3893
▁Army	-3894
▁decide	-3895
aled	-3896
▁combination	-3897
▁putting	-3898
▁adop	-3899
▁acting	-3900
ander	-3901
▁interview	-3902
aving	-3903
▁Szczec	-3904
▁medications	-3905
▁reb	-3906
▁ring	-3907
▁defe	-3908
ses	-3909
estic	-3910
▁Port	-3911
▁Congress	-3912
▁via	-3913
▁Wait	-3914
▁warn	-3915
▁demand	-3916
▁Sen	-3917
▁boss	-3918
omach	-3919
ilies	-3920
▁architect	-3921
▁Dem	-3922
hat	-3923
▁Serie	-3924
yr	-3925
bre	-3926
▁opin	-3927
▁2018	-3928
▁note	-3929
▁yeah	-3930
antic	-3931
▁mental	-3932
▁fit	-3933
azine	-3934
▁bull	-3935
▁believed	-3936
▁workers	-3937
▁programs	-3938
▁passed	-3939
▁libr	-3940
▁square	-3941
▁speaking	-3942
ctors	-3943
ysis	-3944
entially	-3945
▁honey	-3946
▁formed	-3947
▁Ng	-3948
▁wat	-3949
▁amazing	-3950
▁reality	-3951
▁Lu	-3952
▁calm	-3953
▁Court	-3954
ael	-3955
▁adm	-3956
aching	-3957
▁Which	-3958
▁teeth	-3959
▁fighting	-3960
▁Mad	-3961
▁iron	-3962
▁shoes	-3963
▁display	-3964
▁stim	-3965
▁double	-3966
▁22	-3967
▁finish	-3968
▁separate	-3969
uing	-3970
▁Sum	-3971
▁objects	-3972
▁Lord	-3973
▁changing	-3974
▁placed	-3975
▁continued	-3976
▁Talk	-3977
▁appears	-3978
▁influence	-3979
▁Hy	-3980
▁Inc	-3981
▁join	-3982
▁student	-3983
▁Pat	-3984
▁Italian	-3985
▁appreci	-3986
▁fa	-3987
▁2009	-3988
▁agent	-3989
▁nose	-3990
▁Brazil	-3991
▁charge	-3992
▁interests	-3993
ropriate	-3994
▁surgery	-3995
▁Tom	-3996
▁laws	-3997
▁download	-3998
▁appeared	-3999
▁oxy	-4000
▁materials	-4001
▁promise	-4002
ald	-4003
▁trial	-4004
▁uns	-4005
intendo	-4006
▁joined	-4007
▁anybody	-4008
lymp	-4009
▁Over	-4010
▁Award	-4011
▁nine	-4012
▁broken	-4013
▁helped	-4014
▁fle	-4015
▁ign	-4016
hetic	-4017
cies	-4018
▁sources	-4019
omy	-4020
▁caught	-4021
▁unless	-4022
▁log	-4023
▁suit	-4024
▁thousands	-4025
▁helping	-4026
ancing	-4027
▁Enter	-4028
▁paint	-4029
oking	-4030
▁leader	-4031
ago	-4032
pping	-4033
▁stomach	-4034
gent	-4035
▁Sch	-4036
▁sch	-4037
▁lawy	-4038
istan	-4039
▁complic	-4040
eal	-4041
▁rapid	-4042
▁Mil	-4043
▁Nintendo	-4044
ession	-4045
▁poly	-4046
▁killing	-4047
▁obtain	-4048
▁excess	-4049
isters	-4050
▁Paris	-4051
▁limited	-4052
ham	-4053
▁demonst	-4054
▁Sant	-4055
ederal	-4056
▁waste	-4057
▁army	-4058
▁compon	-4059
▁reached	-4060
▁reflect	-4061
▁Second	-4062
▁climate	-4063
rible	-4064
OS	-4065
vest	-4066
▁Olymp	-4067
▁Google	-4068
▁highest	-4069
▁sand	-4070
▁Best	-4071
▁2020	-4072
▁male	-4073
▁vari	-4074
ador	-4075
roid	-4076
▁Mrs	-4077
▁instruct	-4078
▁Work	-4079
▁effort	-4080
▁cities	-4081
▁2008	-4082
▁extend	-4083
▁Dan	-4084
wood	-4085
udd	-4086
ented	-4087
▁phil	-4088
▁apart	-4089
▁synt	-4090
ensus	-4091
▁trick	-4092
▁Bu	-4093
▁relationships	-4094
▁lic	-4095
▁values	-4096
▁Gl	-4097
▁college	-4098
▁sche	-4099
▁funny	-4100
▁serve	-4101
▁wound	-4102
▁affected	-4103
▁etc	-4104
overy	-4105
▁useful	-4106
▁push	-4107
▁organiz	-4108
▁dial	-4109
▁absolute	-4110
▁slightly	-4111
▁calls	-4112
▁quiet	-4113
▁opened	-4114
upid	-4115
▁camera	-4116
▁speech	-4117
▁har	-4118
▁mission	-4119
▁property	-4120
▁creating	-4121
▁understanding	-4122
▁steps	-4123
▁missing	-4124
▁ourselves	-4125
▁swim	-4126
▁safety	-4127
▁rise	-4128
▁essential	-4129
vant	-4130
craft	-4131
▁drinking	-4132
mar	-4133
▁rain	-4134
▁absor	-4135
▁chick	-4136
▁electric	-4137
▁Mark	-4138
▁religious	-4139
▁poll	-4140
vention	-4141
▁fly	-4142
▁Franc	-4143
▁Kingdom	-4144
▁costs	-4145
mark	-4146
▁blow	-4147
▁yellow	-4148
aker	-4149
▁hun	-4150
▁Follow	-4151
semb	-4152
▁generation	-4153
▁inject	-4154
▁muscles	-4155
otic	-4156
▁tank	-4157
▁wild	-4158
▁visual	-4159
▁thick	-4160
▁seat	-4161
▁authorities	-4162
nown	-4163
▁Indian	-4164
▁Int	-4165
▁tox	-4166
▁unit	-4167
osen	-4168
▁intellig	-4169
▁famous	-4170
zen	-4171
▁bottle	-4172
▁accident	-4173
▁emotional	-4174
▁mut	-4175
▁ran	-4176
▁ingred	-4177
▁slowly	-4178
▁factors	-4179
▁Del	-4180
▁Face	-4181
anted	-4182
▁estim	-4183
▁supply	-4184
▁opening	-4185
▁setting	-4186
izes	-4187
▁Mas	-4188
▁finding	-4189
▁master	-4190
rel	-4191
▁(200	-4192
▁prepared	-4193
▁treated	-4194
▁anywhere	-4195
▁Mars	-4196
▁unique	-4197
▁23	-4198
▁families	-4199
irmed	-4200
▁expand	-4201
ulations	-4202
▁aim	-4203
▁web	-4204
▁lots	-4205
▁symb	-4206
▁integr	-4207
▁pieces	-4208
ulated	-4209
▁wed	-4210
▁iP	-4211
▁Washing	-4212
II	-4213
▁Jew	-4214
▁diss	-4215
▁Niger	-4216
▁remains	-4217
▁Sl	-4218
asure	-4219
▁suspect	-4220
utive	-4221
▁methods	-4222
▁England	-4223
▁battle	-4224
▁hous	-4225
▁approved	-4226
▁presence	-4227
yal	-4228
▁stre	-4229
umn	-4230
▁taught	-4231
10	-4232
▁bodies	-4233
▁bright	-4234
▁failure	-4235
▁connected	-4236
▁spirit	-4237
▁medicine	-4238
▁2006	-4239
tt	-4240
word	-4241
▁horm	-4242
▁plane	-4243
▁lady	-4244
▁nuclear	-4245
wr	-4246
ida	-4247
▁closed	-4248
heast	-4249
pro	-4250
ura	-4251
▁island	-4252
▁article	-4253
▁Australia	-4254
▁mostly	-4255
▁Gh	-4256
▁Law	-4257
▁ended	-4258
BS	-4259
▁phen	-4260
▁Health	-4261
▁citizens	-4262
▁expected	-4263
rog	-4264
▁teach	-4265
irty	-4266
▁CO	-4267
▁categ	-4268
▁trees	-4269
▁recommended	-4270
▁amb	-4271
▁liver	-4272
▁chest	-4273
▁map	-4274
▁chair	-4275
▁forest	-4276
▁Hel	-4277
▁elements	-4278
▁raised	-4279
▁honor	-4280
▁direction	-4281
▁transport	-4282
▁whom	-4283
▁performed	-4284
▁vegetables	-4285
▁Place	-4286
▁files	-4287
vered	-4288
▁actress	-4289
▁faster	-4290
tr	-4291
ifying	-4292
▁challenge	-4293
▁Id	-4294
▁Star	-4295
▁Korean	-4296
▁Det	-4297
▁occup	-4298
isc	-4299
idents	-4300
uries	-4301
▁Const	-4302
▁stupid	-4303
▁(3	-4304
▁Jim	-4305
rogen	-4306
osh	-4307
▁Tw	-4308
change	-4309
▁spect	-4310
raction	-4311
▁Watch	-4312
▁2007	-4313
▁appointed	-4314
▁competition	-4315
ingu	-4316
▁mood	-4317
▁showing	-4318
porary	-4319
▁proced	-4320
rome	-4321
iforn	-4322
urally	-4323
▁rot	-4324
▁transform	-4325
▁190	-4326
▁Fore	-4327
▁James	-4328
ón	-4329
▁Div	-4330
▁Group	-4331
▁Never	-4332
▁images	-4333
▁infections	-4334
oughly	-4335
▁units	-4336
osphere	-4337
ena	-4338
▁icon	-4339
ola	-4340
▁Emp	-4341
▁turns	-4342
▁sen	-4343
▁tissue	-4344
isl	-4345
ijing	-4346
▁artist	-4347
vey	-4348
burg	-4349
▁anyway	-4350
▁schools	-4351
▁marriage	-4352
▁scientific	-4353
dule	-4354
▁provided	-4355
▁finger	-4356
▁task	-4357
▁Chile	-4358
▁cris	-4359
▁upper	-4360
▁Human	-4361
▁antibiot	-4362
▁David	-4363
▁sequ	-4364
lim	-4365
▁saved	-4366
itter	-4367
▁Cam	-4368
▁label	-4369
▁advant	-4370
ef	-4371
▁Could	-4372
gypt	-4373
▁kit	-4374
▁limit	-4375
ifornia	-4376
▁Washington	-4377
▁Sing	-4378
▁poet	-4379
▁careful	-4380
▁brothers	-4381
ieve	-4382
isms	-4383
▁wake	-4384
▁hole	-4385
▁Prov	-4386
▁Bro	-4387
▁introduced	-4388
iate	-4389
▁receive	-4390
▁(4	-4391
▁Canada	-4392
▁spl	-4393
▁purs	-4394
▁Latin	-4395
▁crack	-4396
▁minor	-4397
▁Institute	-4398
▁Pet	-4399
▁sides	-4400
hab	-4401
▁veh	-4402
▁ancient	-4403
▁stopped	-4404
▁situations	-4405
▁kinds	-4406
▁Cle	-4407
▁Council	-4408
▁grew	-4409
▁bomb	-4410
▁mixt	-4411
▁consequ	-4412
▁prescri	-4413
▁NG	-4414
▁Hong	-4415
▁metab	-4416
▁bigger	-4417
bits	-4418
▁incred	-4419
itely	-4420
▁requires	-4421
▁Tod	-4422
▁California	-4423
▁fort	-4424
▁murder	-4425
▁flat	-4426
▁tests	-4427
▁assum	-4428
▁users	-4429
▁connection	-4430
alt	-4431
▁Fil	-4432
▁Beijing	-4433
ext	-4434
▁race	-4435
▁White	-4436
estival	-4437
icide	-4438
▁80	-4439
▁Pac	-4440
▁clothing	-4441
▁Sa	-4442
roat	-4443
▁numer	-4444
ossible	-4445
▁Off	-4446
▁dim	-4447
▁load	-4448
▁coop	-4449
▁soap	-4450
ares	-4451
▁spok	-4452
▁don	-4453
▁fault	-4454
▁tools	-4455
▁benefits	-4456
▁trip	-4457
ushing	-4458
DA	-4459
▁losing	-4460
osure	-4461
ureau	-4462
ooth	-4463
▁shap	-4464
▁referred	-4465
▁writer	-4466
night	-4467
▁bill	-4468
▁hide	-4469
▁compared	-4470
uits	-4471
▁calcul	-4472
▁Ange	-4473
▁therefore	-4474
▁Department	-4475
ashion	-4476
▁Cast	-4477
▁independent	-4478
ev	-4479
▁exhib	-4480
▁epis	-4481
▁lung	-4482
▁3.	-4483
▁Mer	-4484
▁basis	-4485
▁singer	-4486
▁partners	-4487
▁properties	-4488
chen	-4489
▁strateg	-4490
▁commercial	-4491
▁liquid	-4492
atically	-4493
acity	-4494
▁oxygen	-4495
▁Egypt	-4496
▁galax	-4497
▁joint	-4498
▁George	-4499
▁signed	-4500
▁cru	-4501
ipped	-4502
▁cere	-4503
▁agree	-4504
▁failed	-4505
▁status	-4506
▁nerv	-4507
▁metal	-4508
▁cultural	-4509
rey	-4510
▁Kh	-4511
▁violence	-4512
wide	-4513
▁DNA	-4514
▁worried	-4515
▁appropriate	-4516
▁occurs	-4517
▁Americans	-4518
▁[	-4519
▁Stat	-4520
▁Cub	-4521
▁neighbor	-4522
▁1990	-4523
▁Ah	-4524
▁construction	-4525
▁Rober	-4526
▁tro	-4527
▁removed	-4528
▁Know	-4529
▁Kim	-4530
▁princi	-4531
▁mistake	-4532
▁emergency	-4533
▁listening	-4534
▁Es	-4535
▁rice	-4536
▁sac	-4537
ended	-4538
▁Mag	-4539
▁newsp	-4540
cience	-4541
▁atm	-4542
▁confirmed	-4543
iat	-4544
▁tool	-4545
▁jobs	-4546
iminal	-4547
▁cycle	-4548
▁covered	-4549
▁details	-4550
▁layer	-4551
ighter	-4552
orders	-4553
▁reform	-4554
▁eggs	-4555
▁universe	-4556
ala	-4557
iance	-4558
irus	-4559
▁Szczecin	-4560
▁confidence	-4561
▁brown	-4562
▁Don	-4563
▁angry	-4564
▁overall	-4565
rees	-4566
▁habit	-4567
▁philos	-4568
fe	-4569
▁ves	-4570
▁crime	-4571
▁extremely	-4572
▁ride	-4573
▁starts	-4574
▁Lou	-4575
▁core	-4576
▁Philipp	-4577
▁kick	-4578
▁mad	-4579
▁Ber	-4580
▁nobody	-4581
▁wet	-4582
igned	-4583
▁digital	-4584
▁Association	-4585
▁nervous	-4586
▁Spanish	-4587
▁perm	-4588
▁closer	-4589
▁Dire	-4590
▁quant	-4591
▁forced	-4592
▁ocean	-4593
▁helpful	-4594
▁weapons	-4595
▁recognize	-4596
▁protection	-4597
▁stores	-4598
ogen	-4599
▁hall	-4600
▁Up	-4601
asks	-4602
▁Both	-4603
Arabic	-4604
liament	-4605
▁restaur	-4606
SE	-4607
▁28	-4608
apers	-4609
▁domin	-4610
▁Warsaw	-4611
▁terror	-4612
▁herself	-4613
▁spray	-4614
▁Super	-4615
▁possibly	-4616
lom	-4617
▁root	-4618
▁appearance	-4619
▁26	-4620
▁Queen	-4621
▁coast	-4622
You	-4623
loc	-4624
▁vot	-4625
rad	-4626
▁River	-4627
▁Colomb	-4628
▁administration	-4629
▁talked	-4630
hyd	-4631
▁Apple	-4632
ologist	-4633
▁mathem	-4634
▁broke	-4635
▁liber	-4636
▁engage	-4637
▁predict	-4638
▁balance	-4639
la	-4640
▁fif	-4641
ensity	-4642
▁Grand	-4643
▁reject	-4644
▁Kong	-4645
▁vacc	-4646
▁Secret	-4647
▁critical	-4648
▁Hen	-4649
▁models	-4650
▁elev	-4651
▁cab	-4652
▁clinical	-4653
▁Roman	-4654
▁League	-4655
▁relatively	-4656
▁colon	-4657
▁depending	-4658
icip	-4659
force	-4660
▁application	-4661
axim	-4662
ican	-4663
▁Bab	-4664
▁user	-4665
pective	-4666
▁subsequ	-4667
▁Each	-4668
atform	-4669
▁mixture	-4670
uce	-4671
▁bought	-4672
▁sust	-4673
aph	-4674
▁completed	-4675
een	-4676
▁virt	-4677
▁hyper	-4678
▁efforts	-4679
po	-4680
▁horse	-4681
▁applied	-4682
▁church	-4683
▁selling	-4684
▁Facebook	-4685
▁politics	-4686
▁Sat	-4687
▁advice	-4688
▁election	-4689
iques	-4690
▁Develop	-4691
ricult	-4692
▁chief	-4693
▁request	-4694
▁Ken	-4695
▁Sorry	-4696
▁raise	-4697
▁Mod	-4698
▁vision	-4699
▁players	-4700
▁planning	-4701
▁Championship	-4702
▁elected	-4703
▁equal	-4704
osc	-4705
▁rom	-4706
▁devices	-4707
ias	-4708
▁frequently	-4709
▁fab	-4710
▁Their	-4711
ini	-4712
▁thin	-4713
▁juice	-4714
▁clearly	-4715
arp	-4716
▁Captain	-4717
erate	-4718
ima	-4719
▁Prof	-4720
▁defined	-4721
▁90	-4722
▁audience	-4723
▁operating	-4724
▁motiv	-4725
▁Center	-4726
▁alternative	-4727
2)	-4728
olid	-4729
ompl	-4730
▁ban	-4731
▁till	-4732
ologies	-4733
ito	-4734
▁candid	-4735
▁commit	-4736
▁Michael	-4737
▁Roy	-4738
▁Hold	-4739
▁27	-4740
▁income	-4741
▁Gold	-4742
▁Select	-4743
▁Jes	-4744
▁upset	-4745
▁Mom	-4746
▁bond	-4747
▁detail	-4748
▁Street	-4749
▁thinks	-4750
ibr	-4751
▁soul	-4752
▁chart	-4753
▁scared	-4754
vis	-4755
▁Bureau	-4756
rs	-4757
▁Pan	-4758
▁biggest	-4759
▁glad	-4760
▁recorded	-4761
ios	-4762
▁dogs	-4763
▁decisions	-4764
astern	-4765
▁faith	-4766
▁College	-4767
ademy	-4768
▁territ	-4769
wan	-4770
▁switch	-4771
icated	-4772
▁university	-4773
▁communication	-4774
▁drain	-4775
▁ru	-4776
▁disorder	-4777
ua	-4778
▁worst	-4779
ado	-4780
ordin	-4781
▁judge	-4782
▁spending	-4783
▁fever	-4784
▁restrict	-4785
▁pictures	-4786
▁impl	-4787
ED	-4788
▁pill	-4789
cks	-4790
▁goods	-4791
▁solid	-4792
urb	-4793
▁Sub	-4794
▁tight	-4795
▁Research	-4796
▁accompl	-4797
▁aspect	-4798
iring	-4799
▁forgot	-4800
▁1980	-4801
▁acts	-4802
▁damn	-4803
5)	-4804
▁vessel	-4805
▁bind	-4806
▁focused	-4807
iled	-4808
▁roll	-4809
▁sports	-4810
▁identify	-4811
▁benefit	-4812
▁Da	-4813
▁likes	-4814
▁widely	-4815
asty	-4816
olved	-4817
▁truly	-4818
▁lying	-4819
▁Out	-4820
▁Hell	-4821
▁desk	-4822
▁officials	-4823
▁experiences	-4824
illed	-4825
▁murd	-4826
▁Choose	-4827
▁crisis	-4828
▁greatest	-4829
▁belief	-4830
uls	-4831
▁escape	-4832
▁instructions	-4833
▁Social	-4834
▁prompt	-4835
▁Say	-4836
▁ben	-4837
▁Though	-4838
▁Joe	-4839
▁tells	-4840
▁brief	-4841
▁impossible	-4842
ervation	-4843
▁dish	-4844
time	-4845
▁scene	-4846
▁confident	-4847
met	-4848
▁photo	-4849
▁initial	-4850
▁pray	-4851
▁establish	-4852
▁pig	-4853
▁laun	-4854
off	-4855
▁none	-4856
▁motion	-4857
▁majority	-4858
Th	-4859
▁boat	-4860
ript	-4861
▁tired	-4862
▁pupp	-4863
▁staff	-4864
▁interp	-4865
resp	-4866
▁busy	-4867
▁songs	-4868
▁cart	-4869
▁stret	-4870
▁statement	-4871
▁ends	-4872
▁cloud	-4873
▁2019	-4874
▁shared	-4875
AR	-4876
▁blind	-4877
olf	-4878
▁vary	-4879
▁UK	-4880
sect	-4881
▁Stay	-4882
▁pair	-4883
▁meal	-4884
▁Perhaps	-4885
3)	-4886
IV	-4887
▁fol	-4888
▁census	-4889
ogue	-4890
▁Set	-4891
▁clim	-4892
▁pregnant	-4893
illa	-4894
▁Gal	-4895
iveness	-4896
▁photos	-4897
60	-4898
ords	-4899
▁wonderful	-4900
80	-4901
BC	-4902
▁empt	-4903
▁driving	-4904
▁southern	-4905
va	-4906
berg	-4907
▁Call	-4908
▁elimin	-4909
▁Pacific	-4910
ona	-4911
ocol	-4912
▁analy	-4913
▁chlor	-4914
▁equip	-4915
▁tal	-4916
▁synd	-4917
▁Trans	-4918
▁univers	-4919
▁circum	-4920
▁organizations	-4921
▁bone	-4922
▁garden	-4923
▁taste	-4924
▁Today	-4925
▁seeds	-4926
▁$1	-4927
▁Tai	-4928
▁proud	-4929
▁routine	-4930
▁wel	-4931
▁sleeping	-4932
▁Thanks	-4933
asy	-4934
▁Turn	-4935
▁negot	-4936
▁height	-4937
umin	-4938
▁tim	-4939
▁tooth	-4940
▁painting	-4941
ads	-4942
kin	-4943
▁mel	-4944
roll	-4945
▁lawyer	-4946
▁schedule	-4947
▁leadership	-4948
:00	-4949
▁Italy	-4950
inh	-4951
▁("	-4952
aval	-4953
▁vent	-4954
▁isol	-4955
▁lucky	-4956
▁otherwise	-4957
cuse	-4958
▁leads	-4959
▁Er	-4960
▁Rich	-4961
▁launch	-4962
▁guard	-4963
▁mg	-4964
▁internal	-4965
ya	-4966
rier	-4967
athy	-4968
▁collection	-4969
▁techniques	-4970
▁.	-4971
▁70	-4972
▁ir	-4973
▁System	-4974
▁adjust	-4975
▁actual	-4976
▁fashion	-4977
▁capacity	-4978
1)	-4979
▁fingers	-4980
▁wedding	-4981
ille	-4982
idden	-4983
▁Mexico	-4984
▁fourth	-4985
▁degrees	-4986
▁Ministry	-4987
▁hundreds	-4988
▁colle	-4989
▁claims	-4990
▁conscious	-4991
▁lat	-4992
▁plays	-4993
▁scientists	-4994
AT	-4995
yd	-4996
▁Nor	-4997
▁towel	-4998
▁plenty	-4999
▁analysis	-5000
▁Show	-5001
▁Day	-5002
▁beauty	-5003
▁grain	-5004
▁environmental	-5005
▁Met	-5006
abet	-5007
▁certainly	-5008
▁pregnancy	-5009
▁frame	-5010
war	-5011
▁stuck	-5012
▁boyfriend	-5013
▁concerned	-5014
▁Old	-5015
▁dying	-5016
mas	-5017
▁Cup	-5018
▁walls	-5019
ES	-5020
aven	-5021
emic	-5022
ishes	-5023
▁butter	-5024
▁instrum	-5025
istered	-5026
▁mobile	-5027
cel	-5028
▁dy	-5029
ument	-5030
▁Francis	-5031
▁previously	-5032
clus	-5033
▁ec	-5034
▁500	-5035
▁2015,	-5036
▁thousand	-5037
▁stated	-5038
ocal	-5039
▁Prin	-5040
▁shower	-5041
▁consult	-5042
▁advantage	-5043
▁id	-5044
▁Dam	-5045
▁Sar	-5046
erves	-5047
top	-5048
▁smile	-5049
▁opinion	-5050
▁collabor	-5051
"?	-5052
sembly	-5053
▁colors	-5054
uous	-5055
▁credit	-5056
▁throat	-5057
izer	-5058
▁notes	-5059
▁Three	-5060
▁officer	-5061
▁allowing	-5062
▁specifically	-5063
▁hung	-5064
▁prem	-5065
▁witness	-5066
acters	-5067
▁despite	-5068
▁equipment	-5069
▁enzy	-5070
▁Lear	-5071
▁diplom	-5072
atell	-5073
▁cars	-5074
▁provides	-5075
19	-5076
▁Game	-5077
▁projects	-5078
▁cow	-5079
▁drag	-5080
▁shock	-5081
▁dose	-5082
▁phase	-5083
▁Est	-5084
iliar	-5085
tered	-5086
▁Muse	-5087
▁Inter	-5088
▁Peter	-5089
▁increases	-5090
ras	-5091
▁polic	-5092
▁injury	-5093
▁gift	-5094
▁films	-5095
▁domestic	-5096
▁realized	-5097
icity	-5098
known	-5099
osite	-5100
▁platform	-5101
▁mirr	-5102
house	-5103
▁neut	-5104
▁branch	-5105
▁forever	-5106
▁decades	-5107
▁attended	-5108
▁responsibility	-5109
▁survive	-5110
▁revolution	-5111
▁Prot	-5112
▁Music	-5113
▁adding	-5114
▁Nations	-5115
duc	-5116
▁sensitive	-5117
▁satis	-5118
▁normally	-5119
▁Christian	-5120
ione	-5121
▁Sur	-5122
▁Asian	-5123
lection	-5124
▁Bur	-5125
▁Found	-5126
▁investment	-5127
▁aid	-5128
▁Hi	-5129
▁Vict	-5130
▁corpor	-5131
▁password	-5132
▁prove	-5133
▁context	-5134
▁naturally	-5135
ía	-5136
▁cas	-5137
▁bringing	-5138
▁volume	-5139
onic	-5140
▁pharm	-5141
▁examples	-5142
▁factor	-5143
ez	-5144
▁expensive	-5145
6)	-5146
▁mal	-5147
ategy	-5148
▁2017,	-5149
▁fabric	-5150
▁reports	-5151
▁strange	-5152
▁strategy	-5153
ums	-5154
▁CD	-5155
uts	-5156
reams	-5157
▁characters	-5158
phone	-5159
▁marry	-5160
▁coron	-5161
▁*	-5162
▁tape	-5163
▁metres	-5164
▁evening	-5165
right	-5166
cket	-5167
▁Win	-5168
▁poison	-5169
▁metabol	-5170
▁criminal	-5171
▁Rel	-5172
▁mainly	-5173
▁reduced	-5174
▁NGC	-5175
▁graph	-5176
▁defense	-5177
▁3,	-5178
▁Apply	-5179
ław	-5180
▁chain	-5181
▁terrible	-5182
▁Stop	-5183
▁Ur	-5184
▁instit	-5185
▁regularly	-5186
onia	-5187
▁receptor	-5188
▁Democr	-5189
▁Greek	-5190
yc	-5191
▁Mont	-5192
▁BC	-5193
▁implement	-5194
▁weather	-5195
4)	-5196
▁Boy	-5197
▁ded	-5198
▁Sil	-5199
itors	-5200
lete	-5201
orter	-5202
▁maxim	-5203
inet	-5204
▁mic	-5205
▁department	-5206
▁Micro	-5207
▁directed	-5208
▁incor	-5209
▁totally	-5210
▁Awards	-5211
▁perman	-5212
▁ingredients	-5213
▁truck	-5214
▁Committee	-5215
▁Child	-5216
▁shr	-5217
▁accur	-5218
▁behavi	-5219
▁anger	-5220
inse	-5221
ski	-5222
▁Van	-5223
▁suc	-5224
▁bowl	-5225
▁2016,	-5226
▁cooking	-5227
▁Hu	-5228
▁tear	-5229
▁signal	-5230
▁189	-5231
▁Dec	-5232
▁thanks	-5233
rical	-5234
uate	-5235
▁tel	-5236
itate	-5237
▁van	-5238
iated	-5239
▁Time	-5240
▁doubt	-5241
▁hearing	-5242
▁purchase	-5243
▁lad	-5244
▁defend	-5245
▁storm	-5246
▁allerg	-5247
▁bleeding	-5248
▁grown	-5249
▁smooth	-5250
▁experiment	-5251
▁withd	-5252
▁upd	-5253
orate	-5254
▁illeg	-5255
aming	-5256
▁solar	-5257
▁computers	-5258
essor	-5259
pes	-5260
ushed	-5261
▁patterns	-5262
▁apparent	-5263
▁diseases	-5264
▁syn	-5265
▁capable	-5266
▁appreciate	-5267
▁begins	-5268
▁identity	-5269
▁properly	-5270
▁solve	-5271
▁‘	-5272
ford	-5273
▁debut	-5274
▁replaced	-5275
▁tum	-5276
urance	-5277
▁magazine	-5278
8)	-5279
Ch	-5280
olve	-5281
▁Squ	-5282
▁sed	-5283
")	-5284
esc	-5285
▁nit	-5286
▁2005	-5287
▁Bank	-5288
▁scen	-5289
▁victims	-5290
▁launched	-5291
▁batter	-5292
▁Tor	-5293
▁cash	-5294
▁Tap	-5295
▁tun	-5296
▁reven	-5297
▁arrested	-5298
▁originally	-5299
▁vote	-5300
▁powers	-5301
▁fu	-5302
▁grab	-5303
▁sight	-5304
ao	-5305
▁Type	-5306
▁weird	-5307
▁teaching	-5308
▁Last	-5309
▁Academy	-5310
oli	-5311
▁channel	-5312
▁calories	-5313
▁Def	-5314
▁edge	-5315
encing	-5316
▁winter	-5317
▁infected	-5318
▁agreement	-5319
▁division	-5320
imal	-5321
▁basically	-5322
▁Ec	-5323
rough	-5324
▁zone	-5325
▁entirely	-5326
▁exposure	-5327
▁manufacture	-5328
▁testing	-5329
unte	-5330
▁fool	-5331
▁spoken	-5332
▁illness	-5333
▁involve	-5334
▁Division	-5335
▁estimated	-5336
▁primarily	-5337
then	-5338
▁stronger	-5339
▁democracy	-5340
box	-5341
▁numerous	-5342
▁Jo	-5343
▁mig	-5344
▁Everything	-5345
It	-5346
ching	-5347
ora	-5348
▁Got	-5349
▁oral	-5350
▁lunch	-5351
▁Nguy	-5352
▁Statistics	-5353
▁comment	-5354
▁tiny	-5355
fortun	-5356
▁matters	-5357
how	-5358
hesis	-5359
▁amounts	-5360
▁cleaning	-5361
nes	-5362
▁Nothing	-5363
lements	-5364
BA	-5365
mes	-5366
▁industrial	-5367
nie	-5368
▁Dar	-5369
▁measures	-5370
▁wire	-5371
IN	-5372
▁fro	-5373
cular	-5374
▁studying	-5375
▁syndrome	-5376
▁perspective	-5377
▁turning	-5378
▁empty	-5379
▁prepar	-5380
▁dealing	-5381
▁element	-5382
▁absolutely	-5383
▁nor	-5384
▁insp	-5385
▁artists	-5386
rep	-5387
▁sky	-5388
andon	-5389
▁gently	-5390
▁monitor	-5391
▁remained	-5392
▁professor	-5393
char	-5394
iency	-5395
water	-5396
▁teams	-5397
▁resulting	-5398
emon	-5399
▁Spr	-5400
▁1970	-5401
equ	-5402
iest	-5403
▁Big	-5404
yo	-5405
▁2014,	-5406
▁mountain	-5407
▁Love	-5408
▁About	-5409
▁Jul	-5410
▁Rob	-5411
▁Lady	-5412
lig	-5413
roph	-5414
▁Ass	-5415
▁2011,	-5416
▁doctors	-5417
▁parties	-5418
▁spring	-5419
rael	-5420
▁afford	-5421
We	-5422
▁copy	-5423
▁2018,	-5424
▁Syrian	-5425
▁castle	-5426
▁inflamm	-5427
▁pin	-5428
▁filled	-5429
uj	-5430
aks	-5431
bert	-5432
▁Father	-5433
▁encourage	-5434
iters	-5435
▁Born	-5436
cend	-5437
▁wine	-5438
▁orders	-5439
▁serving	-5440
▁buildings	-5441
▁ho	-5442
▁owned	-5443
▁astron	-5444
▁philosop	-5445
▁represented	-5446
▁plate	-5447
▁winning	-5448
▁fluid	-5449
▁bridge	-5450
enez	-5451
▁Bob	-5452
▁diam	-5453
▁treatments	-5454
▁mild	-5455
▁harder	-5456
▁wealth	-5457
▁offered	-5458
▁suffering	-5459
▁sulf	-5460
▁brows	-5461
▁Rad	-5462
▁cards	-5463
▁suddenly	-5464
▁keeps	-5465
eke	-5466
▁hotel	-5467
▁sites	-5468
▁chronic	-5469
▁records	-5470
▁destroyed	-5471
▁enemy	-5472
▁library	-5473
▁yog	-5474
inger	-5475
▁Hot	-5476
▁innov	-5477
▁exchange	-5478
▁containing	-5479
▁literature	-5480
icial	-5481
▁girlfriend	-5482
ounter	-5483
▁observed	-5484
▁construct	-5485
▁Common	-5486
▁moon	-5487
▁Prince	-5488
▁cott	-5489
▁knowing	-5490
▁concerns	-5491
▁identified	-5492
▁2012,	-5493
ii	-5494
▁entered	-5495
icing	-5496
▁expression	-5497
encies	-5498
▁birthday	-5499
▁ren	-5500
▁Soci	-5501
▁gather	-5502
▁secure	-5503
▁involves	-5504
▁personality	-5505
dam	-5506
▁du	-5507
▁crush	-5508
▁mathemat	-5509
▁letters	-5510
▁manager	-5511
▁selected	-5512
▁apartment	-5513
▁controlled	-5514
▁rab	-5515
▁Argent	-5516
▁Someone	-5517
▁Conf	-5518
▁Museum	-5519
▁Techn	-5520
▁distract	-5521
▁UN	-5522
atre	-5523
▁immune	-5524
▁contrast	-5525
25	-5526
ugs	-5527
▁tough	-5528
oty	-5529
▁Middle	-5530
▁atmosphere	-5531
.)	-5532
▁medium	-5533
▁profile	-5534
▁Wil	-5535
▁magic	-5536
▁unf	-5537
▁1/	-5538
▁Main	-5539
▁prost	-5540
▁smoke	-5541
▁Master	-5542
cknow	-5543
▁abuse	-5544
▁organized	-5545
ading	-5546
iments	-5547
terday	-5548
▁Stand	-5549
▁promote	-5550
▁neur	-5551
▁surprise	-5552
gment	-5553
▁vine	-5554
▁Mount	-5555
▁paying	-5556
▁soldiers	-5557
▁supported	-5558
.5	-5559
7)	-5560
▁crow	-5561
▁millions	-5562
▁politician	-5563
St	-5564
well	-5565
west	-5566
rates	-5567
▁tested	-5568
▁Cat	-5569
esides	-5570
▁fuel	-5571
▁carried	-5572
▁letting	-5573
▁intelligence	-5574
nel	-5575
▁(199	-5576
▁carefully	-5577
acks	-5578
ania	-5579
▁indu	-5580
▁applications	-5581
▁bat	-5582
▁bear	-5583
▁screw	-5584
▁Nguyen	-5585
▁Everyone	-5586
▁Hall	-5587
▁Church	-5588
▁historical	-5589
▁vul	-5590
▁noted	-5591
▁unlike	-5592
▁trained	-5593
▁resistance	-5594
▁pure	-5595
▁journey	-5596
▁processes	-5597
▁45	-5598
▁mask	-5599
▁agents	-5600
osa	-5601
▁Cre	-5602
▁Los	-5603
▁Hist	-5604
▁chicken	-5605
aire	-5606
soft	-5607
▁loose	-5608
▁jail	-5609
oration	-5610
▁Something	-5611
ira	-5612
▁brush	-5613
▁operation	-5614
▁remaining	-5615
umber	-5616
▁column	-5617
▁conver	-5618
▁cm	-5619
part	-5620
under	-5621
roc	-5622
▁sin	-5623
▁Educ	-5624
▁agreed	-5625
▁err	-5626
▁Four	-5627
outheast	-5628
ani	-5629
▁Tok	-5630
▁Mother	-5631
▁opposite	-5632
▁wave	-5633
▁cutting	-5634
▁combined	-5635
▁rates	-5636
▁kitchen	-5637
▁mentioned	-5638
rm	-5639
▁transm	-5640
gu	-5641
lam	-5642
▁Israel	-5643
▁fellow	-5644
▁(5	-5645
orage	-5646
▁divid	-5647
▁deliver	-5648
▁managed	-5649
awa	-5650
och	-5651
andom	-5652
ternal	-5653
▁confirm	-5654
▁dear	-5655
▁Rights	-5656
▁staying	-5657
▁breaking	-5658
rak	-5659
▁classes	-5660
▁federal	-5661
▁ax	-5662
place	-5663
▁arrived	-5664
▁regions	-5665
▁communities	-5666
osph	-5667
▁roots	-5668
▁association	-5669
▁Swed	-5670
▁desire	-5671
gers	-5672
▁powder	-5673
▁institutions	-5674
sk	-5675
▁29	-5676
▁insect	-5677
▁closely	-5678
▁400	-5679
▁Bus	-5680
▁Move	-5681
▁pros	-5682
▁distinct	-5683
▁zero	-5684
▁visible	-5685
▁4,	-5686
▁Di	-5687
▁thor	-5688
▁Venez	-5689
▁satell	-5690
▁−	-5691
▁Sk	-5692
▁emotion	-5693
▁definitely	-5694
▁operations	-5695
enses	-5696
▁2010,	-5697
▁functions	-5698
▁Rev	-5699
▁Charl	-5700
▁nerve	-5701
respond	-5702
▁fruits	-5703
▁abandon	-5704
▁customers	-5705
▁academ	-5706
▁...	-5707
▁grav	-5708
▁guns	-5709
ruption	-5710
▁lights	-5711
▁cats	-5712
▁tail	-5713
▁bread	-5714
▁mixed	-5715
▁Arab	-5716
▁publ	-5717
▁hydrogen	-5718
rene	-5719
▁300	-5720
▁Jose	-5721
▁compound	-5722
▁seriously	-5723
▁rein	-5724
▁tall	-5725
▁background	-5726
▁reward	-5727
9)	-5728
ours	-5729
▁2013,	-5730
▁awarded	-5731
▁dust	-5732
▁burning	-5733
▁Organ	-5734
▁Bas	-5735
▁resc	-5736
AS	-5737
▁formula	-5738
40	-5739
▁hat	-5740
▁Actually	-5741
uration	-5742
bar	-5743
▁experienced	-5744
▁tong	-5745
▁uncle	-5746
oria	-5747
▁Jer	-5748
▁motor	-5749
down	-5750
▁Plan	-5751
▁challenges	-5752
▁governments	-5753
▁gall	-5754
▁worldwide	-5755
▁Nat	-5756
▁1960	-5757
▁Games	-5758
▁folder	-5759
▁nations	-5760
▁internet	-5761
▁authority	-5762
▁eval	-5763
▁William	-5764
▁laugh	-5765
▁chosen	-5766
▁familiar	-5767
▁listed	-5768
▁Robert	-5769
FA	-5770
▁suppl	-5771
▁younger	-5772
vin	-5773
enth	-5774
▁san	-5775
▁dreams	-5776
▁vitamin	-5777
▁Du	-5778
▁justice	-5779
11	-5780
▁compar	-5781
▁galaxy	-5782
▁Cur	-5783
▁acet	-5784
▁researc	-5785
▁trigger	-5786
rid	-5787
fast	-5788
▁Cath	-5789
▁stone	-5790
▁killer	-5791
▁massive	-5792
nic	-5793
▁passion	-5794
▁proposed	-5795
inity	-5796
▁Carl	-5797
uge	-5798
▁Bay	-5799
▁Spain	-5800
▁facing	-5801
▁Green	-5802
What	-5803
▁stream	-5804
▁bul	-5805
active	-5806
▁Lee	-5807
▁painful	-5808
▁existing	-5809
leg	-5810
▁roof	-5811
▁nearby	-5812
▁occasion	-5813
nect	-5814
omas	-5815
▁Long	-5816
uation	-5817
▁legisl	-5818
▁missed	-5819
▁flowers	-5820
500	-5821
▁Str	-5822
ipping	-5823
▁attacks	-5824
▁circumst	-5825
▁prote	-5826
▁Company	-5827
▁formation	-5828
▁technique	-5829
▁trials	-5830
▁muse	-5831
▁Tit	-5832
▁actor	-5833
▁urban	-5834
▁Flor	-5835
▁adults	-5836
inent	-5837
▁advance	-5838
▁determined	-5839
amples	-5840
▁employees	-5841
owo	-5842
▁typical	-5843
▁describe	-5844
edy	-5845
▁Doing	-5846
▁Treat	-5847
▁adapt	-5848
▁meals	-5849
▁seemed	-5850
iac	-5851
▁alt	-5852
ribes	-5853
▁correspond	-5854
avirus	-5855
▁prices	-5856
▁volunte	-5857
▁reactions	-5858
anny	-5859
▁planned	-5860
▁advert	-5861
▁settlement	-5862
▁Eastern	-5863
▁choices	-5864
▁Glo	-5865
▁Vir	-5866
▁fields	-5867
▁promotion	-5868
pends	-5869
▁inner	-5870
▁sodium	-5871
▁quarter	-5872
▁agricult	-5873
▁newspaper	-5874
arant	-5875
▁circle	-5876
▁replace	-5877
▁Ray	-5878
▁weeke	-5879
▁Festival	-5880
▁reducing	-5881
▁disappear	-5882
field	-5883
ampion	-5884
▁Chief	-5885
▁III	-5886
rete	-5887
▁encoura	-5888
▁(6	-5889
▁bare	-5890
peror	-5891
▁minister	-5892
▁phenomen	-5893
▁initially	-5894
oz	-5895
izz	-5896
hist	-5897
70	-5898
kes	-5899
see	-5900
▁flag	-5901
ication	-5902
▁Ug	-5903
▁ordered	-5904
▁Secretary	-5905
▁Hano	-5906
▁container	-5907
▁suggested	-5908
▁Next	-5909
▁las	-5910
▁Whatever	-5911
▁Christmas	-5912
pic	-5913
▁effectively	-5914
▁Bre	-5915
▁Naz	-5916
▁dram	-5917
▁Kar	-5918
arrow	-5919
▁Budd	-5920
outs	-5921
going	-5922
▁ster	-5923
▁sustain	-5924
▁neighborhood	-5925
▁policies	-5926
wa	-5927
▁fant	-5928
▁runs	-5929
▁Venezuel	-5930
▁photograph	-5931
ship	-5932
▁Men	-5933
▁shift	-5934
uma	-5935
▁fiber	-5936
▁2009,	-5937
▁cheese	-5938
▁sharing	-5939
▁Using	-5940
▁Run	-5941
▁era	-5942
▁tab	-5943
▁Commission	-5944
isher	-5945
▁significantly	-5946
illy	-5947
▁discover	-5948
▁promoted	-5949
illing	-5950
▁pil	-5951
▁gender	-5952
olars	-5953
▁Being	-5954
▁Development	-5955
▁birds	-5956
▁symbol	-5957
▁evolution	-5958
▁35	-5959
▁advanced	-5960
▁happiness	-5961
▁markets	-5962
▁vinegar	-5963
▁seed	-5964
▁bathroom	-5965
ema	-5966
▁Hanoi	-5967
▁2003	-5968
▁exercises	-5969
▁providing	-5970
quar	-5971
▁Island	-5972
bel	-5973
▁Nam	-5974
arrass	-5975
▁Should	-5976
In	-5977
▁messages	-5978
▁complicated	-5979
▁Administr	-5980
▁solutions	-5981
anged	-5982
▁flying	-5983
fere	-5984
phas	-5985
▁Film	-5986
▁Nobody	-5987
ila	-5988
▁spoke	-5989
▁province	-5990
bor	-5991
▁teen	-5992
▁homes	-5993
▁expert	-5994
▁strain	-5995
▁possibility	-5996
▁Prime	-5997
▁tasks	-5998
▁Despite	-5999
▁romantic	-6000
noon	-6001
▁Pop	-6002
▁eld	-6003
▁wid	-6004
stood	-6005
▁admin	-6006
▁flood	-6007
▁Cult	-6008
▁repeat	-6009
icted	-6010
▁distribution	-6011
CO	-6012
▁Ol	-6013
fficient	-6014
▁recognized	-6015
▁differences	-6016
▁32	-6017
▁contest	-6018
▁profession	-6019
▁Um	-6020
▁assume	-6021
hi	-6022
▁veter	-6023
▁formal	-6024
win	-6025
▁Ev	-6026
▁HIV	-6027
▁nail	-6028
▁Empire	-6029
asp	-6030
▁Mat	-6031
▁sav	-6032
akers	-6033
▁Jesus	-6034
▁exposed	-6035
▁Security	-6036
essed	-6037
▁crowd	-6038
oids	-6039
iable	-6040
▁Stan	-6041
▁Royal	-6042
pet	-6043
uster	-6044
▁cloth	-6045
▁storage	-6046
▁embarrass	-6047
cia	-6048
▁pool	-6049
ensions	-6050
▁Econom	-6051
▁Taiwan	-6052
tical	-6053
▁Offic	-6054
▁Government	-6055
▁Henry	-6056
▁Club	-6057
▁picked	-6058
▁invited	-6059
▁falling	-6060
▁interpret	-6061
▁Lin	-6062
▁immediate	-6063
acle	-6064
▁Ins	-6065
▁fixed	-6066
pat	-6067
cium	-6068
▁drops	-6069
▁excited	-6070
adow	-6071
itable	-6072
ortion	-6073
▁suppose	-6074
▁presented	-6075
▁buying	-6076
rd	-6077
▁Mel	-6078
▁Girl	-6079
▁religion	-6080
▁Summer	-6081
▁Eat	-6082
▁Gar	-6083
using	-6084
▁creative	-6085
▁Microsoft	-6086
odia	-6087
uses	-6088
▁evil	-6089
▁dropped	-6090
▁Philippines	-6091
jo	-6092
▁CE	-6093
▁Arts	-6094
▁Leave	-6095
▁Science	-6096
▁incorpor	-6097
▁opportunities	-6098
asant	-6099
▁Ghana	-6100
▁Prize	-6101
▁weapon	-6102
▁answers	-6103
▁achieved	-6104
▁consequences	-6105
▁fert	-6106
lla	-6107
▁crew	-6108
▁giant	-6109
▁script	-6110
▁succeed	-6111
▁procedure	-6112
▁annual	-6113
▁counsel	-6114
▁sending	-6115
▁chemicals	-6116
▁mirror	-6117
PA	-6118
▁Jud	-6119
▁shel	-6120
▁unknown	-6121
▁accounts	-6122
▁restaurant	-6123
▁soda	-6124
▁knock	-6125
▁pleasure	-6126
▁transition	-6127
▁odd	-6128
▁pron	-6129
▁welcome	-6130
▁swelling	-6131
▁pul	-6132
▁budget	-6133
rem	-6134
▁Whe	-6135
▁sets	-6136
▁everywhere	-6137
▁Studies	-6138
▁arrange	-6139
);	-6140
▁gro	-6141
▁Food	-6142
▁Press	-6143
▁traffic	-6144
bon	-6145
perial	-6146
▁Kat	-6147
▁fan	-6148
▁mort	-6149
▁uncom	-6150
▁linked	-6151
▁prepare	-6152
▁obtained	-6153
▁positions	-6154
iyah	-6155
▁equival	-6156
▁strengthen	-6157
adium	-6158
-0	-6159
▁Mike	-6160
RI	-6161
▁31	-6162
▁(18	-6163
▁Write	-6164
▁machines	-6165
▁pra	-6166
▁prol	-6167
▁Later	-6168
▁route	-6169
▁accomp	-6170
▁occurred	-6171
▁nutri	-6172
▁bother	-6173
▁obviously	-6174
▁Supp	-6175
▁ideal	-6176
▁producing	-6177
▁yesterday	-6178
▁faces	-6179
▁depends	-6180
▁decrease	-6181
▁Form	-6182
▁silver	-6183
▁afternoon	-6184
▁Water	-6185
▁Charles	-6186
▁streets	-6187
fortunately	-6188
▁Ak	-6189
adian	-6190
amental	-6191
▁blank	-6192
▁senior	-6193
▁treating	-6194
gl	-6195
▁Kr	-6196
▁usual	-6197
cher	-6198
iders	-6199
▁knife	-6200
▁cotton	-6201
▁literally	-6202
▁businesses	-6203
AM	-6204
oto	-6205
ette	-6206
utch	-6207
▁Communist	-6208
onel	-6209
▁format	-6210
▁punish	-6211
▁conference	-6212
▁Liber	-6213
▁musical	-6214
▁periods	-6215
▁genetic	-6216
▁struggle	-6217
▁bunch	-6218
▁risks	-6219
▁Olympics	-6220
▁subs	-6221
unction	-6222
▁sentence	-6223
cers	-6224
▁Atl	-6225
▁Has	-6226
▁Cause	-6227
▁Province	-6228
such	-6229
▁Back	-6230
da	-6231
▁Rome	-6232
▁heav	-6233
▁holds	-6234
▁relief	-6235
▁videos	-6236
ellation	-6237
▁mistakes	-6238
▁therapist	-6239
gal	-6240
▁loud	-6241
▁spin	-6242
▁simpl	-6243
pending	-6244
▁Witness	-6245
bi	-6246
iform	-6247
▁Public	-6248
▁suffer	-6249
▁breathe	-6250
▁hanging	-6251
▁manufacturing	-6252
▁moves	-6253
▁importance	-6254
▁4.	-6255
▁ment	-6256
▁Mem	-6257
▁blog	-6258
▁Android	-6259
▁illegal	-6260
▁components	-6261
▁Pay	-6262
▁Ver	-6263
▁split	-6264
▁native	-6265
icians	-6266
▁walked	-6267
▁adopted	-6268
▁urine	-6269
▁unable	-6270
▁friendly	-6271
▁investigation	-6272
▁shirt	-6273
ptions	-6274
▁noise	-6275
▁Education	-6276
▁territory	-6277
▁structures	-6278
▁phr	-6279
▁Sund	-6280
▁earned	-6281
▁stimul	-6282
cipl	-6283
▁pump	-6284
▁explos	-6285
▁owners	-6286
▁marketing	-6287
anging	-6288
▁intended	-6289
▁meters	-6290
▁dynam	-6291
▁liked	-6292
▁engineering	-6293
▁fav	-6294
▁acknow	-6295
▁vulner	-6296
▁Way	-6297
▁ath	-6298
▁guide	-6299
▁stain	-6300
▁invent	-6301
den	-6302
▁houses	-6303
▁Ha	-6304
▁Cov	-6305
▁Luc	-6306
▁owner	-6307
▁planets	-6308
gor	-6309
apping	-6310
▁decade	-6311
ba	-6312
▁Den	-6313
▁sharp	-6314
▁random	-6315
▁creation	-6316
▁surrounding	-6317
onym	-6318
▁tub	-6319
▁tort	-6320
▁tongue	-6321
▁Catholic	-6322
▁indicate	-6323
12	-6324
▁youth	-6325
▁movies	-6326
▁vessels	-6327
▁suggests	-6328
▁versions	-6329
▁surprised	-6330
▁increasingly	-6331
orph	-6332
▁Tra	-6333
▁unus	-6334
▁Always	-6335
▁remark	-6336
isa	-6337
▁Li	-6338
▁league	-6339
▁Ok	-6340
ilty	-6341
▁Sup	-6342
▁grade	-6343
▁organic	-6344
▁standards	-6345
▁mode	-6346
▁sale	-6347
▁Having	-6348
▁secondary	-6349
▁baking	-6350
teen	-6351
▁fal	-6352
▁boost	-6353
bl	-6354
▁Bell	-6355
▁refers	-6356
▁Hon	-6357
▁tables	-6358
▁suicide	-6359
▁Ra	-6360
road	-6361
▁Life	-6362
▁potato	-6363
▁compass	-6364
▁Tele	-6365
▁sees	-6366
▁subt	-6367
▁Learn	-6368
▁smoking	-6369
icit	-6370
▁vom	-6371
▁Peru	-6372
▁largely	-6373
▁external	-6374
▁teachers	-6375
▁unp	-6376
▁hiding	-6377
▁sle	-6378
▁toler	-6379
▁Matt	-6380
▁shaped	-6381
▁continues	-6382
ca	-6383
▁claimed	-6384
▁damaged	-6385
iro	-6386
▁stro	-6387
▁Arch	-6388
▁dirty	-6389
▁lemon	-6390
▁locked	-6391
▁concentration	-6392
▁Such	-6393
▁hook	-6394
▁proof	-6395
▁lip	-6396
▁noticed	-6397
▁uncomfort	-6398
EC	-6399
▁concert	-6400
▁inflammation	-6401
rations	-6402
▁drinks	-6403
▁gotten	-6404
▁entertain	-6405
▁Harry	-6406
▁extended	-6407
▁existence	-6408
▁inch	-6409
▁guarant	-6410
▁accepted	-6411
aine	-6412
▁Fam	-6413
▁Pu	-6414
hone	-6415
▁coat	-6416
acement	-6417
▁fundamental	-6418
erly	-6419
▁mechanism	-6420
tic	-6421
▁rapidly	-6422
▁quit	-6423
▁lean	-6424
▁cough	-6425
▁chances	-6426
▁committed	-6427
▁Ś	-6428
sole	-6429
umes	-6430
▁drunk	-6431
▁shell	-6432
▁officers	-6433
ih	-6434
ologists	-6435
▁Looks	-6436
▁emphas	-6437
▁divided	-6438
▁Ba	-6439
▁Fre	-6440
▁Covid	-6441
▁Sher	-6442
▁item	-6443
▁blame	-6444
▁cos	-6445
ormal	-6446
abetes	-6447
▁forth	-6448
iana	-6449
ograp	-6450
▁rent	-6451
▁coronavirus	-6452
▁Fire	-6453
▁competed	-6454
▁recording	-6455
iano	-6456
▁tone	-6457
▁puppy	-6458
▁neither	-6459
yan	-6460
▁Professor	-6461
bra	-6462
can	-6463
▁stable	-6464
▁broadcast	-6465
▁Note	-6466
▁Nigeria	-6467
▁Following	-6468
▁188	-6469
▁Sel	-6470
▁snow	-6471
▁nause	-6472
▁sector	-6473
ications	-6474
▁equation	-6475
ommy	-6476
▁Step	-6477
▁butt	-6478
▁hungry	-6479
▁substance	-6480
idel	-6481
ss	-6482
▁heads	-6483
▁sample	-6484
▁whenever	-6485
▁centuries	-6486
what	-6487
▁Camp	-6488
▁debt	-6489
estyle	-6490
▁aggress	-6491
▁uncomfortable	-6492
ether	-6493
▁ma	-6494
▁cryst	-6495
▁dating	-6496
▁Director	-6497
hea	-6498
agues	-6499
▁grass	-6500
▁consists	-6501
▁circumstances	-6502
▁myth	-6503
▁fifth	-6504
▁Wall	-6505
▁Saint	-6506
▁Colombia	-6507
▁protected	-6508
▁friendship	-6509
▁appointment	-6510
cause	-6511
▁Bring	-6512
▁orbit	-6513
▁kidney	-6514
aded	-6515
▁waves	-6516
▁Tex	-6517
▁innoc	-6518
▁combat	-6519
▁shoulder	-6520
▁officially	-6521
▁Ham	-6522
▁Rom	-6523
▁Town	-6524
▁guilty	-6525
▁constellation	-6526
▁headed	-6527
▁pulled	-6528
alle	-6529
▁breakfast	-6530
CBS	-6531
▁remote	-6532
▁row	-6533
▁entry	-6534
▁recip	-6535
▁strike	-6536
▁hormone	-6537
▁technologies	-6538
▁rose	-6539
▁babies	-6540
▁repeated	-6541
▁understood	-6542
host	-6543
▁sauce	-6544
isation	-6545
▁featured	-6546
▁Oper	-6547
▁chose	-6548
▁gentlemen	-6549
cribed	-6550
▁driver	-6551
▁Society	-6552
▁definition	-6553
awn	-6554
itar	-6555
▁1950	-6556
abilities	-6557
▁permanent	-6558
▁consumption	-6559
also	-6560
ulpt	-6561
▁Cop	-6562
▁Mass	-6563
▁Young	-6564
▁swear	-6565
▁asleep	-6566
▁efficient	-6567
eless	-6568
▁disorders	-6569
alin	-6570
oted	-6571
▁Cut	-6572
▁inspired	-6573
▁potentially	-6574
asm	-6575
▁hem	-6576
▁assess	-6577
▁brings	-6578
▁carrying	-6579
▁alongside	-6580
▁Wal	-6581
▁clock	-6582
▁saving	-6583
▁Lab	-6584
reens	-6585
uting	-6586
▁household	-6587
rant	-6588
▁fib	-6589
osal	-6590
▁Top	-6591
▁intr	-6592
▁Maria	-6593
▁editor	-6594
▁constantly	-6595
▁architecture	-6596
aren	-6597
press	-6598
stairs	-6599
▁apolog	-6600
▁contem	-6601
▁customer	-6602
uz	-6603
tes	-6604
▁cort	-6605
▁heal	-6606
▁Elect	-6607
▁Louis	-6608
▁healing	-6609
▁Princess	-6610
▁antibiotics	-6611
▁mm	-6612
iang	-6613
▁Ram	-6614
uten	-6615
with	-6616
▁Home	-6617
▁duty	-6618
▁explore	-6619
▁granted	-6620
▁desert	-6621
▁client	-6622
▁promised	-6623
▁shooting	-6624
▁overw	-6625
▁Martin	-6626
▁troops	-6627
▁conclud	-6628
▁category	-6629
CA	-6630
aka	-6631
▁Book	-6632
▁movements	-6633
▁sacr	-6634
▁excell	-6635
zing	-6636
▁obst	-6637
▁advoc	-6638
▁revealed	-6639
▁tor	-6640
▁Office	-6641
▁hidden	-6642
▁vehicle	-6643
itionally	-6644
gged	-6645
▁vast	-6646
father	-6647
▁Still	-6648
▁intake	-6649
▁childhood	-6650
ami	-6651
osy	-6652
rets	-6653
▁fought	-6654
▁figured	-6655
▁graduated	-6656
ibilities	-6657
▁settings	-6658
▁documents	-6659
▁oils	-6660
▁2008,	-6661
▁divor	-6662
▁deeply	-6663
▁inches	-6664
▁CA	-6665
ront	-6666
uable	-6667
▁ships	-6668
▁necessarily	-6669
!"	-6670
▁Mill	-6671
▁fake	-6672
▁aircraft	-6673
▁distingu	-6674
Tube	-6675
anges	-6676
stein	-6677
▁derived	-6678
ulin	-6679
▁Sure	-6680
▁Turk	-6681
▁2019,	-6682
imp	-6683
▁bite	-6684
▁offers	-6685
▁browser	-6686
▁pretend	-6687
▁experiencing	-6688
hew	-6689
▁Lo	-6690
▁Son	-6691
ules	-6692
▁Vis	-6693
▁manner	-6694
▁respectively	-6695
▁beer	-6696
▁5,	-6697
▁doors	-6698
▁proteins	-6699
▁cert	-6700
▁Portug	-6701
▁buried	-6702
▁intense	-6703
▁washing	-6704
▁Children	-6705
▁extract	-6706
▁Southern	-6707
▁ultimately	-6708
iox	-6709
rast	-6710
▁ham	-6711
▁ears	-6712
▁behaviors	-6713
▁biological	-6714
LA	-6715
occ	-6716
▁Rac	-6717
▁roles	-6718
▁rail	-6719
▁2002	-6720
▁conducted	-6721
zer	-6722
▁Nic	-6723
▁paste	-6724
▁studio	-6725
▁jack	-6726
▁hardware	-6727
▁temperatures	-6728
▁Mic	-6729
▁Pen	-6730
▁Ven	-6731
▁aspects	-6732
▁engaged	-6733
▁×	-6734
▁injection	-6735
▁equivalent	-6736
igue	-6737
ception	-6738
▁narrow	-6739
Cl	-6740
gi	-6741
rine	-6742
ashed	-6743
▁rural	-6744
▁coordin	-6745
▁overwhel	-6746
▁perfectly	-6747
▁Constitution	-6748
▁dos	-6749
▁tou	-6750
▁scan	-6751
▁femin	-6752
itarian	-6753
▁communicate	-6754
▁Ł	-6755
▁mac	-6756
icate	-6757
▁gained	-6758
aceut	-6759
▁Power	-6760
▁Brother	-6761
▁intellect	-6762
▁memories	-6763
▁automatically	-6764
▁(7	-6765
▁Vol	-6766
▁ped	-6767
ailand	-6768
▁indeed	-6769
▁singing	-6770
omic	-6771
▁Max	-6772
▁topic	-6773
▁pounds	-6774
▁satisf	-6775
liver	-6776
▁Down	-6777
▁stem	-6778
▁therm	-6779
▁YouTube	-6780
▁weekend	-6781
▁discovery	-6782
ints	-6783
▁Lar	-6784
▁tur	-6785
▁scholars	-6786
ota	-6787
▁sport	-6788
▁Britain	-6789
▁scratch	-6790
▁subsequently	-6791
mond	-6792
▁Scott	-6793
▁precise	-6794
▁Hospital	-6795
fall	-6796
omed	-6797
▁vice	-6798
▁Thomas	-6799
▁producer	-6800
▁queen	-6801
▁owe	-6802
celer	-6803
▁Assembly	-6804
▁incident	-6805
▁7,	-6806
▁frust	-6807
▁blocks	-6808
ER	-6809
hyth	-6810
▁10,	-6811
▁2001	-6812
▁crown	-6813
▁Jewish	-6814
▁participated	-6815
fit	-6816
play	-6817
▁Times	-6818
▁expressed	-6819
▁surve	-6820
▁heading	-6821
hens	-6822
▁latter	-6823
▁forgive	-6824
▁sequence	-6825
isp	-6826
▁Ross	-6827
▁Major	-6828
▁hoping	-6829
king	-6830
▁armed	-6831
▁prescription	-6832
hov	-6833
▁Camb	-6834
▁cops	-6835
ropical	-6836
▁Remove	-6837
DP	-6838
ho	-6839
owski	-6840
▁insurance	-6841
▁hypot	-6842
▁score	-6843
▁issued	-6844
▁windows	-6845
▁′	-6846
mia	-6847
▁figures	-6848
▁portion	-6849
urse	-6850
▁Ira	-6851
▁Hung	-6852
ructure	-6853
▁deserve	-6854
azz	-6855
▁5.	-6856
▁agg	-6857
▁holes	-6858
▁views	-6859
▁fishing	-6860
▁Tan	-6861
cture	-6862
▁arts	-6863
rition	-6864
▁Police	-6865
▁exclus	-6866
▁iPhone	-6867
▁Special	-6868
▁disappoint	-6869
▁deriv	-6870
▁institution	-6871
sey	-6872
▁Muslim	-6873
▁relieve	-6874
▁diabetes	-6875
ال	-6876
lyn	-6877
▁Sol	-6878
oline	-6879
▁cooperation	-6880
▁episode	-6881
▁186	-6882
▁Lie	-6883
▁Thus	-6884
▁Song	-6885
▁cable	-6886
▁moments	-6887
▁Moon	-6888
nament	-6889
▁orange	-6890
▁eastern	-6891
▁academic	-6892
antly	-6893
▁fired	-6894
▁optim	-6895
▁Sand	-6896
▁charges	-6897
▁applying	-6898
▁confront	-6899
ella	-6900
▁Mur	-6901
▁Expl	-6902
▁Corpor	-6903
▁Foreign	-6904
▁vaccine	-6905
enza	-6906
idal	-6907
▁flex	-6908
▁flash	-6909
▁wheel	-6910
▁museum	-6911
▁waters	-6912
▁composed	-6913
▁particles	-6914
pha	-6915
break	-6916
▁Inde	-6917
▁deaths	-6918
▁ending	-6919
▁retail	-6920
▁accomplish	-6921
▁loves	-6922
▁maximum	-6923
▁successfully	-6924
avig	-6925
▁ven	-6926
▁Wear	-6927
▁joke	-6928
▁convin	-6929
▁Bor	-6930
agers	-6931
mother	-6932
▁prime	-6933
▁stands	-6934
▁foundation	-6935
edia	-6936
▁150	-6937
allow	-6938
▁contribute	-6939
apore	-6940
raine	-6941
▁um	-6942
▁Oliver	-6943
▁calcium	-6944
▁Understand	-6945
TV	-6946
▁Eth	-6947
▁Fed	-6948
issions	-6949
▁programm	-6950
ideo	-6951
▁angle	-6952
▁roughly	-6953
▁strategic	-6954
gend	-6955
▁lift	-6956
▁papers	-6957
atively	-6958
▁neutral	-6959
elly	-6960
ghan	-6961
▁exists	-6962
uum	-6963
rence	-6964
▁1,000	-6965
▁flower	-6966
▁executive	-6967
▁ease	-6968
▁sore	-6969
▁poetry	-6970
▁protest	-6971
aceutical	-6972
▁assistance	-6973
▁differently	-6974
gel	-6975
▁Os	-6976
▁Ter	-6977
▁cous	-6978
▁rum	-6979
▁Very	-6980
▁nuts	-6981
▁2007,	-6982
▁input	-6983
▁toxic	-6984
▁reaching	-6985
▁6,	-6986
▁Dig	-6987
inking	-6988
▁Order	-6989
▁physics	-6990
imination	-6991
▁Witnesses	-6992
▁Yet	-6993
▁sched	-6994
▁Singapore	-6995
▁incredible	-6996
ocus	-6997
▁Ang	-6998
orses	-6999
▁scar	-7000
ateral	-7001
▁experts	-7002
SEAN	-7003
▁Again	-7004
▁cultures	-7005
▁introduce	-7006
▁physically	-7007
VD	-7008
aria	-7009
ario	-7010
▁Web	-7011
▁drama	-7012
▁tempt	-7013
▁Richard	-7014
▁elections	-7015
sters	-7016
ulous	-7017
▁Jane	-7018
▁Walk	-7019
▁jeal	-7020
▁argument	-7021
▁marketed	-7022
▁candidate	-7023
▁anc	-7024
▁keys	-7025
▁rising	-7026
▁suffered	-7027
iva	-7028
▁Aff	-7029
▁Cape	-7030
assium	-7031
▁2006,	-7032
▁Pract	-7033
▁inhab	-7034
▁attrib	-7035
▁Florida	-7036
▁radiation	-7037
▁Cost	-7038
▁gang	-7039
▁Smith	-7040
▁steam	-7041
▁produces	-7042
▁frequency	-7043
isk	-7044
▁Sn	-7045
igen	-7046
▁possess	-7047
▁sisters	-7048
▁activist	-7049
▁receptors	-7050
▁wondering	-7051
lets	-7052
tery	-7053
▁fra	-7054
bered	-7055
▁Service	-7056
▁improved	-7057
▁Administration	-7058
▁Ale	-7059
▁unt	-7060
▁tons	-7061
▁relevant	-7062
▁component	-7063
▁PC	-7064
hered	-7065
▁Repe	-7066
▁surf	-7067
▁Supreme	-7068
▁survival	-7069
▁trap	-7070
▁Tokyo	-7071
▁aside	-7072
▁false	-7073
▁intent	-7074
▁NA	-7075
▁enh	-7076
▁rac	-7077
▁mere	-7078
▁stab	-7079
▁Indust	-7080
▁nausea	-7081
▁proceed	-7082
▁warning	-7083
▁Until	-7084
▁moisture	-7085
mail	-7086
▁dirt	-7087
▁recognition	-7088
▁Krak	-7089
▁supplies	-7090
▁reference	-7091
ava	-7092
aya	-7093
mic	-7094
▁Haw	-7095
▁tip	-7096
▁dism	-7097
▁Gra	-7098
▁TED	-7099
▁plus	-7100
▁recovery	-7101
▁Cy	-7102
▁Ko	-7103
▁lips	-7104
▁visited	-7105
▁gradually	-7106
▁resolution	-7107
MA	-7108
▁immig	-7109
▁perce	-7110
▁factory	-7111
▁jealous	-7112
▁withdraw	-7113
ynasty	-7114
▁observ	-7115
▁Angeles	-7116
▁attached	-7117
PS	-7118
▁regime	-7119
▁density	-7120
▁receiving	-7121
angle	-7122
▁Free	-7123
▁Mosc	-7124
▁hack	-7125
▁shamp	-7126
▁skill	-7127
▁assert	-7128
▁Tem	-7129
▁Iraq	-7130
coming	-7131
▁Wel	-7132
▁furn	-7133
▁delay	-7134
▁Little	-7135
▁satellite	-7136
▁narr	-7137
▁coal	-7138
▁lungs	-7139
ND	-7140
ali	-7141
▁steal	-7142
ominated	-7143
▁Foot	-7144
▁spots	-7145
▁drawing	-7146
▁Thailand	-7147
▁36	-7148
▁flavor	-7149
▁captain	-7150
▁suck	-7151
▁valuable	-7152
▁researchers	-7153
▁acquired	-7154
▁cig	-7155
▁assign	-7156
▁facial	-7157
▁recover	-7158
▁ol	-7159
anches	-7160
▁Texas	-7161
▁apple	-7162
▁delic	-7163
▁guest	-7164
▁passing	-7165
aret	-7166
▁Post	-7167
▁wrap	-7168
▁journalist	-7169
▁187	-7170
▁pills	-7171
▁refuge	-7172
car	-7173
apse	-7174
▁Lim	-7175
▁bub	-7176
while	-7177
stream	-7178
▁buddy	-7179
▁depth	-7180
▁profit	-7181
▁electron	-7182
lar	-7183
list	-7184
uled	-7185
▁declared	-7186
This	-7187
▁loyal	-7188
▁deeper	-7189
IS	-7190
▁sne	-7191
▁Islam	-7192
▁depos	-7193
▁latest	-7194
▁Foundation	-7195
opl	-7196
▁Ret	-7197
▁bron	-7198
rating	-7199
sp	-7200
▁robot	-7201
IA	-7202
▁royal	-7203
▁toile	-7204
▁returning	-7205
▁Revolution	-7206
▁controvers	-7207
90	-7208
▁Pick	-7209
▁alarm	-7210
ogether	-7211
▁marked	-7212
▁package	-7213
luding	-7214
▁digest	-7215
▁sculpt	-7216
ographic	-7217
ket	-7218
▁stood	-7219
▁console	-7220
▁matches	-7221
▁48	-7222
ificial	-7223
▁opposed	-7224
▁sufficient	-7225
▁advent	-7226
arsh	-7227
eras	-7228
anes	-7229
▁Head	-7230
▁prominent	-7231
▁Pot	-7232
▁Drag	-7233
▁apps	-7234
resents	-7235
▁Iran	-7236
ocolate	-7237
▁moistur	-7238
▁constitution	-7239
ja	-7240
▁pants	-7241
▁shopping	-7242
▁sunlight	-7243
▁supplement	-7244
▁pit	-7245
enger	-7246
▁bast	-7247
▁shif	-7248
▁horiz	-7249
▁Ell	-7250
▁org	-7251
▁orient	-7252
▁respir	-7253
▁dialect	-7254
▁theater	-7255
▁unusual	-7256
▁offering	-7257
▁swimming	-7258
▁Mot	-7259
▁cheap	-7260
▁creates	-7261
Do	-7262
oral	-7263
ston	-7264
▁Jama	-7265
▁gene	-7266
▁manip	-7267
ascular	-7268
▁seeking	-7269
▁somehow	-7270
▁dedicated	-7271
▁technical	-7272
amps	-7273
appy	-7274
▁copies	-7275
▁physician	-7276
▁Blo	-7277
▁Frid	-7278
▁Afghan	-7279
▁inspir	-7280
▁battery	-7281
▁attacked	-7282
▁exciting	-7283
▁transferred	-7284
icks	-7285
lings	-7286
▁Moscow	-7287
▁repair	-7288
▁Rod	-7289
▁Navy	-7290
angers	-7291
▁releg	-7292
▁edition	-7293
▁minimum	-7294
▁installed	-7295
▁regarding	-7296
▁difficulty	-7297
):	-7298
▁8,	-7299
eline	-7300
▁crop	-7301
▁gods	-7302
ements	-7303
▁admit	-7304
▁ancest	-7305
▁Everybody	-7306
olish	-7307
▁soup	-7308
▁ASEAN	-7309
sts	-7310
▁math	-7311
anned	-7312
▁Class	-7313
▁rooms	-7314
utor	-7315
▁Rock	-7316
▁Light	-7317
▁Virgin	-7318
▁removing	-7319
oked	-7320
apter	-7321
▁Fort	-7322
▁nurs	-7323
assador	-7324
▁performing	-7325
aki	-7326
cin	-7327
▁cogn	-7328
▁articles	-7329
▁Entertain	-7330
▁diagnosis	-7331
▁excellent	-7332
▁interaction	-7333
▁gluc	-7334
▁Sunday	-7335
▁acceler	-7336
▁dancing	-7337
▁prisoners	-7338
▁od	-7339
▁unw	-7340
nding	-7341
▁Prom	-7342
▁Parliament	-7343
▁compassion	-7344
▁independence	-7345
mony	-7346
point	-7347
▁dates	-7348
▁moral	-7349
▁agency	-7350
▁Jac	-7351
▁habits	-7352
▁Hol	-7353
▁pages	-7354
▁Joseph	-7355
▁sole	-7356
inations	-7357
▁Through	-7358
▁represents	-7359
▁Pak	-7360
gram	-7361
irect	-7362
▁Imag	-7363
▁cure	-7364
▁limits	-7365
formation	-7366
▁plain	-7367
osterone	-7368
▁Emperor	-7369
▁victory	-7370
▁Therefore	-7371
▁Governorate	-7372
▁electricity	-7373
▁societ	-7374
▁charged	-7375
etime	-7376
▁frag	-7377
▁Unless	-7378
wing	-7379
▁sweat	-7380
▁forming	-7381
▁highlight	-7382
▁principles	-7383
▁supplements	-7384
▁Championships	-7385
▁rinse	-7386
▁Islands	-7387
BI	-7388
ocy	-7389
▁Night	-7390
▁hired	-7391
▁steel	-7392
▁discipl	-7393
▁nutrients	-7394
▁Uk	-7395
asal	-7396
▁depart	-7397
▁excuse	-7398
....	-7399
▁arc	-7400
▁injured	-7401
▁Business	-7402
▁inhibitor	-7403
▁temporary	-7404
▁Kal	-7405
▁1999	-7406
▁talks	-7407
▁horses	-7408
▁Entertainment	-7409
▁jew	-7410
▁Land	-7411
▁finds	-7412
▁practices	-7413
▁Mu	-7414
damn	-7415
▁impr	-7416
unicip	-7417
▁feeding	-7418
cut	-7419
▁Zh	-7420
▁tie	-7421
▁Polit	-7422
▁fears	-7423
care	-7424
▁rib	-7425
▁reput	-7426
nia	-7427
▁Ann	-7428
which	-7429
▁prev	-7430
▁enzyme	-7431
▁Without	-7432
▁captured	-7433
án	-7434
apy	-7435
cipal	-7436
▁Jean	-7437
▁explan	-7438
cules	-7439
▁Real	-7440
▁lapt	-7441
▁phones	-7442
▁impress	-7443
▁locations	-7444
▁leaf	-7445
▁discussion	-7446
▁mail	-7447
▁initi	-7448
▁magnitude	-7449
ontin	-7450
▁insert	-7451
▁Ap	-7452
bage	-7453
▁pad	-7454
▁Mond	-7455
xy	-7456
▁Due	-7457
▁75	-7458
▁Ts	-7459
hess	-7460
itime	-7461
▁subjects	-7462
▁supporting	-7463
▁essentially	-7464
ww	-7465
▁12,	-7466
▁wax	-7467
▁fulf	-7468
▁irrit	-7469
▁participate	-7470
▁ال	-7471
hovah	-7472
▁pour	-7473
▁Sever	-7474
▁oldest	-7475
▁Nice	-7476
▁penal	-7477
▁attitude	-7478
▁Far	-7479
▁beach	-7480
▁ghost	-7481
▁output	-7482
▁Charlie	-7483
▁connections	-7484
▁memor	-7485
▁printing	-7486
ova	-7487
▁tag	-7488
▁Bang	-7489
▁bones	-7490
▁electrical	-7491
▁illust	-7492
▁phosph	-7493
▁Besides	-7494
▁incredibly	-7495
lib	-7496
▁Tri	-7497
▁bullet	-7498
▁defeat	-7499
▁stayed	-7500
▁massage	-7501
▁focusing	-7502
▁activists	-7503
▁ladies	-7504
▁prosec	-7505
▁facility	-7506
▁vomiting	-7507
▁Ten	-7508
▁principle	-7509
▁underlying	-7510
atab	-7511
iser	-7512
weet	-7513
▁Repeat	-7514
▁entering	-7515
▁humanity	-7516
ective	-7517
▁pover	-7518
▁borrow	-7519
▁processing	-7520
bes	-7521
▁cou	-7522
▁flour	-7523
▁breaks	-7524
▁fairly	-7525
▁layers	-7526
▁reduction	-7527
▁benz	-7528
▁cham	-7529
▁Among	-7530
▁faced	-7531
▁membr	-7532
▁poverty	-7533
▁Northern	-7534
▁opposition	-7535
not	-7536
oper	-7537
iral	-7538
oser	-7539
▁Att	-7540
▁Gab	-7541
▁Whether	-7542
▁permission	-7543
▁AP	-7544
▁falls	-7545
▁dischar	-7546
▁feedback	-7547
ji	-7548
oot	-7549
▁6.	-7550
iner	-7551
▁nic	-7552
athan	-7553
named	-7554
▁capture	-7555
▁ordinary	-7556
▁Bi	-7557
▁coach	-7558
▁measured	-7559
▁purposes	-7560
zed	-7561
▁FDA	-7562
▁Allow	-7563
▁Global	-7564
15	-7565
iture	-7566
▁Chic	-7567
▁drawn	-7568
▁sheet	-7569
▁spaces	-7570
▁uniform	-7571
▁cake	-7572
▁nest	-7573
reprene	-7574
▁courts	-7575
quarters	-7576
▁interactions	-7577
erk	-7578
▁trib	-7579
▁Jehovah	-7580
▁convent	-7581
vo	-7582
ela	-7583
▁pand	-7584
▁Berlin	-7585
▁provin	-7586
▁everyday	-7587
▁prescribed	-7588
▁gel	-7589
abled	-7590
▁checked	-7591
▁naked	-7592
▁shame	-7593
▁crying	-7594
idine	-7595
orney	-7596
▁Five	-7597
▁nails	-7598
▁landsc	-7599
▁assault	-7600
gia	-7601
▁gym	-7602
▁Dutch	-7603
▁innocent	-7604
onal	-7605
xual	-7606
▁Wash	-7607
▁acute	-7608
▁moderate	-7609
▁Democratic	-7610
If	-7611
▁Rub	-7612
▁rig	-7613
▁Belg	-7614
▁Contin	-7615
▁Unlike	-7616
▁murdered	-7617
▁somewhat	-7618
fish	-7619
▁fiction	-7620
▁classified	-7621
ET	-7622
▁Han	-7623
▁frozen	-7624
▁branches	-7625
▁joy	-7626
abeth	-7627
itals	-7628
▁kilometers	-7629
▁personally	-7630
IC	-7631
200	-7632
▁ske	-7633
▁strict	-7634
▁meetings	-7635
▁aggressive	-7636
▁Mir	-7637
oxide	-7638
▁debate	-7639
▁farmers	-7640
▁Tre	-7641
▁feat	-7642
bye	-7643
airy	-7644
▁Kam	-7645
▁USB	-7646
▁Adam	-7647
▁dump	-7648
▁outer	-7649
▁courage	-7650
▁attractive	-7651
▁banks	-7652
▁sword	-7653
▁betray	-7654
▁colleagues	-7655
▁Mah	-7656
▁orb	-7657
▁rough	-7658
▁Friday	-7659
▁antagon	-7660
▁Tun	-7661
organ	-7662
▁cute	-7663
▁entr	-7664
▁burned	-7665
▁monster	-7666
▁whereas	-7667
▁consumer	-7668
▁philosophy	-7669
▁semi	-7670
▁antibiotic	-7671
nat	-7672
▁hob	-7673
▁gate	-7674
▁laug	-7675
▁plug	-7676
▁allergic	-7677
▁mir	-7678
▁Medic	-7679
▁expans	-7680
iki	-7681
▁kg	-7682
▁Carib	-7683
▁outdo	-7684
▁covers	-7685
▁Australian	-7686
cio	-7687
▁AD	-7688
▁Barb	-7689
▁argue	-7690
▁chocolate	-7691
CP	-7692
▁Occ	-7693
▁2016.	-7694
▁Civil	-7695
▁minds	-7696
▁oblig	-7697
▁driven	-7698
▁constit	-7699
▁accurate	-7700
▁potassium	-7701
▁vulnerable	-7702
▁Na	-7703
udes	-7704
▁medal	-7705
▁Castle	-7706
▁license	-7707
▁audio	-7708
imental	-7709
▁titles	-7710
▁signals	-7711
olen	-7712
▁Six	-7713
▁scrub	-7714
▁winner	-7715
▁enemies	-7716
▁follows	-7717
▁tension	-7718
▁substant	-7719
ifications	-7720
▁cin	-7721
▁aspir	-7722
▁Indones	-7723
▁Southeast	-7724
sen	-7725
▁approval	-7726
▁weakness	-7727
▁corruption	-7728
▁CP	-7729
asma	-7730
▁perf	-7731
▁nurse	-7732
▁Ms	-7733
bean	-7734
iary	-7735
▁Bol	-7736
▁batt	-7737
▁facts	-7738
▁channels	-7739
rix	-7740
▁cups	-7741
▁epid	-7742
▁escap	-7743
▁spell	-7744
ference	-7745
▁rescue	-7746
▁reprodu	-7747
▁consistent	-7748
▁mos	-7749
▁Fred	-7750
▁2017.	-7751
▁doses	-7752
▁surge	-7753
▁chat	-7754
▁Univers	-7755
▁molecules	-7756
MC	-7757
ker	-7758
▁HD	-7759
▁Hun	-7760
▁Cuba	-7761
▁Focus	-7762
▁concrete	-7763
▁criticism	-7764
▁Mix	-7765
▁stages	-7766
▁Finally	-7767
uter	-7768
▁Aut	-7769
▁Obs	-7770
▁Obama	-7771
▁complain	-7772
▁networks	-7773
neath	-7774
▁diarr	-7775
gging	-7776
▁alle	-7777
▁talent	-7778
▁ticket	-7779
▁twenty	-7780
▁aer	-7781
▁humor	-7782
▁confused	-7783
rav	-7784
▁7.	-7785
itzer	-7786
▁Chris	-7787
▁ratio	-7788
▁Claire	-7789
▁cultiv	-7790
▁binding	-7791
▁improvement	-7792
▁acids	-7793
▁airport	-7794
▁parliament	-7795
ymph	-7796
plant	-7797
▁unex	-7798
▁Brown	-7799
▁dehyd	-7800
▁dollar	-7801
▁News	-7802
▁dies	-7803
▁lake	-7804
▁fewer	-7805
icular	-7806
▁Francisco	-7807
pa	-7808
▁Ast	-7809
▁incl	-7810
antine	-7811
▁adopt	-7812
▁barely	-7813
17	-7814
oval	-7815
▁mouse	-7816
▁watched	-7817
▁electronic	-7818
rot	-7819
▁extent	-7820
▁characteristics	-7821
ester	-7822
upiter	-7823
▁serves	-7824
▁involving	-7825
▁statements	-7826
eno	-7827
▁OS	-7828
▁funds	-7829
▁negoti	-7830
▁comprom	-7831
%.	-7832
▁Clean	-7833
▁beings	-7834
standing	-7835
No	-7836
hips	-7837
▁neuro	-7838
▁recall	-7839
▁abandoned	-7840
▁conversations	-7841
▁DS	-7842
▁fasc	-7843
▁Between	-7844
▁surrounded	-7845
▁Tim	-7846
▁dent	-7847
▁Cross	-7848
▁Force	-7849
▁Space	-7850
▁alter	-7851
▁Anyway	-7852
ordinary	-7853
▁Additionally	-7854
▁Hello	-7855
▁Imagine	-7856
▁intention	-7857
▁ID	-7858
▁ta	-7859
▁idiot	-7860
▁yield	-7861
sis	-7862
▁hey	-7863
▁jur	-7864
▁mountains	-7865
▁thoroughly	-7866
▁Iv	-7867
▁raw	-7868
ivered	-7869
▁makeup	-7870
▁vehicles	-7871
▁2014.	-7872
▁stability	-7873
▁traveling	-7874
mm	-7875
▁abst	-7876
illance	-7877
▁Project	-7878
▁enforce	-7879
▁artificial	-7880
▁15,	-7881
▁Cas	-7882
▁Short	-7883
▁remem	-7884
▁Hit	-7885
▁immun	-7886
▁conven	-7887
▁Several	-7888
▁cluster	-7889
▁Minh	-7890
▁Santa	-7891
▁rocks	-7892
▁Change	-7893
▁casual	-7894
▁pocket	-7895
▁Read	-7896
▁mold	-7897
▁crash	-7898
▁Chicago	-7899
▁Gall	-7900
▁protecting	-7901
▁Ros	-7902
▁vag	-7903
▁Warm	-7904
▁Daddy	-7905
▁session	-7906
▁delivery	-7907
but	-7908
▁11,	-7909
▁dil	-7910
▁1998	-7911
aneous	-7912
▁bedroom	-7913
▁commission	-7914
ennis	-7915
ounce	-7916
clusion	-7917
▁Manage	-7918
▁tracks	-7919
▁influenced	-7920
eine	-7921
▁Hor	-7922
▁mas	-7923
ensed	-7924
▁(198	-7925
▁sink	-7926
ateful	-7927
▁assets	-7928
ilateral	-7929
▁decline	-7930
▁operate	-7931
▁Brazilian	-7932
ded	-7933
▁bom	-7934
▁Draw	-7935
▁Help	-7936
▁conce	-7937
▁Altern	-7938
▁deputy	-7939
▁ignore	-7940
eem	-7941
comm	-7942
▁glasses	-7943
▁shampoo	-7944
▁Depending	-7945
enos	-7946
ville	-7947
▁mile	-7948
▁theme	-7949
▁dependent	-7950
▁telesc	-7951
▁bacterial	-7952
▁2018.	-7953
▁Ident	-7954
▁defic	-7955
▁resid	-7956
▁trail	-7957
▁refused	-7958
▁pandemic	-7959
▁spectrum	-7960
inate	-7961
gorith	-7962
▁heaven	-7963
▁boundaries	-7964
▁tournament	-7965
irts	-7966
▁2011.	-7967
▁string	-7968
▁facilities	-7969
▁Ocean	-7970
▁Arabic	-7971
▁cameras	-7972
▁Bal	-7973
agram	-7974
▁phenomenon	-7975
anol	-7976
▁Tar	-7977
▁multi	-7978
▁frequent	-7979
▁speakers	-7980
▁assistant	-7981
Polish	-7982
▁2005,	-7983
▁veloc	-7984
▁Jackson	-7985
▁earthqu	-7986
lov	-7987
thur	-7988
▁vet	-7989
▁laid	-7990
▁recru	-7991
▁Control	-7992
▁Argentina	-7993
▁Ep	-7994
▁Cuban	-7995
▁holid	-7996
▁Rachel	-7997
▁islands	-7998
▁explained	-7999
▁shoulders	-8000
ften	-8001
▁cardio	-8002
▁Further	-8003
▁bags	-8004
▁tract	-8005
▁estate	-8006
▁Jupiter	-8007
ori	-8008
rie	-8009
▁10.	-8010
▁Die	-8011
▁Vin	-8012
▁gly	-8013
usted	-8014
▁Hill	-8015
▁Tour	-8016
▁Were	-8017
▁tact	-8018
▁Similar	-8019
▁default	-8020
▁Pakistan	-8021
pass	-8022
stery	-8023
▁clubs	-8024
otherapy	-8025
▁Venezuela	-8026
▁IV	-8027
uine	-8028
▁2015.	-8029
inating	-8030
▁adverse	-8031
▁beliefs	-8032
▁mamm	-8033
▁Daniel	-8034
▁overcome	-8035
▁underneath	-8036
obs	-8037
▁(9	-8038
▁Jour	-8039
▁manif	-8040
▁stretch	-8041
▁delivered	-8042
▁psychological	-8043
▁Chi	-8044
▁navig	-8045
▁suspic	-8046
▁toilet	-8047
▁Affairs	-8048
▁heavily	-8049
▁pulling	-8050
ruck	-8051
▁Leon	-8052
▁Team	-8053
▁bike	-8054
▁peak	-8055
▁Trump	-8056
▁legit	-8057
ctive	-8058
▁puts	-8059
itivity	-8060
▁goddamn	-8061
▁ceremony	-8062
▁prompted	-8063
rosc	-8064
▁Sign	-8065
inction	-8066
▁brains	-8067
▁belongs	-8068
▁excessive	-8069
▁interrupt	-8070
▁mathematics	-8071
▁nort	-8072
▁wing	-8073
▁oppon	-8074
▁regret	-8075
▁transp	-8076
▁entreprene	-8077
▁ov	-8078
normal	-8079
utenant	-8080
▁basket	-8081
▁beneath	-8082
▁episodes	-8083
▁commitment	-8084
▁expectations	-8085
okes	-8086
usive	-8087
▁Front	-8088
▁guitar	-8089
▁peaceful	-8090
▁committee	-8091
▁separated	-8092
▁Square	-8093
▁Football	-8094
▁agencies	-8095
és	-8096
opes	-8097
oming	-8098
erring	-8099
pected	-8100
▁tower	-8101
▁Orig	-8102
▁dict	-8103
▁stole	-8104
▁Doctor	-8105
▁desired	-8106
▁covering	-8107
▁isolated	-8108
▁fet	-8109
▁gay	-8110
▁gest	-8111
▁filter	-8112
▁grains	-8113
▁persist	-8114
▁eliminate	-8115
▁dys	-8116
▁rit	-8117
▁embr	-8118
▁refr	-8119
esis	-8120
▁rebu	-8121
▁scal	-8122
▁Nether	-8123
▁cousin	-8124
▁centers	-8125
▁infrast	-8126
▁10,000	-8127
▁insist	-8128
▁lovely	-8129
▁touching	-8130
▁CEO	-8131
▁Carol	-8132
▁retire	-8133
▁algorith	-8134
▁defeated	-8135
▁Ash	-8136
▁fed	-8137
▁Mean	-8138
▁Vice	-8139
▁deter	-8140
▁Uganda	-8141
▁Federal	-8142
▁neighbors	-8143
hole	-8144
▁Lad	-8145
▁Nap	-8146
▁tied	-8147
▁rarely	-8148
▁clients	-8149
▁Practice	-8150
▁practical	-8151
▁spiritual	-8152
yles	-8153
▁Line	-8154
▁subm	-8155
▁marks	-8156
▁survey	-8157
▁violent	-8158
▁Caribbean	-8159
13	-8160
▁dye	-8161
▁chop	-8162
▁rabbit	-8163
▁Loc	-8164
ights	-8165
▁Zeal	-8166
▁María	-8167
▁desper	-8168
▁literary	-8169
▁grandfather	-8170
olit	-8171
inter	-8172
▁sake	-8173
▁intim	-8174
aze	-8175
▁16,	-8176
cript	-8177
iously	-8178
▁index	-8179
▁classic	-8180
owa	-8181
▁183	-8182
▁Siles	-8183
▁newly	-8184
▁prize	-8185
▁abroad	-8186
▁pursue	-8187
▁lifestyle	-8188
rist	-8189
▁Rest	-8190
▁fans	-8191
▁occas	-8192
▁strongly	-8193
TC	-8194
▁muc	-8195
▁survived	-8196
grad	-8197
writer	-8198
▁datab	-8199
▁Twitter	-8200
▁accused	-8201
▁disaster	-8202
45	-8203
rape	-8204
▁Lat	-8205
▁Kraków	-8206
▁compounds	-8207
▁Organization	-8208
▁Satur	-8209
▁scream	-8210
▁societies	-8211
▁requirements	-8212
▁mate	-8213
inated	-8214
▁Linux	-8215
▁Things	-8216
▁diarrhea	-8217
▁scientist	-8218
▁ul	-8219
arin	-8220
▁Jon	-8221
▁theore	-8222
▁soldier	-8223
How	-8224
▁Nah	-8225
▁Years	-8226
▁Create	-8227
▁commander	-8228
▁purchased	-8229
▁representative	-8230
▁shy	-8231
ashes	-8232
▁folks	-8233
▁lands	-8234
▁attempts	-8235
▁nutrition	-8236
▁Afghanistan	-8237
▁sovere	-8238
▁resulted	-8239
MS	-8240
rit	-8241
zep	-8242
▁Ky	-8243
▁Lake	-8244
▁imprison	-8245
▁sections	-8246
▁grandmother	-8247
▁1996	-8248
▁cuts	-8249
▁dishes	-8250
▁tempor	-8251
▁Colonel	-8252
▁printed	-8253
▁contained	-8254
▁spons	-8255
▁fright	-8256
▁lesson	-8257
▁paralle	-8258
▁settled	-8259
idad	-8260
kins	-8261
oric	-8262
▁pink	-8263
▁opens	-8264
▁ruled	-8265
▁Corporation	-8266
ounced	-8267
▁engineer	-8268
▁protests	-8269
16	-8270
itled	-8271
▁administered	-8272
▁IS	-8273
▁hal	-8274
▁Jeff	-8275
75	-8276
▁voc	-8277
▁ties	-8278
▁panic	-8279
▁Command	-8280
rac	-8281
▁18,	-8282
▁rash	-8283
▁classical	-8284
▁extraordinary	-8285
ifice	-8286
liest	-8287
▁Zealand	-8288
▁affects	-8289
▁convince	-8290
▁headache	-8291
dr	-8292
una	-8293
▁20,	-8294
▁Ult	-8295
▁2012.	-8296
▁Early	-8297
▁palace	-8298
▁controls	-8299
▁expansion	-8300
▁33	-8301
arts	-8302
▁ought	-8303
▁bloody	-8304
kie	-8305
ante	-8306
vard	-8307
▁ion	-8308
▁Blue	-8309
▁loan	-8310
▁fract	-8311
▁assass	-8312
▁server	-8313
▁dressed	-8314
▁notable	-8315
▁variable	-8316
▁Saf	-8317
▁cage	-8318
▁troub	-8319
▁Welcome	-8320
▁colored	-8321
▁hunting	-8322
▁Wo	-8323
zech	-8324
▁Tib	-8325
▁pier	-8326
▁accum	-8327
▁Malays	-8328
▁fertil	-8329
▁assigned	-8330
▁stressed	-8331
▁lit	-8332
▁wra	-8333
▁plot	-8334
▁eaten	-8335
▁titled	-8336
▁Sus	-8337
▁invite	-8338
▁History	-8339
▁1997	-8340
▁Doug	-8341
▁wars	-8342
▁Agent	-8343
▁radius	-8344
▁virtual	-8345
▁diameter	-8346
▁Bud	-8347
▁ash	-8348
▁Lead	-8349
▁Guard	-8350
▁picking	-8351
▁announce	-8352
▁destruction	-8353
iał	-8354
▁DVD	-8355
▁Store	-8356
▁alert	-8357
He	-8358
ran	-8359
▁Ly	-8360
▁Sarah	-8361
▁Battle	-8362
▁writers	-8363
▁consumers	-8364
▁occasionally	-8365
▁infrastructure	-8366
onin	-8367
▁caff	-8368
▁expanded	-8369
▁principal	-8370
ohyd	-8371
eared	-8372
▁Pers	-8373
▁grocer	-8374
▁presidential	-8375
ika	-8376
emia	-8377
▁toys	-8378
▁enorm	-8379
▁compat	-8380
▁ethnic	-8381
▁phrase	-8382
▁harvest	-8383
▁dar	-8384
orted	-8385
▁disag	-8386
▁2010.	-8387
▁balls	-8388
▁organisms	-8389
TS	-8390
▁Dun	-8391
▁trauma	-8392
▁Network	-8393
▁Canadian	-8394
▁Technology	-8395
▁respiratory	-8396
PP	-8397
▁Fel	-8398
▁acne	-8399
weight	-8400
▁refere	-8401
eps	-8402
▁Ju	-8403
▁hug	-8404
▁Near	-8405
▁brave	-8406
▁analog	-8407
▁outbreak	-8408
▁uncertain	-8409
▁na	-8410
oured	-8411
▁Build	-8412
▁anest	-8413
▁greatly	-8414
▁improving	-8415
▁residents	-8416
▁Bern	-8417
▁panc	-8418
▁beans	-8419
▁obser	-8420
▁garlic	-8421
▁genuine	-8422
▁samples	-8423
▁checking	-8424
▁invented	-8425
▁apologize	-8426
aws	-8427
▁je	-8428
warf	-8429
▁wipe	-8430
▁begun	-8431
▁boxes	-8432
▁patch	-8433
▁vocal	-8434
counter	-8435
▁absorb	-8436
case	-8437
erto	-8438
▁Sport	-8439
▁Valley	-8440
▁sought	-8441
▁awareness	-8442
▁fur	-8443
icking	-8444
▁dried	-8445
▁Senate	-8446
▁crimes	-8447
▁judgment	-8448
▁pollution	-8449
▁surveillance	-8450
▁Św	-8451
burn	-8452
▁Sit	-8453
▁Care	-8454
▁ants	-8455
ieties	-8456
▁decor	-8457
▁geomet	-8458
▁radical	-8459
▁injuries	-8460
▁paintings	-8461
agen	-8462
▁divide	-8463
▁printer	-8464
▁Somebody	-8465
▁consciousness	-8466
Oh	-8467
Well	-8468
▁Bon	-8469
▁1994	-8470
▁Sara	-8471
▁needle	-8472
aneously	-8473
▁accompan	-8474
▁9,	-8475
▁USA	-8476
▁conj	-8477
▁oven	-8478
▁shadow	-8479
▁pharmac	-8480
akh	-8481
▁185	-8482
▁Libr	-8483
▁fate	-8484
▁porn	-8485
▁knees	-8486
▁resource	-8487
▁contemporary	-8488
▁Ari	-8489
▁vital	-8490
▁founder	-8491
▁pushing	-8492
▁swallow	-8493
zzle	-8494
▁Kos	-8495
▁chrom	-8496
▁democratic	-8497
IT	-8498
▁2013.	-8499
▁Arthur	-8500
▁define	-8501
▁secrets	-8502
rics	-8503
▁Eliz	-8504
▁Joey	-8505
▁bell	-8506
▁subsequent	-8507
▁sons	-8508
▁explo	-8509
▁genes	-8510
▁nasal	-8511
uis	-8512
life	-8513
▁Leg	-8514
▁trem	-8515
▁util	-8516
uments	-8517
▁stored	-8518
▁Anything	-8519
▁employee	-8520
▁spreading	-8521
▁α	-8522
▁soot	-8523
▁squee	-8524
▁awards	-8525
▁shortly	-8526
▁collected	-8527
▁forgotten	-8528
22	-8529
bb	-8530
otal	-8531
▁Sav	-8532
esome	-8533
▁tablet	-8534
▁consume	-8535
▁evolved	-8536
▁outcome	-8537
▁threatened	-8538
IDS	-8539
zes	-8540
elve	-8541
rich	-8542
▁nom	-8543
▁1920	-8544
▁Shin	-8545
orters	-8546
▁craft	-8547
▁seasons	-8548
▁anth	-8549
▁bump	-8550
▁dumb	-8551
▁gast	-8552
mental	-8553
▁cooked	-8554
▁rejected	-8555
▁distributed	-8556
▁End	-8557
▁rif	-8558
▁Card	-8559
▁stroke	-8560
▁Justice	-8561
▁meditation	-8562
▁presentation	-8563
rin	-8564
▁Ted	-8565
▁Mess	-8566
▁descend	-8567
▁reduces	-8568
▁shelter	-8569
▁corporate	-8570
▁Anna	-8571
▁Imperial	-8572
▁instrument	-8573
▁circulation	-8574
▁manufacturer	-8575
ctic	-8576
heart	-8577
▁valid	-8578
▁placing	-8579
▁velocity	-8580
▁selection	-8581
▁continuing	-8582
▁Netherlands	-8583
▁py	-8584
unes	-8585
▁Cab	-8586
▁gut	-8587
inder	-8588
▁humid	-8589
▁disrupt	-8590
▁competitive	-8591
RA	-8592
▁Az	-8593
▁1/2	-8594
omers	-8595
▁cleans	-8596
▁abilities	-8597
▁maintaining	-8598
▁introduction	-8599
uke	-8600
▁tumor	-8601
▁indicates	-8602
cule	-8603
opic	-8604
real	-8605
▁14,	-8606
▁2020,	-8607
▁conqu	-8608
▁Medical	-8609
▁popularity	-8610
▁tube	-8611
▁removal	-8612
rof	-8613
▁Pap	-8614
▁ups	-8615
▁vig	-8616
▁Jimmy	-8617
▁Media	-8618
▁Pharm	-8619
▁absence	-8620
▁payment	-8621
▁reputation	-8622
▁Bad	-8623
▁Jews	-8624
▁error	-8625
ilation	-8626
▁Monday	-8627
▁sevent	-8628
▁closing	-8629
▁enterpr	-8630
▁grateful	-8631
▁maritime	-8632
ashi	-8633
▁spouse	-8634
▁anxious	-8635
▁64	-8636
anth	-8637
iece	-8638
▁Non	-8639
▁Too	-8640
alend	-8641
kward	-8642
▁celebrate	-8643
▁controlling	-8644
net	-8645
▁38	-8646
▁inhabit	-8647
▁representing	-8648
▁19,	-8649
▁cub	-8650
▁admitted	-8651
▁FI	-8652
▁seats	-8653
▁stake	-8654
achelor	-8655
▁privile	-8656
▁websites	-8657
▁Convention	-8658
▁17,	-8659
▁1995	-8660
▁disk	-8661
▁knee	-8662
▁slide	-8663
▁handed	-8664
▁kingdom	-8665
▁persons	-8666
▁exception	-8667
gly	-8668
▁bot	-8669
etary	-8670
otted	-8671
▁Hama	-8672
▁seiz	-8673
▁Steve	-8674
▁secretary	-8675
▁innovation	-8676
18	-8677
ão	-8678
ller	-8679
▁Hand	-8680
▁clar	-8681
▁Third	-8682
▁lymph	-8683
rons	-8684
seud	-8685
▁180	-8686
▁hip	-8687
▁deploy	-8688
▁organs	-8689
▁compete	-8690
▁lifetime	-8691
▁considering	-8692
rants	-8693
ercury	-8694
▁topics	-8695
▁gravity	-8696
▁champion	-8697
▁Unfortunately	-8698
EA	-8699
ée	-8700
erals	-8701
▁asks	-8702
▁pipe	-8703
▁texts	-8704
▁tender	-8705
▁kidding	-8706
bow	-8707
iop	-8708
▁ye	-8709
▁Scot	-8710
▁Want	-8711
▁lone	-8712
▁attracted	-8713
▁diplomatic	-8714
iko	-8715
▁dan	-8716
▁fer	-8717
itorial	-8718
▁furniture	-8719
▁synthetic	-8720
▁directions	-8721
▁explanation	-8722
▁PD	-8723
▁cha	-8724
▁bars	-8725
▁seal	-8726
▁renew	-8727
▁plasma	-8728
▁resemb	-8729
▁subsid	-8730
▁resistant	-8731
amins	-8732
orous	-8733
▁hits	-8734
omfort	-8735
▁Edward	-8736
▁Journal	-8737
▁tissues	-8738
eters	-8739
▁trim	-8740
osystem	-8741
▁reverse	-8742
▁Ox	-8743
▁gif	-8744
▁ranked	-8745
▁funding	-8746
keep	-8747
rooms	-8748
▁2019.	-8749
▁worker	-8750
▁raising	-8751
▁Saturday	-8752
▁scheduled	-8753
bu	-8754
▁ya	-8755
comes	-8756
▁dozen	-8757
▁trace	-8758
▁liberal	-8759
▁Military	-8760
▁discomfort	-8761
usic	-8762
▁hurry	-8763
▁pilot	-8764
▁wanting	-8765
▁chemistry	-8766
▁expecting	-8767
▁generated	-8768
▁searching	-8769
▁percentage	-8770
mo	-8771
ulating	-8772
▁occupied	-8773
▁overnight	-8774
▁Management	-8775
▁bio	-8776
▁Lind	-8777
VID	-8778
▁Ta	-8779
▁13,	-8780
▁Kep	-8781
▁Sky	-8782
▁lied	-8783
▁wise	-8784
▁draft	-8785
▁laptop	-8786
▁nowhere	-8787
▁generate	-8788
▁Hang	-8789
▁yard	-8790
▁Serge	-8791
▁brill	-8792
▁substances	-8793
▁universities	-8794
orr	-8795
ardo	-8796
▁Aud	-8797
▁Honey	-8798
▁Tibet	-8799
▁litter	-8800
▁Recogn	-8801
▁settle	-8802
iec	-8803
adder	-8804
▁jewel	-8805
▁taxes	-8806
▁safely	-8807
▁joining	-8808
▁ongoing	-8809
▁unlikely	-8810
▁extension	-8811
▁indicated	-8812
▁34	-8813
▁Py	-8814
rency	-8815
▁Plus	-8816
▁demands	-8817
▁elsewhere	-8818
▁extensive	-8819
▁featuring	-8820
▁responses	-8821
aga	-8822
emp	-8823
oszcz	-8824
▁appet	-8825
olester	-8826
▁Golden	-8827
▁underw	-8828
▁Xi	-8829
omes	-8830
▁Jin	-8831
▁Fine	-8832
▁hosp	-8833
▁description	-8834
rus	-8835
▁sib	-8836
aters	-8837
▁Biał	-8838
▁oxid	-8839
▁grows	-8840
▁parad	-8841
▁tracking	-8842
▁championship	-8843
heim	-8844
▁Wed	-8845
▁Wii	-8846
▁diox	-8847
▁thumb	-8848
▁stones	-8849
▁tomato	-8850
▁awkward	-8851
▁funeral	-8852
▁serv	-8853
▁mayor	-8854
▁pitch	-8855
▁economics	-8856
▁Ref	-8857
▁naval	-8858
▁molecular	-8859
▁procedures	-8860
14	-8861
sm	-8862
orie	-8863
osity	-8864
▁gear	-8865
▁Marie	-8866
▁shares	-8867
▁vacuum	-8868
▁comments	-8869
▁refriger	-8870
▁interface	-8871
▁#	-8872
▁Jos	-8873
▁solo	-8874
▁guards	-8875
▁methyl	-8876
▁mutual	-8877
▁restore	-8878
▁trusted	-8879
▁objective	-8880
▁registered	-8881
IM	-8882
lers	-8883
▁Inf	-8884
▁gre	-8885
▁thy	-8886
▁Nick	-8887
▁beef	-8888
▁belt	-8889
▁punishment	-8890
▁intellectual	-8891
▁rely	-8892
▁Kepler	-8893
▁appeal	-8894
onscious	-8895
▁retired	-8896
▁suspend	-8897
▁keyboard	-8898
OR	-8899
oly	-8900
▁pH	-8901
bour	-8902
hale	-8903
▁gap	-8904
agger	-8905
lines	-8906
riers	-8907
▁exha	-8908
▁belly	-8909
▁Invest	-8910
▁retain	-8911
▁alleged	-8912
▁cleaner	-8913
▁villages	-8914
▁cognitive	-8915
▁threatening	-8916
▁FBI	-8917
▁Jun	-8918
▁caps	-8919
▁folk	-8920
▁Tunis	-8921
▁reveal	-8922
▁regarded	-8923
▁surprising	-8924
▁8.	-8925
▁Dark	-8926
▁auth	-8927
▁surg	-8928
▁legend	-8929
▁proved	-8930
▁qualities	-8931
TA	-8932
▁Ext	-8933
▁Rog	-8934
▁1992	-8935
▁Czech	-8936
▁assumed	-8937
▁skip	-8938
▁mosqu	-8939
▁Sweden	-8940
▁overse	-8941
▁lessons	-8942
▁graduate	-8943
▁minimize	-8944
▁preventing	-8945
nda	-8946
ois	-8947
▁Mi	-8948
iago	-8949
eling	-8950
▁adequ	-8951
▁essay	-8952
▁crucial	-8953
▁converted	-8954
▁agon	-8955
▁Palace	-8956
▁Johnson	-8957
▁intensity	-8958
▁educational	-8959
col	-8960
▁yoga	-8961
▁Number	-8962
▁rubber	-8963
▁irritation	-8964
▁65	-8965
azon	-8966
▁proven	-8967
▁detailed	-8968
pan	-8969
ylv	-8970
▁laser	-8971
▁guests	-8972
▁propag	-8973
▁Chilean	-8974
▁molecule	-8975
▁derivative	-8976
found	-8977
inson	-8978
▁Test	-8979
▁cock	-8980
▁dare	-8981
▁grant	-8982
▁grave	-8983
▁insects	-8984
▁rational	-8985
ns	-8986
asa	-8987
isd	-8988
hand	-8989
▁2004,	-8990
▁trash	-8991
▁hardly	-8992
▁nights	-8993
▁attorney	-8994
▁stopping	-8995
▁Alexander	-8996
▁replacement	-8997
▁55	-8998
▁fles	-8999
itzerland	-9000
▁Nigerian	-9001
▁suitable	-9002
▁strategies	-9003
▁cod	-9004
pread	-9005
▁desktop	-9006
▁privacy	-9007
log	-9008
ulty	-9009
ifies	-9010
ipher	-9011
▁enhance	-9012
▁visiting	-9013
▁Low	-9014
▁2009.	-9015
▁Chair	-9016
▁kidna	-9017
▁centre	-9018
24	-9019
obile	-9020
uties	-9021
▁adap	-9022
▁Domin	-9023
▁harsh	-9024
essions	-9025
including	-9026
▁entitled	-9027
ati	-9028
enz	-9029
unci	-9030
▁toy	-9031
▁tries	-9032
fol	-9033
igo	-9034
ethyl	-9035
▁enable	-9036
▁compare	-9037
▁stadium	-9038
idespread	-9039
▁Indonesia	-9040
▁ecosystem	-9041
23	-9042
bell	-9043
▁potent	-9044
▁ruling	-9045
▁sooner	-9046
▁yogurt	-9047
▁underground	-9048
acon	-9049
archy	-9050
▁dude	-9051
▁poem	-9052
western	-9053
▁myster	-9054
▁Victoria	-9055
▁avoiding	-9056
▁attempted	-9057
▁disappeared	-9058
assy	-9059
▁Had	-9060
▁1930	-9061
▁Mand	-9062
▁Event	-9063
▁deleg	-9064
▁harmful	-9065
▁universal	-9066
ín	-9067
ste	-9068
▁ink	-9069
engers	-9070
▁spark	-9071
▁bleach	-9072
▁Getting	-9073
▁trapped	-9074
▁Universe	-9075
▁believes	-9076
▁composition	-9077
My	-9078
iya	-9079
▁Phys	-9080
▁Taking	-9081
▁temple	-9082
▁Defense	-9083
▁affairs	-9084
▁Elizabeth	-9085
▁apparently	-9086
99	-9087
▁37	-9088
▁Kir	-9089
▁Girls	-9090
▁loving	-9091
▁darling	-9092
").	-9093
mann	-9094
▁Exper	-9095
▁relie	-9096
▁rhyth	-9097
▁Harvard	-9098
▁Economic	-9099
▁choosing	-9100
▁stations	-9101
iper	-9102
▁Les	-9103
▁sixth	-9104
▁harass	-9105
▁electro	-9106
▁insulin	-9107
▁reasonable	-9108
lu	-9109
▁(8	-9110
▁Sega	-9111
▁citizen	-9112
▁Switzerland	-9113
▁experiments	-9114
ials	-9115
▁hunt	-9116
▁ridic	-9117
▁tends	-9118
▁infant	-9119
▁pushed	-9120
▁pageant	-9121
▁opinions	-9122
▁Sud	-9123
ecess	-9124
urian	-9125
▁piano	-9126
▁shake	-9127
▁Excuse	-9128
▁Family	-9129
▁threats	-9130
▁dramatic	-9131
▁Otherwise	-9132
cipe	-9133
iends	-9134
▁None	-9135
estinal	-9136
▁struck	-9137
▁Cambodia	-9138
▁convinced	-9139
ński	-9140
itage	-9141
oston	-9142
▁COVID	-9143
▁burns	-9144
▁cheek	-9145
▁stops	-9146
▁potatoes	-9147
▁struggling	-9148
igg	-9149
esty	-9150
▁Gon	-9151
▁haz	-9152
▁Soon	-9153
▁Bible	-9154
▁viruses	-9155
▁creatures	-9156
infl	-9157
▁jar	-9158
▁derm	-9159
▁bored	-9160
▁sorts	-9161
▁viral	-9162
▁arrive	-9163
▁parallel	-9164
▁collaboration	-9165
mble	-9166
▁Amb	-9167
ishop	-9168
▁Mong	-9169
▁Must	-9170
▁mart	-9171
▁Laure	-9172
▁Agency	-9173
▁Puerto	-9174
▁lowest	-9175
▁finishing	-9176
iev	-9177
▁Adv	-9178
▁pepp	-9179
▁paras	-9180
▁athlet	-9181
▁esteem	-9182
▁biology	-9183
▁targets	-9184
,000.	-9185
▁beta	-9186
rehens	-9187
▁Region	-9188
▁argued	-9189
▁attach	-9190
▁Olympic	-9191
▁dismiss	-9192
▁symptom	-9193
▁encounter	-9194
▁entertainment	-9195
ingly	-9196
▁environments	-9197
▁dairy	-9198
▁threw	-9199
▁domain	-9200
▁gloves	-9201
▁transact	-9202
ris	-9203
▁HC	-9204
neum	-9205
illin	-9206
▁Holly	-9207
▁Trust	-9208
▁guilt	-9209
▁Engine	-9210
▁theatre	-9211
▁employed	-9212
▁meaningful	-9213
nik	-9214
▁boil	-9215
▁silly	-9216
onymous	-9217
▁Either	-9218
▁awesome	-9219
▁clicking	-9220
▁AC	-9221
▁Fem	-9222
▁Iron	-9223
▁Switch	-9224
▁stolen	-9225
▁designs	-9226
▁enormous	-9227
▁handling	-9228
▁tropical	-9229
▁sacrifice	-9230
▁les	-9231
▁turt	-9232
▁speaker	-9233
▁vacation	-9234
▁describes	-9235
▁designated	-9236
▁unexpected	-9237
emet	-9238
▁facil	-9239
▁designer	-9240
▁processed	-9241
▁advertising	-9242
▁generations	-9243
▁agricultural	-9244
▁characterized	-9245
▁SS	-9246
orer	-9247
▁120	-9248
imeter	-9249
▁Germans	-9250
▁topical	-9251
olesterol	-9252
▁earliest	-9253
▁supports	-9254
▁synthesis	-9255
amide	-9256
▁Hind	-9257
▁fatty	-9258
▁recon	-9259
▁caffeine	-9260
▁prescribe	-9261
▁oh	-9262
▁Ecu	-9263
▁tang	-9264
▁Program	-9265
▁council	-9266
▁concepts	-9267
▁prisoner	-9268
▁surfaces	-9269
▁collective	-9270
▁programming	-9271
ON	-9272
▁Gi	-9273
acles	-9274
▁Init	-9275
▁NASA	-9276
▁Pier	-9277
▁rush	-9278
▁badly	-9279
▁sandw	-9280
▁Centre	-9281
▁bastard	-9282
▁Santiago	-9283
▁efficacy	-9284
▁engaging	-9285
▁informed	-9286
▁`	-9287
▁alien	-9288
▁drives	-9289
▁voices	-9290
▁carrier	-9291
▁housing	-9292
▁traveled	-9293
lude	-9294
▁Disc	-9295
▁Title	-9296
▁Uncle	-9297
▁intra	-9298
▁Library	-9299
▁reconst	-9300
▁vitamins	-9301
▁widespread	-9302
▁Bat	-9303
▁Nik	-9304
▁wis	-9305
ested	-9306
▁drum	-9307
▁Trade	-9308
▁Determ	-9309
▁upload	-9310
▁enjoyed	-9311
▁interior	-9312
stru	-9313
▁sized	-9314
▁trave	-9315
▁simult	-9316
▁beating	-9317
▁demonstrated	-9318
21	-9319
PC	-9320
▁Comb	-9321
▁fluids	-9322
▁curious	-9323
▁carbohyd	-9324
▁photograp	-9325
▁compliment	-9326
▁Prob	-9327
▁Rose	-9328
▁inher	-9329
▁Dragon	-9330
▁merely	-9331
▁dioxide	-9332
▁addiction	-9333
▁productive	-9334
▁Tam	-9335
▁soak	-9336
▁2000,	-9337
▁Current	-9338
▁investors	-9339
▁Ve	-9340
▁30,	-9341
▁Ire	-9342
▁Cham	-9343
▁Hope	-9344
▁Nazi	-9345
▁lact	-9346
▁dwarf	-9347
▁prolong	-9348
▁resolve	-9349
▁shorter	-9350
▁silence	-9351
▁membrane	-9352
opy	-9353
▁Log	-9354
▁pap	-9355
itches	-9356
▁param	-9357
▁strip	-9358
▁warri	-9359
iversary	-9360
▁grounds	-9361
▁Egyptian	-9362
▁artistic	-9363
▁laughing	-9364
▁priority	-9365
▁Detective	-9366
oir	-9367
▁olive	-9368
itional	-9369
▁categories	-9370
28	-9371
Music	-9372
▁AIDS	-9373
▁Liter	-9374
▁smells	-9375
▁associate	-9376
▁beneficial	-9377
▁1989	-9378
▁Drug	-9379
▁ours	-9380
▁Turkey	-9381
▁hormones	-9382
▁discussed	-9383
last	-9384
uese	-9385
▁184	-9386
▁damp	-9387
▁horr	-9388
▁portray	-9389
▁revenue	-9390
▁reviews	-9391
▁releasing	-9392
Is	-9393
str	-9394
atem	-9395
▁Lag	-9396
▁Las	-9397
▁Pom	-9398
▁Ren	-9399
▁Ron	-9400
▁Ton	-9401
▁odor	-9402
▁educated	-9403
▁populations	-9404
icz	-9405
▁gum	-9406
esium	-9407
iatric	-9408
▁advis	-9409
▁offices	-9410
▁diversity	-9411
▁framework	-9412
▁Ice	-9413
▁Live	-9414
▁twist	-9415
▁existed	-9416
▁duration	-9417
▁landscape	-9418
▁conclusion	-9419
▁metabolism	-9420
▁Alf	-9421
▁Tay	-9422
▁1993	-9423
▁Mult	-9424
▁insult	-9425
▁weekly	-9426
▁chloride	-9427
▁brilliant	-9428
"),	-9429
▁Var	-9430
▁grat	-9431
▁aster	-9432
▁darkness	-9433
▁preferred	-9434
▁continuous	-9435
▁acknowledge	-9436
▁capabilities	-9437
▁indo	-9438
▁Scient	-9439
▁mature	-9440
▁critics	-9441
▁equally	-9442
▁reaches	-9443
▁cholesterol	-9444
thr	-9445
iami	-9446
▁Fle	-9447
▁Hay	-9448
asses	-9449
▁Norm	-9450
▁Barry	-9451
▁witch	-9452
▁Boston	-9453
▁entrance	-9454
▁comparison	-9455
▁remarkable	-9456
uto	-9457
▁24,	-9458
▁Ill	-9459
▁Kaz	-9460
▁Khan	-9461
ashing	-9462
▁ly	-9463
▁Bog	-9464
arest	-9465
▁gray	-9466
▁tech	-9467
▁backup	-9468
▁Jamaica	-9469
▁disputes	-9470
▁economies	-9471
▁specialized	-9472
▁headquarters	-9473
rox	-9474
ylon	-9475
▁Tak	-9476
▁Road	-9477
▁Sett	-9478
▁hire	-9479
▁Board	-9480
▁awake	-9481
regular	-9482
▁calend	-9483
▁prohib	-9484
▁neurons	-9485
▁relaxed	-9486
▁trading	-9487
▁collapse	-9488
▁installation	-9489
▁Ban	-9490
▁Idlib	-9491
▁coinc	-9492
▁Within	-9493
eor	-9494
uri	-9495
▁Rh	-9496
erent	-9497
owice	-9498
▁Chen	-9499
▁Tony	-9500
▁slip	-9501
▁flesh	-9502
▁tears	-9503
▁pepper	-9504
▁Ecuador	-9505
▁suppress	-9506
▁throwing	-9507
lle	-9508
▁Holy	-9509
onds	-9510
annel	-9511
▁Drink	-9512
ceeding	-9513
▁returns	-9514
▁employment	-9515
MI	-9516
▁Diff	-9517
▁flav	-9518
▁pets	-9519
▁kills	-9520
▁jurisd	-9521
▁surviv	-9522
▁conserv	-9523
▁compress	-9524
▁estrogen	-9525
▁agriculture	-9526
▁regulations	-9527
czy	-9528
ugu	-9529
obia	-9530
▁(10	-9531
▁600	-9532
▁Eve	-9533
▁Rio	-9534
uated	-9535
▁fats	-9536
▁slave	-9537
▁Deputy	-9538
▁scored	-9539
ensional	-9540
▁screens	-9541
▁daughters	-9542
▁Federation	-9543
▁sustainable	-9544
olo	-9545
▁Tal	-9546
▁1991	-9547
▁discr	-9548
▁Better	-9549
▁metaph	-9550
▁crossed	-9551
▁abnormal	-9552
US	-9553
▁MS	-9554
▁bug	-9555
▁debr	-9556
▁2003,	-9557
▁Chand	-9558
▁princess	-9559
▁guarantee	-9560
▁varieties	-9561
pel	-9562
rick	-9563
stone	-9564
▁mand	-9565
▁awful	-9566
▁woods	-9567
viously	-9568
▁viewed	-9569
▁diagnosed	-9570
▁terrorist	-9571
▁challenging	-9572
▁Save	-9573
▁ages	-9574
▁Jones	-9575
▁versus	-9576
▁25,	-9577
▁Wow	-9578
▁Pass	-9579
▁Rick	-9580
▁stir	-9581
▁2008.	-9582
▁firms	-9583
▁fallen	-9584
▁riding	-9585
▁dominant	-9586
▁Wik	-9587
▁adj	-9588
▁Andrew	-9589
▁lighter	-9590
▁mechanical	-9591
ska	-9592
▁AT	-9593
▁21,	-9594
▁auton	-9595
▁usage	-9596
▁Guatem	-9597
▁lecture	-9598
▁realistic	-9599
▁constructed	-9600
ontal	-9601
▁tatt	-9602
▁shots	-9603
▁Mexican	-9604
▁nap	-9605
▁Juan	-9606
▁exit	-9607
isible	-9608
▁links	-9609
▁merch	-9610
fulness	-9611
▁municip	-9612
▁accompanied	-9613
lli	-9614
oxy	-9615
▁Cru	-9616
▁tet	-9617
▁Than	-9618
▁hill	-9619
▁Solar	-9620
▁punch	-9621
▁boring	-9622
▁Theatre	-9623
▁theories	-9624
▁vertical	-9625
▁MP	-9626
▁ok	-9627
▁unh	-9628
olves	-9629
▁Anton	-9630
▁Barn	-9631
▁Serv	-9632
▁adren	-9633
▁lists	-9634
▁forests	-9635
rip	-9636
acher	-9637
▁styl	-9638
▁Amazon	-9639
▁Victor	-9640
▁Wilson	-9641
▁passes	-9642
▁parking	-9643
orp	-9644
▁Ku	-9645
▁Hur	-9646
▁sem	-9647
ellar	-9648
▁straw	-9649
▁outcomes	-9650
ends	-9651
▁Rus	-9652
berry	-9653
▁passage	-9654
▁founding	-9655
▁invasion	-9656
▁surgical	-9657
▁importantly	-9658
▁Thai	-9659
▁rect	-9660
▁Miami	-9661
▁pound	-9662
dominal	-9663
idelines	-9664
▁monthly	-9665
▁blocking	-9666
▁hospitals	-9667
llo	-9668
▁HT	-9669
▁VND	-9670
▁Danny	-9671
▁atoms	-9672
▁winds	-9673
▁genius	-9674
▁robots	-9675
▁steady	-9676
▁update	-9677
▁heating	-9678
▁publicly	-9679
▁affection	-9680
▁withdrawal	-9681
▁slic	-9682
▁Peace	-9683
▁recipe	-9684
▁filling	-9685
ationally	-9686
▁Malaysia	-9687
▁nominated	-9688
▁functional	-9689
▁contributed	-9690
▁Gry	-9691
▁alk	-9692
▁Dist	-9693
▁Person	-9694
▁actors	-9695
▁suggesting	-9696
fin	-9697
ión	-9698
elle	-9699
▁compr	-9700
▁digit	-9701
▁priest	-9702
▁anticip	-9703
▁resident	-9704
▁concluded	-9705
▁qualified	-9706
▁translated	-9707
▁professionals	-9708
DS	-9709
olt	-9710
uct	-9711
▁Buy	-9712
▁Tel	-9713
▁shoe	-9714
▁Kenya	-9715
tenance	-9716
▁fisher	-9717
▁barrier	-9718
▁mineral	-9719
▁superior	-9720
▁concentrations	-9721
hent	-9722
ista	-9723
▁itch	-9724
▁Coast	-9725
▁rival	-9726
▁snack	-9727
▁historic	-9728
▁Colombian	-9729
auc	-9730
boy	-9731
tyn	-9732
▁wal	-9733
▁Word	-9734
▁aged	-9735
▁Grace	-9736
▁comedy	-9737
▁kitten	-9738
▁revers	-9739
▁sheets	-9740
▁wooden	-9741
▁wounds	-9742
▁releases	-9743
▁psychology	-9744
▁participants	-9745
ilia	-9746
otes	-9747
▁ate	-9748
▁sna	-9749
▁crap	-9750
itudes	-9751
▁trend	-9752
▁upstairs	-9753
▁impression	-9754
',	-9755
hot	-9756
▁Dev	-9757
aired	-9758
▁Shut	-9759
▁tast	-9760
▁Billy	-9761
▁Produ	-9762
▁antip	-9763
▁laund	-9764
▁divorce	-9765
▁actively	-9766
▁transplant	-9767
EN	-9768
kel	-9769
▁Sab	-9770
▁chip	-9771
person	-9772
▁Radio	-9773
▁mystery	-9774
▁magnetic	-9775
▁relaxation	-9776
▁pup	-9777
eness	-9778
▁Bart	-9779
▁Cold	-9780
▁edges	-9781
▁authors	-9782
▁dynasty	-9783
▁emerged	-9784
▁veterin	-9785
▁mathematical	-9786
▁transportation	-9787
27	-9788
igan	-9789
▁Vit	-9790
▁sug	-9791
phones	-9792
▁Costa	-9793
▁behalf	-9794
▁courses	-9795
▁goodbye	-9796
▁prevents	-9797
▁regardless	-9798
▁imagination	-9799
▁SP	-9800
▁23,	-9801
▁Cir	-9802
▁glob	-9803
▁Except	-9804
▁circuit	-9805
64	-9806
▁GDP	-9807
▁Gil	-9808
▁Guy	-9809
▁pneum	-9810
▁pride	-9811
▁detected	-9812
▁afterwards	-9813
hus	-9814
obe	-9815
eting	-9816
pelled	-9817
▁Meanwhile	-9818
▁laboratory	-9819
▁inhabitants	-9820
OM	-9821
▁GA	-9822
▁Rw	-9823
uble	-9824
▁Fal	-9825
▁(197	-9826
▁fluor	-9827
▁persu	-9828
▁Monica	-9829
▁Ireland	-9830
▁lasting	-9831
▁decreased	-9832
▁efficiency	-9833
▁bon	-9834
▁lid	-9835
▁Link	-9836
▁evac	-9837
▁Train	-9838
▁hopes	-9839
▁lonely	-9840
▁preced	-9841
▁transf	-9842
▁balanced	-9843
▁instruments	-9844
▁territorial	-9845
▁Lith	-9846
▁axis	-9847
▁Color	-9848
▁dancer	-9849
▁styles	-9850
▁Digital	-9851
▁dynamic	-9852
▁counting	-9853
▁triggers	-9854
▁consisting	-9855
▁protective	-9856
▁transmission	-9857
35	-9858
▁Final	-9859
▁Johann	-9860
▁Culture	-9861
fare	-9862
▁Sin	-9863
▁spoon	-9864
▁union	-9865
▁spelled	-9866
▁festival	-9867
▁depressed	-9868
▁testosterone	-9869
stic	-9870
ussian	-9871
▁flows	-9872
▁Calcio	-9873
▁Portuguese	-9874
▁enforcement	-9875
imb	-9876
rea	-9877
▁AR	-9878
azines	-9879
▁annoy	-9880
▁refuse	-9881
▁silent	-9882
▁absorbed	-9883
▁correctly	-9884
▁preparation	-9885
▁Lt	-9886
▁Send	-9887
▁Labor	-9888
▁Thurs	-9889
▁grocery	-9890
▁discharge	-9891
▁suspected	-9892
▁EU	-9893
▁800	-9894
▁Hum	-9895
▁1940	-9896
▁polar	-9897
▁scary	-9898
▁squad	-9899
▁wrist	-9900
emetery	-9901
▁Officer	-9902
▁appetite	-9903
▁promoting	-9904
▁́	-9905
▁Dor	-9906
▁Kur	-9907
▁Lib	-9908
▁ric	-9909
▁subsc	-9910
▁Saturn	-9911
▁wisdom	-9912
▁Station	-9913
▁proposal	-9914
hall	-9915
▁12.	-9916
▁Arm	-9917
▁Fac	-9918
▁Mes	-9919
▁gard	-9920
▁tips	-9921
▁Camer	-9922
▁waist	-9923
▁slight	-9924
▁tickets	-9925
▁currency	-9926
▁explosion	-9927
aku	-9928
oples	-9929
▁sail	-9930
▁panel	-9931
inflamm	-9932
▁judges	-9933
▁Environ	-9934
▁visitors	-9935
OC	-9936
perm	-9937
ateur	-9938
ribing	-9939
▁tu	-9940
rams	-9941
▁wings	-9942
▁occurring	-9943
▁remembered	-9944
acco	-9945
look	-9946
uchi	-9947
▁abd	-9948
▁Cook	-9949
▁boot	-9950
▁fled	-9951
▁scare	-9952
▁linear	-9953
▁Records	-9954
▁closest	-9955
▁prototy	-9956
iw	-9957
chi	-9958
icop	-9959
ergic	-9960
▁Exec	-9961
▁cher	-9962
▁Occup	-9963
▁chips	-9964
▁carpet	-9965
▁shapes	-9966
▁varies	-9967
▁Senator	-9968
▁perceived	-9969
▁establishment	-9970
▁Gro	-9971
▁sexy	-9972
ictions	-9973
▁Modern	-9974
▁borders	-9975
▁thereby	-9976
▁licensed	-9977
▁exhibition	-9978
86	-9979
ztyn	-9980
▁22,	-9981
▁Mid	-9982
▁grid	-9983
ogenic	-9984
▁2001,	-9985
▁painted	-9986
unciation	-9987
▁wireless	-9988
▁perception	-9989
▁manufactured	-9990
▁Od	-9991
apped	-9992
▁treats	-9993
▁pressing	-9994
▁42	-9995
▁1.5	-9996
▁Bah	-9997
▁neu	-9998
▁ugly	-9999
▁calorie	-10000
▁distant	-10001
▁arranged	-10002
▁relegated	-10003
▁Greg	-10004
▁bold	-10005
▁allies	-10006
▁golden	-10007
▁Connect	-10008
▁Swedish	-10009
▁diverse	-10010
▁fraction	-10011
▁Information	-10012
▁anniversary	-10013
33	-10014
ando	-10015
erer	-10016
mers	-10017
▁Esc	-10018
▁catal	-10019
▁drown	-10020
▁Columb	-10021
▁civilian	-10022
▁Recognize	-10023
▁motivated	-10024
vas	-10025
▁Ga	-10026
▁dow	-10027
chest	-10028
wered	-10029
▁Poly	-10030
▁cope	-10031
▁ruin	-10032
▁2007.	-10033
▁abund	-10034
▁males	-10035
▁profound	-10036
▁complications	-10037
▁gat	-10038
▁1988	-10039
▁Hait	-10040
▁Jord	-10041
▁Prim	-10042
▁Small	-10043
▁Masurian	-10044
▁database	-10045
▁mosquito	-10046
▁Determine	-10047
▁creativity	-10048
bles	-10049
▁Pull	-10050
▁cave	-10051
▁cance	-10052
▁gmina	-10053
igation	-10054
▁pointed	-10055
▁TH	-10056
ierz	-10057
inton	-10058
▁Wood	-10059
employ	-10060
▁dentist	-10061
▁renamed	-10062
▁peroxide	-10063
▁preparing	-10064
▁Lieutenant	-10065
ór	-10066
rage	-10067
▁Pret	-10068
▁bonds	-10069
▁roads	-10070
▁hunger	-10071
▁scenes	-10072
▁prevention	-10073
cho	-10074
▁IC	-10075
▁Pok	-10076
▁Hard	-10077
▁nick	-10078
▁snake	-10079
▁Governor	-10080
hma	-10081
▁sup	-10082
power	-10083
▁Fill	-10084
▁gross	-10085
▁stays	-10086
▁stere	-10087
▁pillow	-10088
▁touched	-10089
▁discontin	-10090
▁encouraged	-10091
▁publishing	-10092
▁politicians	-10093
inth	-10094
omal	-10095
▁rip	-10096
owers	-10097
▁Often	-10098
▁daddy	-10099
▁overl	-10100
▁towns	-10101
▁brands	-10102
▁throne	-10103
▁examine	-10104
▁measuring	-10105
▁approaches	-10106
▁passengers	-10107
▁Cz	-10108
apor	-10109
ayer	-10110
ptic	-10111
▁rod	-10112
▁Prep	-10113
▁Brand	-10114
▁logic	-10115
▁notion	-10116
▁precious	-10117
▁mechanisms	-10118
▁Ka	-10119
▁Bru	-10120
▁Lam	-10121
▁bru	-10122
▁fee	-10123
▁Dean	-10124
▁Tues	-10125
▁infin	-10126
▁Sister	-10127
▁premie	-10128
▁minerals	-10129
▁stealing	-10130
▁participation	-10131
cal	-10132
you	-10133
ifer	-10134
▁Age	-10135
▁McC	-10136
▁Baby	-10137
▁germ	-10138
▁lord	-10139
▁tens	-10140
▁physi	-10141
▁favour	-10142
▁warned	-10143
▁relation	-10144
▁reporting	-10145
gue	-10146
yes	-10147
rium	-10148
▁Cit	-10149
▁Cra	-10150
anche	-10151
▁orph	-10152
ometer	-10153
▁accord	-10154
▁rivers	-10155
▁restaurants	-10156
26	-10157
▁Ry	-10158
airo	-10159
laim	-10160
▁bes	-10161
▁inev	-10162
igenous	-10163
▁glucose	-10164
▁holiday	-10165
▁circular	-10166
ulu	-10167
rait	-10168
mates	-10169
▁Warmian	-10170
▁charity	-10171
▁leather	-10172
▁menstru	-10173
▁executed	-10174
▁attending	-10175
▁personnel	-10176
▁localities	-10177
▁observations	-10178
aro	-10179
..."	-10180
▁(17	-10181
▁kin	-10182
▁urge	-10183
lishing	-10184
▁Design	-10185
▁affair	-10186
▁clinic	-10187
▁cardiac	-10188
▁Identify	-10189
▁Probably	-10190
▁magazines	-10191
▁sentenced	-10192
▁candidates	-10193
▁restrictions	-10194
▁fatal	-10195
▁finance	-10196
▁Virginia	-10197
▁irregular	-10198
▁territories	-10199
LC	-10200
iga	-10201
lad	-10202
▁ml	-10203
▁Lub	-10204
▁Balt	-10205
▁foss	-10206
▁undert	-10207
▁quantum	-10208
▁chairman	-10209
▁contacts	-10210
▁succeeded	-10211
itty	-10212
cover	-10213
▁upgr	-10214
▁Brook	-10215
▁Cover	-10216
▁envelop	-10217
▁provinces	-10218
▁effectiveness	-10219
RC	-10220
sor	-10221
▁Sad	-10222
▁lun	-10223
▁1945	-10224
▁tack	-10225
▁toes	-10226
▁Gener	-10227
▁breed	-10228
▁lingu	-10229
▁Greece	-10230
▁clouds	-10231
▁bladder	-10232
▁rubbing	-10233
▁solving	-10234
▁abstract	-10235
▁explains	-10236
▁replacing	-10237
▁suspended	-10238
rov	-10239
izza	-10240
neys	-10241
▁Sci	-10242
▁vic	-10243
▁Guys	-10244
▁Death	-10245
▁drove	-10246
▁Search	-10247
▁decent	-10248
▁Continue	-10249
▁earthquake	-10250
▁healthcare	-10251
ML	-10252
▁ST	-10253
▁Hug	-10254
▁Wild	-10255
▁clay	-10256
▁Exerc	-10257
▁dermat	-10258
▁nerves	-10259
▁starred	-10260
▁elevated	-10261
▁operated	-10262
▁ingredient	-10263
▁",	-10264
▁27,	-10265
gebra	-10266
▁enzymes	-10267
▁itching	-10268
▁partial	-10269
▁synthes	-10270
▁stranger	-10271
▁exclusive	-10272
▁industries	-10273
▁AI	-10274
anas	-10275
orge	-10276
▁Ford	-10277
▁forb	-10278
▁soph	-10279
orship	-10280
▁amino	-10281
▁posts	-10282
▁spare	-10283
▁Morocc	-10284
▁tablets	-10285
▁northeast	-10286
▁communications	-10287
gae	-10288
agan	-10289
aved	-10290
▁Fair	-10291
▁Trin	-10292
▁Vill	-10293
▁logo	-10294
▁rats	-10295
▁whis	-10296
▁worn	-10297
▁2,000	-10298
▁hoped	-10299
▁shark	-10300
▁dosage	-10301
▁identical	-10302
▁invisible	-10303
▁publication	-10304
zo	-10305
aza	-10306
▁26,	-10307
itory	-10308
▁Prem	-10309
▁pork	-10310
▁march	-10311
▁dispute	-10312
▁notably	-10313
▁warming	-10314
▁volunteer	-10315
▁inspiration	-10316
▁cuis	-10317
▁charm	-10318
▁scalp	-10319
▁sizes	-10320
▁Alternatively	-10321
bin	-10322
olin	-10323
▁Deep	-10324
▁Myan	-10325
▁duck	-10326
lihood	-10327
▁Review	-10328
▁config	-10329
▁denied	-10330
▁blocked	-10331
▁garbage	-10332
▁whoever	-10333
▁galaxies	-10334
▁horrible	-10335
▁trillion	-10336
▁Ols	-10337
▁Less	-10338
▁Marg	-10339
▁cord	-10340
▁drying	-10341
▁prince	-10342
▁asshole	-10343
▁convert	-10344
▁prosper	-10345
▁telephone	-10346
nty	-10347
tha	-10348
▁44	-10349
▁Sym	-10350
althy	-10351
ommod	-10352
▁prone	-10353
▁export	-10354
▁wishes	-10355
▁Myanmar	-10356
▁fantastic	-10357
pot	-10358
edby	-10359
rost	-10360
▁250	-10361
▁bust	-10362
▁loop	-10363
▁votes	-10364
▁circles	-10365
▁antagonist	-10366
▁maintained	-10367
ni	-10368
py	-10369
▁β	-10370
▁IP	-10371
worm	-10372
▁jun	-10373
▁Band	-10374
▁mush	-10375
▁acted	-10376
▁curve	-10377
▁dense	-10378
▁intend	-10379
▁compens	-10380
▁vaginal	-10381
▁→	-10382
▁Kn	-10383
brid	-10384
▁179	-10385
▁Duke	-10386
▁Role	-10387
▁iPad	-10388
izziness	-10389
▁maintenance	-10390
uns	-10391
▁Wy	-10392
ivals	-10393
▁Langu	-10394
▁pseud	-10395
▁combine	-10396
▁laundry	-10397
▁organize	-10398
▁discipline	-10399
-19	-10400
▁ank	-10401
▁dop	-10402
aspoon	-10403
wealth	-10404
▁marine	-10405
▁newspapers	-10406
etch	-10407
▁Dur	-10408
child	-10409
▁pace	-10410
▁cyber	-10411
▁walks	-10412
▁clever	-10413
▁dragon	-10414
▁belonged	-10415
▁abdominal	-10416
BM	-10417
▁IN	-10418
▁Fant	-10419
▁Linc	-10420
▁deals	-10421
▁colour	-10422
▁criter	-10423
▁custody	-10424
▁peripher	-10425
▁gentleman	-10426
▁engagement	-10427
▁translation	-10428
PD	-10429
▁Fox	-10430
herent	-10431
urated	-10432
▁Dance	-10433
▁flies	-10434
▁morph	-10435
▁reign	-10436
section	-10437
▁reader	-10438
▁stabil	-10439
▁happier	-10440
▁instinct	-10441
▁teaspoon	-10442
▁counselor	-10443
▁retirement	-10444
▁Cass	-10445
▁crops	-10446
▁fancy	-10447
▁posted	-10448
▁Channel	-10449
ambo	-10450
▁Fig	-10451
▁Jess	-10452
▁Penn	-10453
▁cycl	-10454
▁imper	-10455
▁weaken	-10456
▁breasts	-10457
▁involvement	-10458
▁temporarily	-10459
5%	-10460
▁Ut	-10461
obic	-10462
pled	-10463
▁Hal	-10464
▁shield	-10465
▁difficulties	-10466
eda	-10467
▁39	-10468
annah	-10469
ourse	-10470
▁Fall	-10471
▁Pour	-10472
▁unhe	-10473
▁shops	-10474
▁fortune	-10475
▁accommod	-10476
▁crossing	-10477
▁rejection	-10478
▁veterinarian	-10479
▁Yo	-10480
arter	-10481
▁Dude	-10482
▁rape	-10483
▁Tommy	-10484
▁jewelry	-10485
▁reforms	-10486
▁virtually	-10487
▁connecting	-10488
uki	-10489
▁9.	-10490
▁Pict	-10491
▁ammon	-10492
▁formerly	-10493
▁homework	-10494
▁complexity	-10495
rat	-10496
▁Dong	-10497
▁Eric	-10498
▁deck	-10499
▁Begin	-10500
▁climb	-10501
▁pione	-10502
▁assembly	-10503
▁conflicts	-10504
▁traditions	-10505
org	-10506
▁Aw	-10507
acet	-10508
▁Ath	-10509
▁angel	-10510
▁disturb	-10511
▁basement	-10512
▁contents	-10513
▁Commander	-10514
▁northwest	-10515
▁attempting	-10516
IP	-10517
▁Code	-10518
▁Ever	-10519
▁Sier	-10520
▁Seoul	-10521
▁cocon	-10522
▁lawyers	-10523
▁estimate	-10524
▁intelligent	-10525
▁Maj	-10526
▁cosm	-10527
screen	-10528
▁Local	-10529
▁aimed	-10530
▁bless	-10531
ferences	-10532
▁cabinet	-10533
▁females	-10534
▁wherever	-10535
▁ownership	-10536
▁sentences	-10537
▁dimensional	-10538
▁measurements	-10539
bro	-10540
▁Sem	-10541
ignty	-10542
Station	-10543
▁spiral	-10544
▁headaches	-10545
▁demonstrate	-10546
eta	-10547
▁Sł	-10548
acked	-10549
▁100%	-10550
vation	-10551
▁escal	-10552
atherine	-10553
vascular	-10554
▁Turkish	-10555
▁monitoring	-10556
▁motivation	-10557
inflammatory	-10558
EG	-10559
ifier	-10560
▁leak	-10561
▁weigh	-10562
▁albums	-10563
▁Tuesday	-10564
▁lighting	-10565
▁managing	-10566
▁Similarly	-10567
▁emissions	-10568
▁partially	-10569
▁intervention	-10570
uda	-10571
comp	-10572
chlor	-10573
▁Corn	-10574
▁José	-10575
▁wheat	-10576
▁serial	-10577
▁legislation	-10578
Ar	-10579
▁SD	-10580
oded	-10581
▁Hyd	-10582
▁Mind	-10583
▁Incre	-10584
▁milit	-10585
▁hosted	-10586
▁Independ	-10587
▁reliable	-10588
▁confusion	-10589
▁pharmaceutical	-10590
32	-10591
aba	-10592
anta	-10593
ports	-10594
▁Half	-10595
▁scrap	-10596
▁structural	-10597
FC	-10598
ui	-10599
non	-10600
▁Ot	-10601
▁Sug	-10602
▁File	-10603
▁Gryf	-10604
▁bits	-10605
▁opera	-10606
▁Walter	-10607
▁novels	-10608
ogs	-10609
lace	-10610
▁Dra	-10611
iking	-10612
izers	-10613
ushes	-10614
▁1986	-10615
▁Alger	-10616
▁meter	-10617
▁penet	-10618
▁regul	-10619
▁scent	-10620
▁Making	-10621
▁campus	-10622
▁helicop	-10623
▁calendar	-10624
▁feminist	-10625
▁restricted	-10626
▁partnership	-10627
AC	-10628
BT	-10629
▁(0.	-10630
▁Dip	-10631
▁mes	-10632
▁Broad	-10633
▁Dream	-10634
▁filed	-10635
▁incent	-10636
▁orbits	-10637
▁battles	-10638
▁competing	-10639
▁behavioral	-10640
▁practicing	-10641
▁variations	-10642
▁influential	-10643
oln	-10644
▁Sz	-10645
ucky	-10646
▁29,	-10647
rection	-10648
▁pencil	-10649
▁Support	-10650
▁posture	-10651
▁suscept	-10652
▁Buddhist	-10653
▁Examples	-10654
▁acknowled	-10655
▁regulation	-10656
uh	-10657
aud	-10658
▁Edd	-10659
▁von	-10660
inging	-10661
▁recur	-10662
▁Ladies	-10663
▁Belgium	-10664
▁recovered	-10665
▁Ce	-10666
▁pir	-10667
▁Mach	-10668
▁Along	-10669
▁reass	-10670
▁stiff	-10671
▁Albert	-10672
▁Alexand	-10673
▁escaped	-10674
▁smiling	-10675
▁Sciences	-10676
▁signature	-10677
▁observation	-10678
▁ow	-10679
from	-10680
acent	-10681
▁Maur	-10682
▁aunt	-10683
▁Morgan	-10684
▁thrown	-10685
▁traits	-10686
▁twelve	-10687
▁engineers	-10688
▁vegetable	-10689
▁possibilities	-10690
▁classification	-10691
vy	-10692
▁Fi	-10693
▁Kl	-10694
inea	-10695
ophy	-10696
▁Typ	-10697
▁din	-10698
▁bark	-10699
▁glue	-10700
agraph	-10701
▁Swiss	-10702
▁Video	-10703
▁Austria	-10704
▁hitting	-10705
▁creature	-10706
▁dialogue	-10707
▁manifest	-10708
▁predomin	-10709
▁sessions	-10710
▁displayed	-10711
▁conventional	-10712
▁Jen	-10713
▁Dave	-10714
▁coin	-10715
▁chains	-10716
▁unemploy	-10717
▁execution	-10718
▁developers	-10719
▁por	-10720
▁Gord	-10721
▁Pope	-10722
▁Snow	-10723
▁dece	-10724
▁dign	-10725
▁Norway	-10726
▁patent	-10727
▁amongst	-10728
▁Thursday	-10729
▁pleasant	-10730
▁communist	-10731
▁residence	-10732
▁emotionally	-10733
Sh	-10734
▁99	-10735
rypt	-10736
▁craw	-10737
▁Product	-10738
▁Standard	-10739
▁consumed	-10740
▁targeted	-10741
▁convention	-10742
▁criticized	-10743
▁carbohydrates	-10744
ikh	-10745
vate	-10746
▁Ele	-10747
terior	-10748
▁Psych	-10749
▁fraud	-10750
▁debris	-10751
▁Perform	-10752
▁Ukraine	-10753
▁wounded	-10754
▁Movement	-10755
▁governor	-10756
▁Represent	-10757
▁Eventually	-10758
▁controversial	-10759
zyce	-10760
poons	-10761
▁Stock	-10762
▁lately	-10763
▁surgeon	-10764
▁Atlantic	-10765
▁ridiculous	-10766
▁simultaneously	-10767
▁28,	-10768
▁gau	-10769
▁Fern	-10770
▁odds	-10771
▁Stone	-10772
▁bills	-10773
▁lumin	-10774
▁Chrome	-10775
▁Rather	-10776
▁Certain	-10777
▁briefly	-10778
▁satisfact	-10779
▁tob	-10780
▁buff	-10781
▁blast	-10782
▁hurts	-10783
▁rings	-10784
▁skull	-10785
▁surre	-10786
▁Notice	-10787
▁purple	-10788
▁observe	-10789
▁selective	-10790
That	-10791
role	-10792
▁Equ	-10793
▁1987	-10794
▁Cand	-10795
▁Quang	-10796
▁toast	-10797
theless	-10798
▁Knight	-10799
▁distur	-10800
▁strengths	-10801
olas	-10802
▁Pur	-10803
▁Andr	-10804
▁tent	-10805
▁herbs	-10806
formerly	-10807
▁induced	-10808
▁youngest	-10809
▁Commonwealth	-10810
.",	-10811
▁au	-10812
ieval	-10813
▁lets	-10814
▁rope	-10815
rolled	-10816
▁hence	-10817
▁kissing	-10818
▁Executive	-10819
otte	-10820
produ	-10821
necess	-10822
▁correl	-10823
▁elderly	-10824
▁substantial	-10825
▁fits	-10826
▁lens	-10827
▁wand	-10828
▁Lower	-10829
▁Prior	-10830
▁masks	-10831
▁burden	-10832
▁boiling	-10833
▁modified	-10834
▁relaxing	-10835
iao	-10836
▁AM	-10837
away	-10838
▁bid	-10839
▁Much	-10840
▁Seek	-10841
olving	-10842
verted	-10843
▁Point	-10844
▁resort	-10845
▁Actress	-10846
▁contamin	-10847
▁guidelines	-10848
▁sovereignty	-10849
.:	-10850
CD	-10851
EM	-10852
Why	-10853
she	-10854
odiazep	-10855
verages	-10856
▁runner	-10857
▁landing	-10858
▁mothers	-10859
▁texture	-10860
▁adequate	-10861
▁opponent	-10862
▁telescope	-10863
▁conditioner	-10864
▁Duc	-10865
▁quad	-10866
▁Album	-10867
ipation	-10868
thritis	-10869
isy	-10870
engu	-10871
▁Bul	-10872
▁mud	-10873
▁Honor	-10874
▁arter	-10875
▁poems	-10876
▁Carlos	-10877
▁copper	-10878
cellenza	-10879
▁fatigue	-10880
▁singles	-10881
▁Champion	-10882
300	-10883
heric	-10884
▁Phot	-10885
▁Heart	-10886
▁Willi	-10887
▁freak	-10888
▁valley	-10889
▁Prepare	-10890
▁coconut	-10891
▁Services	-10892
ologically	-10893
▁convicted	-10894
▁intermedi	-10895
▁inhibitors	-10896
▁integrated	-10897
adel	-10898
▁mast	-10899
▁Kevin	-10900
▁wider	-10901
▁width	-10902
▁rating	-10903
▁redness	-10904
▁healthier	-10905
▁Eccellenza	-10906
▁photographs	-10907
bian	-10908
▁Kon	-10909
▁cul	-10910
▁2006.	-10911
▁devil	-10912
▁safer	-10913
▁ginger	-10914
▁hearts	-10915
▁algebra	-10916
▁revenge	-10917
▁workout	-10918
▁Chandler	-10919
▁sensation	-10920
▁successor	-10921
▁statistics	-10922
▁performances	-10923
oca	-10924
▁Clear	-10925
▁drivers	-10926
▁intimate	-10927
▁exercising	-10928
oned	-10929
▁ans	-10930
▁Upon	-10931
itated	-10932
▁Nobel	-10933
▁slept	-10934
▁bandage	-10935
▁dominated	-10936
▁negotiations	-10937
otonin	-10938
▁2002,	-10939
▁Blood	-10940
▁Brian	-10941
▁gifts	-10942
▁landed	-10943
▁arrival	-10944
▁equality	-10945
▁affecting	-10946
38	-10947
65	-10948
cha	-10949
onge	-10950
opath	-10951
▁Scar	-10952
▁vibr	-10953
▁savings	-10954
▁emerging	-10955
▁sexually	-10956
▁satisfied	-10957
▁accessible	-10958
▁compatible	-10959
▁occupation	-10960
▁PlayStation	-10961
INN	-10962
keys	-10963
▁Woman	-10964
▁exile	-10965
▁mucus	-10966
▁bubble	-10967
▁senses	-10968
▁chapter	-10969
▁footage	-10970
▁eliminated	-10971
▁civilization	-10972
zh	-10973
oda	-10974
▁Si	-10975
▁Amy	-10976
▁Close	-10977
▁devast	-10978
▁deliber	-10979
▁presents	-10980
▁basketball	-10981
▁contributions	-10982
▁bay	-10983
▁cares	-10984
▁Buenos	-10985
▁banned	-10986
▁torture	-10987
▁quarantine	-10988
▁178	-10989
▁iOS	-10990
▁jaw	-10991
issance	-10992
▁Author	-10993
▁router	-10994
▁honestly	-10995
▁gathering	-10996
▁documentary	-10997
▁traditionally	-10998
And	-10999
hum	-11000
▁gran	-11001
▁Rinse	-11002
▁malaria	-11003
▁triangle	-11004
▁narrative	-11005
made	-11006
▁Aim	-11007
▁Exp	-11008
▁wip	-11009
ishers	-11010
▁Aires	-11011
▁admire	-11012
▁microsc	-11013
▁dopamine	-11014
▁achieving	-11015
▁supportive	-11016
2),	-11017
▁BBC	-11018
▁Terr	-11019
▁Youth	-11020
▁bucks	-11021
▁Winter	-11022
▁outfit	-11023
▁expenses	-11024
▁worrying	-11025
▁Occupation	-11026
yler	-11027
▁Eli	-11028
▁Fund	-11029
▁Soft	-11030
▁unst	-11031
▁alpha	-11032
▁Anyone	-11033
▁Islamic	-11034
▁acetate	-11035
▁jumping	-11036
▁ranging	-11037
▁southeast	-11038
▁repeatedly	-11039
opr	-11040
usz	-11041
▁Pi	-11042
llen	-11043
▁Neg	-11044
andan	-11045
▁bees	-11046
▁unre	-11047
idance	-11048
▁athlete	-11049
▁enabled	-11050
▁answered	-11051
▁expanding	-11052
▁southwest	-11053
▁measurement	-11054
cca	-11055
iaz	-11056
▁Dal	-11057
ckets	-11058
▁proc	-11059
▁cruel	-11060
▁stairs	-11061
▁Usually	-11062
▁miracle	-11063
▁Williams	-11064
▁displays	-11065
▁indirect	-11066
▁Ze	-11067
opsy	-11068
zens	-11069
▁Jam	-11070
after	-11071
▁Bron	-11072
▁Seven	-11073
▁candy	-11074
▁recre	-11075
▁trunk	-11076
▁jacket	-11077
▁polish	-11078
▁cuisine	-11079
▁hurting	-11080
▁register	-11081
▁scenario	-11082
▁Billboard	-11083
▁desperate	-11084
▁relatives	-11085
▁invitation	-11086
arus	-11087
enter	-11088
inkle	-11089
▁1984	-11090
▁orch	-11091
▁bombs	-11092
▁Mongol	-11093
▁asthma	-11094
▁tattoo	-11095
▁intimid	-11096
▁Settings	-11097
▁prostate	-11098
▁calculated	-11099
▁corresponding	-11100
37	-11101
67	-11102
▁AS	-11103
▁10%	-11104
▁Fat	-11105
olone	-11106
▁Anne	-11107
▁drew	-11108
▁pine	-11109
bridge	-11110
hedral	-11111
radiol	-11112
▁Guess	-11113
▁dough	-11114
▁fried	-11115
▁speaks	-11116
▁consuming	-11117
▁stimulate	-11118
▁characteristic	-11119
▁Wi	-11120
gered	-11121
▁Jobs	-11122
▁horn	-11123
▁ward	-11124
erable	-11125
▁wrapped	-11126
▁hydrated	-11127
▁Argentine	-11128
▁variation	-11129
▁bin	-11130
▁pod	-11131
iolet	-11132
▁Rico	-11133
▁Ward	-11134
▁Chart	-11135
▁shade	-11136
▁Miller	-11137
▁Download	-11138
▁nitrogen	-11139
▁Hollywood	-11140
▁activated	-11141
▁experimental	-11142
//	-11143
48	-11144
://	-11145
▁spo	-11146
icked	-11147
owing	-11148
omical	-11149
▁Forces	-11150
▁freely	-11151
▁symbols	-11152
▁platforms	-11153
▁distinction	-11154
▁exploration	-11155
▁Alt	-11156
▁Ein	-11157
▁mice	-11158
▁mini	-11159
▁rays	-11160
▁Emily	-11161
▁eleph	-11162
▁indigenous	-11163
▁£	-11164
upp	-11165
▁ft	-11166
▁Moz	-11167
▁irre	-11168
▁pant	-11169
▁volt	-11170
▁manga	-11171
▁cooper	-11172
▁snacks	-11173
▁adapted	-11174
▁minimal	-11175
amma	-11176
aline	-11177
▁1000	-11178
▁Irish	-11179
▁Spend	-11180
▁praise	-11181
▁peoples	-11182
▁particle	-11183
▁strangers	-11184
▁intentions	-11185
AD	-11186
oen	-11187
mary	-11188
▁Cos	-11189
▁Ped	-11190
▁lux	-11191
▁swo	-11192
There	-11193
mented	-11194
▁2020.	-11195
▁chess	-11196
▁duties	-11197
▁fibers	-11198
▁100,000	-11199
▁reinforce	-11200
▁consequence	-11201
Be	-11202
bec	-11203
hai	-11204
rane	-11205
▁Moh	-11206
venue	-11207
▁Kind	-11208
enovel	-11209
▁Based	-11210
▁arrow	-11211
▁blend	-11212
▁pulse	-11213
▁painter	-11214
▁tremend	-11215
▁contribution	-11216
▁FC	-11217
▁Ener	-11218
▁Gulf	-11219
▁mant	-11220
esters	-11221
▁Hawai	-11222
▁Total	-11223
▁binary	-11224
▁failing	-11225
▁deficiency	-11226
▁productivity	-11227
1),	-11228
▁UV	-11229
ques	-11230
▁HCMC	-11231
▁Rand	-11232
▁auto	-11233
▁bears	-11234
▁Nathan	-11235
▁empire	-11236
▁losses	-11237
▁subtle	-11238
▁towels	-11239
▁tobacco	-11240
▁Carolina	-11241
▁variables	-11242
▁acceptance	-11243
▁considerable	-11244
rup	-11245
utic	-11246
▁Lew	-11247
▁que	-11248
▁1985	-11249
▁Mama	-11250
▁meets	-11251
▁stalk	-11252
▁matrix	-11253
ospheric	-11254
▁collaps	-11255
▁dropping	-11256
▁pointing	-11257
▁terminal	-11258
▁unnecess	-11259
▁calculate	-11260
▁dizziness	-11261
▁precisely	-11262
acc	-11263
vian	-11264
azole	-11265
▁Brad	-11266
▁Carm	-11267
▁brut	-11268
▁flew	-11269
▁sperm	-11270
▁Decide	-11271
▁stains	-11272
▁Olsztyn	-11273
▁adventure	-11274
▁stressful	-11275
raz	-11276
▁47	-11277
▁Dol	-11278
▁Sor	-11279
▁noble	-11280
▁sheep	-11281
▁Sierra	-11282
▁toothp	-11283
▁treaty	-11284
▁scholar	-11285
▁classroom	-11286
▁Television	-11287
▁mysterious	-11288
▁transformation	-11289
mat	-11290
ogy	-11291
▁43	-11292
▁caring	-11293
▁circul	-11294
▁partly	-11295
▁poster	-11296
▁instant	-11297
▁staring	-11298
▁detective	-11299
▁gratitude	-11300
oni	-11301
umab	-11302
▁spy	-11303
gence	-11304
▁rude	-11305
▁wore	-11306
▁genet	-11307
▁counts	-11308
▁delete	-11309
▁sacred	-11310
▁lightly	-11311
▁Moreover	-11312
▁graphics	-11313
▁preserve	-11314
ographical	-11315
▁accounting	-11316
▁cardiovascular	-11317
sa	-11318
ige	-11319
umi	-11320
▁melt	-11321
▁vamp	-11322
▁zinc	-11323
▁pizza	-11324
▁Around	-11325
▁Series	-11326
▁bearing	-11327
▁debuted	-11328
▁responded	-11329
▁Rab	-11330
▁numb	-11331
ipedia	-11332
▁boats	-11333
▁globe	-11334
▁tricks	-11335
▁tunnel	-11336
▁Lincoln	-11337
▁agonist	-11338
▁breaths	-11339
▁interfere	-11340
▁ambassador	-11341
▁initiative	-11342
imm	-11343
ammy	-11344
▁Doc	-11345
▁Tob	-11346
▁htt	-11347
actic	-11348
▁Poké	-11349
▁bend	-11350
▁bury	-11351
▁wins	-11352
monary	-11353
omatic	-11354
▁Creat	-11355
▁bands	-11356
▁Johnny	-11357
▁bronze	-11358
▁fusion	-11359
▁insane	-11360
▁gathered	-11361
▁Political	-11362
▁reflection	-11363
▁overwhelming	-11364
har	-11365
▁mL	-11366
▁pim	-11367
ienna	-11368
▁Bull	-11369
▁Rodr	-11370
▁marg	-11371
▁pale	-11372
▁peel	-11373
▁Congo	-11374
▁Shang	-11375
▁anime	-11376
▁faint	-11377
▁overd	-11378
berries	-11379
▁cooler	-11380
▁destro	-11381
▁easiest	-11382
▁stating	-11383
▁colonial	-11384
▁ultimate	-11385
▁paragraph	-11386
▁Furthermore	-11387
omo	-11388
▁Wa	-11389
stan	-11390
▁0.0	-11391
eenth	-11392
▁Name	-11393
▁dawn	-11394
▁junk	-11395
▁hobby	-11396
▁Carter	-11397
▁Direct	-11398
▁behave	-11399
▁thread	-11400
▁labeled	-11401
▁seventh	-11402
▁Mountains	-11403
▁detention	-11404
▁Especially	-11405
di	-11406
dle	-11407
illo	-11408
uity	-11409
▁Ltd	-11410
▁maps	-11411
▁silk	-11412
▁serum	-11413
▁socks	-11414
▁Bridge	-11415
▁Wednes	-11416
▁garage	-11417
▁perpet	-11418
▁waited	-11419
▁ceiling	-11420
▁coastal	-11421
▁embrace	-11422
▁profits	-11423
▁interrog	-11424
▁libraries	-11425
▁substitute	-11426
ód	-11427
▁(15	-11428
▁clan	-11429
acking	-11430
urable	-11431
ructive	-11432
▁Indeed	-11433
▁cowork	-11434
▁prints	-11435
▁authent	-11436
▁generic	-11437
▁accomplished	-11438
upt	-11439
▁LG	-11440
▁lap	-11441
elect	-11442
lovak	-11443
oping	-11444
▁sear	-11445
▁Mayor	-11446
▁creep	-11447
▁jokes	-11448
endment	-11449
▁artery	-11450
▁beaten	-11451
▁cleaned	-11452
uf	-11453
rans	-11454
plete	-11455
▁Others	-11456
▁alumin	-11457
▁visits	-11458
cription	-11459
▁consent	-11460
▁planted	-11461
▁Tomorrow	-11462
beat	-11463
imen	-11464
▁13.	-11465
▁Ali	-11466
▁Nep	-11467
▁soy	-11468
▁Ball	-11469
▁Shall	-11470
▁camps	-11471
▁insec	-11472
▁Double	-11473
▁scheme	-11474
▁summit	-11475
▁traged	-11476
▁flexible	-11477
'.	-11478
29	-11479
aux	-11480
kind	-11481
▁Nak	-11482
▁vas	-11483
▁airl	-11484
▁cens	-11485
▁spinal	-11486
▁besides	-11487
▁carries	-11488
▁engines	-11489
anz	-11490
▁Hab	-11491
▁Raj	-11492
hesia	-11493
otion	-11494
▁1975	-11495
▁Side	-11496
igious	-11497
▁deterg	-11498
▁reserv	-11499
▁Sergeant	-11500
▁Conference	-11501
fire	-11502
▁Magn	-11503
▁Sams	-11504
▁consec	-11505
▁mining	-11506
▁chamber	-11507
▁focuses	-11508
▁sadness	-11509
▁worship	-11510
▁Scotland	-11511
▁coverage	-11512
▁serotonin	-11513
▁sophistic	-11514
▁unhealthy	-11515
▁appearances	-11516
phy	-11517
▁Maz	-11518
worth	-11519
▁Isab	-11520
▁musician	-11521
▁continent	-11522
▁accidentally	-11523
▁concentrated	-11524
▁Chem	-11525
▁Fact	-11526
▁Sounds	-11527
▁mixing	-11528
▁guidance	-11529
▁refugees	-11530
▁arguments	-11531
▁representation	-11532
NC	-11533
ju	-11534
fly	-11535
▁CH	-11536
▁nt	-11537
inek	-11538
▁tan	-11539
chers	-11540
oting	-11541
▁Harr	-11542
▁pond	-11543
▁stub	-11544
▁crust	-11545
▁dryer	-11546
▁zones	-11547
▁Jordan	-11548
▁enthus	-11549
▁gastro	-11550
▁depress	-11551
▁impacts	-11552
▁Agricult	-11553
▁baseball	-11554
▁sandwich	-11555
▁consistently	-11556
%)	-11557
▁Wu	-11558
▁Fif	-11559
andal	-11560
▁Beck	-11561
▁flip	-11562
orious	-11563
▁embed	-11564
▁Hannah	-11565
▁Observ	-11566
▁ritual	-11567
jud	-11568
▁toe	-11569
▁Beat	-11570
▁quote	-11571
▁rehab	-11572
▁Madrid	-11573
▁destiny	-11574
▁telenovel	-11575
▁conservation	-11576
▁CIA	-11577
▁ine	-11578
▁Mine	-11579
▁deny	-11580
▁2004.	-11581
▁abdomen	-11582
▁buttons	-11583
▁isolation	-11584
▁unfortunately	-11585
3),	-11586
itic	-11587
estion	-11588
▁Simon	-11589
▁distress	-11590
▁ministry	-11591
▁overseas	-11592
atar	-11593
bies	-11594
iley	-11595
▁Pad	-11596
alled	-11597
avery	-11598
▁(195	-11599
▁Xbox	-11600
▁Tower	-11601
▁apples	-11602
▁Keeping	-11603
rehensive	-11604
▁sustained	-11605
▁Ż	-11606
cific	-11607
print	-11608
essert	-11609
▁2005.	-11610
▁curse	-11611
▁Almost	-11612
▁themes	-11613
▁washed	-11614
▁composer	-11615
▁kindness	-11616
▁Wikipedia	-11617
▁assignment	-11618
▁Sche	-11619
▁Sony	-11620
▁pist	-11621
acterial	-11622
▁missile	-11623
▁pleased	-11624
▁investigate	-11625
quin	-11626
▁Indo	-11627
▁lith	-11628
▁Touch	-11629
▁dimin	-11630
▁genre	-11631
▁greet	-11632
▁remed	-11633
▁rolling	-11634
▁magnesium	-11635
▁graduating	-11636
▁originated	-11637
▁concentrate	-11638
▁NSA	-11639
▁shed	-11640
▁Simply	-11641
▁Georgia	-11642
▁corrupt	-11643
▁requested	-11644
▁acceptable	-11645
▁collecting	-11646
▁embarrassed	-11647
▁unconscious	-11648
low	-11649
aque	-11650
azep	-11651
state	-11652
▁burst	-11653
▁downt	-11654
▁frost	-11655
▁Oxford	-11656
▁honour	-11657
▁microw	-11658
▁pestic	-11659
▁writes	-11660
▁loyalty	-11661
▁ancestors	-11662
▁neighbour	-11663
▁pronunciation	-11664
▁Cin	-11665
▁Hond	-11666
▁1999,	-11667
▁codes	-11668
through	-11669
▁Really	-11670
▁readers	-11671
▁defensive	-11672
▁celebrated	-11673
▁announcement	-11674
▁disappointed	-11675
▁46	-11676
brev	-11677
▁Yam	-11678
▁lob	-11679
▁pose	-11680
▁Alice	-11681
▁Spring	-11682
▁empathy	-11683
▁gaining	-11684
▁ranking	-11685
▁enjoying	-11686
▁appearing	-11687
▁processor	-11688
▁legitimate	-11689
bey	-11690
dis	-11691
imir	-11692
sell	-11693
▁Toy	-11694
omous	-11695
▁Goth	-11696
▁Self	-11697
▁Drive	-11698
▁Eddie	-11699
▁Sweet	-11700
▁sealed	-11701
▁sticks	-11702
▁worthy	-11703
▁cleared	-11704
▁congress	-11705
▁oz	-11706
▁Adm	-11707
▁gig	-11708
otrop	-11709
▁Wang	-11710
▁symp	-11711
aining	-11712
▁beast	-11713
▁cheer	-11714
attered	-11715
▁condem	-11716
▁dental	-11717
▁congest	-11718
▁squeeze	-11719
▁provider	-11720
Al	-11721
des	-11722
sko	-11723
▁Ai	-11724
▁rh	-11725
▁hier	-11726
▁grief	-11727
▁steak	-11728
▁Ethiop	-11729
▁Matthew	-11730
▁warrant	-11731
▁elevator	-11732
▁forehead	-11733
An	-11734
adi	-11735
ados	-11736
ccer	-11737
▁bugs	-11738
▁clip	-11739
▁Story	-11740
▁Member	-11741
▁aggreg	-11742
iliation	-11743
▁certific	-11744
▁geometry	-11745
▁sometime	-11746
▁pneumonia	-11747
▁convenient	-11748
▁sensitivity	-11749
gic	-11750
rez	-11751
thy	-11752
aser	-11753
bery	-11754
▁Nov	-11755
▁Ott	-11756
clock	-11757
▁Meth	-11758
irable	-11759
▁hello	-11760
▁sends	-11761
itating	-11762
▁Sports	-11763
▁masses	-11764
▁Country	-11765
▁penalty	-11766
▁Cultural	-11767
▁Portugal	-11768
▁minority	-11769
▁planting	-11770
▁accompany	-11771
▁attraction	-11772
▁CPU	-11773
▁sam	-11774
▁Nich	-11775
▁atom	-11776
▁pigs	-11777
▁thigh	-11778
▁Hitler	-11779
▁freeze	-11780
▁Airport	-11781
▁regulate	-11782
▁workplace	-11783
▁Ambassador	-11784
▁encouraging	-11785
▁investments	-11786
▁constipation	-11787
ti	-11788
▁50%	-11789
adows	-11790
▁1979	-11791
▁Cole	-11792
▁exch	-11793
▁uter	-11794
roleum	-11795
▁slaves	-11796
▁sphere	-11797
▁triple	-11798
izations	-11799
▁producers	-11800
▁discrimination	-11801
47	-11802
▁Fa	-11803
▁$100	-11804
▁sher	-11805
▁airpl	-11806
▁evenly	-11807
▁Natural	-11808
▁Together	-11809
▁employer	-11810
▁estimates	-11811
▁quantities	-11812
100	-11813
Hey	-11814
▁11.	-11815
▁Hotel	-11816
▁shore	-11817
▁voted	-11818
▁manual	-11819
▁wasting	-11820
▁criteria	-11821
▁songwriter	-11822
gie	-11823
ido	-11824
▁Ana	-11825
▁Data	-11826
▁oint	-11827
itched	-11828
▁alleg	-11829
▁Steven	-11830
▁backed	-11831
▁closet	-11832
▁Thought	-11833
▁cheaper	-11834
▁strikes	-11835
▁billions	-11836
▁siblings	-11837
▁Dom	-11838
▁Rap	-11839
▁iod	-11840
▁oct	-11841
▁fart	-11842
▁pores	-11843
▁ranks	-11844
▁heroes	-11845
▁legally	-11846
▁intraven	-11847
▁examination	-11848
▁refrigerator	-11849
OP	-11850
▁FIFA	-11851
▁Trad	-11852
▁rear	-11853
olitan	-11854
▁Alpha	-11855
▁arbit	-11856
▁etern	-11857
▁Stalin	-11858
▁hydrox	-11859
▁bottles	-11860
▁outdoor	-11861
▁thermal	-11862
▁tendency	-11863
▁Yan	-11864
▁twe	-11865
giene	-11866
▁dual	-11867
▁Venus	-11868
▁drill	-11869
▁charts	-11870
▁cookies	-11871
▁fantasy	-11872
▁Silesian	-11873
▁situated	-11874
▁Guatemala	-11875
▁allergies	-11876
▁consideration	-11877
EL	-11878
spe	-11879
▁($	-11880
▁Ye	-11881
...?	-11882
▁Fuj	-11883
atics	-11884
▁Salv	-11885
semble	-11886
▁Antar	-11887
▁Catal	-11888
▁aging	-11889
▁exped	-11890
▁shout	-11891
▁stems	-11892
▁Donald	-11893
▁creams	-11894
▁lasted	-11895
▁sweating	-11896
▁impressive	-11897
ceans	-11898
olith	-11899
▁Zero	-11900
▁jung	-11901
▁Going	-11902
▁inequ	-11903
▁Origin	-11904
▁franch	-11905
▁meteor	-11906
idepress	-11907
▁Consult	-11908
▁rebuild	-11909
▁floating	-11910
▁handsome	-11911
▁achievements	-11912
oom	-11913
orus	-11914
ydia	-11915
▁31,	-11916
▁Len	-11917
▁Pis	-11918
ophen	-11919
▁Andy	-11920
▁Feel	-11921
▁reck	-11922
▁reun	-11923
▁Medal	-11924
▁Stick	-11925
▁freed	-11926
▁onset	-11927
▁hypert	-11928
▁resign	-11929
▁Vitamin	-11930
▁advised	-11931
▁fastest	-11932
▁longest	-11933
▁Explorer	-11934
▁Medicine	-11935
▁interpretation	-11936
abul	-11937
gard	-11938
greg	-11939
▁Anth	-11940
▁glyc	-11941
▁Mario	-11942
▁inaug	-11943
ighters	-11944
▁Taylor	-11945
▁cataly	-11946
▁amateur	-11947
▁dessert	-11948
▁insight	-11949
▁Exercise	-11950
▁develops	-11951
▁susceptible	-11952
rer	-11953
▁Pod	-11954
luded	-11955
uguay	-11956
▁Lang	-11957
▁View	-11958
▁gamb	-11959
▁heir	-11960
entric	-11961
umatic	-11962
▁powered	-11963
▁soluble	-11964
▁tourist	-11965
▁prospect	-11966
▁specialist	-11967
▁suspicious	-11968
▁overwhelmed	-11969
fold	-11970
woman	-11971
▁Shar	-11972
▁Week	-11973
▁stool	-11974
▁Forest	-11975
▁solved	-11976
▁worksh	-11977
▁worlds	-11978
▁avoided	-11979
▁inventory	-11980
▁Szczecinek	-11981
▁horizontal	-11982
▁arrangement	-11983
▁internationally	-11984
AF	-11985
las	-11986
▁UE	-11987
▁Tru	-11988
▁cav	-11989
▁turtle	-11990
▁unlock	-11991
▁aspirin	-11992
▁Russians	-11993
▁Wednesday	-11994
je	-11995
zyn	-11996
walk	-11997
▁mol	-11998
▁vow	-11999
▁Sang	-12000
▁jury	-12001
▁pean	-12002
▁agenda	-12003
▁errors	-12004
▁packed	-12005
▁Nahiyah	-12006
▁descent	-12007
▁constitu	-12008
▁equipped	-12009
▁accepting	-12010
▁influences	-12011
▁jurisdiction	-12012
As	-12013
SP	-12014
YP	-12015
mate	-12016
mega	-12017
ttes	-12018
▁raz	-12019
Tunes	-12020
▁Kosz	-12021
▁herb	-12022
usions	-12023
▁Actor	-12024
▁hated	-12025
▁colony	-12026
▁explicit	-12027
▁forecast	-12028
▁dimensions	-12029
▁functioning	-12030
▁transmitted	-12031
kh	-12032
ethe	-12033
adesh	-12034
▁liar	-12035
▁pile	-12036
▁radi	-12037
commun	-12038
▁Field	-12039
▁bites	-12040
▁elite	-12041
▁assure	-12042
▁tennis	-12043
▁monsters	-12044
▁downstairs	-12045
▁distinguish	-12046
arer	-12047
brew	-12048
yard	-12049
▁PDF	-12050
▁Josh	-12051
▁allev	-12052
▁collar	-12053
▁Clinton	-12054
▁irritate	-12055
▁similarly	-12056
▁destination	-12057
▁distinguished	-12058
68	-12059
HD	-12060
inn	-12061
▁Nar	-12062
▁Thi	-12063
▁intu	-12064
lessly	-12065
▁Given	-12066
▁poorly	-12067
▁passive	-12068
▁unhappy	-12069
▁Apparent	-12070
▁predicted	-12071
▁Venezuelan	-12072
▁altogether	-12073
lan	-12074
▁52	-12075
▁72	-12076
▁GB	-12077
ello	-12078
▁offs	-12079
▁1998,	-12080
▁enlar	-12081
▁plates	-12082
▁severely	-12083
▁incorporated	-12084
44	-12085
▁Bh	-12086
▁Tu	-12087
ener	-12088
▁1982	-12089
▁Same	-12090
▁alph	-12091
▁hips	-12092
▁outl	-12093
▁Sleep	-12094
▁hepat	-12095
▁ruler	-12096
▁symmet	-12097
▁timing	-12098
district	-12099
▁Uruguay	-12100
▁nucleus	-12101
▁reserve	-12102
▁upcoming	-12103
1%	-12104
OL	-12105
asi	-12106
▁1:	-12107
tail	-12108
▁bee	-12109
▁lawn	-12110
▁yell	-12111
▁Sudan	-12112
▁wrest	-12113
▁Working	-12114
▁Johannes	-12115
▁proportion	-12116
▁reportedly	-12117
▁improvements	-12118
opt	-12119
vals	-12120
▁ions	-12121
▁maid	-12122
▁Model	-12123
▁disin	-12124
▁dozens	-12125
▁orphan	-12126
▁thirst	-12127
▁kidneys	-12128
▁wealthy	-12129
▁recipient	-12130
▁electronics	-12131
▁Eb	-12132
▁Nu	-12133
▁Dry	-12134
books	-12135
▁Kate	-12136
▁Pain	-12137
▁Pete	-12138
▁palm	-12139
▁reef	-12140
▁cattle	-12141
▁kicked	-12142
▁blowing	-12143
▁chromos	-12144
▁Trinidad	-12145
▁damaging	-12146
▁seizures	-12147
▁completing	-12148
▁conservative	-12149
39	-12150
▁~	-12151
iph	-12152
When	-12153
acts	-12154
itus	-12155
▁Fab	-12156
alysis	-12157
gments	-12158
retion	-12159
▁decay	-12160
▁inhal	-12161
ativity	-12162
▁Energy	-12163
▁Gordon	-12164
▁shirts	-12165
▁Account	-12166
▁Believe	-12167
▁protocol	-12168
▁unnecessary	-12169
ikes	-12170
▁Suc	-12171
▁Vic	-12172
attan	-12173
icidal	-12174
▁Eight	-12175
▁couch	-12176
▁halluc	-12177
▁iTunes	-12178
▁jumped	-12179
▁thromb	-12180
function	-12181
▁handled	-12182
▁tightly	-12183
▁formally	-12184
▁algorithm	-12185
▁passionate	-12186
▁separation	-12187
▁approaching	-12188
▁±	-12189
udi	-12190
meal	-12191
ndez	-12192
isons	-12193
rofen	-12194
▁GABA	-12195
▁orth	-12196
▁Flore	-12197
▁Jacob	-12198
▁jelly	-12199
▁spider	-12200
▁tumors	-12201
▁retreat	-12202
▁imperial	-12203
▁toxicity	-12204
▁occasions	-12205
▁benzodiazep	-12206
▁participating	-12207
▁Hans	-12208
▁grey	-12209
ptical	-12210
▁bench	-12211
▁Howard	-12212
▁freezing	-12213
▁discussing	-12214
unks	-12215
▁Dim	-12216
▁Phu	-12217
esity	-12218
iller	-12219
▁inqu	-12220
▁pept	-12221
arette	-12222
▁blade	-12223
▁reloc	-12224
▁loaded	-12225
▁companion	-12226
▁mortality	-12227
▁resembles	-12228
▁expressing	-12229
jan	-12230
▁15.	-12231
tends	-12232
▁Wolf	-12233
▁adds	-12234
▁woke	-12235
▁Break	-12236
▁Categ	-12237
▁precip	-12238
▁flights	-12239
▁shallow	-12240
▁signing	-12241
▁undergo	-12242
▁colleague	-12243
▁frustrated	-12244
▁recommendations	-12245
Le	-12246
▁mim	-12247
human	-12248
ostic	-12249
▁sang	-12250
▁blown	-12251
▁resume	-12252
▁Columbia	-12253
▁discount	-12254
▁epidemic	-12255
▁absorption	-12256
▁indicating	-12257
De	-12258
▁ts	-12259
cont	-12260
umer	-12261
▁Wales	-12262
▁arise	-12263
▁Silver	-12264
▁affirm	-12265
▁differ	-12266
▁extrem	-12267
▁funded	-12268
▁rhythm	-12269
▁delicious	-12270
▁conversion	-12271
▁describing	-12272
iar	-12273
▁Slow	-12274
▁lent	-12275
▁Galax	-12276
▁Leban	-12277
▁Thanh	-12278
▁cabin	-12279
▁yeast	-12280
▁strand	-12281
▁therape	-12282
▁unclear	-12283
▁Koszalin	-12284
▁reserves	-12285
▁transformed	-12286
SC	-12287
▁'.	-12288
ichi	-12289
olis	-12290
rone	-12291
▁Lic	-12292
▁ber	-12293
▁mum	-12294
idency	-12295
▁fleet	-12296
▁lover	-12297
▁ports	-12298
▁Senior	-12299
▁Pokémon	-12300
▁Stadium	-12301
▁cheating	-12302
▁adaptation	-12303
▁representatives	-12304
600	-12305
bie	-12306
urd	-12307
acer	-12308
ango	-12309
riel	-12310
▁Fer	-12311
storm	-12312
boards	-12313
omeday	-12314
▁Bruce	-12315
▁Delta	-12316
▁infer	-12317
▁monkey	-12318
▁sulfur	-12319
▁caution	-12320
▁exhibit	-12321
▁findings	-12322
▁generous	-12323
▁Instagram	-12324
▁Republican	-12325
▁agreements	-12326
oro	-12327
▁CN	-12328
▁Cu	-12329
amer	-12330
▁Kid	-12331
▁ray	-12332
▁tomb	-12333
▁grams	-12334
▁Gentle	-12335
▁logged	-12336
▁Express	-12337
▁segment	-12338
▁ib	-12339
▁Gun	-12340
▁Vlad	-12341
▁owns	-12342
▁Animal	-12343
▁quantity	-12344
▁compromise	-12345
▁evaluation	-12346
▁Pharmaceutical	-12347
HO	-12348
▁ˈ	-12349
ril	-12350
▁700	-12351
▁Blu	-12352
▁cel	-12353
▁Hero	-12354
▁aloe	-12355
▁Phase	-12356
▁hairs	-12357
▁tribe	-12358
reement	-12359
▁firing	-12360
▁legacy	-12361
▁thirty	-12362
▁urgent	-12363
▁voltage	-12364
▁worries	-12365
▁beverages	-12366
▁packaging	-12367
▁assessment	-12368
▁manufacturers	-12369
▁Ny	-12370
▁′′	-12371
anic	-12372
ilib	-12373
▁Dub	-12374
▁Mak	-12375
rared	-12376
▁Damn	-12377
▁Manh	-12378
▁outs	-12379
▁5,000	-12380
▁excit	-12381
▁assemb	-12382
▁Friends	-12383
▁orbital	-12384
▁Einstein	-12385
fa	-12386
bul	-12387
oko	-12388
omi	-12389
▁Prop	-12390
▁mint	-12391
▁Plant	-12392
▁Roger	-12393
▁shelf	-12394
▁Return	-12395
▁submar	-12396
▁Hungary	-12397
▁neglect	-12398
▁optical	-12399
▁Regional	-12400
▁affinity	-12401
▁pronounced	-12402
run	-12403
ups	-12404
▁2:	-12405
▁Vi	-12406
held	-12407
▁Kit	-12408
brush	-12409
▁turb	-12410
arians	-12411
urches	-12412
▁Jersey	-12413
▁depict	-12414
▁spokes	-12415
▁Peruvian	-12416
▁deserves	-12417
▁oriented	-12418
▁districts	-12419
▁sweetheart	-12420
95	-12421
So	-12422
vet	-12423
ulum	-12424
▁UEFA	-12425
▁steep	-12426
arettes	-12427
ylvania	-12428
▁accent	-12429
▁darker	-12430
▁defect	-12431
▁locate	-12432
▁stocks	-12433
▁Enterpr	-12434
▁slavery	-12435
▁transit	-12436
▁imagined	-12437
▁quarters	-12438
▁distracted	-12439
▁yourselves	-12440
▁implemented	-12441
▁yö	-12442
▁160	-12443
▁seas	-12444
estine	-12445
▁tanks	-12446
▁Accept	-12447
▁overly	-12448
▁surely	-12449
▁delicate	-12450
▁envelope	-12451
▁illusion	-12452
▁missions	-12453
▁likelihood	-12454
▁satisfaction	-12455
fu	-12456
obi	-12457
otox	-12458
▁Cel	-12459
▁Lay	-12460
▁cyc	-12461
stick	-12462
▁prest	-12463
▁schiz	-12464
▁shave	-12465
▁Arctic	-12466
▁thesis	-12467
pleasant	-12468
▁thyroid	-12469
▁utility	-12470
▁detained	-12471
▁Generally	-12472
▁microwave	-12473
▁permanently	-12474
400	-12475
sky	-12476
oons	-12477
opot	-12478
poon	-12479
usal	-12480
▁Enc	-12481
▁jam	-12482
▁1983	-12483
▁chew	-12484
▁tale	-12485
▁Lagos	-12486
▁Notes	-12487
▁fence	-12488
▁salad	-12489
▁shrink	-12490
▁Language	-12491
▁outdoors	-12492
▁payments	-12493
▁prolonged	-12494
▁referring	-12495
▁sculpture	-12496
▁volunteers	-12497
ags	-12498
mel	-12499
igon	-12500
▁bip	-12501
▁Dead	-12502
▁calc	-12503
▁Daily	-12504
▁Memor	-12505
▁asset	-12506
▁suits	-12507
atories	-12508
▁invested	-12509
▁planetary	-12510
▁terrorism	-12511
▁arrangements	-12512
ña	-12513
4),	-12514
▁hes	-12515
▁narc	-12516
▁nood	-12517
▁Might	-12518
▁overt	-12519
▁Commer	-12520
▁elabor	-12521
▁chasing	-12522
▁desires	-12523
▁selfish	-12524
▁steroid	-12525
▁misunder	-12526
▁moisturizer	-12527
▁practically	-12528
IL	-12529
eto	-12530
that	-12531
acept	-12532
▁Gene	-12533
▁Grab	-12534
▁glac	-12535
▁vein	-12536
▁Boliv	-12537
▁Histor	-12538
▁polite	-12539
▁hygiene	-12540
▁imaging	-12541
▁medieval	-12542
▁accordance	-12543
▁scholarship	-12544
6),	-12545
▁CT	-12546
▁lt	-12547
▁2.5	-12548
▁Joy	-12549
▁toss	-12550
▁Diego	-12551
▁erect	-12552
▁apology	-12553
▁resting	-12554
▁Computer	-12555
▁restored	-12556
▁Champions	-12557
AP	-12558
enh	-12559
tle	-12560
▁57	-12561
umed	-12562
▁Jake	-12563
▁Pent	-12564
▁blew	-12565
▁sung	-12566
▁Large	-12567
▁bowel	-12568
▁farmer	-12569
▁racing	-12570
▁allergy	-12571
▁halfway	-12572
▁dialects	-12573
▁infinite	-12574
▁arthritis	-12575
▁exclusively	-12576
alo	-12577
▁(1.	-12578
▁Rif	-12579
▁Dise	-12580
▁Lock	-12581
▁Webs	-12582
ophren	-12583
▁3,000	-12584
▁sweep	-12585
▁rebell	-12586
▁toxins	-12587
▁trains	-12588
▁voting	-12589
▁Freedom	-12590
▁Stephen	-12591
▁dignity	-12592
▁updated	-12593
▁venture	-12594
▁neurolog	-12595
▁Currently	-12596
▁discussions	-12597
amic	-12598
▁177	-12599
▁Rica	-12600
▁barg	-12601
▁inex	-12602
▁prey	-12603
▁Beaut	-12604
▁Jason	-12605
▁Round	-12606
▁fleas	-12607
▁tribes	-12608
▁banking	-12609
▁Building	-12610
▁alliance	-12611
▁divorced	-12612
▁concerning	-12613
▁responding	-12614
▁unpleasant	-12615
▁implementation	-12616
name	-12617
othy	-12618
iances	-12619
profit	-12620
▁grace	-12621
▁fights	-12622
▁fossil	-12623
▁herbal	-12624
▁ashamed	-12625
▁flowing	-12626
▁martial	-12627
▁nearest	-12628
▁tragedy	-12629
▁warrior	-12630
▁climbing	-12631
▁addressed	-12632
▁reflected	-12633
resa	-12634
▁oceans	-12635
▁slower	-12636
▁inspect	-12637
▁passenger	-12638
▁tolerance	-12639
▁orientation	-12640
AL	-12641
pre	-12642
nica	-12643
leased	-12644
▁aired	-12645
▁spine	-12646
▁beside	-12647
▁Alliance	-12648
▁poisoning	-12649
▁Apparently	-12650
▁collections	-12651
lox	-12652
yer	-12653
uras	-12654
▁coc	-12655
▁pled	-12656
▁torn	-12657
market	-12658
icillin	-12659
▁Action	-12660
▁county	-12661
▁interf	-12662
▁Denmark	-12663
▁contrad	-12664
▁fulfill	-12665
▁orchest	-12666
▁tourism	-12667
▁inflation	-12668
▁imprisoned	-12669
▁antidepress	-12670
▁entrepreneurs	-12671
▁>	-12672
▁♪	-12673
800	-12674
▁EC	-12675
▁Eu	-12676
▁Ja	-12677
▁Mov	-12678
▁Pab	-12679
▁bun	-12680
▁Bush	-12681
▁Forg	-12682
▁bund	-12683
usting	-12684
▁Staff	-12685
▁beard	-12686
▁frank	-12687
▁genome	-12688
▁crowned	-12689
▁magical	-12690
▁sheriff	-12691
▁antihist	-12692
▁assuming	-12693
▁emission	-12694
▁starring	-12695
▁addresses	-12696
▁pulmonary	-12697
▁embarrassing	-12698
▁entrepreneur	-12699
▁significance	-12700
%,	-12701
zi	-12702
▁pel	-12703
▁Yosh	-12704
▁anch	-12705
▁slee	-12706
▁Corps	-12707
▁recyc	-12708
▁Remind	-12709
▁tourists	-12710
▁followers	-12711
▁publications	-12712
mod	-12713
▁1978	-12714
▁chin	-12715
▁opio	-12716
▁baked	-12717
isition	-12718
▁physic	-12719
velength	-12720
▁patches	-12721
▁modeling	-12722
▁impressed	-12723
▁integration	-12724
onto	-12725
▁Hav	-12726
▁Jay	-12727
▁Key	-12728
▁Lip	-12729
▁Binh	-12730
▁fest	-12731
▁dated	-12732
▁checks	-12733
▁labels	-12734
▁Marshal	-12735
▁Samsung	-12736
▁cooling	-12737
▁exports	-12738
▁Magazine	-12739
▁boundary	-12740
▁treasure	-12741
▁Catherine	-12742
▁behaviour	-12743
▁medicines	-12744
▁menstrual	-12745
▁Industrial	-12746
RS	-12747
▁eh	-12748
asha	-12749
cano	-12750
reck	-12751
rose	-12752
▁Kan	-12753
▁Pin	-12754
▁Clar	-12755
▁Soph	-12756
▁jazz	-12757
▁mall	-12758
heastern	-12759
▁fighter	-12760
▁railway	-12761
▁claiming	-12762
▁automatic	-12763
▁requiring	-12764
▁corporations	-12765
▁$5	-12766
anks	-12767
ellig	-12768
▁Clay	-12769
▁1997,	-12770
▁boots	-12771
▁setup	-12772
▁sinus	-12773
▁tense	-12774
▁neural	-12775
▁disputed	-12776
▁negotiate	-12777
▁tremendous	-12778
▁technological	-12779
oa	-12780
III	-12781
izzy	-12782
▁cyt	-12783
▁meg	-12784
▁Burn	-12785
▁Gonz	-12786
▁bulk	-12787
▁chef	-12788
▁impul	-12789
▁stamp	-12790
▁banana	-12791
▁screwed	-12792
▁spirits	-12793
▁belonging	-12794
▁cigarette	-12795
▁triggered	-12796
▁elimination	-12797
▁contributing	-12798
New	-12799
anga	-12800
▁Kle	-12801
▁Laz	-12802
acies	-12803
athon	-12804
▁Stra	-12805
▁cyst	-12806
▁fees	-12807
irting	-12808
▁relate	-12809
▁Babylon	-12810
▁expense	-12811
▁forcing	-12812
▁Official	-12813
▁disagree	-12814
▁monument	-12815
▁psychiat	-12816
▁campaigns	-12817
▁invention	-12818
▁underwear	-12819
▁purchasing	-12820
▁dramatically	-12821
cr	-12822
▁AL	-12823
orse	-12824
▁Ide	-12825
▁Poz	-12826
oning	-12827
plate	-12828
▁bicy	-12829
▁tray	-12830
▁2003.	-12831
▁Sympt	-12832
▁gramm	-12833
▁reson	-12834
▁blister	-12835
▁handful	-12836
▁millenn	-12837
▁smallest	-12838
intestinal	-12839
▁designers	-12840
▁investing	-12841
▁designation	-12842
▁sophisticated	-12843
▁AU	-12844
▁19.	-12845
▁Beh	-12846
▁Inv	-12847
▁Nag	-12848
amboo	-12849
maker	-12850
▁Clin	-12851
▁flee	-12852
▁font	-12853
rained	-12854
▁chaos	-12855
▁rifle	-12856
▁bucket	-12857
▁rumors	-12858
▁salmon	-12859
▁stepped	-12860
▁centered	-12861
▁unwanted	-12862
▁Community	-12863
▁contracts	-12864
▁achievement	-12865
▁journalists	-12866
▁constitutional	-12867
9),	-12868
igs	-12869
▁95	-12870
▁Bry	-12871
▁Mig	-12872
▁Syn	-12873
▁Veg	-12874
▁sha	-12875
ector	-12876
ilton	-12877
isław	-12878
▁Whit	-12879
▁cann	-12880
▁foll	-12881
▁lotion	-12882
▁delight	-12883
▁Bachelor	-12884
▁metaphor	-12885
▁sticking	-12886
▁expertise	-12887
▁persistent	-12888
▁wavelength	-12889
▁incorporate	-12890
uana	-12891
▁Mun	-12892
▁cyl	-12893
▁jet	-12894
▁Crown	-12895
▁Penns	-12896
▁groom	-12897
▁Eating	-12898
▁atomic	-12899
▁helium	-12900
▁puzzle	-12901
▁ruined	-12902
▁trends	-12903
▁Genesis	-12904
▁varying	-12905
▁Industry	-12906
▁abortion	-12907
▁betrayed	-12908
▁heritage	-12909
▁philosoph	-12910
▁(/	-12911
acin	-12912
▁Cry	-12913
▁cro	-12914
▁sew	-12915
▁Rain	-12916
hanced	-12917
▁Sound	-12918
▁comed	-12919
▁addict	-12920
▁convey	-12921
▁Ancient	-12922
▁blanket	-12923
▁constra	-12924
▁honored	-12925
▁readily	-12926
istically	-12927
▁severity	-12928
▁prevented	-12929
▁immigrants	-12930
▁tablespoon	-12931
▁Engineering	-12932
hol	-12933
▁DC	-12934
emen	-12935
inge	-12936
omon	-12937
▁(11	-12938
▁Ern	-12939
▁Ryan	-12940
▁pole	-12941
parent	-12942
▁Purch	-12943
▁accus	-12944
▁fails	-12945
▁spont	-12946
▁crimin	-12947
▁Fantasy	-12948
▁delayed	-12949
▁devoted	-12950
▁empower	-12951
▁evaluate	-12952
▁listened	-12953
▁detergent	-12954
▁strongest	-12955
▁disability	-12956
▁peripheral	-12957
▁expressions	-12958
▁MR	-12959
▁Vu	-12960
▁Yu	-12961
▁(16	-12962
▁Vas	-12963
▁1900	-12964
holder	-12965
▁Justin	-12966
▁Market	-12967
▁decomp	-12968
▁statue	-12969
▁virgin	-12970
▁artwork	-12971
▁nursing	-12972
▁volumes	-12973
▁instruction	-12974
atus	-12975
ears	-12976
rous	-12977
eller	-12978
▁Emer	-12979
▁carp	-12980
▁nost	-12981
iosity	-12982
▁Buddh	-12983
▁algae	-12984
▁chase	-12985
▁reset	-12986
ellular	-12987
▁adoles	-12988
▁joints	-12989
▁urinary	-12990
▁dressing	-12991
▁humanitarian	-12992
▁PM	-12993
▁Ub	-12994
ersc	-12995
etts	-12996
mare	-12997
oebe	-12998
▁Gol	-12999
▁PhD	-13000
▁São	-13001
▁Virt	-13002
uously	-13003
▁1995,	-13004
▁ambul	-13005
▁mercy	-13006
▁thief	-13007
▁traff	-13008
▁rocket	-13009
▁Choszcz	-13010
▁Knowing	-13011
▁imposed	-13012
▁advocate	-13013
▁screaming	-13014
eur	-13015
▁Sah	-13016
overs	-13017
▁(196	-13018
▁Heat	-13019
gester	-13020
▁Pretty	-13021
▁Rwanda	-13022
▁Install	-13023
▁Looking	-13024
▁colonies	-13025
▁drainage	-13026
▁digestive	-13027
▁limitations	-13028
▁49	-13029
▁EP	-13030
▁Box	-13031
▁Gre	-13032
opard	-13033
▁Alan	-13034
▁2000.	-13035
▁Sales	-13036
▁Upper	-13037
▁pairs	-13038
natural	-13039
▁Galaxy	-13040
▁commem	-13041
graduate	-13042
lessness	-13043
▁Gabriel	-13044
▁Tonight	-13045
▁farming	-13046
gesterone	-13047
▁mainland	-13048
▁managers	-13049
▁Different	-13050
▁politically	-13051
▁tablespoons	-13052
SR	-13053
arb	-13054
uba	-13055
agle	-13056
▁nan	-13057
▁1976	-13058
▁aest	-13059
▁dull	-13060
▁matt	-13061
▁scope	-13062
▁Alfred	-13063
▁Walker	-13064
▁wallet	-13065
▁crystal	-13066
▁elastic	-13067
▁swollen	-13068
▁inhibits	-13069
▁indication	-13070
▁positively	-13071
▁spacecraft	-13072
▁schizophren	-13073
▁theoretical	-13074
ako	-13075
ńsk	-13076
eman	-13077
ycin	-13078
▁GPS	-13079
ochem	-13080
▁extr	-13081
abling	-13082
▁1994,	-13083
▁emerge	-13084
▁induce	-13085
ictional	-13086
ilibrium	-13087
▁Capital	-13088
▁arguing	-13089
▁sulfate	-13090
▁mistaken	-13091
▁murderer	-13092
▁sacrific	-13093
▁Choszczno	-13094
▁municipal	-13095
▁challenged	-13096
▁Observatory	-13097
▁stimulation	-13098
abe	-13099
bur	-13100
▁Ni	-13101
▁Fun	-13102
achus	-13103
ranean	-13104
▁Phoebe	-13105
▁firmly	-13106
▁couples	-13107
▁ignored	-13108
▁servant	-13109
▁useless	-13110
▁crystals	-13111
▁midnight	-13112
▁believing	-13113
▁initiated	-13114
▁integrity	-13115
▁programme	-13116
▁surviving	-13117
mg	-13118
▁IM	-13119
▁sq	-13120
▁Hai	-13121
eries	-13122
ussia	-13123
▁Nept	-13124
▁wart	-13125
▁slice	-13126
urities	-13127
▁Twenty	-13128
▁Vienna	-13129
▁archae	-13130
▁bronch	-13131
▁Iranian	-13132
▁ammonia	-13133
▁dietary	-13134
▁obesity	-13135
▁updates	-13136
▁contrary	-13137
▁determining	-13138
▁alternatives	-13139
aco	-13140
eed	-13141
▁56	-13142
▁PR	-13143
iens	-13144
oupe	-13145
▁IBM	-13146
▁Roc	-13147
asters	-13148
▁Napole	-13149
▁Article	-13150
▁remedies	-13151
▁smartphone	-13152
▁therapeutic	-13153
▁Pennsylvania	-13154
:00.	-13155
oker	-13156
tion	-13157
▁Hig	-13158
▁Mao	-13159
cloth	-13160
ridge	-13161
▁Carn	-13162
▁Herm	-13163
▁Said	-13164
▁clue	-13165
▁encl	-13166
▁Grant	-13167
▁Haiti	-13168
▁heated	-13169
▁lyrics	-13170
▁routes	-13171
▁Website	-13172
▁breeding	-13173
▁declined	-13174
▁pursuing	-13175
▁vaccines	-13176
▁specified	-13177
▁capability	-13178
▁containers	-13179
▁photography	-13180
7),	-13181
oll	-13182
▁85	-13183
▁Ent	-13184
anium	-13185
ceeds	-13186
oding	-13187
▁Gate	-13188
reated	-13189
▁cited	-13190
▁loans	-13191
▁roast	-13192
▁bitter	-13193
▁corners	-13194
▁reporter	-13195
▁transmit	-13196
▁historian	-13197
oku	-13198
▁$2	-13199
dess	-13200
▁Pil	-13201
▁Kent	-13202
▁desp	-13203
▁eyel	-13204
▁sits	-13205
▁Natal	-13206
▁Perry	-13207
▁Speak	-13208
▁flush	-13209
▁patri	-13210
▁Nature	-13211
▁Pomors	-13212
▁planes	-13213
▁scores	-13214
▁alright	-13215
▁applies	-13216
▁Anderson	-13217
▁Symptoms	-13218
▁commands	-13219
▁musicians	-13220
▁privilege	-13221
▁survivors	-13222
▁hypothesis	-13223
▁consecutive	-13224
▁hypertension	-13225
36	-13226
even	-13227
mine	-13228
osion	-13229
▁rises	-13230
▁Studio	-13231
▁horror	-13232
▁soccer	-13233
restrial	-13234
▁Mercury	-13235
▁conspir	-13236
▁placebo	-13237
▁Starting	-13238
▁embedded	-13239
▁operates	-13240
▁batteries	-13241
▁preserved	-13242
▁helicopter	-13243
▁possession	-13244
▁interacting	-13245
-1	-13246
▁GM	-13247
▁Won	-13248
▁Java	-13249
▁Term	-13250
▁anat	-13251
▁lasts	-13252
rainian	-13253
▁Mountain	-13254
▁obsessed	-13255
▁consisted	-13256
▁sunscreen	-13257
rob	-13258
▁Bow	-13259
▁oat	-13260
guard	-13261
▁Hank	-13262
▁disg	-13263
▁dorm	-13264
▁vera	-13265
▁deadly	-13266
▁emails	-13267
▁Sheriff	-13268
▁Learning	-13269
▁Manhattan	-13270
▁bilateral	-13271
▁promising	-13272
▁attributed	-13273
▁establishing	-13274
78	-13275
via	-13276
enia	-13277
gian	-13278
odor	-13279
▁20%	-13280
▁Hou	-13281
▁ecc	-13282
oplan	-13283
▁1939	-13284
▁Conc	-13285
▁stew	-13286
▁Fried	-13287
▁coral	-13288
▁handy	-13289
▁swing	-13290
▁abbrev	-13291
▁satellites	-13292
▁dehydration	-13293
▁identifying	-13294
acht	-13295
▁Mum	-13296
▁Yang	-13297
▁spat	-13298
▁anthrop	-13299
▁pathway	-13300
▁adoption	-13301
▁judicial	-13302
▁troubles	-13303
▁decreases	-13304
▁contracept	-13305
▁harassment	-13306
gas	-13307
oos	-13308
▁mit	-13309
ouses	-13310
▁Orth	-13311
▁ampl	-13312
▁beam	-13313
▁Lewis	-13314
▁laying	-13315
▁Dynasty	-13316
▁shipping	-13317
ordination	-13318
▁equations	-13319
▁offensive	-13320
▁objectives	-13321
▁practition	-13322
But	-13323
▁Og	-13324
ogly	-13325
pers	-13326
ribe	-13327
▁nep	-13328
▁Anti	-13329
▁Lega	-13330
▁Stark	-13331
▁heter	-13332
▁oxide	-13333
▁lifting	-13334
▁polymer	-13335
▁talents	-13336
▁Maintain	-13337
▁orbiting	-13338
▁instances	-13339
▁surrender	-13340
▁activation	-13341
▁documented	-13342
▁fascinating	-13343
iso	-13344
uru	-13345
pine	-13346
▁14.	-13347
▁Bag	-13348
heres	-13349
otics	-13350
▁Area	-13351
▁Papa	-13352
▁Beach	-13353
▁Cloud	-13354
▁realm	-13355
▁syring	-13356
▁broader	-13357
▁praised	-13358
▁strictly	-13359
▁wondered	-13360
▁consensus	-13361
▁reception	-13362
▁investigated	-13363
arse	-13364
onder	-13365
▁Jong	-13366
▁cerv	-13367
insula	-13368
▁Vegas	-13369
▁Hawaii	-13370
▁scales	-13371
▁Patrick	-13372
▁digging	-13373
▁graphic	-13374
▁stellar	-13375
▁excitement	-13376
▁58	-13377
▁68	-13378
▁hi	-13379
inst	-13380
▁Alb	-13381
▁deem	-13382
▁span	-13383
estant	-13384
▁depri	-13385
▁veins	-13386
▁Freder	-13387
▁Nearby	-13388
▁almond	-13389
▁cortic	-13390
▁expose	-13391
▁hybrid	-13392
▁sugars	-13393
▁locally	-13394
▁Shanghai	-13395
▁androgen	-13396
▁humidity	-13397
▁lightning	-13398
▁screening	-13399
Sp	-13400
Let	-13401
▁41	-13402
iots	-13403
inery	-13404
▁1981	-13405
▁Deng	-13406
▁tamp	-13407
▁Adams	-13408
▁align	-13409
▁merged	-13410
▁brushing	-13411
▁cellular	-13412
▁rotation	-13413
anti	-13414
ruit	-13415
▁RAM	-13416
omnia	-13417
▁Rosa	-13418
▁Tran	-13419
arency	-13420
heimer	-13421
makers	-13422
▁lakes	-13423
ffective	-13424
▁Include	-13425
▁confess	-13426
▁emphasis	-13427
▁answering	-13428
▁dissolved	-13429
▁cigarettes	-13430
▁fertilizer	-13431
▁membership	-13432
aby	-13433
afe	-13434
▁Ji	-13435
amel	-13436
▁Hop	-13437
asive	-13438
▁Emma	-13439
▁Fish	-13440
▁obsc	-13441
▁peas	-13442
▁2002.	-13443
▁Wayne	-13444
▁grape	-13445
▁tubes	-13446
▁metals	-13447
▁openly	-13448
▁alphabet	-13449
▁passport	-13450
▁provisions	-13451
Un	-13452
essa	-13453
▁PLA	-13454
▁bol	-13455
▁tex	-13456
▁Date	-13457
▁lion	-13458
▁verb	-13459
▁1996,	-13460
▁gates	-13461
▁kings	-13462
▁rounds	-13463
▁embassy	-13464
▁guessing	-13465
▁teenager	-13466
▁propaganda	-13467
▁protesters	-13468
▁consistency	-13469
IF	-13470
▁98	-13471
zewo	-13472
▁Ger	-13473
▁Isa	-13474
▁aims	-13475
▁chap	-13476
adelph	-13477
ijuana	-13478
ounces	-13479
▁Mommy	-13480
▁diary	-13481
▁mines	-13482
▁pengu	-13483
istical	-13484
▁persec	-13485
▁sticky	-13486
▁vector	-13487
▁Faculty	-13488
▁habitat	-13489
▁origins	-13490
▁phrases	-13491
psy	-13492
▁54	-13493
anka	-13494
▁Benj	-13495
▁holy	-13496
▁renov	-13497
version	-13498
▁Bishop	-13499
▁Report	-13500
▁coping	-13501
▁intact	-13502
▁Premier	-13503
▁propose	-13504
▁hopefully	-13505
▁metabolic	-13506
▁Literature	-13507
▁negatively	-13508
▁chemotherapy	-13509
▁implications	-13510
For	-13511
oard	-13512
pert	-13513
▁Oil	-13514
leted	-13515
▁Lore	-13516
▁Mend	-13517
▁audi	-13518
▁fame	-13519
▁oste	-13520
▁twin	-13521
ricane	-13522
untary	-13523
▁Voice	-13524
avender	-13525
▁Season	-13526
▁acidic	-13527
liminary	-13528
▁bedtime	-13529
▁defence	-13530
▁travels	-13531
▁enterprise	-13532
▁technically	-13533
▁16.	-13534
▁bye	-13535
▁nod	-13536
loved	-13537
▁Cruz	-13538
▁Drop	-13539
▁grip	-13540
▁champ	-13541
▁eager	-13542
▁exceed	-13543
▁render	-13544
▁Alright	-13545
▁editing	-13546
▁fitness	-13547
▁shaking	-13548
▁stubborn	-13549
▁Philadelph	-13550
▁interviews	-13551
▁terrorists	-13552
▁Johannesburg	-13553
atsu	-13554
etta	-13555
sburg	-13556
▁Disney	-13557
▁Multip	-13558
▁coward	-13559
▁eighth	-13560
▁altered	-13561
▁deposit	-13562
▁directors	-13563
▁explaining	-13564
▁surroundings	-13565
amas	-13566
ardon	-13567
heads	-13568
oenix	-13569
▁Karl	-13570
▁Ohio	-13571
▁Pear	-13572
▁bent	-13573
ermint	-13574
▁discl	-13575
▁fires	-13576
▁Living	-13577
▁nephew	-13578
▁garment	-13579
▁qualify	-13580
▁Austrian	-13581
▁organisation	-13582
mn	-13583
én	-13584
zeg	-13585
ader	-13586
apel	-13587
lley	-13588
nedy	-13589
▁Syd	-13590
▁cer	-13591
▁pip	-13592
chair	-13593
ource	-13594
▁Cart	-13595
▁Dick	-13596
▁Tanz	-13597
▁adhes	-13598
▁loses	-13599
holders	-13600
▁Athlet	-13601
▁Treaty	-13602
▁affili	-13603
▁commod	-13604
▁grades	-13605
▁thrive	-13606
▁Whenever	-13607
▁organism	-13608
▁piercing	-13609
▁Typically	-13610
▁designing	-13611
▁developer	-13612
▁migration	-13613
▁conscience	-13614
▁occasional	-13615
▁equilibrium	-13616
▁uncertainty	-13617
fox	-13618
▁Ib	-13619
▁Kaf	-13620
ortic	-13621
▁Whoa	-13622
▁fork	-13623
▁visa	-13624
forced	-13625
▁heels	-13626
▁solely	-13627
▁Writing	-13628
▁fitting	-13629
▁knocked	-13630
▁logical	-13631
▁sectors	-13632
▁shaving	-13633
itational	-13634
▁Marshall	-13635
▁infrared	-13636
▁resolved	-13637
▁references	-13638
▁Yearsactive	-13639
She	-13640
awi	-13641
▁Ow	-13642
loma	-13643
rots	-13644
imony	-13645
▁Snap	-13646
▁iPod	-13647
▁limb	-13648
▁welf	-13649
▁cared	-13650
▁shine	-13651
▁Oblast	-13652
▁armies	-13653
▁floors	-13654
▁labour	-13655
▁margin	-13656
▁permit	-13657
▁submit	-13658
▁Persian	-13659
▁abusive	-13660
▁sweetie	-13661
▁adjacent	-13662
▁altitude	-13663
▁catching	-13664
▁sciences	-13665
▁Gentlemen	-13666
HS	-13667
▁Á	-13668
ubs	-13669
orne	-13670
wall	-13671
▁(12	-13672
▁Abd	-13673
▁Epis	-13674
▁Walt	-13675
▁Armen	-13676
▁Excel	-13677
▁glory	-13678
▁Pierre	-13679
▁strips	-13680
▁consolid	-13681
▁requests	-13682
▁sexuality	-13683
▁governance	-13684
vi	-13685
azy	-13686
bial	-13687
zona	-13688
▁0.5	-13689
▁hex	-13690
adays	-13691
elson	-13692
onian	-13693
▁Ivan	-13694
erving	-13695
▁bleed	-13696
▁pyram	-13697
▁luxury	-13698
▁racial	-13699
▁volcan	-13700
▁breakup	-13701
▁Stargard	-13702
▁cemetery	-13703
▁Philadelphia	-13704
▁photographer	-13705
iti	-13706
iche	-13707
▁Jar	-13708
istle	-13709
izard	-13710
▁blur	-13711
▁rack	-13712
amines	-13713
uprofen	-13714
▁Savage	-13715
▁cycles	-13716
▁warmer	-13717
▁quietly	-13718
▁welfare	-13719
mentation	-13720
▁promises	-13721
▁Architect	-13722
▁backwards	-13723
▁divisions	-13724
▁underwater	-13725
▁atmospheric	-13726
▁controversy	-13727
▁intermediate	-13728
▁^	-13729
Yes	-13730
uka	-13731
igma	-13732
odox	-13733
about	-13734
▁Dest	-13735
▁jerk	-13736
arring	-13737
ulator	-13738
▁Scroll	-13739
▁cortex	-13740
▁Barbara	-13741
▁pursuit	-13742
▁restart	-13743
▁warfare	-13744
▁Salvador	-13745
▁inherent	-13746
▁assumptions	-13747
▁unemployment	-13748
▁identification	-13749
Con	-13750
ocl	-13751
▁88	-13752
rary	-13753
▁Bit	-13754
▁CYP	-13755
▁RNA	-13756
.....	-13757
Japan	-13758
anton	-13759
▁Lisa	-13760
▁bulb	-13761
▁upside	-13762
▁Kennedy	-13763
▁backing	-13764
▁reminds	-13765
▁secured	-13766
achusetts	-13767
▁homeless	-13768
▁momentum	-13769
▁Relations	-13770
▁petroleum	-13771
▁mainstream	-13772
▁organizing	-13773
▁prosperity	-13774
▁toothpaste	-13775
ppo	-13776
rex	-13777
activ	-13778
▁Meet	-13779
▁Davis	-13780
▁ester	-13781
▁gases	-13782
▁hosts	-13783
▁radar	-13784
▁bullets	-13785
▁curtain	-13786
▁diamond	-13787
▁feather	-13788
▁inhibit	-13789
▁residue	-13790
▁rewards	-13791
▁flooding	-13792
▁mattress	-13793
▁inequality	-13794
▁stretching	-13795
▁philosopher	-13796
bet	-13797
▁Ay	-13798
arms	-13799
▁Xia	-13800
▁gam	-13801
▁hed	-13802
uther	-13803
▁Brun	-13804
▁Mans	-13805
▁Warn	-13806
▁Paulo	-13807
prising	-13808
▁bypass	-13809
▁hostile	-13810
▁Chairman	-13811
▁defending	-13812
▁elementary	-13813
▁suggestions	-13814
ds	-13815
▁53	-13816
▁Luis	-13817
▁bass	-13818
▁Allen	-13819
▁Crist	-13820
▁Robin	-13821
▁pasta	-13822
▁modest	-13823
▁termin	-13824
▁monkeys	-13825
▁asteroid	-13826
▁threaten	-13827
▁Obviously	-13828
▁addressing	-13829
▁administer	-13830
▁telenovela	-13831
▁counterpart	-13832
▁Massachusetts	-13833
avia	-13834
▁1/4	-13835
▁Pas	-13836
ernel	-13837
omide	-13838
▁lect	-13839
▁peer	-13840
▁rehe	-13841
▁nomin	-13842
▁preval	-13843
▁turkey	-13844
▁Margaret	-13845
▁Purchase	-13846
▁arriving	-13847
▁athletes	-13848
▁churches	-13849
▁globally	-13850
▁interven	-13851
▁mentally	-13852
▁unstable	-13853
▁supporters	-13854
-2	-13855
amo	-13856
▁Il	-13857
atly	-13858
▁130	-13859
▁clo	-13860
▁los	-13861
rosis	-13862
▁Bour	-13863
▁Pink	-13864
▁bail	-13865
ancial	-13866
▁farms	-13867
▁genus	-13868
▁grill	-13869
▁souls	-13870
▁Israeli	-13871
▁tactics	-13872
▁bankrupt	-13873
▁ambulance	-13874
▁publishers	-13875
▁forgiveness	-13876
▁operational	-13877
▁evolutionary	-13878
▁investigating	-13879
agne	-13880
anus	-13881
rawn	-13882
▁Bes	-13883
claim	-13884
▁gums	-13885
▁hood	-13886
atched	-13887
atinum	-13888
usters	-13889
▁Annie	-13890
▁Carac	-13891
▁smugg	-13892
▁catast	-13893
▁junior	-13894
▁Private	-13895
▁beloved	-13896
▁advertis	-13897
▁downtown	-13898
▁reflects	-13899
▁capitalism	-13900
▁controller	-13901
▁frightened	-13902
▁corporation	-13903
nut	-13904
▁Leo	-13905
ansas	-13906
▁1972	-13907
▁Grad	-13908
▁pref	-13909
▁ware	-13910
opotam	-13911
uccess	-13912
▁razor	-13913
▁valve	-13914
▁Online	-13915
▁gaming	-13916
▁magnet	-13917
▁prayer	-13918
etheless	-13919
▁cancers	-13920
▁pockets	-13921
▁enhanced	-13922
▁anonymous	-13923
▁exploring	-13924
▁submitted	-13925
▁researcher	-13926
▁dysfunction	-13927
▁revolutionary	-13928
49	-13929
OT	-13930
umps	-13931
▁Bos	-13932
▁pee	-13933
matic	-13934
▁Airl	-13935
▁Glad	-13936
▁Need	-13937
▁Zamb	-13938
▁bang	-13939
▁corp	-13940
▁prox	-13941
estone	-13942
▁Amanda	-13943
▁merger	-13944
▁deposits	-13945
▁animation	-13946
▁nightmare	-13947
▁compliments	-13948
▁northwestern	-13949
▁Kw	-13950
asis	-13951
▁18.	-13952
▁1973	-13953
▁Chan	-13954
▁boom	-13955
▁buck	-13956
▁dots	-13957
▁Happy	-13958
▁alloc	-13959
▁tuber	-13960
▁foster	-13961
ensively	-13962
▁decides	-13963
▁outline	-13964
▁facilitate	-13965
▁enterprises	-13966
▁legislative	-13967
▁neighboring	-13968
▁pm	-13969
agus	-13970
long	-13971
unct	-13972
▁Pub	-13973
▁Sep	-13974
front	-13975
▁fier	-13976
▁pays	-13977
ifting	-13978
otrans	-13979
▁Pozna	-13980
▁spite	-13981
isphere	-13982
▁Martha	-13983
▁cinema	-13984
▁trucks	-13985
▁acquire	-13986
▁freezer	-13987
ropolitan	-13988
▁tensions	-13989
iterranean	-13990
▁celebrity	-13991
▁switching	-13992
▁Philippine	-13993
▁advantages	-13994
▁destroying	-13995
▁competitors	-13996
mun	-13997
▁Cha	-13998
▁Lor	-13999
▁Mos	-14000
chell	-14001
▁bait	-14002
▁fung	-14003
▁tune	-14004
▁Bobby	-14005
▁Breat	-14006
▁jeans	-14007
▁onion	-14008
▁dealer	-14009
▁Inspect	-14010
▁earning	-14011
▁reveals	-14012
▁accuracy	-14013
▁kidnapped	-14014
▁obstacles	-14015
▁approached	-14016
▁inevitable	-14017
▁preferences	-14018
▁schizophrenia	-14019
cycl	-14020
hero	-14021
▁Sha	-14022
▁aqu	-14023
▁lig	-14024
chron	-14025
▁Gary	-14026
▁writ	-14027
▁Jesse	-14028
▁Seems	-14029
▁cater	-14030
▁nasty	-14031
▁vault	-14032
writing	-14033
▁verbal	-14034
▁wholes	-14035
lication	-14036
▁Chamber	-14037
▁mammals	-14038
▁appropri	-14039
▁sickness	-14040
▁civilians	-14041
▁detection	-14042
▁incidents	-14043
▁innovative	-14044
▁questioning	-14045
▁historically	-14046
▁antibacterial	-14047
▁comprehensive	-14048
anie	-14049
▁Rud	-14050
▁Case	-14051
▁Stef	-14052
▁Thor	-14053
astics	-14054
▁Chall	-14055
▁advise	-14056
▁declar	-14057
attering	-14058
▁Neither	-14059
▁rebuilt	-14060
▁viewing	-14061
oneliness	-14062
▁sedative	-14063
▁Hungarian	-14064
▁priorities	-14065
▁businessman	-14066
▁SC	-14067
▁SU	-14068
▁fond	-14069
▁frog	-14070
▁Clark	-14071
▁Motor	-14072
▁Saudi	-14073
▁Gently	-14074
▁Marine	-14075
▁Panama	-14076
▁Sydney	-14077
▁Visual	-14078
▁cracks	-14079
▁divers	-14080
▁glands	-14081
▁analyze	-14082
▁genital	-14083
▁hardest	-14084
▁crystall	-14085
▁patience	-14086
▁soothing	-14087
▁suspects	-14088
▁downloaded	-14089
add	-14090
vir	-14091
reek	-14092
ushi	-14093
▁Bac	-14094
▁Kor	-14095
▁1974	-14096
▁Benn	-14097
▁Homs	-14098
▁susp	-14099
▁1989,	-14100
▁mobil	-14101
imation	-14102
nthesis	-14103
▁Hebrew	-14104
▁Admiral	-14105
▁Drawsko	-14106
▁perfume	-14107
▁romance	-14108
▁credited	-14109
▁deciding	-14110
▁alternate	-14111
▁miserable	-14112
▁reservoir	-14113
▁subsidiary	-14114
▁GH	-14115
bula	-14116
▁BCE	-14117
▁Cro	-14118
▁Eug	-14119
▁NAT	-14120
▁degr	-14121
ndered	-14122
▁Activ	-14123
▁Arist	-14124
▁Chuck	-14125
▁Karen	-14126
▁alike	-14127
▁ankle	-14128
▁bride	-14129
▁fairy	-14130
▁vague	-14131
▁widow	-14132
▁Temple	-14133
▁Trying	-14134
▁hazard	-14135
▁sponge	-14136
▁conclus	-14137
▁essence	-14138
▁senator	-14139
▁strains	-14140
▁substit	-14141
▁intensive	-14142
▁Mediterranean	-14143
0)	-14144
34	-14145
atra	-14146
eros	-14147
ocin	-14148
▁Nac	-14149
▁Pow	-14150
▁sap	-14151
▁carn	-14152
▁lime	-14153
phrine	-14154
ulsion	-14155
▁Colin	-14156
▁Opera	-14157
▁wages	-14158
Chinese	-14159
angular	-14160
uscript	-14161
▁salary	-14162
gression	-14163
▁Muslims	-14164
▁gambling	-14165
▁ointment	-14166
▁tomatoes	-14167
▁wildlife	-14168
▁coordinates	-14169
▁determination	-14170
flu	-14171
ipt	-14172
iri	-14173
oba	-14174
rik	-14175
mbre	-14176
rade	-14177
▁$10	-14178
ogens	-14179
▁lamp	-14180
▁swab	-14181
▁demon	-14182
▁vapor	-14183
▁Belarus	-14184
▁cocaine	-14185
▁skilled	-14186
▁predominantly	-14187
ét	-14188
▁51	-14189
▁Ru	-14190
ńska	-14191
▁yöu	-14192
▁1977	-14193
▁epic	-14194
avalry	-14195
▁2001.	-14196
▁Susan	-14197
▁sciss	-14198
▁namely	-14199
▁upward	-14200
▁emperor	-14201
▁enables	-14202
▁fifteen	-14203
▁Lawrence	-14204
▁permitted	-14205
MP	-14206
lie	-14207
oop	-14208
▁".	-14209
isha	-14210
orrh	-14211
▁Gor	-14212
opher	-14213
▁Milan	-14214
▁blond	-14215
▁dealt	-14216
▁diver	-14217
▁wrink	-14218
osexual	-14219
▁Samuel	-14220
▁fortun	-14221
▁shells	-14222
▁Indians	-14223
▁columns	-14224
istration	-14225
▁barriers	-14226
▁computing	-14227
▁hepatitis	-14228
▁aggression	-14229
zan	-14230
▁Fu	-14231
▁Gó	-14232
▁Alz	-14233
▁Lyn	-14234
adequ	-14235
illes	-14236
proof	-14237
track	-14238
▁Aunt	-14239
▁Grow	-14240
▁Pack	-14241
▁Sean	-14242
advant	-14243
▁Damas	-14244
▁Poles	-14245
erences	-14246
▁Havana	-14247
▁fridge	-14248
▁crushed	-14249
ictionary	-14250
▁activate	-14251
▁diplomacy	-14252
▁practiced	-14253
▁premiered	-14254
▁congestion	-14255
aky	-14256
www	-14257
days	-14258
sels	-14259
▁Hub	-14260
▁Pon	-14261
▁Raf	-14262
ogram	-14263
▁vend	-14264
ittens	-14265
▁Angel	-14266
▁Leone	-14267
▁exert	-14268
▁salts	-14269
▁Garden	-14270
▁Native	-14271
▁equals	-14272
▁orally	-14273
▁Arizona	-14274
▁Contact	-14275
▁Raymond	-14276
▁horizon	-14277
▁oatmeal	-14278
▁recipes	-14279
▁smarter	-14280
▁meantime	-14281
▁revenues	-14282
▁Treatment	-14283
▁criminals	-14284
▁electrons	-14285
▁Throughout	-14286
▁attributes	-14287
▁separately	-14288
▁independently	-14289
trl	-14290
▁Ess	-14291
▁sab	-14292
atile	-14293
uffic	-14294
▁biod	-14295
teenth	-14296
urrent	-14297
▁Andre	-14298
▁Naval	-14299
▁traps	-14300
istance	-14301
▁resent	-14302
▁sensory	-14303
▁aluminum	-14304
▁diagnose	-14305
▁receives	-14306
▁alleviate	-14307
▁seemingly	-14308
▁selecting	-14309
▁transparent	-14310
▁discontinued	-14311
▁distractions	-14312
31	-14313
nom	-14314
▁ic	-14315
arag	-14316
itol	-14317
▁Ric	-14318
Cloud	-14319
▁gains	-14320
▁waking	-14321
essional	-14322
▁gesture	-14323
▁someday	-14324
▁texting	-14325
▁striking	-14326
▁dictators	-14327
▁prototype	-14328
▁Christians	-14329
▁algorithms	-14330
▁infectious	-14331
▁conjunction	-14332
▁conditioning	-14333
All	-14334
lia	-14335
inyl	-14336
▁Abu	-14337
▁Kab	-14338
brand	-14339
namon	-14340
▁Qual	-14341
▁Vers	-14342
▁nipp	-14343
▁weig	-14344
acular	-14345
forest	-14346
▁1990,	-14347
▁scars	-14348
▁trips	-14349
▁Bulgar	-14350
▁Excell	-14351
▁Mobile	-14352
▁Toronto	-14353
▁volcano	-14354
▁Sportiva	-14355
▁enrolled	-14356
▁flirting	-14357
▁factories	-14358
▁mechanics	-14359
▁mushrooms	-14360
▁perimeter	-14361
▁witnesses	-14362
▁immigration	-14363
▁Eye	-14364
▁Hem	-14365
▁Kas	-14366
▁Rot	-14367
▁THE	-14368
cials	-14369
range	-14370
utors	-14371
▁Jenn	-14372
▁Rail	-14373
ensing	-14374
▁Limit	-14375
▁Pablo	-14376
▁Visit	-14377
▁pause	-14378
▁renal	-14379
tically	-14380
▁Instit	-14381
▁extends	-14382
▁sensors	-14383
▁certified	-14384
▁comparing	-14385
▁translate	-14386
▁progressive	-14387
3%	-14388
EP	-14389
agu	-14390
▁Jr	-14391
▁Pic	-14392
▁Bird	-14393
▁Fran	-14394
rocław	-14395
▁1991,	-14396
▁brick	-14397
▁inapp	-14398
usually	-14399
▁Harold	-14400
▁Regard	-14401
▁ranges	-14402
▁summon	-14403
▁Antonio	-14404
▁Silesia	-14405
▁bubbles	-14406
▁hosting	-14407
▁weights	-14408
sequently	-14409
▁Financial	-14410
▁cooperate	-14411
▁streaming	-14412
▁respective	-14413
▁interpreted	-14414
gio	-14415
arity	-14416
iscal	-14417
shire	-14418
▁tier	-14419
▁Flash	-14420
▁Nepal	-14421
▁draws	-14422
▁gland	-14423
▁paths	-14424
▁syrup	-14425
agnetic	-14426
itative	-14427
▁Buddha	-14428
▁hostage	-14429
▁offense	-14430
▁Florence	-14431
▁retained	-14432
▁accidents	-14433
}}	-14434
pen	-14435
rah	-14436
▁CC	-14437
aver	-14438
ennes	-14439
marks	-14440
▁mars	-14441
▁tide	-14442
odynam	-14443
▁comic	-14444
▁ballet	-14445
▁scroll	-14446
▁typing	-14447
▁Systems	-14448
▁fragile	-14449
▁progest	-14450
▁limiting	-14451
▁petition	-14452
▁promotes	-14453
▁dimension	-14454
▁phenomena	-14455
▁Nevertheless	-14456
▁É	-14457
▁Ark	-14458
utter	-14459
▁Base	-14460
▁hect	-14461
▁mama	-14462
▁merc	-14463
▁Monte	-14464
▁sting	-14465
imeters	-14466
olished	-14467
▁defines	-14468
▁gallery	-14469
▁publish	-14470
▁chlorine	-14471
▁informal	-14472
▁Mesopotam	-14473
▁completion	-14474
▁transparency	-14475
";	-14476
hu	-14477
oka	-14478
iors	-14479
▁dub	-14480
▁golf	-14481
▁Świd	-14482
▁1945,	-14483
▁cents	-14484
▁ignor	-14485
▁risky	-14486
▁Queens	-14487
▁Yellow	-14488
▁patron	-14489
cedented	-14490
▁Janeiro	-14491
▁compact	-14492
▁customs	-14493
▁lacking	-14494
▁puppies	-14495
▁Ukrainian	-14496
▁disadvant	-14497
▁anesthesia	-14498
▁comparable	-14499
▁greenhouse	-14500
▁probability	-14501
▁ecl	-14502
ersed	-14503
▁Made	-14504
▁Roll	-14505
▁isot	-14506
▁nons	-14507
▁repet	-14508
▁Poznań	-14509
▁mentor	-14510
▁remedy	-14511
▁rolled	-14512
▁compost	-14513
▁erosion	-14514
▁optimal	-14515
▁winners	-14516
▁Airlines	-14517
▁navigate	-14518
▁breakdown	-14519
▁commercially	-14520
ilst	-14521
rika	-14522
▁140	-14523
▁181	-14524
▁Dog	-14525
▁sor	-14526
▁Body	-14527
▁Sene	-14528
▁Soak	-14529
ulsive	-14530
▁Quick	-14531
▁encomp	-14532
▁makers	-14533
▁varied	-14534
▁Gallery	-14535
▁courtes	-14536
▁indoors	-14537
▁multiply	-14538
▁republic	-14539
▁servants	-14540
▁talented	-14541
▁attacking	-14542
▁inability	-14543
▁decreasing	-14544
▁psychologist	-14545
2%	-14546
55	-14547
GC	-14548
amy	-14549
star	-14550
▁NGO	-14551
▁Tus	-14552
▁deer	-14553
▁binds	-14554
▁excus	-14555
▁purse	-14556
▁ulcer	-14557
▁Manuel	-14558
▁barrel	-14559
▁lining	-14560
▁portal	-14561
▁slices	-14562
▁mercury	-14563
▁viewers	-14564
▁Brooklyn	-14565
▁dreaming	-14566
▁respected	-14567
▁manuscript	-14568
▁relegation	-14569
▁developments	-14570
Go	-14571
▁Ig	-14572
arma	-14573
azed	-14574
▁pix	-14575
ribly	-14576
▁Trib	-14577
▁biom	-14578
▁snap	-14579
▁tops	-14580
▁wolf	-14581
▁Relax	-14582
▁maker	-14583
▁wives	-14584
▁Junior	-14585
▁shifts	-14586
▁static	-14587
▁catalog	-14588
▁imported	-14589
▁socially	-14590
▁franchise	-14591
▁conducting	-14592
▁injections	-14593
SS	-14594
iji	-14595
obr	-14596
ride	-14597
▁Koł	-14598
▁jog	-14599
▁Cool	-14600
▁Crit	-14601
▁Ctrl	-14602
▁Full	-14603
▁powd	-14604
uating	-14605
▁Cairo	-14606
▁Jerry	-14607
▁Stage	-14608
▁array	-14609
▁theat	-14610
▁interc	-14611
▁metall	-14612
children	-14613
ountered	-14614
▁Vincent	-14615
▁highway	-14616
▁brighter	-14617
▁disabled	-14618
▁portions	-14619
▁extending	-14620
▁Subdistrict	-14621
▁introducing	-14622
▁confirmation	-14623
▁parliamentary	-14624
▁recommendation	-14625
Pl	-14626
gun	-14627
ień	-14628
▁2)	-14629
gels	-14630
▁Mab	-14631
▁Left	-14632
alling	-14633
erting	-14634
▁Foods	-14635
▁Quest	-14636
▁Tyler	-14637
ountain	-14638
▁anemia	-14639
▁tastes	-14640
▁analges	-14641
▁bananas	-14642
▁rabbits	-14643
▁recruit	-14644
▁Memorial	-14645
▁examined	-14646
▁instantly	-14647
▁witnessed	-14648
6%	-14649
ulk	-14650
mill	-14651
user	-14652
▁(20	-14653
▁20.	-14654
▁wors	-14655
▁Finch	-14656
▁Kings	-14657
▁Putin	-14658
▁metre	-14659
angered	-14660
▁Hunter	-14661
▁creator	-14662
▁liberty	-14663
▁rehabil	-14664
▁Benjamin	-14665
▁airplane	-14666
▁bachelor	-14667
▁deterior	-14668
▁scissors	-14669
▁Underwood	-14670
▁champions	-14671
▁collapsed	-14672
▁scratching	-14673
▁celebration	-14674
8),	-14675
▁00	-14676
heid	-14677
piece	-14678
▁Thea	-14679
▁beds	-14680
▁clog	-14681
nected	-14682
▁seeks	-14683
▁slope	-14684
▁20,000	-14685
▁Preced	-14686
▁carcin	-14687
▁renown	-14688
▁thirds	-14689
▁Majesty	-14690
▁Nicholas	-14691
▁resigned	-14692
▁Cambridge	-14693
▁Universal	-14694
▁mathematic	-14695
▁provincial	-14696
▁distinctive	-14697
▁encountered	-14698
GF	-14699
who	-14700
▁LA	-14701
▁Oz	-14702
ilis	-14703
isol	-14704
ocks	-14705
oken	-14706
tics	-14707
▁202	-14708
▁Cec	-14709
▁lin	-14710
avail	-14711
▁syll	-14712
govern	-14713
omorph	-14714
▁1993,	-14715
▁cargo	-14716
▁energ	-14717
▁fluct	-14718
▁meats	-14719
▁overs	-14720
▁shred	-14721
▁Guinea	-14722
▁soothe	-14723
▁Monitor	-14724
▁colours	-14725
▁murders	-14726
▁Specific	-14727
▁Nominated	-14728
▁fundament	-14729
▁presidency	-14730
nor	-14731
date	-14732
inib	-14733
inos	-14734
rett	-14735
▁Ara	-14736
▁Ble	-14737
isone	-14738
leton	-14739
▁Finn	-14740
▁rapp	-14741
▁wage	-14742
▁crypt	-14743
▁unpre	-14744
▁Darwin	-14745
operation	-14746
▁portrait	-14747
▁switched	-14748
▁struggles	-14749
▁assumption	-14750
ede	-14751
▁59	-14752
feld	-14753
wife	-14754
▁Cob	-14755
▁caf	-14756
▁dot	-14757
▁Ming	-14758
▁Wiel	-14759
▁amid	-14760
ustion	-14761
yright	-14762
▁1992,	-14763
▁Forum	-14764
▁Intel	-14765
▁Judge	-14766
▁Magic	-14767
▁Throw	-14768
▁embry	-14769
▁Cooper	-14770
▁marrow	-14771
▁reflex	-14772
▁unsure	-14773
▁Jessica	-14774
▁Morocco	-14775
▁colleges	-14776
▁diplomat	-14777
▁microbes	-14778
enaissance	-14779
▁fictional	-14780
▁inhibition	-14781
▁intravenous	-14782
▁transactions	-14783
▁configuration	-14784
On	-14785
RP	-14786
SD	-14787
uko	-14788
achi	-14789
awno	-14790
▁Inn	-14791
ortal	-14792
▁Bing	-14793
▁Lima	-14794
▁NATO	-14795
▁Zone	-14796
▁asym	-14797
▁bure	-14798
▁deaf	-14799
▁stap	-14800
▁Apart	-14801
▁Laura	-14802
▁relay	-14803
▁citrus	-14804
▁enters	-14805
▁Ottoman	-14806
▁exagger	-14807
▁inadequ	-14808
▁eccentric	-14809
▁providers	-14810
▁distraction	-14811
ims	-14812
▁67	-14813
▁IT	-14814
▁vs	-14815
aman	-14816
imet	-14817
imon	-14818
rels	-14819
▁Hoa	-14820
▁Lot	-14821
▁Mol	-14822
shore	-14823
vised	-14824
▁Kids	-14825
uclear	-14826
▁Forget	-14827
▁contra	-14828
▁ethics	-14829
▁finite	-14830
▁jungle	-14831
▁fabrics	-14832
▁rounded	-14833
amination	-14834
▁deployed	-14835
▁insomnia	-14836
▁timeline	-14837
▁dismissed	-14838
▁premature	-14839
▁specialty	-14840
▁violations	-14841
▁considerably	-14842
4%	-14843
elf	-14844
▁fog	-14845
odian	-14846
▁1967	-14847
▁Canal	-14848
▁Miche	-14849
▁chore	-14850
▁monop	-14851
▁roses	-14852
▁unsub	-14853
uscular	-14854
▁hunter	-14855
▁offend	-14856
▁traces	-14857
▁wasted	-14858
▁Wrocław	-14859
▁annually	-14860
▁Agriculture	-14861
▁efficiently	-14862
▁associations	-14863
46	-14864
iah	-14865
quis	-14866
▁Osc	-14867
entin	-14868
▁Cust	-14869
▁Mist	-14870
▁bias	-14871
▁dong	-14872
▁Fight	-14873
▁Helen	-14874
▁congr	-14875
▁incon	-14876
▁Aleppo	-14877
▁discon	-14878
▁disres	-14879
▁Nicarag	-14880
▁hobbies	-14881
▁mirrors	-14882
▁sincere	-14883
▁Sherlock	-14884
▁animated	-14885
▁annoying	-14886
▁rainfall	-14887
▁Alzheimer	-14888
▁Protection	-14889
▁dependence	-14890
▁luminosity	-14891
▁perfection	-14892
▁certificate	-14893
▁availability	-14894
▁breakthrough	-14895
Don	-14896
▁IU	-14897
▁Ord	-14898
▁rag	-14899
Video	-14900
arate	-14901
thood	-14902
▁Cancer	-14903
▁burial	-14904
▁patrol	-14905
▁seller	-14906
▁Release	-14907
▁begging	-14908
▁tempted	-14909
▁thorough	-14910
▁marijuana	-14911
▁accountable	-14912
▁unprecedented	-14913
Wh	-14914
gon	-14915
phal	-14916
raham	-14917
▁Mons	-14918
▁brid	-14919
▁rust	-14920
▁tuna	-14921
▁Bangl	-14922
▁bases	-14923
▁buyer	-14924
▁canal	-14925
▁races	-14926
▁stead	-14927
▁Barcel	-14928
▁Slovak	-14929
▁Telesc	-14930
▁cancel	-14931
▁tackle	-14932
▁valued	-14933
▁drought	-14934
▁noodles	-14935
▁percept	-14936
▁quicker	-14937
▁improves	-14938
▁Operation	-14939
▁elevation	-14940
▁exhausted	-14941
▁corticoster	-14942
▁communicating	-14943
gage	-14944
llor	-14945
rays	-14946
▁Ori	-14947
▁Sri	-14948
aning	-14949
▁Nine	-14950
▁ounces	-14951
▁speeds	-14952
▁sprays	-14953
▁unfair	-14954
▁Protect	-14955
▁hamster	-14956
▁melting	-14957
▁precurs	-14958
▁antibody	-14959
▁reminder	-14960
▁respectful	-14961
▁Environmental	-14962
pit	-14963
acus	-14964
ylum	-14965
block	-14966
ioxid	-14967
ommon	-14968
ophil	-14969
uming	-14970
visor	-14971
▁Kill	-14972
▁doct	-14973
▁rins	-14974
▁toll	-14975
Americ	-14976
▁Spray	-14977
▁condu	-14978
▁newer	-14979
▁wagon	-14980
reshold	-14981
▁escort	-14982
▁Manager	-14983
[...]
