[PAD]	0
[UNK]	0
[BOS]	0
[EOS]	0
▁t	-0
ng	-1
▁c	-2
▁đ	-3
nh	-4
▁v	-5
▁th	-6
▁l	-7
▁b	-8
▁h	-9
▁m	-10
▁ch	-11
▁k	-12
▁n	-13
▁s	-14
▁tr	-15
▁nh	-16
▁kh	-17
▁g	-18
▁ng	-19
▁và	-20
ông	-21
▁d	-22
▁là	-23
▁p	-24
▁ph	-25
ác	-26
ên	-27
▁gi	-28
▁T	-29
▁có	-30
▁r	-31
▁củ	-32
▁của	-33
ôi	-34
iệ	-35
▁C	-36
ột	-37
ườ	-38
ượ	-39
▁một	-40
iế	-41
ới	-42
qu	-43
▁không	-44
▁qu	-45
▁N	-46
ược	-47
ạn	-48
▁các	-49
ất	-50
ong	-51
▁x	-52
ại	-53
▁được	-54
an	-55
uy	-56
ày	-57
▁tôi	-58
ười	-59
▁đã	-60
▁trong	-61
▁thể	-62
anh	-63
iề	-64
▁bạn	-65
▁người	-66
ình	-67
▁ta	-68
▁cho	-69
úng	-70
▁với	-71
▁B	-72
ấy	-73
ần	-74
ải	-75
▁nó	-76
▁đó	-77
▁ho	-78
▁M	-79
ch	-80
uố	-81
on	-82
ững	-83
▁ngh	-84
iều	-85
▁Đ	-86
▁sẽ	-87
ân	-88
▁như	-89
ây	-90
iên	-91
ao	-92
ay	-93
▁những	-94
▁H	-95
▁ở	-96
▁này	-97
▁1	-98
▁V	-99
in	-100
▁để	-101
▁-	-102
ai	-103
ướ	-104
▁S	-105
ành	-106
ang	-107
▁nă	-108
▁họ	-109
▁Ch	-110
▁A	-111
▁khi	-112
▁làm	-113
iết	-114
ầu	-115
ết	-116
iể	-117
ến	-118
▁ra	-119
▁vào	-120
▁anh	-121
▁chúng	-122
▁K	-123
▁cả	-124
au	-125
iện	-126
ằng	-127
ước	-128
ường	-129
ật	-130
ơn	-131
ực	-132
▁độ	-133
ươ	-134
ái	-135
▁phải	-136
▁L	-137
ặc	-138
▁đến	-139
inh	-140
▁(	-141
ức	-142
ính	-143
▁năm	-144
▁về	-145
ản	-146
ài	-147
er	-148
ời	-149
▁mà	-150
▁từ	-151
▁2	-152
▁sự	-153
ương	-154
ận	-155
▁Tôi	-156
▁số	-157
ào	-158
ùng	-159
em	-160
ối	-161
▁Th	-162
ếu	-163
ung	-164
iệc	-165
át	-166
▁P	-167
▁lại	-168
am	-169
▁gì	-170
áng	-171
âu	-172
iến	-173
▁Nh	-174
àn	-175
ar	-176
▁đi	-177
▁nói	-178
àng	-179
▁việc	-180
ập	-181
en	-182
▁dụ	-183
ũng	-184
▁bị	-185
▁cô	-186
ồi	-187
▁đầu	-188
▁biết	-189
▁hơn	-190
▁khác	-191
▁chuy	-192
▁G	-193
▁Tr	-194
▁cũng	-195
ăn	-196
▁điều	-197
▁thế	-198
ích	-199
▁con	-200
▁D	-201
▁đang	-202
▁thành	-203
▁hoặc	-204
ộc	-205
▁trên	-206
▁chỉ	-207
▁"	-208
uốn	-209
eo	-210
▁thấy	-211
ổi	-212
▁cách	-213
ắt	-214
iệu	-215
▁đây	-216
▁nghĩ	-217
ơi	-218
▁nhà	-219
ống	-220
▁công	-221
▁thu	-222
▁nhiều	-223
▁lo	-224
êu	-225
▁Kh	-226
ậy	-227
▁ấy	-228
ắc	-229
ứng	-230
ọi	-231
ậu	-232
▁ông	-233
áo	-234
▁muốn	-235
▁đị	-236
ưa	-237
án	-238
▁nào	-239
ữa	-240
ặt	-241
▁20	-242
▁học	-243
▁mình	-244
▁Anh	-245
ội	-246
ện	-247
▁dụng	-248
▁cần	-249
▁rằng	-250
▁nhất	-251
▁động	-252
▁quan	-253
ia	-254
òn	-255
ắn	-256
úc	-257
▁kho	-258
▁chính	-259
▁vì	-260
▁tại	-261
▁tiế	-262
ánh	-263
ạo	-264
al	-265
ền	-266
or	-267
▁nên	-268
ục	-269
▁ngày	-270
▁R	-271
▁đề	-272
âm	-273
▁rồi	-274
▁sau	-275
ồng	-276
▁Ng	-277
▁nhưng	-278
ẫn	-279
▁hiện	-280
es	-281
iểu	-282
▁to	-283
▁y	-284
▁sao	-285
▁em	-286
▁quy	-287
ăng	-288
ấp	-289
ôn	-290
uộc	-291
ấn	-292
ảo	-293
▁thì	-294
áp	-295
òng	-296
▁nước	-297
iệt	-298
▁bằng	-299
ưở	-300
▁gia	-301
▁19	-302
▁E	-303
ốc	-304
ạt	-305
▁thứ	-306
▁do	-307
ượng	-308
ưởng	-309
uốc	-310
▁sử	-311
iểm	-312
▁thực	-313
▁cái	-314
▁còn	-315
el	-316
▁nhân	-317
▁rất	-318
▁thời	-319
im	-320
ỏi	-321
▁tự	-322
ãy	-323
▁theo	-324
ợp	-325
▁định	-326
ảng	-327
▁chuyện	-328
▁Nếu	-329
ốt	-330
▁trước	-331
ìm	-332
▁hợp	-333
▁vậy	-334
ởi	-335
at	-336
▁cơ	-337
▁tháng	-338
▁Và	-339
ấu	-340
ưng	-341
▁Ph	-342
▁hành	-343
▁thường	-344
▁cảm	-345
êm	-346
▁nhận	-347
▁lên	-348
▁hình	-349
ọn	-350
▁nếu	-351
ỗi	-352
ọng	-353
▁Chúng	-354
▁Q	-355
▁phát	-356
▁giờ	-357
▁bản	-358
▁cuộc	-359
▁hai	-360
ạng	-361
úp	-362
▁lớ	-363
▁tin	-364
▁qua	-365
▁bao	-366
▁hay	-367
▁cùng	-368
ic	-369
▁cậu	-370
▁tìm	-371
▁lu	-372
▁cứ	-373
ừng	-374
iễ	-375
ách	-376
00	-377
ịch	-378
▁bộ	-379
▁tu	-380
▁má	-381
is	-382
▁giúp	-383
út	-384
ol	-385
▁kết	-386
▁bắt	-387
▁tới	-388
▁sinh	-389
it	-390
ạnh	-391
▁xu	-392
▁trở	-393
▁lý	-394
ạc	-395
et	-396
as	-397
▁loại	-398
▁ý	-399
▁Nó	-400
iển	-401
▁viên	-402
▁J	-403
il	-404
▁quá	-405
▁phần	-406
▁hàng	-407
▁tính	-408
iệm	-409
ệnh	-410
▁mới	-411
▁trình	-412
iêu	-413
ảm	-414
▁sống	-415
▁giới	-416
▁tiếp	-417
▁3	-418
▁F	-419
▁W	-420
▁trường	-421
▁gian	-422
▁bởi	-423
▁Không	-424
▁đối	-425
ắng	-426
uyên	-427
▁tốt	-428
▁thông	-429
▁năng	-430
▁tạo	-431
▁thích	-432
▁Có	-433
▁mặt	-434
▁tế	-435
▁đồng	-436
▁ăn	-437
▁Bạn	-438
ro	-439
▁nữa	-440
iền	-441
▁ngo	-442
▁mọi	-443
▁phí	-444
ển	-445
ồn	-446
▁hội	-447
▁đâu	-448
▁201	-449
▁lớn	-450
▁Một	-451
▁trị	-452
uống	-453
▁xuất	-454
▁Nhưng	-455
ẩm	-456
ảnh	-457
▁nhau	-458
▁I	-459
▁dự	-460
▁toàn	-461
▁bà	-462
ửa	-463
▁hệ	-464
ẳng	-465
▁dùng	-466
▁thay	-467
▁Cô	-468
▁Gi	-469
▁lần	-470
▁khu	-471
▁lượng	-472
ảy	-473
▁đổi	-474
▁nhiên	-475
▁thức	-476
▁Các	-477
▁tập	-478
▁ai	-479
ẩn	-480
▁giải	-481
ám	-482
▁vị	-483
▁bảo	-484
▁chất	-485
▁gọi	-486
▁thật	-487
ạch	-488
▁tác	-489
▁trọng	-490
ăm	-491
▁tình	-492
óc	-493
▁tâm	-494
▁tay	-495
ặp	-496
iễn	-497
iệp	-498
▁đo	-499
▁tiên	-500
▁vật	-501
▁đường	-502
▁máy	-503
▁tổ	-504
▁tên	-505
▁vụ	-506
id	-507
▁chủ	-508
▁liên	-509
▁sĩ	-510
▁vẫn	-511
ộng	-512
▁'	-513
óng	-514
▁tho	-515
▁nơi	-516
▁cao	-517
▁bất	-518
ìn	-519
▁chứ	-520
us	-521
▁sản	-522
om	-523
▁hoá	-524
▁xem	-525
▁hãy	-526
▁chưa	-527
ưới	-528
▁hiệu	-529
▁O	-530
▁bệnh	-531
▁yêu	-532
▁Ho	-533
▁bỏ	-534
▁bên	-535
▁Ô	-536
os	-537
▁pháp	-538
▁tất	-539
▁quả	-540
▁vấn	-541
▁điểm	-542
▁thống	-543
uối	-544
ua	-545
▁ảnh	-546
▁thuốc	-547
▁đấy	-548
▁bố	-549
ép	-550
▁thiết	-551
▁cầu	-552
▁quyền	-553
ad	-554
▁đại	-555
ầm	-556
▁quốc	-557
▁tiếng	-558
ướng	-559
▁tuy	-560
ac	-561
▁lập	-562
▁Quốc	-563
ợi	-564
▁trung	-565
▁chuyển	-566
uyền	-567
▁phía	-568
▁đưa	-569
▁câu	-570
▁liệu	-571
▁Trong	-572
▁thân	-573
▁cứu	-574
▁biệt	-575
▁phẩm	-576
▁5	-577
▁cấp	-578
▁chiến	-579
ừa	-580
hi	-581
▁tiêu	-582
▁Ông	-583
▁lực	-584
▁nhìn	-585
▁thị	-586
▁vi	-587
▁gặp	-588
ur	-589
▁chứng	-590
ắm	-591
▁dân	-592
▁4	-593
ít	-594
ét	-595
▁kinh	-596
▁ngoài	-597
ồm	-598
▁phụ	-599
▁phòng	-600
▁hết	-601
▁X	-602
▁Em	-603
▁nữ	-604
▁hoạt	-605
ọc	-606
▁phương	-607
▁ứng	-608
▁đều	-609
▁chọn	-610
▁nghe	-611
▁200	-612
▁gồm	-613
▁chết	-614
▁khoảng	-615
▁chế	-616
▁chức	-617
le	-618
ạm	-619
▁thôi	-620
▁chơi	-621
▁tương	-622
▁chiế	-623
▁nhỏ	-624
▁lúc	-625
▁Trung	-626
▁hắn	-627
▁sáng	-628
▁nghĩa	-629
▁hỏi	-630
▁vài	-631
▁tăng	-632
▁cố	-633
▁khỏi	-634
▁giá	-635
▁gây	-636
▁so	-637
▁U	-638
).	-639
▁dẫn	-640
▁tiền	-641
),	-642
▁hoàn	-643
▁báo	-644
▁mất	-645
▁phân	-646
▁diễn	-647
▁biến	-648
▁thương	-649
▁hiểu	-650
▁lời	-651
▁ngay	-652
▁mẹ	-653
▁thuật	-654
▁chu	-655
▁từng	-656
▁chị	-657
áu	-658
▁triển	-659
▁điện	-660
▁Đó	-661
ấm	-662
▁sát	-663
ằm	-664
▁giảm	-665
▁Khi	-666
ắp	-667
▁dưới	-668
▁mỗi	-669
▁kỳ	-670
▁nay	-671
ưu	-672
un	-673
▁sách	-674
▁bình	-675
▁trẻ	-676
▁trí	-677
▁đặc	-678
▁tưởng	-679
▁gần	-680
▁đặt	-681
▁đơn	-682
ệt	-683
and	-684
▁Đây	-685
▁nghiệp	-686
▁bài	-687
▁vực	-688
▁giữa	-689
ie	-690
▁xác	-691
▁xe	-692
▁đúng	-693
ot	-694
▁bu	-695
▁Hãy	-696
ạy	-697
▁đất	-698
▁Mỹ	-699
▁đánh	-700
ra	-701
▁quyết	-702
▁mạnh	-703
▁khiến	-704
▁khó	-705
▁tài	-706
óm	-707
ter	-708
▁thêm	-709
▁kế	-710
▁dịch	-711
▁cuối	-712
▁giữ	-713
▁lấy	-714
▁tư	-715
▁giống	-716
▁truyền	-717
re	-718
▁đồ	-719
▁tranh	-720
▁thuộc	-721
▁dù	-722
▁ít	-723
▁văn	-724
uyện	-725
▁bé	-726
▁giáo	-727
▁6	-728
▁tham	-729
▁trò	-730
▁hạn	-731
ine	-732
▁chú	-733
▁ba	-734
▁Con	-735
▁xảy	-736
▁Y	-737
▁Những	-738
▁tinh	-739
▁Họ	-740
▁Vậy	-741
▁kiểm	-742
▁nguyên	-743
▁địa	-744
▁cá	-745
▁vô	-746
▁mang	-747
uyết	-748
▁tử	-749
▁chí	-750
▁trang	-751
um	-752
▁cây	-753
▁bán	-754
▁Cậu	-755
▁khả	-756
▁Nam	-757
▁sức	-758
▁xuống	-759
▁Qu	-760
▁da	-761
▁mở	-762
▁10	-763
▁mục	-764
▁hướng	-765
▁màu	-766
▁nghiệm	-767
▁cổ	-768
▁khí	-769
▁luôn	-770
▁Sau	-771
▁à	-772
▁nhớ	-773
▁tra	-774
▁tích	-775
▁tục	-776
▁Ta	-777
▁tượng	-778
▁viết	-779
▁đáng	-780
▁phép	-781
▁duy	-782
▁thần	-783
▁Ba	-784
▁Điều	-785
▁gái	-786
ầy	-787
▁đủ	-788
▁vệ	-789
▁thư	-790
▁chắc	-791
▁cảnh	-792
th	-793
▁kể	-794
▁đạo	-795
▁dài	-796
▁trả	-797
▁tuổi	-798
▁ngu	-799
iếm	-800
ứa	-801
▁cửa	-802
ow	-803
▁giết	-804
▁nằm	-805
iê	-806
▁âm	-807
▁/	-808
▁phim	-809
▁dễ	-810
▁quân	-811
ãi	-812
ùa	-813
ậm	-814
▁phản	-815
▁bác	-816
ing	-817
▁biểu	-818
▁mắt	-819
▁an	-820
▁7	-821
▁tiến	-822
▁tối	-823
▁nhóm	-824
▁St	-825
ựa	-826
▁đội	-827
ag	-828
▁triệu	-829
ẹp	-830
▁đau	-831
▁nhạc	-832
od	-833
▁thủ	-834
▁lẽ	-835
▁chẳng	-836
▁trợ	-837
▁nghiên	-838
▁minh	-839
▁phục	-840
àm	-841
▁chiếc	-842
▁đình	-843
▁đời	-844
iêng	-845
▁Lan	-846
▁8	-847
iếu	-848
▁phố	-849
▁mô	-850
▁ban	-851
oi	-852
▁yếu	-853
▁ty	-854
▁mức	-855
▁danh	-856
▁nhanh	-857
▁nghệ	-858
àu	-859
▁lã	-860
▁uống	-861
▁rõ	-862
▁thử	-863
ph	-864
▁cung	-865
ón	-866
▁cực	-867
ed	-868
ôm	-869
▁suy	-870
ul	-871
ig	-872
▁sở	-873
▁vùng	-874
▁chân	-875
▁hộ	-876
▁chống	-877
▁nổi	-878
▁Hoa	-879
▁nhiệm	-880
ạp	-881
▁kiến	-882
▁Năm	-883
▁trưởng	-884
▁Mar	-885
ẫu	-886
▁Để	-887
iếng	-888
▁cụ	-889
▁quay	-890
▁án	-891
▁vừa	-892
▁lỗi	-893
▁mua	-894
▁giao	-895
▁dạng	-896
ion	-897
▁luật	-898
▁ngữ	-899
▁đấu	-900
▁ổ	-901
▁chỗ	-902
ốn	-903
▁hưởng	-904
▁tuần	-905
ui	-906
▁9	-907
▁giác	-908
▁phủ	-909
▁Người	-910
▁lâu	-911
▁Vì	-912
ếp	-913
▁Vào	-914
▁nghi	-915
▁xã	-916
▁kẻ	-917
▁lợi	-918
▁giả	-919
▁trai	-920
▁áp	-921
▁Tuy	-922
▁Bà	-923
▁chịu	-924
▁chương	-925
▁nhập	-926
▁di	-927
ob	-928
▁dành	-929
ưỡ	-930
▁Đại	-931
▁tớ	-932
ir	-933
▁mày	-934
▁ngủ	-935
▁mạng	-936
ab	-937
▁dục	-938
ươi	-939
ỉnh	-940
tr	-941
▁kích	-942
▁lịch	-943
▁nguồn	-944
▁tuyệt	-945
▁gắng	-946
▁199	-947
ặng	-948
▁lạc	-949
▁xúc	-950
▁ngôi	-951
▁diện	-952
▁chút	-953
éo	-954
▁vẻ	-955
▁xử	-956
▁kiện	-957
eb	-958
▁hỗ	-959
▁mối	-960
▁độc	-961
▁trạng	-962
▁quanh	-963
▁rộng	-964
▁bay	-965
▁đá	-966
▁càng	-967
▁dựng	-968
▁cộng	-969
▁viện	-970
ak	-971
▁Kỳ	-972
▁bàn	-973
▁phá	-974
ec	-975
▁Đừng	-976
▁thú	-977
0,	-978
▁đóng	-979
▁phút	-980
..	-981
▁cáo	-982
▁mặc	-983
▁ơn	-984
▁xa	-985
▁thanh	-986
▁riêng	-987
▁chung	-988
▁đông	-989
ẩy	-990
▁Al	-991
".	-992
ẵn	-993
ah	-994
▁chuyên	-995
▁kỷ	-996
ill	-997
▁Ngh	-998
▁chi	-999
op	-1000
ão	-1001
▁vui	-1002
▁kiếm	-1003
▁cháu	-1004
▁đôi	-1005
▁18	-1006
ĩnh	-1007
▁sợ	-1008
ian	-1009
▁tóc	-1010
ượt	-1011
▁máu	-1012
▁vai	-1013
▁–	-1014
▁vòng	-1015
oc	-1016
▁dấu	-1017
▁Sao	-1018
▁đẹp	-1019
▁vọng	-1020
▁thoại	-1021
▁luận	-1022
▁bóng	-1023
èo	-1024
▁lưu	-1025
av	-1026
▁lòng	-1027
te	-1028
▁thúc	-1029
000	-1030
▁xin	-1031
▁nhiễ	-1032
▁tiết	-1033
▁xây	-1034
▁khoa	-1035
ap	-1036
ell	-1037
ãn	-1038
▁sẵn	-1039
▁khoẻ	-1040
▁tổng	-1041
▁12	-1042
▁lệ	-1043
▁Thế	-1044
ữu	-1045
▁gh	-1046
▁đàn	-1047
▁An	-1048
▁cha	-1049
▁chạy	-1050
▁lắm	-1051
▁thuyết	-1052
▁vận	-1053
ov	-1054
▁chuẩn	-1055
▁hữu	-1056
▁lớp	-1057
▁khách	-1058
▁trái	-1059
▁kỹ	-1060
og	-1061
▁nguy	-1062
▁ghi	-1063
ton	-1064
▁Đức	-1065
▁chia	-1066
▁Chỉ	-1067
▁trời	-1068
ew	-1069
ủng	-1070
ou	-1071
ok	-1072
ỏng	-1073
ổng	-1074
▁kia	-1075
ard	-1076
▁nhiễm	-1077
úi	-1078
▁đừng	-1079
▁xét	-1080
▁hu	-1081
▁đô	-1082
▁tội	-1083
▁bước	-1084
ey	-1085
▁Công	-1086
▁tránh	-1087
▁trực	-1088
▁hoà	-1089
▁quản	-1090
ent	-1091
▁vũ	-1092
▁hạt	-1093
▁ký	-1094
âng	-1095
▁Chú	-1096
▁bọn	-1097
▁cử	-1098
."	-1099
ưỡng	-1100
▁dầu	-1101
▁tố	-1102
▁đoạn	-1103
▁hoạch	-1104
▁đứng	-1105
▁đứa	-1106
▁cạnh	-1107
▁tao	-1108
▁buổi	-1109
▁phạm	-1110
ina	-1111
▁ngăn	-1112
▁khăn	-1113
▁nền	-1114
iv	-1115
▁áo	-1116
▁sư	-1117
uốt	-1118
▁đạt	-1119
▁thẳng	-1120
▁o	-1121
▁hát	-1122
▁hơi	-1123
▁bào	-1124
▁nội	-1125
▁ích	-1126
▁thi	-1127
▁biển	-1128
▁nhiệt	-1129
▁nam	-1130
▁doanh	-1131
▁tiểu	-1132
▁hồi	-1133
▁soát	-1134
ik	-1135
▁dung	-1136
ộn	-1137
▁chó	-1138
▁Z	-1139
▁mùa	-1140
ín	-1141
yl	-1142
▁đầy	-1143
▁(1	-1144
▁mật	-1145
▁chứa	-1146
ip	-1147
▁Việt	-1148
ặn	-1149
▁chấp	-1150
aw	-1151
▁Được	-1152
▁198	-1153
▁cải	-1154
▁Cho	-1155
▁bức	-1156
▁đảm	-1157
▁Bộ	-1158
iềm	-1159
▁ngoại	-1160
▁kéo	-1161
▁hôm	-1162
▁ngài	-1163
▁loài	-1164
▁trận	-1165
▁sang	-1166
▁đêm	-1167
▁chắn	-1168
sk	-1169
▁phổ	-1170
▁mấy	-1171
▁nghị	-1172
▁tàu	-1173
▁xo	-1174
▁sắc	-1175
▁khá	-1176
▁cân	-1177
▁bắc	-1178
▁lãnh	-1179
▁dữ	-1180
ut	-1181
one	-1182
▁In	-1183
▁11	-1184
▁sâu	-1185
▁đoán	-1186
▁vết	-1187
▁châu	-1188
az	-1189
▁hôn	-1190
▁tức	-1191
▁15	-1192
▁coi	-1193
▁Làm	-1194
ran	-1195
▁tây	-1196
est	-1197
ửi	-1198
▁in	-1199
▁kê	-1200
▁thiên	-1201
▁sai	-1202
▁hại	-1203
▁thấp	-1204
▁Ở	-1205
▁sắp	-1206
▁Liên	-1207
▁Tây	-1208
▁đọc	-1209
▁hậu	-1210
▁băng	-1211
▁ổn	-1212
▁ngôn	-1213
▁Việc	-1214
ib	-1215
▁Hắn	-1216
▁thiếu	-1217
▁môi	-1218
▁Ý	-1219
▁lựa	-1220
▁bây	-1221
-1	-1222
▁Theo	-1223
oh	-1224
▁nhé	-1225
▁sàng	-1226
▁cười	-1227
▁phù	-1228
▁xung	-1229
▁hầu	-1230
▁hoa	-1231
▁f	-1232
▁tim	-1233
▁Ví	-1234
▁Ar	-1235
▁w	-1236
▁tệ	-1237
▁ngồi	-1238
▁cắt	-1239
io	-1240
▁hiểm	-1241
ub	-1242
▁Phi	-1243
ẩu	-1244
▁xuyên	-1245
▁đa	-1246
▁trải	-1247
",	-1248
▁ánh	-1249
▁sạch	-1250
▁tồn	-1251
▁thái	-1252
▁giản	-1253
▁kiểu	-1254
▁thiện	-1255
▁Sự	-1256
▁Sh	-1257
ev	-1258
▁Tại	-1259
▁rối	-1260
▁dựa	-1261
▁buộc	-1262
ist	-1263
▁hả	-1264
▁quần	-1265
▁trùng	-1266
ers	-1267
▁thắng	-1268
áy	-1269
▁hồ	-1270
0.	-1271
ich	-1272
▁toà	-1273
ớm	-1274
ói	-1275
▁cư	-1276
▁trông	-1277
▁toán	-1278
ùi	-1279
▁tấn	-1280
▁bầu	-1281
▁Do	-1282
▁lắng	-1283
▁thất	-1284
▁Lu	-1285
▁đoàn	-1286
▁tuyến	-1287
▁Nhật	-1288
▁cập	-1289
▁ràng	-1290
ep	-1291
▁dị	-1292
▁nhắc	-1293
▁su	-1294
▁Tớ	-1295
▁phong	-1296
▁kì	-1297
▁món	-1298
▁não	-1299
eg	-1300
▁căn	-1301
▁Giờ	-1302
▁thậm	-1303
▁mẫu	-1304
▁ca	-1305
▁thưởng	-1306
▁nối	-1307
▁khai	-1308
▁gốc	-1309
▁Tất	-1310
▁tả	-1311
▁al	-1312
▁nóng	-1313
▁Bắc	-1314
▁suốt	-1315
▁u	-1316
▁197	-1317
▁Â	-1318
▁thụ	-1319
ry	-1320
▁xếp	-1321
▁bánh	-1322
▁quen	-1323
▁Bản	-1324
st	-1325
▁lá	-1326
▁vời	-1327
▁gửi	-1328
▁chờ	-1329
▁Á	-1330
▁hy	-1331
▁nhu	-1332
õi	-1333
ĩa	-1334
▁cánh	-1335
▁Ngo	-1336
▁nhẹ	-1337
▁bổ	-1338
▁ví	-1339
uôi	-1340
▁trì	-1341
▁đảo	-1342
▁mong	-1343
▁mạch	-1344
▁nghiêm	-1345
▁khoản	-1346
▁mèo	-1347
▁luyện	-1348
▁phê	-1349
▁giấy	-1350
ate	-1351
ót	-1352
▁Cái	-1353
▁Phải	-1354
▁đẩy	-1355
▁rời	-1356
▁trừ	-1357
▁vợ	-1358
▁cuốn	-1359
▁dây	-1360
▁Chúa	-1361
▁xấu	-1362
ụng	-1363
▁vượt	-1364
▁ước	-1365
▁dòng	-1366
▁New	-1367
▁Car	-1368
ọt	-1369
▁lai	-1370
▁sớm	-1371
▁nạn	-1372
▁lạnh	-1373
▁mái	-1374
▁Mẹ	-1375
▁đỏ	-1376
▁cấu	-1377
▁tạp	-1378
▁cũ	-1379
▁Pháp	-1380
▁bang	-1381
▁khô	-1382
▁kháng	-1383
20	-1384
ax	-1385
▁trúc	-1386
ượu	-1387
▁Nhà	-1388
▁nặng	-1389
▁hạ	-1390
▁trách	-1391
▁chữ	-1392
▁loạn	-1393
iếp	-1394
all	-1395
▁tôn	-1396
ta	-1397
▁hút	-1398
▁ngươi	-1399
ud	-1400
▁tỉnh	-1401
son	-1402
▁Đông	-1403
▁tỷ	-1404
▁de	-1405
▁hạng	-1406
▁nghỉ	-1407
▁chàng	-1408
▁thoát	-1409
▁Mặc	-1410
ém	-1411
▁khối	-1412
▁sơ	-1413
▁súng	-1414
▁trao	-1415
▁thằng	-1416
▁Âu	-1417
▁ngắn	-1418
▁kính	-1419
▁huỷ	-1420
▁chăm	-1421
▁vàng	-1422
▁đỡ	-1423
▁Tổng	-1424
ff	-1425
ri	-1426
▁bắn	-1427
ack	-1428
▁tuyên	-1429
▁xanh	-1430
ẹn	-1431
▁trụ	-1432
▁rượu	-1433
▁dàng	-1434
5,	-1435
▁trắng	-1436
▁tù	-1437
▁chỉnh	-1438
▁đen	-1439
6,	-1440
ce	-1441
▁30	-1442
▁dạy	-1443
▁Còn	-1444
▁làng	-1445
▁quý	-1446
▁khẩu	-1447
▁mắc	-1448
▁cơn	-1449
▁đổ	-1450
7,	-1451
▁ô	-1452
9,	-1453
▁mũ	-1454
▁buồn	-1455
▁thuận	-1456
▁Bây	-1457
▁Từ	-1458
▁niệm	-1459
▁la	-1460
▁Với	-1461
▁lệnh	-1462
ex	-1463
iệng	-1464
4,	-1465
▁196	-1466
▁Ai	-1467
▁thận	-1468
▁nhờ	-1469
▁phiên	-1470
▁vầ	-1471
▁thưa	-1472
2,	-1473
▁Hai	-1474
▁bại	-1475
òi	-1476
▁chảy	-1477
▁hấp	-1478
▁tốc	-1479
▁đột	-1480
▁cận	-1481
▁thịt	-1482
ess	-1483
yr	-1484
▁màn	-1485
ụp	-1486
▁du	-1487
▁căng	-1488
èn	-1489
▁quên	-1490
▁thảo	-1491
▁Nói	-1492
▁miệng	-1493
▁sân	-1494
▁sóc	-1495
ind	-1496
▁khám	-1497
▁Br	-1498
ly	-1499
▁dưỡng	-1500
ềm	-1501
8,	-1502
▁nửa	-1503
▁đợi	-1504
▁khoá	-1505
▁thở	-1506
man	-1507
▁To	-1508
▁huy	-1509
3,	-1510
▁giành	-1511
kh	-1512
1,	-1513
▁bữa	-1514
▁tắc	-1515
▁tộc	-1516
▁đích	-1517
▁Như	-1518
▁chiều	-1519
end	-1520
▁đăng	-1521
▁Chính	-1522
uổi	-1523
▁tái	-1524
▁17	-1525
óp	-1526
▁thơ	-1527
▁bí	-1528
▁hoàng	-1529
▁phóng	-1530
▁Ban	-1531
▁chồng	-1532
▁Thật	-1533
▁bốn	-1534
▁tải	-1535
▁tai	-1536
▁giai	-1537
▁tổn	-1538
▁Mọi	-1539
▁thập	-1540
▁lửa	-1541
▁tiện	-1542
▁mềm	-1543
▁sửa	-1544
ụi	-1545
▁thai	-1546
.000	-1547
eth	-1548
▁Ngoài	-1549
▁khủng	-1550
▁194	-1551
▁dần	-1552
▁Mày	-1553
▁dõi	-1554
▁ngược	-1555
ứt	-1556
▁16	-1557
▁Cha	-1558
ox	-1559
▁tín	-1560
ideo	-1561
ick	-1562
▁đem	-1563
▁thuỷ	-1564
▁bè	-1565
▁phi	-1566
▁mại	-1567
▁chữa	-1568
▁ngờ	-1569
▁Ấ	-1570
▁rửa	-1571
▁nuôi	-1572
▁cà	-1573
▁hạnh	-1574
iêm	-1575
▁nhật	-1576
▁ngành	-1577
▁Xin	-1578
▁may	-1579
▁chặn	-1580
▁tuỳ	-1581
ez	-1582
▁mã	-1583
▁nhiêu	-1584
ant	-1585
▁viêm	-1586
tiếng	-1587
▁hoạ	-1588
ert	-1589
▁biên	-1590
▁sẻ	-1591
▁niên	-1592
▁195	-1593
▁Ngày	-1594
ord	-1595
▁giám	-1596
▁Ấn	-1597
art	-1598
▁cường	-1599
▁Cl	-1600
▁Độ	-1601
if	-1602
▁100	-1603
▁khắc	-1604
▁El	-1605
▁Nga	-1606
▁phúc	-1607
▁The	-1608
▁phán	-1609
▁nỗi	-1610
▁hộp	-1611
▁Joh	-1612
uc	-1613
▁khởi	-1614
▁lạ	-1615
▁Am	-1616
▁lành	-1617
ide	-1618
▁bày	-1619
ne	-1620
▁chuyến	-1621
▁Hội	-1622
up	-1623
▁thừa	-1624
▁chóng	-1625
▁Bố	-1626
▁lộ	-1627
▁Giải	-1628
▁ma	-1629
▁miễn	-1630
ork	-1631
▁bảng	-1632
▁đốc	-1633
▁kim	-1634
▁tĩnh	-1635
▁pro	-1636
▁sóng	-1637
ớt	-1638
▁lễ	-1639
▁web	-1640
ort	-1641
▁khắp	-1642
▁Thái	-1643
▁lĩnh	-1644
uyến	-1645
▁mai	-1646
ấc	-1647
▁Tao	-1648
▁khuẩn	-1649
ầng	-1650
▁đĩa	-1651
iz	-1652
▁km	-1653
▁Kho	-1654
Ch	-1655
▁Col	-1656
▁ly	-1657
ond	-1658
▁dậy	-1659
▁Nhiều	-1660
ach	-1661
▁xong	-1662
▁tầm	-1663
▁răng	-1664
▁Fran	-1665
lor	-1666
▁huyết	-1667
▁thăm	-1668
▁Lo	-1669
▁nhỉ	-1670
▁sung	-1671
▁sổ	-1672
▁đám	-1673
▁Thu	-1674
▁chiếm	-1675
▁lao	-1676
▁cứng	-1677
▁ống	-1678
▁mời	-1679
lo	-1680
ana	-1681
▁chạm	-1682
▁cầm	-1683
▁mơ	-1684
▁Là	-1685
▁nông	-1686
▁dừng	-1687
▁hề	-1688
▁yên	-1689
▁Par	-1690
4.	-1691
ug	-1692
▁suất	-1693
▁trấn	-1694
▁Châu	-1695
▁mũi	-1696
▁phận	-1697
▁túi	-1698
▁đài	-1699
▁hứng	-1700
▁Nhân	-1701
▁ẩn	-1702
▁đuổi	-1703
▁nhằm	-1704
▁of	-1705
▁Thực	-1706
▁phối	-1707
ịp	-1708
▁tỏ	-1709
▁phức	-1710
▁Bar	-1711
▁Tìm	-1712
▁mùi	-1713
▁ủng	-1714
▁ung	-1715
enn	-1716
▁Le	-1717
▁thao	-1718
▁tầng	-1719
▁nhảy	-1720
▁sông	-1721
ame	-1722
▁Dùng	-1723
èm	-1724
▁siêu	-1725
▁hẹn	-1726
▁góc	-1727
▁dương	-1728
▁ngừng	-1729
▁xương	-1730
▁lông	-1731
▁giây	-1732
▁chiếu	-1733
▁Cháu	-1734
▁rút	-1735
▁Nghe	-1736
▁tận	-1737
▁John	-1738
▁tịch	-1739
▁13	-1740
▁núi	-1741
▁loạt	-1742
▁Chắc	-1743
▁địch	-1744
▁video	-1745
ge	-1746
▁đáp	-1747
▁ức	-1748
▁kịch	-1749
▁đào	-1750
▁thiệu	-1751
▁bề	-1752
▁Bởi	-1753
▁Dù	-1754
int	-1755
▁Trước	-1756
Th	-1757
▁25	-1758
▁14	-1759
▁bạo	-1760
amin	-1761
▁tắm	-1762
▁tấm	-1763
▁ấm	-1764
tern	-1765
▁Vâng	-1766
▁Trái	-1767
zy	-1768
tein	-1769
ara	-1770
▁ngân	-1771
▁nổ	-1772
▁Ả	-1773
▁miền	-1774
▁(19	-1775
▁điên	-1776
▁Thay	-1777
▁linh	-1778
▁Bọn	-1779
▁gắn	-1780
▁kem	-1781
▁thoải	-1782
▁thoả	-1783
▁cam	-1784
▁i	-1785
▁sữa	-1786
ast	-1787
▁góp	-1788
▁già	-1789
▁truy	-1790
▁0	-1791
▁lỗ	-1792
ann	-1793
▁chậm	-1794
▁Đi	-1795
▁cốc	-1796
▁môn	-1797
▁vẽ	-1798
▁trăm	-1799
ica	-1800
ail	-1801
▁trại	-1802
▁chuột	-1803
bum	-1804
▁lược	-1805
▁Hy	-1806
ath	-1807
▁bột	-1808
ãng	-1809
▁hài	-1810
ation	-1811
▁giận	-1812
'.	-1813
ice	-1814
▁bật	-1815
▁huống	-1816
▁lái	-1817
▁Này	-1818
▁nàng	-1819
▁thẩm	-1820
ass	-1821
▁rơi	-1822
▁trốn	-1823
▁trứng	-1824
▁ẩm	-1825
▁niềm	-1826
▁lầm	-1827
ile	-1828
▁gã	-1829
▁mẽ	-1830
▁Nên	-1831
▁thờ	-1832
▁Sp	-1833
▁Tập	-1834
ho	-1835
sinh	-1836
▁Tên	-1837
▁tờ	-1838
▁chụp	-1839
▁chối	-1840
▁khiển	-1841
▁phẫu	-1842
▁Rồi	-1843
▁doạ	-1844
▁Cộng	-1845
▁Mặt	-1846
▁thù	-1847
ock	-1848
▁thí	-1849
▁ấn	-1850
▁tường	-1851
oy	-1852
▁quang	-1853
▁sáu	-1854
▁mừng	-1855
▁Pr	-1856
▁Ừ	-1857
▁hỗn	-1858
▁diệt	-1859
▁dối	-1860
▁liệt	-1861
▁50	-1862
▁+	-1863
▁trầm	-1864
▁can	-1865
▁And	-1866
▁lí	-1867
▁bạc	-1868
co	-1869
▁nhắn	-1870
▁tắt	-1871
▁Đúng	-1872
▁thách	-1873
▁Nha	-1874
▁chặt	-1875
▁hương	-1876
▁phó	-1877
ườn	-1878
▁(2	-1879
▁đế	-1880
▁La	-1881
▁nâng	-1882
▁chim	-1883
▁Har	-1884
▁nỗ	-1885
ek	-1886
▁Cách	-1887
▁giàu	-1888
▁ax	-1889
▁khuyến	-1890
uk	-1891
▁Ad	-1892
▁York	-1893
▁trồng	-1894
▁bụng	-1895
▁thả	-1896
▁giãn	-1897
▁giỏi	-1898
▁193	-1899
ier	-1900
▁lẫn	-1901
▁nắm	-1902
9.	-1903
▁biện	-1904
▁tán	-1905
▁muối	-1906
▁mát	-1907
ett	-1908
▁giấc	-1909
▁vỡ	-1910
▁vua	-1911
sh	-1912
amp	-1913
▁Kinh	-1914
▁lối	-1915
▁II	-1916
▁phiếu	-1917
ẳn	-1918
▁lục	-1919
▁ngại	-1920
ộm	-1921
▁binh	-1922
▁liều	-1923
▁chào	-1924
▁vốn	-1925
yria	-1926
▁Ser	-1927
▁mu	-1928
ore	-1929
▁thước	-1930
▁ngón	-1931
▁Chị	-1932
▁quảng	-1933
▁tan	-1934
201	-1935
▁nguyện	-1936
ada	-1937
▁quái	-1938
▁1,	-1939
und	-1940
▁nhấn	-1941
▁lưng	-1942
2.	-1943
▁Cũng	-1944
▁ạ	-1945
▁khảo	-1946
▁Cal	-1947
▁thuê	-1948
▁thải	-1949
▁,	-1950
▁đòi	-1951
▁tách	-1952
ựng	-1953
orn	-1954
▁Hiệp	-1955
▁hứa	-1956
▁Ngay	-1957
▁Mon	-1958
én	-1959
▁lan	-1960
▁đương	-1961
▁sót	-1962
▁Hoàng	-1963
ớp	-1964
ber	-1965
pp	-1966
▁Giáo	-1967
5.	-1968
▁ưu	-1969
▁24	-1970
▁họp	-1971
▁Chủ	-1972
▁tạm	-1973
▁trữ	-1974
▁tẩy	-1975
▁the	-1976
▁À	-1977
arl	-1978
ama	-1979
▁tiêm	-1980
▁Cứ	-1981
▁Mỗi	-1982
▁Ngài	-1983
xy	-1984
ens	-1985
▁US	-1986
▁quán	-1987
▁đe	-1988
▁dính	-1989
▁ơi	-1990
▁dày	-1991
▁tỉ	-1992
▁sốt	-1993
...	-1994
igh	-1995
▁ép	-1996
▁Đối	-1997
▁axit	-1998
6.	-1999
▁mê	-2000
▁Bl	-2001
▁Bảo	-2002
▁điển	-2003
▁mãi	-2004
▁khích	-2005
1.	-2006
cz	-2007
▁tướng	-2008
Cười	-2009
▁Câu	-2010
▁chủng	-2011
ico	-2012
▁Bác	-2013
▁trưng	-2014
▁Thành	-2015
ley	-2016
▁ngựa	-2017
▁rừng	-2018
▁tồi	-2019
iel	-2020
▁hải	-2021
▁Chuyện	-2022
▁đảng	-2023
8.	-2024
▁Syria	-2025
▁giọng	-2026
▁gấp	-2027
rom	-2028
▁lỏng	-2029
rus	-2030
▁Can	-2031
yn	-2032
▁lọc	-2033
▁che	-2034
▁Nhìn	-2035
era	-2036
▁vỏ	-2037
▁ru	-2038
▁tròn	-2039
▁ngạc	-2040
▁Mình	-2041
7.	-2042
▁Cả	-2043
▁Gr	-2044
lin	-2045
ans	-2046
▁ngực	-2047
▁Cảm	-2048
ma	-2049
▁Sc	-2050
▁thẻ	-2051
▁giày	-2052
▁Cơ	-2053
▁cản	-2054
▁Ed	-2055
▁béo	-2056
▁hà	-2057
▁cháy	-2058
ash	-2059
ler	-2060
▁khuyên	-2061
▁Sử	-2062
▁hàm	-2063
yd	-2064
▁hiển	-2065
▁đốt	-2066
ski	-2067
▁lũ	-2068
▁Hà	-2069
▁Go	-2070
▁tiệc	-2071
▁tiềm	-2072
▁quận	-2073
▁Tránh	-2074
▁Bình	-2075
▁Chẳng	-2076
ìa	-2077
ủi	-2078
ka	-2079
▁ninh	-2080
▁miếng	-2081
▁cự	-2082
▁War	-2083
▁Đến	-2084
ternet	-2085
▁Sẽ	-2086
▁nút	-2087
▁album	-2088
▁đèn	-2089
3.	-2090
na	-2091
▁=	-2092
▁hẳn	-2093
▁kém	-2094
▁khuôn	-2095
▁thiểu	-2096
mina	-2097
ite	-2098
▁Cuộc	-2099
▁Rất	-2100
▁xạ	-2101
▁Chiến	-2102
▁rau	-2103
▁ngon	-2104
ướp	-2105
▁đựng	-2106
▁quỹ	-2107
Tôi	-2108
▁xâm	-2109
▁Ab	-2110
▁Is	-2111
▁Thông	-2112
▁hè	-2113
▁Vương	-2114
ue	-2115
arb	-2116
land	-2117
▁sợi	-2118
ase	-2119
▁Tu	-2120
▁nghề	-2121
▁trống	-2122
▁Trường	-2123
▁Chọn	-2124
▁Thứ	-2125
▁đỉnh	-2126
▁tàn	-2127
▁lính	-2128
▁En	-2129
▁trích	-2130
▁mười	-2131
▁Hàn	-2132
ros	-2133
▁ngừa	-2134
▁1.	-2135
▁khứ	-2136
▁cú	-2137
▁đậu	-2138
▁trào	-2139
▁lương	-2140
ela	-2141
Tiếng	-2142
▁cài	-2143
▁mét	-2144
▁tá	-2145
▁phạt	-2146
▁hãi	-2147
▁khổ	-2148
ose	-2149
▁đức	-2150
ẹt	-2151
our	-2152
▁Lúc	-2153
▁phỏng	-2154
▁phiền	-2155
▁rắc	-2156
▁2,	-2157
▁thang	-2158
▁đùa	-2159
▁chúa	-2160
▁ổng	-2161
▁săn	-2162
▁cẩn	-2163
▁Ồ	-2164
▁thăng	-2165
▁cưới	-2166
▁nướng	-2167
▁chấm	-2168
▁San	-2169
▁thảm	-2170
▁tụ	-2171
▁kêu	-2172
▁hoảng	-2173
▁Đảng	-2174
tor	-2175
▁Oh	-2176
▁Jam	-2177
▁tuyển	-2178
▁mắn	-2179
▁Rập	-2180
▁Hầu	-2181
▁táo	-2182
▁mì	-2183
▁gió	-2184
ưỡi	-2185
▁Trên	-2186
▁trà	-2187
▁protein	-2188
▁mụ	-2189
▁móng	-2190
▁nhấp	-2191
▁gan	-2192
ook	-2193
▁Đã	-2194
?"	-2195
af	-2196
▁21	-2197
▁tảng	-2198
▁mộ	-2199
▁đập	-2200
of	-2201
▁pha	-2202
▁giường	-2203
za	-2204
▁xoá	-2205
▁ghế	-2206
ix	-2207
▁ác	-2208
amb	-2209
▁hảo	-2210
ịt	-2211
▁tàng	-2212
▁cờ	-2213
▁huấn	-2214
▁lưới	-2215
omer	-2216
▁hào	-2217
▁nhịp	-2218
▁ghét	-2219
▁Ol	-2220
ern	-2221
ẹo	-2222
▁Gmina	-2223
ino	-2224
▁Toà	-2225
ish	-2226
▁thầy	-2227
▁cỡ	-2228
▁thuyền	-2229
▁Ale	-2230
▁Pl	-2231
▁tí	-2232
▁Phần	-2233
hip	-2234
▁mảnh	-2235
ies	-2236
att	-2237
▁bờ	-2238
▁Hay	-2239
▁nợ	-2240
▁duyệt	-2241
▁hùng	-2242
ith	-2243
▁Mal	-2244
▁nắng	-2245
▁quyển	-2246
▁2.	-2247
▁Rob	-2248
▁Pro	-2249
▁hiệp	-2250
iam	-2251
▁lặp	-2252
▁hoang	-2253
▁nấu	-2254
▁giam	-2255
▁40	-2256
zcz	-2257
▁Un	-2258
▁ngang	-2259
▁lâm	-2260
▁cấm	-2261
▁vải	-2262
iss	-2263
▁bò	-2264
▁Học	-2265
omb	-2266
ust	-2267
ows	-2268
eria	-2269
▁đạn	-2270
▁bẩn	-2271
gh	-2272
▁Đưa	-2273
▁ngốc	-2274
▁192	-2275
▁cỏ	-2276
▁Cố	-2277
▁chín	-2278
▁ngàn	-2279
▁xứng	-2280
ướt	-2281
▁dường	-2282
▁thói	-2283
▁Thôi	-2284
▁sắt	-2285
▁a	-2286
▁truyện	-2287
▁cãi	-2288
▁kèm	-2289
▁Đôi	-2290
ów	-2291
▁Pet	-2292
ya	-2293
▁tặng	-2294
▁co	-2295
▁cục	-2296
▁ám	-2297
▁Re	-2298
và	-2299
ca	-2300
▁As	-2301
▁Be	-2302
▁chuỗi	-2303
▁điệu	-2304
▁thuế	-2305
▁vong	-2306
▁Thử	-2307
▁khái	-2308
▁sa	-2309
▁sánh	-2310
▁viễn	-2311
▁bơi	-2312
▁đón	-2313
▁Per	-2314
▁0,	-2315
▁Geo	-2316
▁cu	-2317
ặm	-2318
▁đói	-2319
▁chép	-2320
▁ảo	-2321
▁virus	-2322
▁Dav	-2323
ane	-2324
ậc	-2325
odes	-2326
▁191	-2327
▁Văn	-2328
▁song	-2329
▁Dương	-2330
▁nghèo	-2331
▁dao	-2332
▁giấu	-2333
▁mãn	-2334
▁gợi	-2335
▁Xem	-2336
▁Lần	-2337
▁hồn	-2338
▁Phil	-2339
▁Ngươi	-2340
▁Jo	-2341
▁vườn	-2342
▁bãi	-2343
▁Gu	-2344
▁gen	-2345
ộp	-2346
▁West	-2347
▁hồng	-2348
▁phổi	-2349
▁cưng	-2350
▁&	-2351
▁e	-2352
▁Mich	-2353
▁Nhấp	-2354
▁cựu	-2355
▁Uỷ	-2356
▁De	-2357
▁Xô	-2358
▁Đầu	-2359
▁Thiên	-2360
ashi	-2361
▁Hải	-2362
▁Kết	-2363
▁nhóc	-2364
▁and	-2365
▁lừa	-2366
▁Thời	-2367
raz	-2368
▁cặp	-2369
▁rãi	-2370
ald	-2371
▁hư	-2372
▁tiếc	-2373
▁hiếm	-2374
▁Cuối	-2375
▁lẻ	-2376
▁Ôi	-2377
indows	-2378
▁bậc	-2379
▁bụi	-2380
▁giảng	-2381
▁cướp	-2382
ity	-2383
▁Kể	-2384
▁chấn	-2385
▁vĩ	-2386
▁cột	-2387
▁bớt	-2388
',	-2389
▁Bệnh	-2390
▁Sam	-2391
▁game	-2392
▁Chào	-2393
▁bơ	-2394
▁đẳng	-2395
ight	-2396
▁tốn	-2397
▁thổ	-2398
▁hỏng	-2399
aul	-2400
▁mạc	-2401
▁Đặt	-2402
▁nhãn	-2403
úa	-2404
▁Hoặc	-2405
▁Hồi	-2406
▁2000	-2407
-2	-2408
▁gỡ	-2409
▁nấm	-2410
▁trộn	-2411
▁bảy	-2412
▁ong	-2413
▁vương	-2414
▁bão	-2415
▁kín	-2416
▁kìa	-2417
▁gỗ	-2418
▁đua	-2419
va	-2420
▁đằng	-2421
▁bối	-2422
-19	-2423
▁lãng	-2424
ipp	-2425
▁sứ	-2426
▁Man	-2427
▁bông	-2428
▁Ros	-2429
▁mụn	-2430
▁Về	-2431
ủa	-2432
▁dọc	-2433
▁Voi	-2434
▁Ma	-2435
ki	-2436
▁chai	-2437
▁tha	-2438
▁gà	-2439
▁đeo	-2440
ris	-2441
▁Tư	-2442
▁Mor	-2443
▁cai	-2444
▁Bất	-2445
▁bận	-2446
▁bom	-2447
▁°	-2448
▁ngọn	-2449
▁khung	-2450
▁nhánh	-2451
▁nồng	-2452
▁Or	-2453
▁Nội	-2454
anda	-2455
ood	-2456
▁tuý	-2457
ins	-2458
old	-2459
▁dinh	-2460
▁ro	-2461
▁nhàng	-2462
▁Geor	-2463
odeship	-2464
▁Hiện	-2465
alo	-2466
▁22	-2467
▁Voiv	-2468
ớn	-2469
ester	-2470
▁chán	-2471
▁kênh	-2472
▁nhạy	-2473
▁Bắt	-2474
▁Will	-2475
▁Kim	-2476
▁lây	-2477
▁bếp	-2478
▁ương	-2479
▁nôn	-2480
▁Voivodeship	-2481
▁ngọt	-2482
▁Ú	-2483
Nh	-2484
▁khớp	-2485
▁hò	-2486
▁ngũ	-2487
▁mệt	-2488
▁khổng	-2489
▁điệp	-2490
▁Mac	-2491
itamin	-2492
▁lồ	-2493
▁Ben	-2494
▁dọn	-2495
▁Jack	-2496
▁Phương	-2497
▁bắp	-2498
▁Danh	-2499
▁vững	-2500
▁dược	-2501
▁Hôm	-2502
ary	-2503
ẫy	-2504
▁thua	-2505
Tr	-2506
▁oxy	-2507
▁quà	-2508
▁23	-2509
ene	-2510
▁3,	-2511
▁Số	-2512
▁Đị	-2513
▁sếp	-2514
ron	-2515
Ph	-2516
▁Thống	-2517
▁tươi	-2518
▁Tổ	-2519
▁Tự	-2520
▁Dân	-2521
▁trục	-2522
SA	-2523
▁Canada	-2524
▁mưa	-2525
▁mọc	-2526
▁Quân	-2527
ụt	-2528
▁nghiện	-2529
một	-2530
▁ư	-2531
▁thác	-2532
me	-2533
▁Đất	-2534
▁nhầm	-2535
▁Ac	-2536
▁Windows	-2537
▁Ang	-2538
▁Bằng	-2539
▁nhựa	-2540
la	-2541
▁Viện	-2542
▁email	-2543
go	-2544
▁tô	-2545
▁lão	-2546
▁hiến	-2547
▁rác	-2548
▁lặng	-2549
▁Khu	-2550
▁lượt	-2551
▁Dan	-2552
▁Quan	-2553
▁Tốt	-2554
ium	-2555
ole	-2556
▁bia	-2557
▁vinh	-2558
▁Bro	-2559
ID	-2560
▁rủi	-2561
▁Thuốc	-2562
se	-2563
▁thánh	-2564
▁Sinh	-2565
▁Hình	-2566
ark	-2567
bur	-2568
▁dứt	-2569
▁trú	-2570
▁Frank	-2571
NA	-2572
▁Kiểm	-2573
▁Úc	-2574
amine	-2575
▁ném	-2576
▁Cục	-2577
ốm	-2578
▁Lat	-2579
▁Charl	-2580
▁dặm	-2581
▁chừng	-2582
▁cất	-2583
▁Tiếp	-2584
▁huyện	-2585
không	-2586
▁Co	-2587
▁lò	-2588
▁Nước	-2589
▁Com	-2590
▁thiệt	-2591
▁đệ	-2592
dro	-2593
▁gương	-2594
▁TV	-2595
▁Internet	-2596
▁thiệp	-2597
to	-2598
▁gián	-2599
▁phấn	-2600
▁mực	-2601
▁uỷ	-2602
▁Mã	-2603
▁Wal	-2604
▁Ok	-2605
▁hổ	-2606
▁trộm	-2607
▁hít	-2608
▁Loại	-2609
▁Nữ	-2610
▁khấu	-2611
▁Gre	-2612
▁Nghiên	-2613
▁Hơn	-2614
▁Sa	-2615
▁nhuận	-2616
▁nở	-2617
▁gói	-2618
ean	-2619
▁tủ	-2620
▁sàn	-2621
50	-2622
▁Đài	-2623
▁Giống	-2624
▁hô	-2625
▁dạ	-2626
▁tước	-2627
omeran	-2628
▁60	-2629
▁Sch	-2630
per	-2631
▁sơn	-2632
▁Mc	-2633
▁Chu	-2634
▁dịu	-2635
▁phái	-2636
▁muộn	-2637
▁liền	-2638
ys	-2639
▁xà	-2640
▁dám	-2641
▁xoay	-2642
▁dán	-2643
ía	-2644
▁He	-2645
▁tám	-2646
rist	-2647
▁dâm	-2648
▁sạn	-2649
▁mệnh	-2650
▁Thủ	-2651
▁thợ	-2652
▁túc	-2653
ale	-2654
uch	-2655
▁giặt	-2656
▁thượng	-2657
▁Cảnh	-2658
▁Đồng	-2659
▁mỡ	-2660
▁gối	-2661
▁Thuỵ	-2662
▁tuân	-2663
▁bạch	-2664
▁Lạp	-2665
▁Nhớ	-2666
▁cổng	-2667
▁màng	-2668
▁Pomeran	-2669
▁hầm	-2670
▁Tối	-2671
▁Thượng	-2672
endo	-2673
▁2011	-2674
ogle	-2675
▁At	-2676
▁3.	-2677
are	-2678
der	-2679
▁dư	-2680
▁rắn	-2681
da	-2682
▁Tom	-2683
yc	-2684
▁Cổ	-2685
▁Er	-2686
▁khóc	-2687
▁Phát	-2688
▁Szcz	-2689
ùm	-2690
▁Khoa	-2691
▁Ber	-2692
▁vitamin	-2693
▁tri	-2694
▁App	-2695
▁ruột	-2696
ive	-2697
oth	-2698
▁chả	-2699
gen	-2700
ợt	-2701
ren	-2702
▁Tháng	-2703
-3	-2704
▁chẩn	-2705
AN	-2706
▁Hồng	-2707
gi	-2708
▁nhẫn	-2709
▁Ra	-2710
▁phím	-2711
òm	-2712
ali	-2713
▁(201	-2714
▁26	-2715
▁Hệ	-2716
▁Rom	-2717
▁Bài	-2718
▁im	-2719
▁en	-2720
▁Phòng	-2721
xi	-2722
▁27	-2723
▁Tiến	-2724
▁Đội	-2725
▁2016	-2726
ondon	-2727
▁Phụ	-2728
▁mỏi	-2729
▁Tiên	-2730
▁Es	-2731
▁ac	-2732
▁bát	-2733
▁Gh	-2734
ade	-2735
no	-2736
ram	-2737
▁28	-2738
▁Szczec	-2739
▁Thưa	-2740
▁Serie	-2741
▁xơ	-2742
▁đống	-2743
▁Mo	-2744
▁Sal	-2745
▁âu	-2746
uz	-2747
▁thìa	-2748
▁London	-2749
age	-2750
ael	-2751
▁Pomeranian	-2752
de	-2753
▁Lin	-2754
▁Giám	-2755
▁treo	-2756
▁say	-2757
ero	-2758
▁$	-2759
▁Tình	-2760
ida	-2761
▁Gl	-2762
▁ướt	-2763
ola	-2764
▁cốt	-2765
▁trăng	-2766
▁hôi	-2767
▁Mở	-2768
▁Mart	-2769
ễn	-2770
▁tia	-2771
▁2012	-2772
ùn	-2773
ime	-2774
rop	-2775
my	-2776
ano	-2777
▁trượt	-2778
▁CO	-2779
▁cám	-2780
eta	-2781
▁khẳng	-2782
▁gọn	-2783
▁2010	-2784
▁mỏ	-2785
▁tụi	-2786
▁Mex	-2787
▁Liệu	-2788
intendo	-2789
ines	-2790
▁hydro	-2791
▁vân	-2792
ýt	-2793
▁buôn	-2794
▁tật	-2795
▁kỉ	-2796
▁Google	-2797
▁Mấy	-2798
▁Giữ	-2799
▁lang	-2800
ini	-2801
▁2015	-2802
ita	-2803
▁Lưu	-2804
▁dáng	-2805
▁bồn	-2806
▁Mer	-2807
▁xịt	-2808
iếc	-2809
▁Bên	-2810
▁Tin	-2811
▁bám	-2812
▁hi	-2813
▁hoại	-2814
ke	-2815
▁2014	-2816
▁Nintendo	-2817
hoặc	-2818
▁Nig	-2819
▁mồ	-2820
▁thùng	-2821
Kh	-2822
istan	-2823
▁Paris	-2824
▁ngầm	-2825
▁cm	-2826
▁chua	-2827
▁khán	-2828
▁Luật	-2829
ala	-2830
we	-2831
rat	-2832
ace	-2833
▁Se	-2834
▁Alex	-2835
▁carb	-2836
▁Wh	-2837
▁Hành	-2838
▁Quá	-2839
▁bỏng	-2840
▁nhắm	-2841
ví	-2842
▁Tiếng	-2843
ena	-2844
ượn	-2845
▁Mà	-2846
▁thoảng	-2847
▁Mexico	-2848
▁Bill	-2849
,"	-2850
▁đạp	-2851
▁Braz	-2852
▁kiên	-2853
ott	-2854
▁canh	-2855
▁Franc	-2856
ko	-2857
own	-2858
▁Biển	-2859
▁Lý	-2860
▁bội	-2861
OS	-2862
▁thắt	-2863
mer	-2864
▁Cùng	-2865
ona	-2866
▁2017	-2867
▁cát	-2868
▁ga	-2869
▁giáp	-2870
ect	-2871
ker	-2872
▁Trời	-2873
▁xinh	-2874
▁Di	-2875
ef	-2876
▁triều	-2877
▁kiệm	-2878
▁Thị	-2879
▁vú	-2880
ênh	-2881
▁Máy	-2882
▁Hợp	-2883
pe	-2884
ari	-2885
▁Ven	-2886
▁bền	-2887
▁than	-2888
▁ghép	-2889
▁mờ	-2890
▁cóc	-2891
▁mi	-2892
▁nô	-2893
▁tung	-2894
▁men	-2895
▁quỷ	-2896
▁Brazil	-2897
▁Thêm	-2898
▁vu	-2899
▁ngơi	-2900
▁sưng	-2901
▁Paul	-2902
▁Triều	-2903
▁khiêu	-2904
▁Gia	-2905
▁cậy	-2906
▁mỏng	-2907
▁Fac	-2908
▁So	-2909
▁lau	-2910
ham	-2911
▁Cr	-2912
▁vở	-2913
▁hối	-2914
▁khẩn	-2915
ones	-2916
ver	-2917
▁Đường	-2918
▁Ind	-2919
▁bọc	-2920
ẫm	-2921
▁khen	-2922
ega	-2923
▁Ex	-2924
▁kĩ	-2925
▁cởi	-2926
II	-2927
▁May	-2928
BS	-2929
▁kí	-2930
▁2013	-2931
▁khốn	-2932
▁khía	-2933
▁Wars	-2934
▁thoa	-2935
enz	-2936
ornia	-2937
▁Mục	-2938
▁trưa	-2939
▁James	-2940
ngton	-2941
ner	-2942
▁rào	-2943
▁nghìn	-2944
▁mạn	-2945
by	-2946
▁Cap	-2947
▁bút	-2948
Vỗ	-2949
ỗng	-2950
▁(200	-2951
▁Mary	-2952
ợn	-2953
ifornia	-2954
▁xứ	-2955
▁Me	-2956
▁Pol	-2957
▁mg	-2958
itt	-2959
▁gãy	-2960
0%	-2961
▁am	-2962
▁chìm	-2963
▁Jim	-2964
▁khúc	-2965
com	-2966
▁bể	-2967
ings	-2968
▁chậu	-2969
▁*	-2970
▁Ye	-2971
ebook	-2972
▁khử	-2973
▁[	-2974
▁lạm	-2975
▁Hol	-2976
uba	-2977
▁mạo	-2978
▁Thậm	-2979
▁California	-2980
ike	-2981
▁Hồ	-2982
▁2018	-2983
▁Fl	-2984
▁Ro	-2985
iy	-2986
▁đồn	-2987
▁190	-2988
▁Ngoại	-2989
▁mù	-2990
▁Cập	-2991
▁leo	-2992
ward	-2993
▁xưa	-2994
▁ngã	-2995
▁David	-2996
▁j	-2997
▁Lấy	-2998
▁Nigeria	-2999
▁lát	-3000
ld	-3001
▁Cor	-3002
▁côn	-3003
▁toả	-3004
▁Ă	-3005
▁lưỡi	-3006
ost	-3007
▁sụp	-3008
ashington	-3009
▁Os	-3010
▁đâm	-3011
▁Nguyên	-3012
▁calo	-3013
▁Thánh	-3014
▁đớn	-3015
▁Vấn	-3016
▁Đảm	-3017
▁2008	-3018
▁2016,	-3019
▁Na	-3020
GC	-3021
▁cụm	-3022
▁triết	-3023
▁USD	-3024
▁lắp	-3025
▁thạch	-3026
▁móc	-3027
▁Tính	-3028
▁tuyết	-3029
▁trôi	-3030
mp	-3031
oster	-3032
oid	-3033
▁bọ	-3034
▁chải	-3035
▁Chile	-3036
▁Ổ	-3037
▁ngẫu	-3038
▁AS	-3039
▁vé	-3040
▁Fre	-3041
▁Tác	-3042
▁dò	-3043
▁Sil	-3044
▁kẹt	-3045
ław	-3046
▁tóm	-3047
▁Don	-3048
▁Washington	-3049
▁Vị	-3050
▁Her	-3051
▁cắn	-3052
▁Mas	-3053
▁chôn	-3054
Ng	-3055
▁Ăn	-3056
ony	-3057
▁hằng	-3058
uss	-3059
▁rẻ	-3060
ania	-3061
▁lôi	-3062
▁Hu	-3063
▁Te	-3064
▁Cam	-3065
▁2015,	-3066
▁trần	-3067
▁Nor	-3068
▁sôi	-3069
▁khát	-3070
▁You	-3071
▁Thanh	-3072
▁Szczecin	-3073
act	-3074
▁đếm	-3075
▁tràn	-3076
oa	-3077
ãnh	-3078
ius	-3079
▁lộn	-3080
▁nâu	-3081
▁chìa	-3082
▁2004.	-3083
▁2009	-3084
▁sưu	-3085
▁Viết	-3086
▁hãng	-3087
▁(3	-3088
▁đuôi	-3089
▁29	-3090
▁Del	-3091
▁Xác	-3092
▁Mad	-3093
▁nạp	-3094
▁toa	-3095
5%	-3096
▁Robert	-3097
yo	-3098
▁Đế	-3099
ima	-3100
▁Nguy	-3101
▁Nghệ	-3102
▁Wor	-3103
▁Nhóm	-3104
▁Chứng	-3105
▁cắp	-3106
▁kịp	-3107
ata	-3108
▁George	-3109
use	-3110
▁Vi	-3111
▁Af	-3112
ney	-3113
▁mưu	-3114
▁đáy	-3115
▁Flor	-3116
▁Bu	-3117
▁thuần	-3118
▁Colomb	-3119
ger	-3120
▁bó	-3121
▁xả	-3122
ella	-3123
▁quê	-3124
▁trễ	-3125
▁đai	-3126
▁hung	-3127
▁bùng	-3128
ani	-3129
▁4,	-3130
▁giật	-3131
▁500	-3132
▁Lou	-3133
DA	-3134
▁Sm	-3135
▁dã	-3136
▁202	-3137
▁William	-3138
▁Minh	-3139
unt	-3140
▁Hen	-3141
▁Pal	-3142
oft	-3143
ons	-3144
▁Đặc	-3145
▁Í	-3146
có	-3147
▁hoả	-3148
que	-3149
▁bi	-3150
▁Thần	-3151
▁Khoảng	-3152
▁Bo	-3153
ky	-3154
▁đáo	-3155
▁2012,	-3156
▁Facebook	-3157
▁Cám	-3158
như	-3159
▁dạo	-3160
▁cong	-3161
▁Pan	-3162
▁thô	-3163
▁Michael	-3164
▁Mùa	-3165
▁đàm	-3166
▁Mag	-3167
res	-3168
▁Chương	-3169
▁ngưỡng	-3170
▁mươi	-3171
▁2011,	-3172
▁Philipp	-3173
▁bôi	-3174
▁2017,	-3175
▁thề	-3176
▁2014,	-3177
▁thèm	-3178
▁vuông	-3179
▁Biết	-3180
.,	-3181
được	-3182
▁lót	-3183
▁chanh	-3184
▁Colombia	-3185
▁Tương	-3186
ằn	-3187
▁Lau	-3188
▁hòn	-3189
▁sáp	-3190
▁cắm	-3191
▁dãy	-3192
▁va	-3193
▁bl	-3194
▁31	-3195
▁làn	-3196
0.000	-3197
▁ngợi	-3198
▁Ít	-3199
▁Tim	-3200
▁Ob	-3201
▁mòn	-3202
ti	-3203
▁Tuỳ	-3204
▁Op	-3205
▁2007	-3206
▁tháo	-3207
▁li	-3208
▁rễ	-3209
cy	-3210
ny	-3211
▁xích	-3212
▁Vic	-3213
▁nét	-3214
▁lệch	-3215
▁lồng	-3216
▁Wil	-3217
▁mỹ	-3218
▁Bur	-3219
▁nha	-3220
▁Apple	-3221
▁Sw	-3222
▁bẫy	-3223
IV	-3224
wood	-3225
▁soạn	-3226
▁Quản	-3227
▁phẳng	-3228
▁Mat	-3229
▁4.	-3230
▁ưa	-3231
iver	-3232
5)	-3233
ji	-3234
▁mây	-3235
▁phun	-3236
▁Thổ	-3237
les	-3238
▁thỏ	-3239
.'	-3240
▁2010,	-3241
▁nhuộm	-3242
▁nêu	-3243
▁Đạo	-3244
▁Sar	-3245
▁khoảnh	-3246
▁My	-3247
▁cạo	-3248
umb	-3249
/1	-3250
bon	-3251
▁Sl	-3252
▁cồn	-3253
▁khoan	-3254
tion	-3255
▁Tham	-3256
▁thám	-3257
ee	-3258
▁lãm	-3259
▁tháp	-3260
▁sỹ	-3261
▁Thiết	-3262
row	-3263
▁Trông	-3264
rid	-3265
▁Thì	-3266
▁đụng	-3267
orm	-3268
▁họng	-3269
ura	-3270
▁Camp	-3271
▁Christ	-3272
▁trạm	-3273
ethyl	-3274
▁Francis	-3275
▁ôm	-3276
ure	-3277
▁trừng	-3278
▁All	-3279
▁lõi	-3280
▁Nhận	-3281
▁óc	-3282
▁Rich	-3283
▁hưu	-3284
oph	-3285
▁thổi	-3286
▁2013,	-3287
▁Thư	-3288
▁Chờ	-3289
▁chúc	-3290
▁tông	-3291
▁Vir	-3292
▁Cuba	-3293
▁pin	-3294
▁Nhấn	-3295
▁ngập	-3296
nie	-3297
▁5,	-3298
▁phe	-3299
▁Thường	-3300
▁Uống	-3301
ien	-3302
▁Kar	-3303
▁chở	-3304
▁khiếp	-3305
4)	-3306
▁Val	-3307
▁dàn	-3308
▁Ter	-3309
▁bá	-3310
▁Arg	-3311
▁tê	-3312
▁Chưa	-3313
trong	-3314
atri	-3315
▁nộp	-3316
6)	-3317
ube	-3318
ga	-3319
▁Địa	-3320
▁Yeah	-3321
▁Bel	-3322
onia	-3323
▁xỉ	-3324
▁World	-3325
▁Sĩ	-3326
▁Peter	-3327
ED	-3328
▁Phó	-3329
▁uý	-3330
alin	-3331
▁Ec	-3332
▁Mos	-3333
obot	-3334
oo	-3335
ake	-3336
▁xoa	-3337
uela	-3338
▁Cân	-3339
▁Warsaw	-3340
▁nhạt	-3341
▁Mic	-3342
▁Tor	-3343
▁đồi	-3344
▁2018,	-3345
▁vay	-3346
▁NGC	-3347
ux	-3348
▁Air	-3349
▁thấm	-3350
▁Ur	-3351
gar	-3352
rogen	-3353
▁ốc	-3354
▁ngứa	-3355
▁rồng	-3356
▁Bỏ	-3357
▁no	-3358
▁chốt	-3359
▁thơm	-3360
skie	-3361
▁hẹp	-3362
▁quét	-3363
▁Thằng	-3364
dy	-3365
▁gội	-3366
▁tần	-3367
▁vang	-3368
ford	-3369
▁quát	-3370
▁nốt	-3371
▁Jul	-3372
ille	-3373
▁kẹo	-3374
▁pháo	-3375
2)	-3376
▁bê	-3377
▁Phân	-3378
▁khoai	-3379
BC	-3380
▁Hàng	-3381
▁Đào	-3382
▁giấm	-3383
▁Gen	-3384
▁2009,	-3385
ve	-3386
▁tựa	-3387
▁ngoái	-3388
▁nho	-3389
▁mông	-3390
▁("	-3391
▁Dự	-3392
▁tị	-3393
cia	-3394
oz	-3395
▁robot	-3396
burg	-3397
▁ngục	-3398
▁nén	-3399
▁Kat	-3400
AR	-3401
▁Alb	-3402
▁cương	-3403
itz	-3404
ont	-3405
▁kg	-3406
cel	-3407
ira	-3408
▁Trang	-3409
▁đới	-3410
▁ngoan	-3411
ũi	-3412
▁chẽ	-3413
▁Jose	-3414
▁hước	-3415
▁khuyết	-3416
▁giọt	-3417
▁hoan	-3418
▁Điện	-3419
▁chăn	-3420
▁Gar	-3421
▁đền	-3422
▁Luôn	-3423
▁vĩnh	-3424
▁bồi	-3425
▁Toàn	-3426
ks	-3427
bo	-3428
entina	-3429
Anh	-3430
▁189	-3431
▁Med	-3432
▁nhở	-3433
▁(4	-3434
▁thấu	-3435
ire	-3436
▁Thể	-3437
ja	-3438
▁khói	-3439
ush	-3440
▁dẹp	-3441
▁nụ	-3442
8)	-3443
▁Tiểu	-3444
iaz	-3445
▁lô	-3446
▁Giê	-3447
▁khôi	-3448
3)	-3449
▁Angel	-3450
▁Ir	-3451
▁Chi	-3452
▁hoãn	-3453
▁el	-3454
▁tân	-3455
▁Carl	-3456
▁Gần	-3457
▁300	-3458
▁10,	-3459
▁lợn	-3460
▁thịnh	-3461
60	-3462
▁Kông	-3463
▁khoáng	-3464
▁tím	-3465
▁mồi	-3466
▁cuộn	-3467
▁rũ	-3468
tron	-3469
▁Đáng	-3470
▁Lib	-3471
▁nát	-3472
%.	-3473
oll	-3474
▁2006	-3475
awa	-3476
▁Nguyễn	-3477
AS	-3478
kin	-3479
▁CD	-3480
▁lỡ	-3481
▁võ	-3482
▁cưỡng	-3483
▁gl	-3484
▁Ổng	-3485
▁bì	-3486
▁súc	-3487
▁xuân	-3488
ment	-3489
▁Nơi	-3490
▁Sing	-3491
▁Min	-3492
▁Los	-3493
▁Gal	-3494
▁Vài	-3495
▁Kr	-3496
▁đợt	-3497
▁thôn	-3498
▁lề	-3499
ps	-3500
▁sắm	-3501
▁Ghi	-3502
▁Kế	-3503
▁Chuẩn	-3504
line	-3505
alia	-3506
▁củng	-3507
-4	-3508
▁6,	-3509
▁Bob	-3510
9)	-3511
▁sh	-3512
1)	-3513
mi	-3514
▁vây	-3515
▁đậm	-3516
▁Cần	-3517
▁Cao	-3518
▁chợ	-3519
▁đắt	-3520
▁bốc	-3521
▁đam	-3522
▁Vua	-3523
▁No	-3524
▁Vẫn	-3525
▁Ngân	-3526
▁Tw	-3527
▁tống	-3528
ese	-3529
▁Pat	-3530
▁Bước	-3531
▁thỉnh	-3532
-0	-3533
▁Hạ	-3534
▁enzy	-3535
▁huyền	-3536
rak	-3537
▁Muốn	-3538
▁nạ	-3539
berg	-3540
▁Tur	-3541
ft	-3542
iro	-3543
▁45	-3544
iana	-3545
▁lưỡng	-3546
▁phu	-3547
▁sốc	-3548
▁ranh	-3549
▁pl	-3550
itch	-3551
li	-3552
ump	-3553
▁400	-3554
BA	-3555
▁.	-3556
inc	-3557
▁Philippines	-3558
ếch	-3559
ulf	-3560
▁Đánh	-3561
▁32	-3562
▁DNA	-3563
▁Venez	-3564
CN	-3565
▁Dar	-3566
ago	-3567
")	-3568
▁nang	-3569
▁dĩ	-3570
▁mượn	-3571
▁Quảng	-3572
▁Điển	-3573
30	-3574
▁'.	-3575
▁Mont	-3576
▁2006,	-3577
▁Mau	-3578
▁châm	-3579
▁bong	-3580
▁Vụ	-3581
▁Hỏi	-3582
▁Thom	-3583
ES	-3584
▁We	-3585
erg	-3586
▁cáp	-3587
▁lật	-3588
esh	-3589
▁Dra	-3590
▁Mil	-3591
▁Sim	-3592
▁non	-3593
oly	-3594
▁Chất	-3595
▁ngâm	-3596
ome	-3597
uel	-3598
ora	-3599
▁Loan	-3600
do	-3601
een	-3602
▁80	-3603
▁đắn	-3604
▁keo	-3605
▁dắt	-3606
Chúng	-3607
▁Game	-3608
iễu	-3609
▁nit	-3610
7)	-3611
ept	-3612
▁thuẫn	-3613
▁2008,	-3614
ịn	-3615
The	-3616
▁Vũ	-3617
▁Nào	-3618
▁Hiến	-3619
ory	-3620
▁Dr	-3621
▁đệm	-3622
▁Đo	-3623
AT	-3624
▁Sup	-3625
▁hâm	-3626
uyển	-3627
▁Hoà	-3628
▁Enter	-3629
▁Louis	-3630
▁Ag	-3631
▁z	-3632
▁xóm	-3633
▁Argentina	-3634
ione	-3635
ays	-3636
▁mò	-3637
osh	-3638
aire	-3639
▁For	-3640
▁ngưng	-3641
owo	-3642
▁vờ	-3643
▁Ken	-3644
rm	-3645
▁ser	-3646
▁tuệ	-3647
▁gõ	-3648
rael	-3649
▁Mus	-3650
▁Tài	-3651
▁dũng	-3652
▁Tok	-3653
▁vòi	-3654
80	-3655
▁ồn	-3656
▁Bol	-3657
▁chọc	-3658
wa	-3659
▁Ca	-3660
▁bóp	-3661
▁lùi	-3662
roid	-3663
▁miêu	-3664
▁van	-3665
sa	-3666
▁mẻ	-3667
ander	-3668
▁Chà	-3669
▁Well	-3670
▁7,	-3671
▁st	-3672
▁Áo	-3673
▁Stan	-3674
▁Venezuela	-3675
▁Cov	-3676
▁Tay	-3677
▁Tiền	-3678
▁ốm	-3679
▁Stev	-3680
▁bù	-3681
▁nè	-3682
uro	-3683
▁nắp	-3684
ily	-3685
▁Wi	-3686
▁mỉ	-3687
ado	-3688
▁vặt	-3689
▁Nhĩ	-3690
▁bón	-3691
▁Báo	-3692
người	-3693
eph	-3694
▁rồ	-3695
▁chà	-3696
▁khỉ	-3697
▁nghiêng	-3698
ull	-3699
▁Trò	-3700
▁vội	-3701
▁mộng	-3702
▁Sant	-3703
▁lũng	-3704
▁điền	-3705
tt	-3706
▁2007,	-3707
▁Mark	-3708
▁Ju	-3709
▁...	-3710
▁HIV	-3711
▁bọt	-3712
▁Victor	-3713
▁III	-3714
▁kiệt	-3715
▁ái	-3716
▁cạn	-3717
▁Play	-3718
▁ngột	-3719
▁Mang	-3720
▁2019	-3721
▁kẽ	-3722
▁Hey	-3723
▁Iran	-3724
10	-3725
▁mốc	-3726
▁tiệm	-3727
▁Tạo	-3728
▁Adam	-3729
tain	-3730
▁nảy	-3731
rosoft	-3732
erson	-3733
▁35	-3734
iano	-3735
Không	-3736
▁Ngôi	-3737
▁lui	-3738
▁phú	-3739
▁cấy	-3740
▁Ư	-3741
▁Je	-3742
▁cành	-3743
▁lọ	-3744
▁vắc	-3745
IN	-3746
ila	-3747
▁Pe	-3748
▁khôn	-3749
▁2005	-3750
▁Ap	-3751
▁Red	-3752
▁(199	-3753
▁nhũng	-3754
su	-3755
▁mầm	-3756
▁hụt	-3757
AM	-3758
▁Shi	-3759
col	-3760
▁ghé	-3761
yst	-3762
▁kiềm	-3763
gan	-3764
▁lấp	-3765
▁Jan	-3766
▁khe	-3767
▁Nghĩa	-3768
isa	-3769
▁nhi	-3770
▁Gọi	-3771
▁mau	-3772
▁Da	-3773
▁Ảnh	-3774
▁lùng	-3775
▁bàng	-3776
▁chòm	-3777
▁trật	-3778
▁Henry	-3779
ưởi	-3780
▁del	-3781
▁nghịch	-3782
▁Maria	-3783
▁Sáng	-3784
▁diệu	-3785
▁nguyệt	-3786
adi	-3787
ska	-3788
▁Israel	-3789
▁lờ	-3790
▁Nhờ	-3791
▁bar	-3792
▁ván	-3793
▁gạch	-3794
▁Star	-3795
ational	-3796
▁thâm	-3797
▁thoái	-3798
car	-3799
oto	-3800
sky	-3801
▁Hoả	-3802
▁phô	-3803
▁váy	-3804
▁Charles	-3805
ric	-3806
▁Boy	-3807
▁Cây	-3808
▁gạo	-3809
▁Chúc	-3810
▁carbon	-3811
▁Fin	-3812
▁dội	-3813
▁Dịch	-3814
▁Sol	-3815
▁Ver	-3816
▁ham	-3817
▁Hiểu	-3818
che	-3819
▁nồi	-3820
▁Richard	-3821
▁Ghana	-3822
▁internet	-3823
ial	-3824
▁tang	-3825
olf	-3826
▁sét	-3827
▁8,	-3828
▁Uh	-3829
▁Bang	-3830
ze	-3831
▁ve	-3832
aus	-3833
▁Ass	-3834
Phone	-3835
▁Cung	-3836
▁trương	-3837
▁Rõ	-3838
▁khuy	-3839
aya	-3840
▁thép	-3841
St	-3842
▁5.	-3843
▁hét	-3844
▁lê	-3845
▁san	-3846
▁đắp	-3847
▁2004	-3848
▁Phật	-3849
▁Max	-3850
▁mến	-3851
▁xăng	-3852
▁tạ	-3853
▁Bal	-3854
▁Dưới	-3855
▁enzyme	-3856
rie	-3857
▁Xã	-3858
▁Ray	-3859
▁90	-3860
▁Động	-3861
▁Truyền	-3862
mar	-3863
▁Coi	-3864
▁lường	-3865
▁Microsoft	-3866
CO	-3867
▁buýt	-3868
▁Tex	-3869
▁Mel	-3870
▁quyến	-3871
▁Sáu	-3872
▁0.	-3873
ower	-3874
▁Ham	-3875
▁Phong	-3876
▁2019,	-3877
▁Andre	-3878
uck	-3879
▁xí	-3880
▁blog	-3881
▁lăng	-3882
▁Black	-3883
▁Su	-3884
▁dịp	-3885
▁mảng	-3886
ield	-3887
▁khơi	-3888
cho	-3889
ster	-3890
▁gấu	-3891
win	-3892
▁rụng	-3893
▁Ram	-3894
▁natri	-3895
▁cl	-3896
▁Android	-3897
▁cac	-3898
▁Sản	-3899
▁phơi	-3900
▁cor	-3901
▁quãng	-3902
▁voi	-3903
▁Hoá	-3904
▁Lịch	-3905
);	-3906
▁Cos	-3907
van	-3908
▁Bồ	-3909
▁ruồi	-3910
rit	-3911
▁ngô	-3912
▁Du	-3913
▁Kẻ	-3914
▁cảng	-3915
men	-3916
ulin	-3917
▁cừ	-3918
▁tam	-3919
▁Mu	-3920
▁Cas	-3921
▁Luc	-3922
FA	-3923
PA	-3924
▁gác	-3925
▁khay	-3926
▁Suy	-3927
eng	-3928
▁70	-3929
▁acet	-3930
ette	-3931
▁Jer	-3932
▁dốc	-3933
▁Định	-3934
ườm	-3935
▁thiền	-3936
xin	-3937
▁Sn	-3938
ẻo	-3939
▁188	-3940
▁gánh	-3941
▁Gro	-3942
▁múa	-3943
▁Covid	-3944
xit	-3945
▁bả	-3946
▁ion	-3947
irus	-3948
▁lăn	-3949
illa	-3950
▁Lee	-3951
▁mộc	-3952
▁Xu	-3953
site	-3954
▁kẹp	-3955
lu	-3956
▁Lại	-3957
▁lặn	-3958
▁1/	-3959
EAN	-3960
▁hố	-3961
▁Giá	-3962
▁manh	-3963
▁Bos	-3964
yan	-3965
▁râu	-3966
ba	-3967
red	-3968
▁Hoàn	-3969
▁Peru	-3970
▁vỗ	-3971
▁ngắm	-3972
▁Trẻ	-3973
▁ớt	-3974
▁Kit	-3975
▁Dành	-3976
gin	-3977
▁vạch	-3978
▁vắng	-3979
BI	-3980
▁Ne	-3981
estr	-3982
▁cơm	-3983
▁(18	-3984
là	-3985
▁Trừ	-3986
sko	-3987
any	-3988
▁gũi	-3989
▁Hel	-3990
ater	-3991
▁horm	-3992
CBS	-3993
▁Lễ	-3994
hyd	-3995
▁Van	-3996
▁iPhone	-3997
500	-3998
rad	-3999
▁đẻ	-4000
ode	-4001
pha	-4002
▁đứt	-4003
▁chiên	-4004
▁Tới	-4005
iew	-4006
▁đãi	-4007
▁Nhập	-4008
▁Harry	-4009
▁Web	-4010
▁Mike	-4011
▁6.	-4012
▁Vùng	-4013
NG	-4014
▁Ug	-4015
▁hở	-4016
atin	-4017
▁Mua	-4018
▁Ross	-4019
ếm	-4020
lan	-4021
▁op	-4022
eland	-4023
▁bã	-4024
▁ml	-4025
ague	-4026
▁Quỹ	-4027
▁chéo	-4028
▁bơm	-4029
RI	-4030
▁rẽ	-4031
▁Bor	-4032
ha	-4033
▁vành	-4034
40	-4035
▁Giao	-4036
▁lọt	-4037
▁Vai	-4038
▁lân	-4039
▁Park	-4040
▁AD	-4041
▁Ze	-4042
):	-4043
▁tưới	-4044
▁hang	-4045
▁chuông	-4046
▁Han	-4047
▁uy	-4048
▁xoắn	-4049
▁Super	-4050
12	-4051
Con	-4052
▁Met	-4053
▁vứt	-4054
CA	-4055
▁dâu	-4056
ican	-4057
▁bực	-4058
▁camera	-4059
top	-4060
▁điêu	-4061
▁Thiếu	-4062
ni	-4063
▁Dom	-4064
dor	-4065
ics	-4066
▁hận	-4067
▁mâu	-4068
▁mập	-4069
▁Album	-4070
▁khoác	-4071
▁hạch	-4072
▁rỉ	-4073
une	-4074
▁dải	-4075
▁sấy	-4076
he	-4077
▁Rửa	-4078
▁đoan	-4079
▁2003	-4080
▁".	-4081
▁cọ	-4082
▁ghê	-4083
▁Okay	-4084
▁rộn	-4085
▁Cast	-4086
▁rỗng	-4087
▁Carol	-4088
Cl	-4089
aser	-4090
▁187	-4091
ato	-4092
ise	-4093
▁It	-4094
▁Cá	-4095
▁Im	-4096
▁Yo	-4097
▁cay	-4098
▁xám	-4099
▁Điểm	-4100
▁rung	-4101
▁Chiếc	-4102
▁9,	-4103
▁hiếp	-4104
▁Cup	-4105
▁Ah	-4106
EC	-4107
▁1990	-4108
▁Mill	-4109
▁ASEAN	-4110
▁tiệt	-4111
▁đoạt	-4112
▁Thomas	-4113
▁Angeles	-4114
▁Tụi	-4115
▁ad	-4116
erto	-4117
▁Mô	-4118
▁nề	-4119
▁Mười	-4120
▁hormone	-4121
▁Sand	-4122
▁Nghị	-4123
▁chục	-4124
▁Martin	-4125
▁Win	-4126
▁Dĩ	-4127
▁Bao	-4128
ivis	-4129
▁USB	-4130
▁đực	-4131
ffe	-4132
▁ghen	-4133
▁chăng	-4134
▁Nghĩ	-4135
▁nhát	-4136
▁poly	-4137
▁tò	-4138
▁Bab	-4139
▁Long	-4140
▁trùm	-4141
ts	-4142
ther	-4143
▁Thuật	-4144
▁7.	-4145
▁Id	-4146
▁Harv	-4147
ck	-4148
▁Cực	-4149
▁trúng	-4150
wn	-4151
▁Lực	-4152
▁Uganda	-4153
▁nhượng	-4154
▁sườn	-4155
▁Tam	-4156
▁City	-4157
▁Thấy	-4158
▁Kỹ	-4159
▁Giới	-4160
▁36	-4161
VD	-4162
▁sẹo	-4163
kho	-4164
▁tráng	-4165
eet	-4166
▁lầ	-4167
itter	-4168
éc	-4169
rin	-4170
tên	-4171
▁Latinh	-4172
▁nhện	-4173
▁nuốt	-4174
▁Mi	-4175
oca	-4176
▁Sở	-4177
▁Vợ	-4178
▁cuồng	-4179
aka	-4180
gon	-4181
ove	-4182
▁(5	-4183
▁Yêu	-4184
▁vượng	-4185
▁Giáng	-4186
▁Oliver	-4187
-201	-4188
▁đun	-4189
▁đấm	-4190
▁Texas	-4191
▁Ak	-4192
▁On	-4193
▁Pu	-4194
▁Dis	-4195
▁Rach	-4196
elle	-4197
▁Phim	-4198
ound	-4199
▁Miss	-4200
▁trơn	-4201
▁ả	-4202
▁rad	-4203
▁Lên	-4204
▁hông	-4205
▁nhặt	-4206
▁mm	-4207
▁ấu	-4208
▁tỉa	-4209
▁Phiên	-4210
▁Giả	-4211
▁186	-4212
▁cừu	-4213
▁vâng	-4214
▁sô	-4215
▁gu	-4216
outh	-4217
▁King	-4218
▁cống	-4219
▁dì	-4220
▁iP	-4221
lymp	-4222
▁tràng	-4223
▁Florida	-4224
99	-4225
IA	-4226
▁Jane	-4227
▁bổng	-4228
ci	-4229
uồn	-4230
▁TQ	-4231
ym	-4232
▁Net	-4233
▁2016.	-4234
▁canxi	-4235
11	-4236
▁Lời	-4237
▁khiếu	-4238
▁tuỷ	-4239
▁Thầy	-4240
▁phồng	-4241
▁Cắt	-4242
▁rùa	-4243
▁Luân	-4244
▁2005,	-4245
▁×	-4246
ington	-4247
ito	-4248
oga	-4249
▁nứt	-4250
▁đạc	-4251
yt	-4252
▁Joe	-4253
▁Daniel	-4254
DP	-4255
ớc	-4256
air	-4257
ias	-4258
▁rèn	-4259
▁uh	-4260
▁Trận	-4261
▁chảo	-4262
cus	-4263
▁Nat	-4264
▁Thuỷ	-4265
▁Bức	-4266
▁1980	-4267
MA	-4268
▁súp	-4269
owski	-4270
chi	-4271
▁đuối	-4272
▁Olymp	-4273
các	-4274
▁Tel	-4275
apore	-4276
▁hoài	-4277
▁Thương	-4278
ota	-4279
▁Krak	-4280
▁Quyền	-4281
▁Nic	-4282
▁Ko	-4283
▁Jac	-4284
▁Str	-4285
▁House	-4286
▁tùng	-4287
dr	-4288
▁bướ	-4289
▁phế	-4290
▁Ky	-4291
▁Cẩn	-4292
▁Haw	-4293
iec	-4294
▁Bị	-4295
▁TED	-4296
▁dỗ	-4297
▁Saint	-4298
ốp	-4299
ula	-4300
▁ngắt	-4301
▁Sân	-4302
▁Hung	-4303
▁nhục	-4304
▁2004,	-4305
aica	-4306
▁Gab	-4307
▁Georg	-4308
▁Âm	-4309
ais	-4310
▁Bay	-4311
▁xay	-4312
fl	-4313
▁Rec	-4314
▁kali	-4315
teroid	-4316
ova	-4317
▁Sức	-4318
▁Song	-4319
▁Smith	-4320
▁Singapore	-4321
way	-4322
▁Nhanh	-4323
app	-4324
▁Tăng	-4325
▁Tân	-4326
▁Jess	-4327
▁loãng	-4328
lyc	-4329
▁150	-4330
▁Barb	-4331
ars	-4332
▁Rad	-4333
▁Sk	-4334
▁chì	-4335
▁Quần	-4336
▁Charlie	-4337
Gi	-4338
▁(6	-4339
▁mổ	-4340
▁Quả	-4341
▁CA	-4342
▁Cat	-4343
của	-4344
▁Gặp	-4345
▁Cuốn	-4346
▁Tokyo	-4347
,'	-4348
PS	-4349
▁hệt	-4350
▁OK	-4351
▁Lập	-4352
▁tăm	-4353
▁tệp	-4354
lib	-4355
▁2017.	-4356
▁Pak	-4357
▁Scot	-4358
▁Rod	-4359
▁Đang	-4360
25	-4361
TV	-4362
▁nhiễu	-4363
▁Jamaica	-4364
rey	-4365
▁Ger	-4366
ence	-4367
▁12,	-4368
▁vuốt	-4369
▁Đề	-4370
▁vẹn	-4371
▁vụn	-4372
▁thắc	-4373
osterone	-4374
▁Latin	-4375
den	-4376
▁Az	-4377
▁NA	-4378
osph	-4379
kra	-4380
▁48	-4381
▁quấy	-4382
con	-4383
▁tựu	-4384
-5	-4385
lad	-4386
▁Xe	-4387
▁Po	-4388
▁as	-4389
▁trân	-4390
▁buồng	-4391
Nếu	-4392
▁nhúng	-4393
ami	-4394
▁Cầu	-4395
▁lãi	-4396
▁ân	-4397
IS	-4398
tan	-4399
▁lùn	-4400
▁lắc	-4401
▁cúm	-4402
▁tỏi	-4403
ors	-4404
▁on	-4405
▁vần	-4406
idine	-4407
▁Just	-4408
▁luỹ	-4409
▁thầm	-4410
Một	-4411
Mình	-4412
▁Cử	-4413
▁mic	-4414
▁khoang	-4415
▁Lâu	-4416
▁sal	-4417
▁2018.	-4418
▁Trở	-4419
▁xưởng	-4420
▁cacbon	-4421
!"	-4422
LA	-4423
eck	-4424
▁Uy	-4425
▁Vô	-4426
Tube	-4427
uchia	-4428
▁chuối	-4429
hô	-4430
ww	-4431
▁Bảy	-4432
ivers	-4433
▁benz	-4434
▁Claire	-4435
ison	-4436
▁Obama	-4437
▁chinh	-4438
Em	-4439
▁Đêm	-4440
▁Tiêu	-4441
-10	-4442
▁đòn	-4443
▁2014.	-4444
cher	-4445
▁Berlin	-4446
hay	-4447
▁hàn	-4448
▁Mur	-4449
▁gel	-4450
▁Hill	-4451
▁ôn	-4452
▁ngụ	-4453
▁nghiền	-4454
ain	-4455
ghan	-4456
▁est	-4457
▁Jean	-4458
▁Dam	-4459
▁lúa	-4460
▁kiêng	-4461
▁thính	-4462
▁Joseph	-4463
.)	-4464
min	-4465
▁Giảm	-4466
200	-4467
▁bìa	-4468
"?	-4469
▁sulf	-4470
oli	-4471
với	-4472
edia	-4473
▁11,	-4474
▁Bia	-4475
▁Amer	-4476
▁mẩu	-4477
abeth	-4478
ather	-4479
over	-4480
▁met	-4481
▁α	-4482
tress	-4483
▁AP	-4484
▁heo	-4485
▁đùi	-4486
▁1990,	-4487
▁bấm	-4488
▁amin	-4489
▁Tưởng	-4490
70	-4491
▁Ước	-4492
▁Khối	-4493
▁cỗ	-4494
▁Nik	-4495
▁Campuchia	-4496
azz	-4497
▁HD	-4498
itan	-4499
▁ngộ	-4500
▁dại	-4501
19	-4502
ates	-4503
▁Sav	-4504
▁Chic	-4505
▁chuyền	-4506
pl	-4507
▁nhị	-4508
▁que	-4509
▁nhốt	-4510
ori	-4511
anny	-4512
enza	-4513
▁Dou	-4514
ink	-4515
rick	-4516
athan	-4517
▁2000,	-4518
▁thoáng	-4519
aki	-4520
ustr	-4521
▁Tan	-4522
▁Tàu	-4523
▁thọ	-4524
▁Đơn	-4525
▁nguội	-4526
▁Sel	-4527
▁thầu	-4528
▁YouTube	-4529
sz	-4530
Ứng	-4531
▁Màu	-4532
▁2001	-4533
▁Chuyển	-4534
▁Far	-4535
▁for	-4536
▁or	-4537
▁Gra	-4538
▁Mah	-4539
onesia	-4540
▁nguyền	-4541
enos	-4542
▁Ash	-4543
▁Mộc	-4544
aland	-4545
▁Av	-4546
▁ok	-4547
▁Ira	-4548
▁Quy	-4549
▁Sum	-4550
▁FBI	-4551
▁Ê	-4552
bao	-4553
▁TCN	-4554
▁rã	-4555
▁toạ	-4556
▁Scott	-4557
▁ừ	-4558
▁Afghan	-4559
▁FDA	-4560
▁Kam	-4561
▁hưng	-4562
▁gạt	-4563
ital	-4564
lorua	-4565
▁Giúp	-4566
▁2015.	-4567
▁rưỡi	-4568
po	-4569
eto	-4570
▁Ev	-4571
▁sói	-4572
▁Ngược	-4573
▁League	-4574
bi	-4575
▁Phản	-4576
▁Rock	-4577
▁quấn	-4578
▁Mai	-4579
▁Vật	-4580
▁Sơn	-4581
Người	-4582
▁Hiệu	-4583
▁uốn	-4584
▁2012.	-4585
▁Trump	-4586
▁khoán	-4587
▁Bỉ	-4588
▁Quay	-4589
▁Ł	-4590
mon	-4591
▁loét	-4592
▁Reg	-4593
▁len	-4594
▁Grand	-4595
pt	-4596
fer	-4597
▁Tâm	-4598
▁Đấy	-4599
▁Tướng	-4600
đã	-4601
Các	-4602
olo	-4603
▁Indonesia	-4604
còn	-4605
▁nến	-4606
olone	-4607
▁Ukra	-4608
▁Bảng	-4609
▁8.	-4610
▁đậy	-4611
▁Dược	-4612
▁xách	-4613
▁Chỗ	-4614
out	-4615
▁ti	-4616
▁Francisco	-4617
▁trán	-4618
Bạn	-4619
▁Tho	-4620
▁2002	-4621
▁Lãnh	-4622
▁Rome	-4623
▁thung	-4624
Sh	-4625
▁is	-4626
▁nếp	-4627
Những	-4628
pir	-4629
▁des	-4630
orph	-4631
▁dưa	-4632
▁gai	-4633
▁rốt	-4634
▁Wall	-4635
ãm	-4636
▁Khả	-4637
▁khao	-4638
từ	-4639
▁túng	-4640
VID	-4641
▁Chế	-4642
jo	-4643
itar	-4644
▁Jon	-4645
▁Um	-4646
▁Đa	-4647
ream	-4648
▁Chicago	-4649
thur	-4650
▁lội	-4651
▁Vòng	-4652
eh	-4653
▁Chris	-4654
iet	-4655
▁Fel	-4656
tainment	-4657
▁Jackson	-4658
▁đà	-4659
▁Virgin	-4660
▁website	-4661
▁đố	-4662
▁nàn	-4663
▁Cape	-4664
▁steroid	-4665
▁Afghanistan	-4666
In	-4667
▁Đô	-4668
chẳng	-4669
▁Port	-4670
owa	-4671
▁Sư	-4672
field	-4673
estosterone	-4674
oma	-4675
▁DS	-4676
▁Hi	-4677
▁lít	-4678
thường	-4679
▁Mak	-4680
▁Dòng	-4681
▁muỗi	-4682
box	-4683
ere	-4684
▁Đồ	-4685
▁2020	-4686
▁Edward	-4687
-6	-4688
por	-4689
▁10.	-4690
ystem	-4691
▁Entertainment	-4692
▁Tar	-4693
▁đinh	-4694
sự	-4695
▁rổ	-4696
▁20,	-4697
xem	-4698
▁Gã	-4699
▁Des	-4700
▁đặn	-4701
▁khoái	-4702
nes	-4703
▁Kiểu	-4704
ats	-4705
▁kỵ	-4706
▁sỏi	-4707
ński	-4708
pr	-4709
▁huynh	-4710
▁xướng	-4711
▁inch	-4712
▁Twitter	-4713
oá	-4714
▁Wat	-4715
▁găng	-4716
cio	-4717
nếu	-4718
▁Dầu	-4719
▁chớ	-4720
▁rạp	-4721
▁Đọc	-4722
▁Kitô	-4723
▁CP	-4724
▁Nob	-4725
▁Sun	-4726
arin	-4727
ele	-4728
▁Rachel	-4729
▁Il	-4730
▁Gam	-4731
▁Bell	-4732
▁Art	-4733
aud	-4734
▁38	-4735
▁lột	-4736
oton	-4737
▁Diễn	-4738
▁thắn	-4739
▁dở	-4740
cell	-4741
▁TP	-4742
▁Thuyền	-4743
ote	-4744
ươn	-4745
▁Biểu	-4746
▁mỉm	-4747
▁phì	-4748
▁Iraq	-4749
▁Leon	-4750
▁Nguồn	-4751
▁Chí	-4752
▁xăm	-4753
▁Nè	-4754
▁cún	-4755
ble	-4756
▁cán	-4757
▁1999	-4758
▁gluc	-4759
ika	-4760
▁Kos	-4761
els	-4762
▁bú	-4763
CM	-4764
▁Ś	-4765
off	-4766
▁33	-4767
▁Duy	-4768
▁lướt	-4769
▁Carib	-4770
▁Ke	-4771
▁xì	-4772
▁tru	-4773
▁COVID	-4774
▁Đứng	-4775
ae	-4776
▁feet	-4777
▁ne	-4778
15	-4779
▁đỗ	-4780
br	-4781
aysia	-4782
▁Tỉnh	-4783
▁mịn	-4784
▁kiếp	-4785
ets	-4786
▁Mir	-4787
▁Tun	-4788
▁run	-4789
▁Sara	-4790
ET	-4791
▁183	-4792
▁Gold	-4793
▁trắc	-4794
▁láng	-4795
▁vớ	-4796
▁long	-4797
▁Đệ	-4798
▁Nap	-4799
▁phác	-4800
▁Ứng	-4801
▁Anton	-4802
▁bóc	-4803
▁cụt	-4804
▁Bon	-4805
▁Siles	-4806
▁thiêu	-4807
ava	-4808
▁xá	-4809
ator	-4810
sulin	-4811
▁Trắng	-4812
▁Inc	-4813
▁Chia	-4814
▁chằm	-4815
▁hăng	-4816
▁Divis	-4817
▁piano	-4818
▁Zealand	-4819
pa	-4820
▁Cu	-4821
enna	-4822
▁1000	-4823
▁chiết	-4824
ited	-4825
epine	-4826
ign	-4827
oud	-4828
▁Hot	-4829
▁Mất	-4830
▁trá	-4831
▁2013.	-4832
▁Fr	-4833
▁bit	-4834
những	-4835
▁1970	-4836
▁Green	-4837
▁nhiếp	-4838
▁chay	-4839
▁María	-4840
▁Sarah	-4841
▁kệ	-4842
▁xô	-4843
▁Aug	-4844
▁Bra	-4845
▁Linux	-4846
▁estrogen	-4847
▁nọ	-4848
avirus	-4849
khoảng	-4850
ild	-4851
nik	-4852
▁Cop	-4853
▁hãm	-4854
▁Malaysia	-4855
▁á	-4856
▁Áp	-4857
▁Kir	-4858
IC	-4859
ct	-4860
▁Tak	-4861
▁DVD	-4862
▁nản	-4863
▁Ngồi	-4864
▁bướm	-4865
▁Lẽ	-4866
▁đính	-4867
▁chước	-4868
▁khuynh	-4869
▁nơ	-4870
▁ủi	-4871
▁Phổ	-4872
board	-4873
▁Jeff	-4874
▁2011.	-4875
86	-4876
ical	-4877
▁man	-4878
▁Joey	-4879
▁Sport	-4880
▁One	-4881
▁Ngôn	-4882
▁Sher	-4883
▁2019.	-4884
mo	-4885
▁xi	-4886
ongo	-4887
▁Eliz	-4888
▁2003,	-4889
▁Champ	-4890
▁Scotland	-4891
ugh	-4892
ling	-4893
ters	-4894
▁Kenya	-4895
die	-4896
▁Cụ	-4897
▁log	-4898
▁lánh	-4899
▁Shin	-4900
▁Tinh	-4901
▁chét	-4902
akh	-4903
ions	-4904
trước	-4905
▁Comp	-4906
▁Kur	-4907
▁Victoria	-4908
ũa	-4909
ẽn	-4910
▁xông	-4911
▁185	-4912
▁Video	-4913
ựu	-4914
▁CE	-4915
▁Ted	-4916
▁đọng	-4917
▁gân	-4918
▁Mạch	-4919
▁xé	-4920
▁Ul	-4921
▁chuồng	-4922
▁Ron	-4923
▁tiễn	-4924
▁ar	-4925
Có	-4926
▁Tal	-4927
▁Comm	-4928
▁chổi	-4929
75	-4930
▁Ờ	-4931
lyn	-4932
▁nạt	-4933
▁Tuần	-4934
▁Steve	-4935
▁quyên	-4936
CS	-4937
well	-4938
▁chườm	-4939
rine	-4940
▁Matt	-4941
rz	-4942
▁per	-4943
▁vặn	-4944
▁1960	-4945
▁Colle	-4946
can	-4947
▁sọ	-4948
▁khoả	-4949
▁ngửi	-4950
si	-4951
▁Son	-4952
▁Tạp	-4953
▁Anna	-4954
▁Nick	-4955
▁trêu	-4956
ngh	-4957
emy	-4958
ỳnh	-4959
▁Quý	-4960
▁lấn	-4961
▁Quận	-4962
▁triệt	-4963
13	-4964
una	-4965
▁dai	-4966
▁trọn	-4967
▁South	-4968
90	-4969
▁Rh	-4970
▁đốm	-4971
▁khuất	-4972
▁Arthur	-4973
▁2009.	-4974
▁Khách	-4975
▁Thoa	-4976
▁sương	-4977
xa	-4978
ởm	-4979
arth	-4980
mann	-4981
omor	-4982
▁Roy	-4983
úm	-4984
▁Lind	-4985
▁pH	-4986
▁Hạt	-4987
▁sưởi	-4988
▁CH	-4989
eda	-4990
▁64	-4991
▁xen	-4992
▁nghiệt	-4993
▁Huy	-4994
▁phen	-4995
▁luồng	-4996
▁Cửa	-4997
▁bùn	-4998
ty	-4999
▁liu	-5000
ylv	-5001
▁cớ	-5002
▁lều	-5003
▁nhai	-5004
IDS	-5005
▁Sơ	-5006
udio	-5007
▁Hán	-5008
▁lận	-5009
▁cược	-5010
▁file	-5011
ye	-5012
▁Hal	-5013
▁yến	-5014
▁Hama	-5015
▁ngẩn	-5016
▁quầy	-5017
▁1980,	-5018
▁Lor	-5019
▁Nhiệt	-5020
IM	-5021
▁bệ	-5022
▁Đợi	-5023
gl	-5024
▁Bạc	-5025
▁nhổ	-5026
▁Trao	-5027
-8	-5028
16	-5029
▁bẻ	-5030
▁Big	-5031
▁bộc	-5032
▁caffe	-5033
▁Ireland	-5034
Hãy	-5035
▁Ru	-5036
ogen	-5037
▁Wik	-5038
▁Đan	-5039
▁Năng	-5040
▁rách	-5041
▁phiêu	-5042
▁Kraków	-5043
▁34	-5044
epler	-5045
▁Mạng	-5046
▁Phục	-5047
▁khiếm	-5048
di	-5049
▁UN	-5050
▁lơ	-5051
ilic	-5052
lock	-5053
▁Fer	-5054
▁nãy	-5055
▁đúc	-5056
▁bách	-5057
▁giun	-5058
icz	-5059
▁75	-5060
enny	-5061
olog	-5062
▁Đôn	-5063
vin	-5064
▁rét	-5065
▁giề	-5066
▁vòm	-5067
▁thiêng	-5068
▁Quyết	-5069
▁giềng	-5070
▁Pop	-5071
▁ngư	-5072
▁Thỉnh	-5073
▁laser	-5074
EA	-5075
ER	-5076
eld	-5077
org	-5078
▁Jud	-5079
▁Seo	-5080
▁ngớ	-5081
▁42	-5082
▁19,	-5083
▁hist	-5084
▁Kn	-5085
ance	-5086
▁Bốn	-5087
▁dập	-5088
▁nhồi	-5089
▁nghẽn	-5090
▁Intern	-5091
▁..	-5092
▁bồ	-5093
▁OS	-5094
▁Buổi	-5095
▁Inst	-5096
ivi	-5097
▁PC	-5098
▁Mod	-5099
▁1998	-5100
▁2001,	-5101
obs	-5102
▁rò	-5103
▁xôi	-5104
▁Rằng	-5105
be	-5106
ria	-5107
▁bo	-5108
▁Qua	-5109
oszcz	-5110
▁Thao	-5111
▁Ts	-5112
▁xế	-5113
▁Đổ	-5114
idad	-5115
▁Bern	-5116
▁Jimmy	-5117
PD	-5118
ati	-5119
ardo	-5120
▁IV	-5121
▁Ly	-5122
▁trinh	-5123
ij	-5124
▁đè	-5125
mond	-5126
▁Wii	-5127
▁Nàng	-5128
▁180	-5129
▁Way	-5130
▁beta	-5131
TS	-5132
yah	-5133
▁''	-5134
▁Vệ	-5135
▁dừa	-5136
▁liễu	-5137
▁stress	-5138
onavirus	-5139
▁insulin	-5140
%,	-5141
tone	-5142
▁1-2	-5143
▁Ant	-5144
▁Đau	-5145
▁Tạng	-5146
▁Kepler	-5147
▁pop	-5148
▁Jas	-5149
▁rock	-5150
tha	-5151
▁Hom	-5152
▁Sat	-5153
▁Barry	-5154
esterol	-5155
▁nhí	-5156
illin	-5157
▁radio	-5158
Qu	-5159
▁−	-5160
asa	-5161
▁9.	-5162
▁soi	-5163
▁Stre	-5164
45	-5165
iago	-5166
▁ráp	-5167
ectron	-5168
ando	-5169
ange	-5170
▁Mối	-5171
aro	-5172
▁fl	-5173
▁bến	-5174
▁Elizabeth	-5175
▁PD	-5176
▁Ty	-5177
▁600	-5178
▁Xét	-5179
gu	-5180
▁Lặp	-5181
▁Nông	-5182
▁khéo	-5183
▁Bir	-5184
▁Eng	-5185
▁chol	-5186
▁37	-5187
/201	-5188
▁Vịnh	-5189
▁Music	-5190
▁com	-5191
▁đắm	-5192
MS	-5193
▁eo	-5194
▁Bàn	-5195
▁Cro	-5196
▁đạm	-5197
▁Brown	-5198
Al	-5199
▁HT	-5200
▁SS	-5201
▁Kiến	-5202
▁Trin	-5203
▁phớt	-5204
▁Pakistan	-5205
17	-5206
▁Hann	-5207
CD	-5208
ban	-5209
▁Gil	-5210
▁dâng	-5211
▁Dựa	-5212
▁đục	-5213
▁Hoạt	-5214
▁nhét	-5215
▁Nhiệm	-5216
azon	-5217
▁Mot	-5218
▁Ste	-5219
▁gởi	-5220
▁2020,	-5221
▁Tunis	-5222
▁Fu	-5223
ever	-5224
▁thối	-5225
▁Lượng	-5226
▁Vol	-5227
ville	-5228
▁sướng	-5229
▁et	-5230
▁vịt	-5231
▁lách	-5232
▁gìn	-5233
▁hạm	-5234
▁Tử	-5235
eman	-5236
▁Bud	-5237
▁Che	-5238
▁Deb	-5239
▁Pho	-5240
▁nhức	-5241
▁Biał	-5242
▁Nhất	-5243
▁Town	-5244
An	-5245
▁Biến	-5246
▁Sega	-5247
▁thiếp	-5248
cin	-5249
▁vỉ	-5250
ello	-5251
▁Hall	-5252
▁khuấy	-5253
▁Hit	-5254
▁Love	-5255
▁Olympic	-5256
▁Trưởng	-5257
isk	-5258
oni	-5259
rof	-5260
▁Ele	-5261
▁dẻo	-5262
▁xao	-5263
▁yoga	-5264
▁Puerto	-5265
▁IS	-5266
▁bấy	-5267
▁cort	-5268
▁Santa	-5269
▁Johnson	-5270
▁electron	-5271
mm	-5272
▁Ell	-5273
ửng	-5274
▁tảo	-5275
▁2010.	-5276
▁Ann	-5277
▁Thân	-5278
▁vươn	-5279
▁Bas	-5280
▁Fil	-5281
▁Bóng	-5282
▁2002,	-5283
▁Marie	-5284
MI	-5285
-20	-5286
▁Et	-5287
▁giơ	-5288
▁kép	-5289
nam	-5290
rút	-5291
agen	-5292
▁50%	-5293
▁Cai	-5294
▁đầm	-5295
▁Times	-5296
▁10%	-5297
▁Sud	-5298
▁cối	-5299
▁gạc	-5300
amide	-5301
▁1.000	-5302
▁Tỷ	-5303
▁(198	-5304
▁logic	-5305
▁55	-5306
▁65	-5307
sen	-5308
▁Dev	-5309
▁Rog	-5310
vo	-5311
▁Ib	-5312
▁Lar	-5313
▁Tai	-5314
▁lén	-5315
▁vẹt	-5316
oxide	-5317
▁trừu	-5318
▁khiêm	-5319
▁coronavirus	-5320
▁suýt	-5321
▁dồn	-5322
▁nhược	-5323
-7	-5324
▁800	-5325
▁Kéo	-5326
▁Sec	-5327
▁1997	-5328
roc	-5329
ươm	-5330
▁Mr	-5331
atem	-5332
▁tôm	-5333
33	-5334
iva	-5335
ister	-5336
▁Mass	-5337
▁Rico	-5338
▁trội	-5339
▁Bán	-5340
▁Hor	-5341
▁1996	-5342
▁Boston	-5343
▁Alexander	-5344
▁IP	-5345
▁184	-5346
▁Lựa	-5347
▁báu	-5348
▁Gran	-5349
▁phiến	-5350
▁gục	-5351
▁1950	-5352
▁niêm	-5353
▁Fe	-5354
▁Die	-5355
▁hái	-5356
▁mon	-5357
õm	-5358
▁FC	-5359
▁Kev	-5360
owice	-5361
▁trói	-5362
▁Holly	-5363
ugu	-5364
▁(7	-5365
▁Bi	-5366
▁Đâu	-5367
▁AIDS	-5368
▁khâu	-5369
▁ngào	-5370
14	-5371
iga	-5372
lic	-5373
▁NASA	-5374
▁cholesterol	-5375
").	-5376
iyah	-5377
▁Kal	-5378
▁Santiago	-5379
és	-5380
▁TH	-5381
▁Alf	-5382
▁ven	-5383
▁đúp	-5384
▁tạng	-5385
RA	-5386
uri	-5387
▁Gol	-5388
▁Kon	-5389
▁nhấc	-5390
▁Univers	-5391
ult	-5392
▁Kem	-5393
▁Mèo	-5394
▁Idlib	-5395
▁Trần	-5396
▁nhầy	-5397
bert	-5398
▁Ath	-5399
▁Fire	-5400
▁Chồng	-5401
▁Ox	-5402
ohyd	-5403
▁Ecua	-5404
▁ngọc	-5405
▁Queen	-5406
cha	-5407
▁AR	-5408
▁kề	-5409
▁Sếp	-5410
▁Tôn	-5411
▁nhã	-5412
▁quỵ	-5413
▁nhăn	-5414
cười	-5415
▁Kaz	-5416
▁gậy	-5417
▁guitar	-5418
▁Les	-5419
▁tel	-5420
tu	-5421
▁tơ	-5422
iami	-5423
▁Bog	-5424
▁tởm	-5425
▁ngặt	-5426
▁1970,	-5427
oot	-5428
oro	-5429
▁Pi	-5430
elly	-5431
▁phàn	-5432
▁rảnh	-5433
▁at	-5434
azur	-5435
▁Lag	-5436
▁hèn	-5437
▁đàng	-5438
▁hoành	-5439
▁Li	-5440
▁Si	-5441
stan	-5442
ylon	-5443
▁dop	-5444
▁Đàn	-5445
▁Của	-5446
▁Dor	-5447
▁Đảo	-5448
▁Bí	-5449
▁Cz	-5450
ilia	-5451
▁Rio	-5452
▁Chàng	-5453
▁phông	-5454
▁Ecuador	-5455
▁#	-5456
asy	-5457
▁00	-5458
▁ha	-5459
▁Eth	-5460
▁rệt	-5461
▁1994	-5462
▁Hungary	-5463
▁Dấu	-5464
▁Hav	-5465
▁Men	-5466
NH	-5467
TC	-5468
ệm	-5469
▁vả	-5470
▁God	-5471
▁Nov	-5472
▁Trả	-5473
▁vầy	-5474
▁Wilson	-5475
▁clorua	-5476
oman	-5477
its	-5478
▁Mới	-5479
▁Brook	-5480
atemala	-5481
24	-5482
▁Sen	-5483
▁Top	-5484
ycin	-5485
▁System	-5486
▁Harvard	-5487
ady	-5488
▁Mĩ	-5489
etta	-5490
▁2-3	-5491
▁Bre	-5492
▁Gry	-5493
▁Lai	-5494
▁Pot	-5495
▁Jones	-5496
rl	-5497
aga	-5498
▁Som	-5499
ism	-5500
arch	-5501
rate	-5502
▁gập	-5503
▁nhọn	-5504
tic	-5505
rome	-5506
▁Costa	-5507
▁Od	-5508
▁2,5	-5509
▁Tony	-5510
▁chui	-5511
▁Hướng	-5512
▁Khoan	-5513
▁khiết	-5514
▁Chuyên	-5515
▁Guatemala	-5516
▁FI	-5517
▁Lao	-5518
▁Sắp	-5519
▁Kích	-5520
▁Miami	-5521
▁xỏ	-5522
▁Linh	-5523
▁Johann	-5524
▁methyl	-5525
▁nhường	-5526
▁lở	-5527
▁Mông	-5528
aly	-5529
ext	-5530
▁Nar	-5531
▁Pok	-5532
▁loa	-5533
ras	-5534
uman	-5535
▁mag	-5536
▁Biên	-5537
▁White	-5538
18	-5539
▁′	-5540
ulu	-5541
▁Pas	-5542
▁Chạy	-5543
▁Sách	-5544
▁Chand	-5545
▁bầy	-5546
▁pho	-5547
ấng	-5548
▁sờ	-5549
olin	-5550
▁Hậu	-5551
▁Nghề	-5552
▁Andrew	-5553
để	-5554
izza	-5555
kins	-5556
▁mặn	-5557
▁Amazon	-5558
▁Monica	-5559
enc	-5560
igan	-5561
▁Dun	-5562
▁1995	-5563
▁duỗi	-5564
▁Tuyệt	-5565
▁Vết	-5566
▁lụt	-5567
0,000	-5568
▁Huân	-5569
▁hoạn	-5570
▁10.000	-5571
▁Kl	-5572
▁20.	-5573
▁Der	-5574
▁côi	-5575
▁nệm	-5576
▁trỏ	-5577
▁Fort	-5578
▁Kính	-5579
▁buông	-5580
▁Sir	-5581
▁Sur	-5582
▁testosterone	-5583
▁xước	-5584
igg	-5585
▁20%	-5586
▁iPad	-5587
▁luân	-5588
▁120	-5589
▁rải	-5590
▁Calcio	-5591
iti	-5592
uto	-5593
▁Lão	-5594
▁bưu	-5595
▁chlor	-5596
▁Môi	-5597
shi	-5598
▁GDP	-5599
▁Pic	-5600
▁Jord	-5601
▁chèn	-5602
▁1:	-5603
anol	-5604
▁Tạm	-5605
▁Tuyên	-5606
▁Sus	-5607
▁gam	-5608
▁Merc	-5609
TA	-5610
let	-5611
▁Đỏ	-5612
imb	-5613
urn	-5614
▁mồm	-5615
▁Haiti	-5616
▁CN	-5617
▁Shar	-5618
aj	-5619
▁Leg	-5620
▁kẽm	-5621
▁Càng	-5622
▁North	-5623
DS	-5624
bie	-5625
▁dời	-5626
▁Ge	-5627
▁Juan	-5628
▁meth	-5629
▁Columb	-5630
▁EU	-5631
▁Lớp	-5632
▁bẩm	-5633
▁Danny	-5634
▁August	-5635
▁ủ	-5636
aba	-5637
▁Mik	-5638
▁viền	-5639
22	-5640
▁Rw	-5641
elli	-5642
▁cùa	-5643
▁rìa	-5644
▁Den	-5645
▁Law	-5646
▁Greg	-5647
▁chén	-5648
▁ngẫm	-5649
▁Billy	-5650
▁Steph	-5651
ement	-5652
▁2006.	-5653
iat	-5654
ierz	-5655
▁Căn	-5656
▁Cơn	-5657
▁Bánh	-5658
▁Băng	-5659
▁ao	-5660
▁Ừm	-5661
▁Khí	-5662
▁bầm	-5663
▁kil	-5664
▁Rick	-5665
pho	-5666
xít	-5667
▁es	-5668
▁hiếu	-5669
▁okay	-5670
▁việt	-5671
▁39	-5672
▁đê	-5673
elia	-5674
▁Now	-5675
▁mép	-5676
▁son	-5677
▁Virginia	-5678
▁Las	-5679
▁Leo	-5680
▁Mol	-5681
▁Chân	-5682
̣c	-5683
▁Jobs	-5684
▁thạc	-5685
▁vã	-5686
▁ướp	-5687
▁Trình	-5688
osa	-5689
▁Ku	-5690
▁lam	-5691
▁tản	-5692
IP	-5693
ei	-5694
ank	-5695
ied	-5696
▁GA	-5697
▁Record	-5698
GB	-5699
▁lậu	-5700
▁Loài	-5701
▁Robin	-5702
uki	-5703
var	-5704
▁Pier	-5705
▁chày	-5706
▁Giang	-5707
▁nghẹt	-5708
▁International	-5709
-200	-5710
▁12.	-5711
▁nón	-5712
▁gừng	-5713
▁ngất	-5714
rab	-5715
▁ni	-5716
cũng	-5717
pat	-5718
▁Hỗ	-5719
▁von	-5720
▁tivi	-5721
▁tụng	-5722
load	-5723
▁1,5	-5724
Trong	-5725
ettings	-5726
ret	-5727
▁Soc	-5728
▁cua	-5729
▁Conn	-5730
▁thạo	-5731
▁Ukraine	-5732
cô	-5733
▁kìm	-5734
▁1992	-5735
▁Mess	-5736
"),	-5737
ẵng	-5738
▁Ig	-5739
▁dệt	-5740
▁mod	-5741
▁độn	-5742
▁News	-5743
▁Siêu	-5744
US	-5745
▁SA	-5746
▁tứ	-5747
▁But	-5748
▁Prom	-5749
▁Viên	-5750
▁hack	-5751
bour	-5752
▁mãnh	-5753
▁1999,	-5754
▁2)	-5755
▁Lev	-5756
▁Sky	-5757
▁vẩn	-5758
▁Đứa	-5759
▁cáck	-5760
▁quạt	-5761
▁choáng	-5762
▁Cen	-5763
▁Ngủ	-5764
▁rót	-5765
▁Giai	-5766
▁Domin	-5767
▁khùng	-5768
▁bế	-5769
▁Đám	-5770
▁choàng	-5771
esa	-5772
rov	-5773
▁Bat	-5774
▁Exp	-5775
▁tuỵ	-5776
cra	-5777
rol	-5778
▁43	-5779
▁dê	-5780
▁Món	-5781
▁Andr	-5782
▁Alg	-5783
▁Dur	-5784
▁Giữa	-5785
▁chóc	-5786
ody	-5787
oshi	-5788
▁cào	-5789
▁mài	-5790
1%	-5791
▁mớ	-5792
work	-5793
▁Nền	-5794
▁Mosc	-5795
▁Doanh	-5796
▁quế	-5797
▁xua	-5798
▁Ánh	-5799
rac	-5800
▁She	-5801
▁play	-5802
▁Inter	-5803
▁Chết	-5804
▁→	-5805
-15	-5806
czy	-5807
eno	-5808
eter	-5809
ńsko	-5810
▁rỗi	-5811
▁suối	-5812
anna	-5813
▁Morgan	-5814
-9	-5815
▁cưỡi	-5816
▁xoang	-5817
CC	-5818
ML	-5819
▁eth	-5820
▁Benn	-5821
▁Sang	-5822
szt	-5823
▁êm	-5824
otte	-5825
▁Mức	-5826
▁xộn	-5827
urt	-5828
▁1993	-5829
▁niệu	-5830
▁SP	-5831
▁né	-5832
▁sp	-5833
▁gắt	-5834
▁thủng	-5835
BM	-5836
▁44	-5837
▁ah	-5838
▁xíu	-5839
inger	-5840
utin	-5841
▁Lang	-5842
▁vịnh	-5843
▁Austr	-5844
TP	-5845
edy	-5846
▁ID	-5847
ista	-5848
▁179	-5849
ennis	-5850
▁Penn	-5851
23	-5852
inn	-5853
▁Chó	-5854
▁gay	-5855
▁Gall	-5856
8%	-5857
rel	-5858
▁xấp	-5859
zi	-5860
▁13,	-5861
▁Hẳn	-5862
▁Gord	-5863
▁khép	-5864
▁Tommy	-5865
67	-5866
imer	-5867
▁90%	-5868
▁Cab	-5869
▁sen	-5870
▁Sier	-5871
▁Off	-5872
▁sáo	-5873
▁Hạn	-5874
▁Tem	-5875
▁rực	-5876
▁Tunisia	-5877
phia	-5878
▁Lub	-5879
▁mửa	-5880
▁Gryf	-5881
00,	-5882
▁Św	-5883
ique	-5884
▁Log	-5885
▁McC	-5886
▁hen	-5887
▁xít	-5888
▁Turk	-5889
▁miên	-5890
▁Matth	-5891
9%	-5892
iễm	-5893
▁lầu	-5894
▁2008.	-5895
▁huỳnh	-5896
▁phosph	-5897
try	-5898
▁80%	-5899
▁sạc	-5900
▁chớp	-5901
▁Wales	-5902
azurskie	-5903
IT	-5904
mail	-5905
▁Cre	-5906
▁Dol	-5907
ridge	-5908
▁Bart	-5909
▁Thức	-5910
▁?	-5911
ots	-5912
▁AI	-5913
ador	-5914
▁Rev	-5915
▁Sab	-5916
▁đần	-5917
▁caffeine	-5918
▁Up	-5919
▁Cận	-5920
▁nhủ	-5921
ations	-5922
▁Nathan	-5923
▁Walter	-5924
net	-5925
opia	-5926
▁Nằm	-5927
▁gót	-5928
▁Ford	-5929
▁Kênh	-5930
▁chip	-5931
▁lanh	-5932
bar	-5933
▁1989	-5934
▁Chơi	-5935
▁Clin	-5936
▁Fern	-5937
▁chiêu	-5938
▁Trinidad	-5939
▁cớm	-5940
ụa	-5941
mes	-5942
▁Phố	-5943
▁Russ	-5944
▁Vinc	-5945
▁1960,	-5946
▁Brian	-5947
Station	-5948
OM	-5949
ỡn	-5950
ois	-5951
▁Bá	-5952
ery	-5953
ife	-5954
▁Ni	-5955
▁xát	-5956
ergic	-5957
▁Kenn	-5958
▁duyên	-5959
▁MP	-5960
oper	-5961
▁250	-5962
▁bịt	-5963
▁Rand	-5964
▁quặc	-5965
oj	-5966
▁2:	-5967
pirin	-5968
▁Khởi	-5969
▁taxi	-5970
▁1990.	-5971
aku	-5972
▁Fox	-5973
▁Bạch	-5974
64	-5975
III	-5976
vào	-5977
egas	-5978
▁Stanis	-5979
6%	-5980
▁ri	-5981
▁Khó	-5982
▁1991	-5983
▁Rica	-5984
▁Jordan	-5985
ait	-5986
ave	-5987
▁nại	-5988
▁rớt	-5989
▁ngậm	-5990
amo	-5991
enic	-5992
▁Gon	-5993
▁Pre	-5994
▁100%	-5995
▁Clark	-5996
▁khuếch	-5997
uchi	-5998
▁Cứu	-5999
▁Carlos	-6000
▁Chuyến	-6001
đặc	-6002
▁Gì	-6003
unes	-6004
▁rủa	-6005
▁Open	-6006
ipedia	-6007
▁1998,	-6008
▁2007.	-6009
▁2020.	-6010
CE	-6011
▁NH	-6012
▁Zach	-6013
▁Nobel	-6014
▁Young	-6015
▁Moscow	-6016
ury	-6017
▁Ry	-6018
▁rỡ	-6019
▁vất	-6020
ete	-6021
làm	-6022
▁CIA	-6023
▁cúi	-6024
▁nhàm	-6025
▁Đoàn	-6026
2%	-6027
cast	-6028
aptop	-6029
▁gieo	-6030
▁Miller	-6031
ión	-6032
ross	-6033
▁ADN	-6034
▁Nhạc	-6035
▁ngấm	-6036
▁xoáy	-6037
otonin	-6038
▁Albert	-6039
▁β	-6040
▁Lũ	-6041
▁prog	-6042
▁chuộc	-6043
▁sê	-6044
Khi	-6045
ids	-6046
▁tem	-6047
▁tát	-6048
▁chùm	-6049
▁phôi	-6050
uce	-6051
▁Bh	-6052
Điều	-6053
▁Arm	-6054
▁xốp	-6055
fe	-6056
zo	-6057
ún	-6058
▁Blu	-6059
▁thự	-6060
▁Phúc	-6061
▁Seoul	-6062
cellenza	-6063
CH	-6064
▁cúp	-6065
▁Dừng	-6066
▁Nhắc	-6067
▁Phạm	-6068
▁Sống	-6069
▁Xuất	-6070
65	-6071
tar	-6072
acet	-6073
umab	-6074
▁Jes	-6075
▁rộp	-6076
▁College	-6077
▁Eccellenza	-6078
▁Congo	-6079
28	-6080
:/	-6081
tra	-6082
▁(197	-6083
▁Under	-6084
ewo	-6085
umi	-6086
▁Eric	-6087
▁lượn	-6088
▁United	-6089
▁Eu	-6090
▁car	-6091
▁Down	-6092
▁Aires	-6093
▁Emily	-6094
▁Kevin	-6095
PC	-6096
oss	-6097
tim	-6098
▁MS	-6099
▁Yam	-6100
adiol	-6101
▁Dave	-6102
▁Vàng	-6103
▁Power	-6104
INN	-6105
Trung	-6106
▁glyc	-6107
▁sảnh	-6108
NS	-6109
sau	-6110
ough	-6111
▁Mid	-6112
▁Vận	-6113
▁Dean	-6114
▁miện	-6115
▁liêng	-6116
▁178	-6117
▁Lit	-6118
▁trèo	-6119
▁Store	-6120
rah	-6121
▁Sz	-6122
ushi	-6123
▁Ren	-6124
▁cúc	-6125
▁par	-6126
▁Cass	-6127
▁Chạm	-6128
▁Brand	-6129
▁Amy	-6130
▁Slov	-6131
▁Trộn	-6132
▁gram	-6133
chester	-6134
rez	-6135
azine	-6136
chlor	-6137
▁Nghi	-6138
▁dopamine	-6139
ool	-6140
▁Bus	-6141
▁thê	-6142
://	-6143
mad	-6144
▁BBC	-6145
hiyah	-6146
▁Show	-6147
▁chồn	-6148
▁ngửa	-6149
▁micro	-6150
▁Carolina	-6151
wich	-6152
▁Rub	-6153
▁2000.	-6154
▁2005.	-6155
▁Margar	-6156
▁PlayStation	-6157
35	-6158
ios	-6159
▁Cấu	-6160
▁Hít	-6161
▁Moh	-6162
odiaz	-6163
▁>	-6164
ịnh	-6165
yler	-6166
▁18,	-6167
▁cal	-6168
▁sụt	-6169
▁thà	-6170
▁Mong	-6171
▁chật	-6172
▁Chung	-6173
▁Hawai	-6174
ivia	-6175
▁Nút	-6176
▁htt	-6177
ucl	-6178
▁Sah	-6179
▁Đấu	-6180
▁1997,	-6181
▁Lê	-6182
▁Moz	-6183
▁Rey	-6184
▁iOS	-6185
▁diễu	-6186
▁hổng	-6187
▁vách	-6188
▁Rwanda	-6189
▁SD	-6190
▁Xây	-6191
▁lip	-6192
▁khoe	-6193
ocaine	-6194
▁Buenos	-6195
ru	-6196
ebe	-6197
▁Đà	-6198
▁Sin	-6199
ional	-6200
▁opera	-6201
atherine	-6202
▁Chandler	-6203
3%	-6204
elt	-6205
wan	-6206
▁DC	-6207
able	-6208
▁Lớn	-6209
▁Brad	-6210
▁Truy	-6211
▁Color	-6212
acy	-6213
med	-6214
▁Bổ	-6215
▁Đem	-6216
▁Beau	-6217
quin	-6218
▁Chữ	-6219
▁Assoc	-6220
fa	-6221
han	-6222
coln	-6223
▁Wes	-6224
▁ngần	-6225
▁1950,	-6226
▁1995,	-6227
▁Lincoln	-6228
̣t	-6229
ioid	-6230
ylic	-6231
▁CEO	-6232
▁Pep	-6233
▁top	-6234
oline	-6235
▁1994,	-6236
chn	-6237
▁Om	-6238
▁om	-6239
▁ur	-6240
▁Rep	-6241
▁Séc	-6242
azole	-6243
▁Start	-6244
▁pizza	-6245
▁nộ	-6246
▁Dem	-6247
▁Pha	-6248
▁Độc	-6249
▁Good	-6250
▁ngây	-6251
▁serotonin	-6252
iko	-6253
ril	-6254
enov	-6255
▁gán	-6256
▁hân	-6257
▁lym	-6258
▁Group	-6259
▁Carter	-6260
▁Hẹn	-6261
▁thỉ	-6262
▁Fant	-6263
uda	-6264
▁bự	-6265
▁Mắt	-6266
▁Sai	-6267
▁xói	-6268
▁phết	-6269
▁Marsh	-6270
▁chánh	-6271
▁khinh	-6272
km	-6273
ód	-6274
rag	-6275
ycl	-6276
▁dỡ	-6277
▁đẽ	-6278
atar	-6279
illo	-6280
ware	-6281
▁đũa	-6282
▁Sierra	-6283
▁Hollywood	-6284
ser	-6285
▁(9	-6286
▁Ga	-6287
▁bít	-6288
chỉ	-6289
trol	-6290
▁Mật	-6291
▁rãnh	-6292
▁Billboard	-6293
▁Wikipedia	-6294
32	-6295
7%	-6296
▁ào	-6297
epam	-6298
ider	-6299
oria	-6300
▁Atl	-6301
▁Out	-6302
▁lầy	-6303
▁giỡn	-6304
▁nhôm	-6305
▁giáng	-6306
▁Chrome	-6307
gy	-6308
eva	-6309
phen	-6310
sung	-6311
▁Blo	-6312
▁Bul	-6313
▁Nak	-6314
▁léo	-6315
▁Street	-6316
▁Georgia	-6317
ple	-6318
▁Gửi	-6319
▁Lab	-6320
▁đít	-6321
▁Wood	-6322
weet	-6323
▁Lew	-6324
▁viếng	-6325
▁Hannah	-6326
Ar	-6327
aza	-6328
bean	-6329
▁HCM	-6330
▁Jun	-6331
▁card	-6332
▁sừng	-6333
Fi	-6334
cr	-6335
▁Ot	-6336
ishi	-6337
▁Cải	-6338
▁Xbox	-6339
▁Warmi	-6340
▁Stalin	-6341
ipt	-6342
▁Đủ	-6343
icia	-6344
▁Ali	-6345
▁1988	-6346
▁Cánh	-6347
▁(8	-6348
esis	-6349
uron	-6350
▁xáo	-6351
▁giòn	-6352
▁National	-6353
FC	-6354
iki	-6355
elin	-6356
phát	-6357
▁Đen	-6358
▁Oxford	-6359
gard	-6360
▁(17	-6361
▁dùm	-6362
▁trỗi	-6363
▁xưng	-6364
▁laptop	-6365
Mazurskie	-6366
▁Warmińsko	-6367
LC	-6368
OC	-6369
▁ơ	-6370
erb	-6371
▁đan	-6372
▁Chăm	-6373
isc	-6374
imir	-6375
▁CPU	-6376
▁Guy	-6377
▁gốm	-6378
▁Char	-6379
▁khăng	-6380
▁Wy	-6381
▁Jos	-6382
▁Giết	-6383
▁điếu	-6384
▁Alice	-6385
▁alpha	-6386
icl	-6387
▁Eb	-6388
▁Lá	-6389
▁rô	-6390
▁Triệu	-6391
▁silic	-6392
instein	-6393
▁kiêu	-6394
▁cuống	-6395
gr	-6396
anc	-6397
▁Land	-6398
▁Time	-6399
▁1980.	-6400
▁Explor	-6401
omorskie	-6402
▁Babylon	-6403
95	-6404
▁ox	-6405
trên	-6406
▁mol	-6407
▁Myan	-6408
▁Madrid	-6409
▁100.000	-6410
27	-6411
ếng	-6412
ager	-6413
osis	-6414
iff	-6415
uma	-6416
▁Rem	-6417
▁1986	-6418
▁Hind	-6419
▁Rodr	-6420
▁androgen	-6421
năm	-6422
▁Hun	-6423
▁Pin	-6424
▁Chim	-6425
▁Thẩm	-6426
▁Hawaii	-6427
▁Matthew	-6428
▁Meg	-6429
▁Phía	-6430
▁Est	-6431
▁Res	-6432
▁Sor	-6433
▁Axit	-6434
▁Part	-6435
▁Word	-6436
▁ngai	-6437
▁Hitler	-6438
26	-6439
eral	-6440
▁1987	-6441
▁Night	-6442
▁vướng	-6443
▁hit	-6444
▁tro	-6445
Tunes	-6446
▁Camb	-6447
▁sùng	-6448
▁thỉu	-6449
▁Đóng	-6450
▁chiêm	-6451
▁Panama	-6452
48	-6453
Đây	-6454
▁Chả	-6455
▁gom	-6456
▁Media	-6457
▁Simon	-6458
▁Johnny	-6459
▁Clinton	-6460
▁Australia	-6461
▁11.	-6462
▁File	-6463
▁banh	-6464
▁Đăng	-6465
▁Eddie	-6466
▁Thung	-6467
Nó	-6468
je	-6469
oe	-6470
dam	-6471
▁dồi	-6472
▁suyễn	-6473
▁By	-6474
▁Vin	-6475
▁quí	-6476
▁rạn	-6477
▁vảy	-6478
ector	-6479
ersey	-6480
EG	-6481
ụn	-6482
oda	-6483
▁Naz	-6484
▁ngự	-6485
▁70%	-6486
▁Tob	-6487
▁rát	-6488
▁Draw	-6489
1),	-6490
▁ST	-6491
chel	-6492
▁Taylor	-6493
4%	-6494
OR	-6495
tel	-6496
▁Dữ	-6497
▁neu	-6498
agram	-6499
▁nhút	-6500
YP	-6501
ales	-6502
ydia	-6503
▁Liz	-6504
▁lứa	-6505
▁yếm	-6506
▁Mario	-6507
▁giếng	-6508
▁Columbia	-6509
▁Szczecine	-6510
har	-6511
ili	-6512
▁15,	-6513
▁Hub	-6514
98	-6515
sch	-6516
▁Nep	-6517
▁cặn	-6518
▁hóc	-6519
▁sút	-6520
▁Kosz	-6521
▁Dream	-6522
▁chướng	-6523
estradiol	-6524
▁Williams	-6525
ér	-6526
cal	-6527
don	-6528
▁Kan	-6529
▁Isab	-6530
▁Viêm	-6531
▁Ward	-6532
ven	-6533
▁46	-6534
▁Ott	-6535
▁căm	-6536
▁lụa	-6537
attle	-6538
▁Quang	-6539
▁Caribbean	-6540
0)	-6541
▁ấp	-6542
ecca	-6543
eron	-6544
▁19.	-6545
▁cáu	-6546
▁Phar	-6547
▁khuỷ	-6548
▁Switch	-6549
38	-6550
ray	-6551
arus	-6552
▁Vừa	-6553
▁nếm	-6554
▁High	-6555
▁Salv	-6556
▁1996,	-6557
▁chênh	-6558
▁Donald	-6559
▁histamine	-6560
bit	-6561
▁Dì	-6562
....	-6563
port	-6564
▁Lâm	-6565
▁Màn	-6566
▁tết	-6567
▁Josh	-6568
▁quất	-6569
▁Gabri	-6570
agn	-6571
▁ft	-6572
▁30%	-6573
▁Pau	-6574
attan	-6575
eller	-6576
sztyn	-6577
▁Ngâm	-6578
▁Vlad	-6579
resent	-6580
▁Explorer	-6581
bin	-6582
▁47	-6583
▁CL	-6584
▁Zh	-6585
eton	-6586
theo	-6587
▁PDF	-6588
▁hel	-6589
rofen	-6590
▁Ngọc	-6591
▁1945,	-6592
▁iTunes	-6593
▁nghênh	-6594
▁glucose	-6595
-18	-6596
2),	-6597
émon	-6598
▁Nan	-6599
▁Ngư	-6600
▁Thả	-6601
▁Vui	-6602
▁bỗng	-6603
▁Mao	-6604
▁chuộng	-6605
▁52	-6606
▁te	-6607
▁Abd	-6608
▁Fam	-6609
▁Whit	-6610
eptide	-6611
▁Giọng	-6612
▁cò	-6613
▁17,	-6614
▁700	-6615
aster	-6616
ylvania	-6617
▁Jersey	-6618
Cô	-6619
EM	-6620
ask	-6621
tôi	-6622
agan	-6623
▁búp	-6624
▁Thạc	-6625
ingrad	-6626
▁Settings	-6627
▁Nai	-6628
▁Pil	-6629
▁gầy	-6630
▁vợt	-6631
▁đắng	-6632
▁Đương	-6633
PP	-6634
100	-6635
ree	-6636
▁Tóc	-6637
▁ngừ	-6638
uguay	-6639
▁Andy	-6640
3),	-6641
the	-6642
▁AM	-6643
▁Cec	-6644
▁mar	-6645
▁mấu	-6646
▁Oscar	-6647
Sự	-6648
bl	-6649
duc	-6650
▁Đá	-6651
ival	-6652
▁Bữa	-6653
▁câm	-6654
▁xài	-6655
rence	-6656
?'	-6657
rô	-6658
▁GB	-6659
ated	-6660
▁Lợi	-6661
▁cẩu	-6662
▁Girl	-6663
▁Mand	-6664
▁hiền	-6665
▁Award	-6666
▁É	-6667
▁1⁄	-6668
▁Ha	-6669
ento	-6670
ophen	-6671
▁GABA	-6672
▁Howard	-6673
unk	-6674
▁vá	-6675
▁0,0	-6676
▁Day	-6677
▁Reb	-6678
▁Mach	-6679
▁ố	-6680
ope	-6681
▁Tế	-6682
▁Vẽ	-6683
▁NSA	-6684
▁búa	-6685
▁clo	-6686
▁mút	-6687
▁Chấp	-6688
▁Doug	-6689
▁Post	-6690
▁nhạo	-6691
▁Dường	-6692
▁Myanmar	-6693
▁Records	-6694
37	-6695
get	-6696
ally	-6697
▁Gor	-6698
▁nan	-6699
▁oải	-6700
▁Ethi	-6701
▁Pete	-6702
▁Gordon	-6703
9),	-6704
oxy	-6705
▁đu	-6706
▁1975	-6707
▁Goth	-6708
▁Sony	-6709
▁Trạm	-6710
▁Tuyến	-6711
▁American	-6712
eni	-6713
zan	-6714
Ông	-6715
▁gặm	-6716
▁qui	-6717
▁rán	-6718
▁ếch	-6719
▁logo	-6720
▁thuyên	-6721
esterone	-6722
PR	-6723
Tại	-6724
▁Kab	-6725
eline	-6726
inder	-6727
▁Pokémon	-6728
▁Uruguay	-6729
otton	-6730
▁1985	-6731
HD	-6732
chủ	-6733
▁Cấp	-6734
▁sủa	-6735
▁Christian	-6736
rix	-6737
atch	-6738
ngày	-6739
vent	-6740
▁Hon	-6741
▁Poz	-6742
▁nháy	-6743
▁Jacob	-6744
▁benzodiaz	-6745
96	-6746
▁le	-6747
nica	-6748
▁Java	-6749
▁Dance	-6750
▁phụng	-6751
▁Division	-6752
▁Instagram	-6753
▁1)	-6754
aver	-6755
pper	-6756
▁Cra	-6757
▁Tám	-6758
▁Vas	-6759
▁Rose	-6760
▁Thịt	-6761
▁trút	-6762
▁Đặng	-6763
▁Diego	-6764
▁Ngừng	-6765
AA	-6766
ss	-6767
inea	-6768
▁Mun	-6769
ittle	-6770
▁1984	-6771
▁Kate	-6772
▁1989,	-6773
47	-6774
jan	-6775
▁Fal	-6776
▁Hab	-6777
▁Nag	-6778
▁rập	-6779
▁Anne	-6780
▁Corn	-6781
▁Glob	-6782
▁chợt	-6783
▁Trọng	-6784
asha	-6785
▁14,	-6786
▁Hơi	-6787
▁Nẵng	-6788
ingham	-6789
▁Alpha	-6790
▁Silesian	-6791
▁PS	-6792
▁vắt	-6793
▁Home	-6794
▁Hond	-6795
▁Karl	-6796
▁nành	-6797
▁2003.	-6798
▁Harris	-6799
ape	-6800
aux	-6801
nia	-6802
adel	-6803
olas	-6804
▁Phu	-6805
▁đắc	-6806
▁Fred	-6807
▁nitơ	-6808
▁quỳ	-6809
▁Manh	-6810
etts	-6811
ject	-6812
▁40%	-6813
▁Ret	-6814
▁chốn	-6815
▁Sudan	-6816
▁Alexand	-6817
ior	-6818
▁mủ	-6819
form	-6820
▁Lyn	-6821
▁Mời	-6822
▁(195	-6823
▁Dick	-6824
▁Ryan	-6825
▁Koszalin	-6826
bor	-6827
nhà	-6828
anth	-6829
▁Kor	-6830
▁Len	-6831
▁Pen	-6832
▁Tắt	-6833
▁^	-6834
ema	-6835
pro	-6836
▁rủ	-6837
pris	-6838
▁mac	-6839
▁xỉn	-6840
▁đươ	-6841
▁Bruce	-6842
▁Chiều	-6843
▁acetate	-6844
▁AC	-6845
▁Cúp	-6846
▁Jar	-6847
▁vôi	-6848
▁Zamb	-6849
▁khan	-6850
▁xoăn	-6851
▁khuỷu	-6852
▁Johannes	-6853
nay	-6854
▁72	-6855
▁me	-6856
▁16,	-6857
▁nhờn	-6858
▁Jesus	-6859
▁Nahiyah	-6860
́t	-6861
▁±	-6862
zyce	-6863
▁Dig	-6864
▁goá	-6865
▁ráo	-6866
▁vít	-6867
▁Hong	-6868
▁Samuel	-6869
▁Doc	-6870
▁Dub	-6871
▁Squ	-6872
▁vọt	-6873
▁chồi	-6874
ves	-6875
etty	-6876
▁Brit	-6877
▁Gonz	-6878
▁1%	-6879
acin	-6880
▁nạc	-6881
▁Đổi	-6882
▁1945	-6883
▁Từng	-6884
▁with	-6885
44	-6886
ii	-6887
ơm	-6888
gam	-6889
gie	-6890
▁Fed	-6891
▁Var	-6892
▁1991,	-6893
▁Penns	-6894
▁Ethiopia	-6895
HO	-6896
so	-6897
▁Ố	-6898
▁Ny	-6899
▁xẻ	-6900
điều	-6901
aman	-6902
▁Lip	-6903
▁cọc	-6904
▁tròng	-6905
▁(15	-6906
▁Ast	-6907
▁Alan	-6908
▁chèo	-6909
▁lười	-6910
▁Lagos	-6911
▁giang	-6912
▁Samsung	-6913
ball	-6914
etti	-6915
▁Ana	-6916
▁Lim	-6917
▁Saf	-6918
▁Gram	-6919
▁pound	-6920
hio	-6921
▁tú	-6922
▁Cầm	-6923
▁Maj	-6924
achus	-6925
▁(196	-6926
▁nhãng	-6927
ươu	-6928
▁Xử	-6929
aker	-6930
▁177	-6931
▁fan	-6932
▁nhĩ	-6933
▁râm	-6934
▁nhấm	-6935
for	-6936
▁Cy	-6937
▁Bry	-6938
▁Laz	-6939
▁Lig	-6940
▁hao	-6941
▁Bran	-6942
EL	-6943
▁♪	-6944
▁57	-6945
▁rể	-6946
▁Dal	-6947
▁Pap	-6948
▁Sẵn	-6949
ilton	-6950
ition	-6951
▁Bush	-6952
▁Jake	-6953
▁Lệnh	-6954
▁ngòi	-6955
▁ngạo	-6956
▁ngạt	-6957
▁1992,	-6958
uka	-6959
▁AU	-6960
agua	-6961
▁flu	-6962
▁Olsztyn	-6963
usz	-6964
▁UV	-6965
▁Fab	-6966
▁Jenn	-6967
▁Wolf	-6968
▁Einstein	-6969
▁Pennsylvania	-6970
▁gò	-6971
▁182	-6972
▁Tội	-6973
▁Ung	-6974
▁Arch	-6975
vir	-6976
▁ib	-6977
pson	-6978
▁RAM	-6979
press	-6980
▁Chức	-6981
▁Chừng	-6982
oku	-6983
▁by	-6984
▁Nhẹ	-6985
▁Pab	-6986
▁Real	-6987
▁chốc	-6988
▁Trans	-6989
▁Wayne	-6990
aco	-6991
ude	-6992
▁au	-6993
evis	-6994
nhưng	-6995
▁Giấy	-6996
▁Xuân	-6997
▁khoăn	-6998
▁Justin	-6999
▁Walker	-7000
▁Choszcz	-7001
▁Stephen	-7002
▁Ay	-7003
▁ye	-7004
edes	-7005
▁băn	-7006
▁vùi	-7007
▁anime	-7008
ule	-7009
▁um	-7010
essa	-7011
▁0,5	-7012
▁1/2	-7013
▁ray	-7014
▁Nhiễm	-7015
ogl	-7016
▁UE	-7017
aton	-7018
▁Ern	-7019
▁Club	-7020
▁Miến	-7021
▁menu	-7022
▁2002.	-7023
▁Jason	-7024
▁France	-7025
▁Choszczno	-7026
NC	-7027
usa	-7028
▁XX	-7029
▁sỉ	-7030
▁Alt	-7031
▁Jay	-7032
▁Phẫu	-7033
▁nòng	-7034
▁Titan	-7035
Ad	-7036
Don	-7037
ango	-7038
omet	-7039
▁Joy	-7040
▁mẹo	-7041
▁Rosa	-7042
▁Sław	-7043
▁lung	-7044
enberg	-7045
▁Colin	-7046
ệp	-7047
▁Ut	-7048
apan	-7049
▁Dai	-7050
▁Ker	-7051
▁phỉ	-7052
▁Excel	-7053
▁ngượng	-7054
,:	-7055
97	-7056
ente	-7057
uter	-7058
▁Liv	-7059
▁sên	-7060
▁Cent	-7061
▁Stark	-7062
▁gòn	-7063
▁đẫm	-7064
▁Blue	-7065
▁Emma	-7066
▁Hạng	-7067
▁Tour	-7068
▁nguỵ	-7069
▁1993,	-7070
▁Py	-7071
▁tể	-7072
▁São	-7073
▁vãn	-7074
▁Khái	-7075
▁nhậm	-7076
▁phình	-7077
▁mạ	-7078
▁se	-7079
ifer	-7080
▁Cle	-7081
▁mẫn	-7082
shire	-7083
▁Band	-7084
▁Ivan	-7085
▁Khai	-7086
36	-7087
gg	-7088
ña	-7089
als	-7090
▁Nu	-7091
emia	-7092
▁Rud	-7093
▁Trà	-7094
▁Games	-7095
ips	-7096
imet	-7097
▁Cur	-7098
▁Lối	-7099
▁cưa	-7100
▁cẩm	-7101
▁nung	-7102
▁show	-7103
▁Vegas	-7104
▁Jessica	-7105
▁aspirin	-7106
ẻm	-7107
▁mil	-7108
▁neo	-7109
▁báng	-7110
}}	-7111
her	-7112
▁41	-7113
onto	-7114
▁Tầm	-7115
▁cày	-7116
▁cón	-7117
▁Đĩa	-7118
▁Brun	-7119
▁East	-7120
▁Ever	-7121
▁Tháp	-7122
▁ròng	-7123
▁chích	-7124
▁blogger	-7125
▁Catherine	-7126
vi	-7127
agi	-7128
bro	-7129
kel	-7130
▁Bờ	-7131
▁ex	-7132
▁Bad	-7133
▁Mem	-7134
▁tầu	-7135
▁Đun	-7136
▁Chín	-7137
▁Cruz	-7138
▁solo	-7139
94	-7140
cl	-7141
ktop	-7142
▁bén	-7143
▁1979	-7144
▁Nâng	-7145
▁măng	-7146
▁Nepal	-7147
▁Dragon	-7148
▁Cài	-7149
▁dép	-7150
▁iPod	-7151
▁Khánh	-7152
PN	-7153
▁XV	-7154
akia	-7155
oniac	-7156
▁Vườn	-7157
▁gàng	-7158
▁vựng	-7159
▁Perry	-7160
▁Enterpris	-7161
AC	-7162
RS	-7163
ju	-7164
ms	-7165
aid	-7166
▁Ki	-7167
▁Ri	-7168
▁sl	-7169
ouch	-7170
▁Lục	-7171
▁Hers	-7172
Co	-7173
ea	-7174
ẳm	-7175
tin	-7176
wen	-7177
iper	-7178
ures	-7179
▁Mul	-7180
▁Tắm	-7181
▁nhì	-7182
▁tụt	-7183
▁Hans	-7184
▁Lega	-7185
▁điềm	-7186
▁Kalin	-7187
▁Fantasy	-7188
sy	-7189
ynth	-7190
▁Abu	-7191
▁Esc	-7192
▁IBM	-7193
▁Syd	-7194
▁lựu	-7195
▁mel	-7196
▁nor	-7197
▁1982	-7198
▁luộc	-7199
▁nhịn	-7200
▁Patrick	-7201
21	-7202
IX	-7203
td	-7204
oko	-7205
zyn	-7206
▁Rối	-7207
▁Spr	-7208
▁Nich	-7209
▁giục	-7210
▁Garcia	-7211
▁Manhattan	-7212
La	-7213
cul	-7214
mặc	-7215
icon	-7216
▁Lewis	-7217
▁lympho	-7218
▁Philadel	-7219
▁Szczecinek	-7220
opol	-7221
▁Pod	-7222
▁Toy	-7223
▁Clay	-7224
▁Euro	-7225
▁chọi	-7226
▁dẳng	-7227
▁chuồn	-7228
▁Command	-7229
ON	-7230
▁Núi	-7231
▁Tải	-7232
▁Xếp	-7233
▁lăm	-7234
▁Ball	-7235
▁Lisa	-7236
▁Ohio	-7237
▁Walt	-7238
▁hãnh	-7239
▁Freder	-7240
▁Phoebe	-7241
▁Barbara	-7242
-12	-7243
anga	-7244
▁Anth	-7245
▁võng	-7246
▁huyệt	-7247
▁proton	-7248
tại	-7249
▁na	-7250
Công	-7251
▁000	-7252
zania	-7253
▁jazz	-7254
osteroid	-7255
́c	-7256
▁56	-7257
abin	-7258
omon	-7259
▁Por	-7260
▁Pow	-7261
▁Sem	-7262
▁gài	-7263
ender	-7264
▁Live	-7265
▁siết	-7266
▁2.000	-7267
present	-7268
▁Vienna	-7269
▁Anderson	-7270
EN	-7271
uf	-7272
bạn	-7273
ech	-7274
▁bốt	-7275
▁Dung	-7276
▁Hãng	-7277
▁Miễn	-7278
▁Súng	-7279
▁Silesia	-7280
▁Philadelphia	-7281
▁|	-7282
▁(/	-7283
▁99	-7284
▁Ji	-7285
▁Not	-7286
▁két	-7287
▁trù	-7288
▁Rượu	-7289
▁kiêm	-7290
uh	-7291
vel	-7292
war	-7293
rent	-7294
▁Mob	-7295
▁Sul	-7296
▁1978	-7297
▁Ariz	-7298
▁Tuổi	-7299
▁xuôi	-7300
▁1960.	-7301
OP	-7302
ken	-7303
▁53	-7304
▁68	-7305
công	-7306
tral	-7307
▁Lam	-7308
▁bừa	-7309
▁end	-7310
▁Roman	-7311
achusetts	-7312
▁Salvador	-7313
▁Pa	-7314
▁Ub	-7315
▁cằm	-7316
▁Elec	-7317
▁brom	-7318
orphin	-7319
▁Kings	-7320
4),	-7321
-19.	-7322
▁Jin	-7323
▁hốc	-7324
▁tấu	-7325
▁Chan	-7326
▁Luis	-7327
▁UEFA	-7328
▁Xanh	-7329
▁Allen	-7330
▁Triển	-7331
▁Kennedy	-7332
cơ	-7333
enh	-7334
ido	-7335
otr	-7336
tức	-7337
▁TR	-7338
rice	-7339
▁Quỷ	-7340
▁duệ	-7341
erman	-7342
menia	-7343
tions	-7344
▁Hank	-7345
▁Thoả	-7346
▁soda	-7347
▁Chống	-7348
App	-7349
▁AL	-7350
▁ừm	-7351
▁líu	-7352
▁vẫy	-7353
ology	-7354
▁Card	-7355
▁mượt	-7356
▁Đoạn	-7357
▁Marshall	-7358
Sp	-7359
eus	-7360
hoa	-7361
khi	-7362
olic	-7363
reen	-7364
▁CYP	-7365
▁Tóm	-7366
▁khốc	-7367
▁quật	-7368
▁Stargard	-7369
▁Champions	-7370
▁Bả	-7371
▁át	-7372
▁Beth	-7373
▁Gary	-7374
▁Hiro	-7375
▁Ninh	-7376
obe	-7377
▁5%	-7378
▁58	-7379
mont	-7380
▁Kaf	-7381
▁Lào	-7382
▁Jong	-7383
▁adren	-7384
▁ngùng	-7385
icosteroid	-7386
sp	-7387
số	-7388
tự	-7389
ór	-7390
▁ồ	-7391
:00	-7392
rox	-7393
▁Ep	-7394
chen	-7395
▁Nad	-7396
burgh	-7397
▁Suốt	-7398
▁Zero	-7399
▁chàm	-7400
▁khống	-7401
uprofen	-7402
▁ờ	-7403
▁Sid	-7404
▁rậm	-7405
▁sập	-7406
▁Massachusetts	-7407
New	-7408
ơng	-7409
ocin	-7410
▁GPS	-7411
▁Nỗi	-7412
▁kèn	-7413
▁nới	-7414
▁1976	-7415
▁Benj	-7416
▁sand	-7417
▁Johannesburg	-7418
▁Ż	-7419
▁85	-7420
▁Boh	-7421
▁Key	-7422
▁Pad	-7423
▁1920	-7424
▁1983	-7425
▁FIFA	-7426
▁Hunt	-7427
▁Thừa	-7428
▁ghim	-7429
▁Tranh	-7430
▁manga	-7431
▁Amanda	-7432
▁Sydney	-7433
aig	-7434
bes	-7435
uke	-7436
▁ret	-7437
▁sâm	-7438
tháng	-7439
▁Call	-7440
▁Prem	-7441
▁chĩa	-7442
▁Adams	-7443
▁Paulo	-7444
▁corona	-7445
igo	-7446
▁té	-7447
emen	-7448
raph	-7449
▁181	-7450
Cloud	-7451
▁Carn	-7452
▁hươu	-7453
▁nhào	-7454
▁xoài	-7455
▁Crist	-7456
▁Ngành	-7457
▁Disney	-7458
▁Martha	-7459
78	-7460
Đó	-7461
▁Det	-7462
▁tet	-7463
▁Cand	-7464
▁Stef	-7465
▁Wiel	-7466
▁Savage	-7467
TT	-7468
mit	-7469
▁ES	-7470
enia	-7471
ollo	-7472
▁Dec	-7473
▁Mẫu	-7474
▁dơi	-7475
▁Davis	-7476
phrine	-7477
▁Network	-7478
7),	-7479
rea	-7480
ướu	-7481
atia	-7482
illy	-7483
▁160	-7484
▁Thí	-7485
▁thắp	-7486
▁Annie	-7487
▁Final	-7488
▁Litva	-7489
enovela	-7490
▁cotton	-7491
▁Genesis	-7492
,.	-7493
́i	-7494
▁my	-7495
▁Sub	-7496
▁còi	-7497
▁ron	-7498
▁vạn	-7499
▁Moon	-7500
▁biếm	-7501
▁2001.	-7502
▁3)	-7503
▁54	-7504
uras	-7505
▁Bôi	-7506
▁tre	-7507
ansas	-7508
▁Liều	-7509
▁liếm	-7510
kinson	-7511
▁Light	-7512
▁Guinea	-7513
Âm	-7514
ATO	-7515
awi	-7516
oba	-7517
▁",	-7518
▁CT	-7519
▁GH	-7520
▁lẩn	-7521
nghĩa	-7522
▁Bour	-7523
▁Drawsko	-7524
▁Tanzania	-7525
▁carbohyd	-7526
300	-7527
▁15.	-7528
craft	-7529
▁Homs	-7530
▁Hous	-7531
▁cẳng	-7532
ict	-7533
trl	-7534
▁Abb	-7535
▁Dim	-7536
▁Raf	-7537
▁euro	-7538
▁Pozna	-7539
rich	-7540
▁Eug	-7541
▁Maz	-7542
▁Máu	-7543
▁Môn	-7544
▁bịa	-7545
▁Khác	-7546
▁Kong	-7547
▁1970.	-7548
ako	-7549
▁Yu	-7550
ense	-7551
ques	-7552
▁bùa	-7553
▁dào	-7554
▁then	-7555
▁Đình	-7556
▁Vitamin	-7557
Wh	-7558
Làm	-7559
thế	-7560
athy	-7561
icot	-7562
▁nhô	-7563
▁nấp	-7564
▁Lòng	-7565
▁Trại	-7566
▁táng	-7567
▁Bobby	-7568
▁Putin	-7569
▁Stone	-7570
GA	-7571
arn	-7572
bia	-7573
wor	-7574
▁GM	-7575
▁Oz	-7576
▁bạ	-7577
omen	-7578
▁Mig	-7579
▁Milan	-7580
▁chặng	-7581
IL	-7582
fox	-7583
isol	-7584
Đừng	-7585
▁Pac	-7586
▁Tức	-7587
▁củi	-7588
▁Marc	-7589
▁Snap	-7590
▁bênh	-7591
▁phiện	-7592
▁Armenia	-7593
wi	-7594
ễu	-7595
ppo	-7596
▁Old	-7597
▁Rót	-7598
▁xót	-7599
▁tamp	-7600
▁Aleks	-7601
▁omega	-7602
etamine	-7603
▁Island	-7604
▁Arizona	-7605
▁Margaret	-7606
ał	-7607
▁Leb	-7608
▁Que	-7609
▁Trị	-7610
▁quạ	-7611
▁đày	-7612
▁Kent	-7613
▁Damas	-7614
vis	-7615
▁Cà	-7616
▁EP	-7617
▁dặn	-7618
▁1981	-7619
▁lửng	-7620
▁quẩn	-7621
▁thẳm	-7622
▁tampon	-7623
▁Sportiva	-7624
vì	-7625
▁bỉ	-7626
▁Kas	-7627
▁Vis	-7628
▁cõi	-7629
▁sọc	-7630
▁trệ	-7631
athon	-7632
▁Tell	-7633
▁chói	-7634
▁giàn	-7635
▁ngủi	-7636
▁Roger	-7637
▁Toronto	-7638
ibia	-7639
▁Tat	-7640
▁Tận	-7641
▁Chụp	-7642
▁Gard	-7643
▁Vill	-7644
oxacin	-7645
▁Jesse	-7646
IF	-7647
Mar	-7648
pin	-7649
▁CS	-7650
▁tẻ	-7651
oxit	-7652
▁Cel	-7653
▁Dob	-7654
▁Ped	-7655
▁Prz	-7656
▁sồi	-7657
▁Lắng	-7658
▁Karen	-7659
▁Leone	-7660
▁Pablo	-7661
eme	-7662
low	-7663
▁3:	-7664
augh	-7665
▁Gun	-7666
▁Trụ	-7667
▁Ctrl	-7668
▁Khám	-7669
▁Liệt	-7670
▁cafe	-7671
▁Ottoman	-7672
▁Florence	-7673
alk	-7674
din	-7675
www	-7676
▁Khá	-7677
▁Mab	-7678
▁giẻ	-7679
▁rẩy	-7680
▁prop	-7681
▁Harold	-7682
▁Antonio	-7683
Sao	-7684
aut	-7685
pes	-7686
▁Arist	-7687
▁Opera	-7688
▁Janeiro	-7689
EE	-7690
och	-7691
▁DJ	-7692
bằng	-7693
ococ	-7694
ńska	-7695
▁(10	-7696
▁Ltd	-7697
▁Lạy	-7698
▁Nạn	-7699
▁cằn	-7700
rates	-7701
▁Cons	-7702
▁Shak	-7703
▁trầy	-7704
rocław	-7705
▁Susan	-7706
dz	-7707
aps	-7708
▁MR	-7709
▁oh	-7710
▁Dọn	-7711
▁bus	-7712
▁1930	-7713
▁Crow	-7714
▁acid	-7715
▁Finch	-7716
ée	-7717
sey	-7718
▁49	-7719
▁Thú	-7720
▁1940	-7721
antine	-7722
▁Trăng	-7723
▁Steven	-7724
▁opioid	-7725
▁amoniac	-7726
▁Alz	-7727
▁lon	-7728
▁rầy	-7729
▁soái	-7730
▁Found	-7731
▁Pierre	-7732
▁Algeria	-7733
39	-7734
dez	-7735
flix	-7736
▁Bac	-7737
▁Nac	-7738
▁Frie	-7739
▁sandwich	-7740
hr	-7741
ượm	-7742
▁Koł	-7743
▁Thi	-7744
▁gãi	-7745
▁1930,	-7746
▁Benjamin	-7747
,,	-7748
34	-7749
CR	-7750
aff	-7751
lie	-7752
uru	-7753
▁88	-7754
▁VI	-7755
▁háo	-7756
▁Muối	-7757
▁chấy	-7758
▁hiên	-7759
▁mắng	-7760
▁Chánh	-7761
▁Radio	-7762
▁thừng	-7763
▁Raymond	-7764
Pl	-7765
agu	-7766
▁Kw	-7767
▁Nel	-7768
▁Spe	-7769
▁Thơ	-7770
▁lồi	-7771
▁cent	-7772
▁rạch	-7773
▁thuỳ	-7774
▁Drive	-7775
▁Corpor	-7776
▁Studio	-7777
GF	-7778
Ho	-7779
nat	-7780
urg	-7781
▁Gõ	-7782
▁ôi	-7783
idge	-7784
inda	-7785
iter	-7786
▁25%	-7787
▁Bắn	-7788
▁Pay	-7789
▁Riv	-7790
▁vir	-7791
▁Lạnh	-7792
▁NATO	-7793
▁Quên	-7794
▁Thea	-7795
par	-7796
rec	-7797
▁đờ	-7798
onic	-7799
▁hán	-7800
▁náu	-7801
lanta	-7802
▁Beck	-7803
▁Cuộn	-7804
▁Phép	-7805
▁Pres	-7806
▁cúng	-7807
▁mọng	-7808
▁rong	-7809
▁Chuck	-7810
▁Jerry	-7811
▁Underwood	-7812
AP	-7813
-30	-7814
hel	-7815
▁AT	-7816
,000	-7817
▁Hôn	-7818
▁Sad	-7819
▁giỏ	-7820
▁vóc	-7821
▁Gray	-7822
▁Catal	-7823
▁Tyler	-7824
▁Sherlock	-7825
abi	-7826
iev	-7827
asma	-7828
▁21,	-7829
▁vệt	-7830
chúng	-7831
▁glut	-7832
▁Cairo	-7833
▁Grant	-7834
▁khuya	-7835
▁magiê	-7836
68	-7837
đi	-7838
600	-7839
asm	-7840
imo	-7841
ize	-7842
▁Sey	-7843
▁Clar	-7844
▁Coul	-7845
▁nhộn	-7846
▁Moham	-7847
▁Aleppo	-7848
▁Iv	-7849
▁Ký	-7850
▁ap	-7851
urch	-7852
▁(1,	-7853
▁60%	-7854
▁Xịt	-7855
▁gật	-7856
▁Fitz	-7857
▁Mick	-7858
▁Little	-7859
▁Vincent	-7860
▁Brooklyn	-7861
OL	-7862
omi	-7863
▁úp	-7864
▁Cựu	-7865
▁tua	-7866
▁thản	-7867
▁Carac	-7868
▁https	-7869
ume	-7870
val	-7871
▁51	-7872
▁Tỉ	-7873
▁Ach	-7874
▁Cụm	-7875
▁Mát	-7876
▁ngỏ	-7877
▁tab	-7878
▁Kiếm	-7879
▁sòng	-7880
abe	-7881
ely	-7882
▁Dj	-7883
▁Sy	-7884
thực	-7885
▁Tốc	-7886
▁gầm	-7887
▁trọ	-7888
▁tặc	-7889
▁Cảng	-7890
▁Fish	-7891
▁Lily	-7892
▁Plan	-7893
▁Reid	-7894
▁Snow	-7895
▁Nicar	-7896
TQ	-7897
wo	-7898
via	-7899
▁lố	-7900
rost	-7901
▁all	-7902
▁Viet	-7903
▁Helen	-7904
85	-7905
Ba	-7906
▁Ẩ	-7907
ngo	-7908
▁IM	-7909
▁Xo	-7910
avia	-7911
▁16.	-7912
▁CLB	-7913
▁Hãn	-7914
▁Phú	-7915
▁Tod	-7916
▁der	-7917
Nhưng	-7918
▁gươm	-7919
▁thun	-7920
▁Grace	-7921
▁Darwin	-7922
du	-7923
íp	-7924
ień	-7925
isz	-7926
kva	-7927
▁nã	-7928
onda	-7929
▁Hết	-7930
▁Mov	-7931
▁Sco	-7932
▁Chap	-7933
▁Lima	-7934
▁yeah	-7935
▁1999.	-7936
▁phanh	-7937
▁Newton	-7938
▁Christoph	-7939
▁4:	-7940
▁Cer	-7941
ustin	-7942
▁Rừng	-7943
▁khoát	-7944
▁series	-7945
▁America	-7946
62	-7947
alt	-7948
but	-7949
imi	-7950
iri	-7951
lez	-7952
▁út	-7953
▁Sib	-7954
▁rèm	-7955
entin	-7956
▁Cưng	-7957
▁Stud	-7958
▁Laura	-7959
▁Alfred	-7960
▁Firefox	-7961
▁Wrocław	-7962
▁Cambridge	-7963
omp	-7964
ados	-7965
etto	-7966
▁Bow	-7967
▁Daw	-7968
▁Nin	-7969
iller	-7970
▁Bron	-7971
▁giùm	-7972
▁Princ	-7973
▁khánh	-7974
epinephrine	-7975
6),	-7976
asi	-7977
edo	-7978
▁IC	-7979
▁Tus	-7980
▁mìn	-7981
actam	-7982
▁Cổng	-7983
▁Tích	-7984
▁phích	-7985
▁Poznań	-7986
tô	-7987
▁mỳ	-7988
ache	-7989
deon	-7990
loyd	-7991
▁130	-7992
▁Fir	-7993
▁Seb	-7994
▁cửu	-7995
▁gớm	-7996
▁nhá	-7997
raham	-7998
right	-7999
▁Cher	-8000
▁Shaw	-8001
▁chửi	-8002
heimer	-8003
▁Lawrence	-8004
▁Divisione	-8005
mà	-8006
▁q	-8007
yle	-8008
▁mí	-8009
▁wh	-8010
▁17.	-8011
▁Bật	-8012
▁Nev	-8013
▁Phù	-8014
▁hắt	-8015
▁Đột	-8016
ember	-8017
quang	-8018
▁chém	-8019
▁nano	-8020
▁Napole	-8021
▁Nicaragua	-8022
FS	-8023
avir	-8024
isco	-8025
▁ASD	-8026
▁Him	-8027
▁Ing	-8028
▁Sốt	-8029
▁bới	-8030
▁ngả	-8031
▁Earth	-8032
▁Philip	-8033
GS	-8034
ll	-8035
gia	-8036
▁Bit	-8037
▁méo	-8038
▁nham	-8039
▁oxit	-8040
▁Palest	-8041
▁Atlanta	-8042
▁Corporation	-8043
▁corticosteroid	-8044
Và	-8045
▁Ơ	-8046
-11	-8047
met	-8048
uko	-8049
▁13.	-8050
▁140	-8051
▁Ore	-8052
▁cạp	-8053
▁sẫm	-8054
lines	-8055
▁1940,	-8056
▁ngoạn	-8057
▁Jr	-8058
▁Ổn	-8059
▁Sri	-8060
▁Trí	-8061
▁tẩu	-8062
tương	-8063
ladesh	-8064
▁Barcel	-8065
▁Stanisław	-8066
▁telenovela	-8067
Bl	-8068
ku	-8069
̣n	-8070
iol	-8071
led	-8072
uta	-8073
▁PH	-8074
▁Dil	-8075
▁Sài	-8076
▁sun	-8077
thành	-8078
▁Book	-8079
▁Anthony	-8080
▁Alzheimer	-8081
▁Charlotte	-8082
Ngh	-8083
eca	-8084
▁Kỷ	-8085
▁un	-8086
▁vơ	-8087
bury	-8088
osev	-8089
▁18.	-8090
▁Had	-8091
▁Kle	-8092
▁Rac	-8093
▁Luke	-8094
▁bịch	-8095
▁cước	-8096
▁5.000	-8097
▁Kelly	-8098
▁Havana	-8099
▁Zambia	-8100
▁Michigan	-8101
▁ợ	-8102
400	-8103
Xin	-8104
rog	-8105
▁95	-8106
▁trơ	-8107
▁xào	-8108
acter	-8109
▁Khán	-8110
▁Sean	-8111
▁nướu	-8112
▁tour	-8113
▁Kaliningrad	-8114
";	-8115
cm	-8116
▁μ	-8117
elo	-8118
anon	-8119
aria	-8120
hiện	-8121
ores	-8122
yland	-8123
▁chạp	-8124
▁hero	-8125
▁Linda	-8126
▁Angela	-8127
aminophen	-8128
śc	-8129
dan	-8130
khu	-8131
▁Ful	-8132
▁gào	-8133
▁hức	-8134
aline	-8135
▁1977	-8136
▁lúng	-8137
▁Guard	-8138
▁Kháng	-8139
▁Laurel	-8140
Khán	-8141
▁Afr	-8142
▁trọt	-8143
▁1988,	-8144
▁Monte	-8145
▁acetyl	-8146
▁Damascus	-8147
▁progesterone	-8148
ât	-8149
8),	-8150
▁cy	-8151
▁Ian	-8152
▁Mùi	-8153
▁Nav	-8154
▁Vel	-8155
▁Vik	-8156
▁Wow	-8157
▁vạt	-8158
▁trặc	-8159
▁Lưỡng	-8160
Le	-8161
ợm	-8162
▁Aw	-8163
▁ep	-8164
icki	-8165
ingo	-8166
▁14.	-8167
▁Tựa	-8168
▁hip	-8169
▁lẻn	-8170
inase	-8171
▁Conc	-8172
▁Thập	-8173
▁1998.	-8174
▁trướng	-8175
▁Cameron	-8176
▁Herschel	-8177
MP	-8178
RL	-8179
▁LA	-8180
▁RNA	-8181
▁1973	-8182
▁Prin	-8183
▁buồm	-8184
▁Const	-8185
▁Bartos	-8186
enicillin	-8187
▁Honduras	-8188
uct	-8189
▁61	-8190
nold	-8191
▁Trav	-8192
▁Viễn	-8193
▁este	-8194
▁điếm	-8195
▁1979,	-8196
▁Marty	-8197
▁gmina	-8198
▁Sławno	-8199
▁Napoleon	-8200
ols	-8201
êng	-8202
▁Isa	-8203
▁Raj	-8204
▁bor	-8205
▁bẩy	-8206
▁gộp	-8207
▁vác	-8208
▁Pháo	-8209
▁Sông	-8210
▁bành	-8211
▁suôn	-8212
iewicz	-8213
▁Flash	-8214
▁salad	-8215
▁Palmer	-8216
▁Thẻ	-8217
▁Viv	-8218
▁nhũ	-8219
encia	-8220
▁Hass	-8221
▁nách	-8222
▁1986,	-8223
▁Bangladesh	-8224
▁Foundation	-8225
55	-8226
ohn	-8227
omo	-8228
đối	-8229
▁LH	-8230
ixon	-8231
▁Yah	-8232
▁lẫy	-8233
▁mỉa	-8234
▁1974	-8235
▁1997.	-8236
▁quăng	-8237
ario	-8238
ichi	-8239
▁900	-8240
▁Tuc	-8241
▁Yan	-8242
▁Cook	-8243
▁Khan	-8244
▁Serv	-8245
▁dang	-8246
▁Đằng	-8247
▁Chườm	-8248
▁Gideon	-8249
▁Zachod	-8250
▁Vladimir	-8251
zh	-8252
ikh	-8253
▁dơ	-8254
alem	-8255
iner	-8256
▁Nắm	-8257
▁Run	-8258
▁Yên	-8259
▁thệ	-8260
▁3000	-8261
▁Roma	-8262
▁Europ	-8263
▁Galax	-8264
Windows	-8265
▁Dennis	-8266
▁Champion	-8267
▁estradiol	-8268
AL	-8269
enb	-8270
iot	-8271
▁Hus	-8272
▁Hút	-8273
▁Lud	-8274
▁ten	-8275
▁Dark	-8276
▁gene	-8277
▁hoán	-8278
▁phẫn	-8279
▁1985,	-8280
▁1987,	-8281
▁Norman	-8282
ño	-8283
▁77	-8284
chat	-8285
iona	-8286
▁(0,	-8287
▁Cẩm	-8288
▁náo	-8289
hydro	-8290
▁Barr	-8291
▁Miền	-8292
▁1996.	-8293
66	-8294
▁hũ	-8295
▁21.	-8296
▁Sev	-8297
▁rệp	-8298
▁Hard	-8299
▁Hugh	-8300
▁Namibia	-8301
kg	-8302
▁67	-8303
▁Og	-8304
▁Xi	-8305
ouri	-8306
▁Kry	-8307
▁hoi	-8308
▁phao	-8309
▁Dougl	-8310
▁Thiền	-8311
▁nương	-8312
▁School	-8313
▁Frances	-8314
▁Houston	-8315
nd	-8316
ader	-8317
aron	-8318
aska	-8319
ific	-8320
itol	-8321
wick	-8322
▁Act	-8323
▁Cặp	-8324
amate	-8325
▁Carr	-8326
▁Life	-8327
▁Advan	-8328
▁Count	-8329
▁Cross	-8330
▁Holmes	-8331
▁Abraham	-8332
Bà	-8333
LV	-8334
́n	-8335
kan	-8336
sin	-8337
▁rà	-8338
▁xổ	-8339
ault	-8340
enne	-8341
▁Bầu	-8342
▁Góc	-8343
▁Larry	-8344
▁Mitch	-8345
▁biếng	-8346
▁Parker	-8347
▁Barcelona	-8348
Pr	-8349
lam	-8350
oka	-8351
pen	-8352
▁63	-8353
▁Vo	-8354
Thái	-8355
utan	-8356
▁chư	-8357
▁1972	-8358
▁Mans	-8359
▁Nhảy	-8360
▁Orle	-8361
▁Control	-8362
AD	-8363
pi	-8364
asu	-8365
đun	-8366
ườ	-8367
▁sc	-8368
atsu	-8369
esar	-8370
▁Lad	-8371
▁McG	-8372
▁lay	-8373
▁1939	-8374
▁Broad	-8375
29	-8376
cái	-8377
ogo	-8378
▁NG	-8379
andr	-8380
ites	-8381
▁đái	-8382
idwin	-8383
ovich	-8384
thông	-8385
▁5000	-8386
▁Huấn	-8387
▁Thám	-8388
▁Great	-8389
▁Thích	-8390
▁Thắng	-8391
▁Castle	-8392
▁Nelson	-8393
▁Belarus	-8394
▁Liberia	-8395
Cài	-8396
oke	-8397
urd	-8398
▁IU	-8399
▁NS	-8400
inib	-8401
▁170	-8402
▁Gda	-8403
▁Tấn	-8404
▁Free	-8405
▁hoóc	-8406
▁Hương	-8407
▁Katie	-8408
▁Bulgar	-8409
▁iCloud	-8410
▁Website	-8411
▁hydroxy	-8412
ydg	-8413
▁59	-8414
ESCO	-8415
ides	-8416
mart	-8417
▁Inf	-8418
▁Phủ	-8419
▁gáy	-8420
▁rữa	-8421
▁sán	-8422
▁Cole	-8423
▁Fall	-8424
▁Mack	-8425
▁phốt	-8426
▁1941,	-8427
▁Phill	-8428
▁Master	-8429
phetamine	-8430
▁carbohydrate	-8431
?)	-8432
hie	-8433
▁tã	-8434
phần	-8435
▁hẻm	-8436
▁vỉa	-8437
▁Biệt	-8438
▁Lucy	-8439
▁lact	-8440
▁nhảm	-8441
etooth	-8442
▁Japan	-8443
▁Airlines	-8444
rex	-8445
▁HP	-8446
Nhật	-8447
isha	-8448
▁Aur	-8449
▁Bai	-8450
▁Cyr	-8451
▁Gòn	-8452
ucleo	-8453
▁Moore	-8454
▁Italia	-8455
▁Potter	-8456
▁nitrat	-8457
▁England	-8458
▁Franklin	-8459
hy	-8460
gal	-8461
ńsk	-8462
chất	-8463
ents	-8464
issa	-8465
▁Dũng	-8466
▁José	-8467
▁Trải	-8468
▁chót	-8469
▁còng	-8470
▁lảng	-8471
▁Delta	-8472
▁Elena	-8473
▁Baltic	-8474
▁Harvey	-8475
▁Trương	-8476
▁tỵ	-8477
▁Kol	-8478
▁Lov	-8479
▁Wit	-8480
▁Bond	-8481
▁Bull	-8482
▁Hang	-8483
▁Lock	-8484
▁Lucas	-8485
▁chằng	-8486
ydgoszcz	-8487
▁Assyria	-8488
MR	-8489
esl	-8490
kham	-8491
rzeg	-8492
▁Bet	-8493
▁Ric	-8494
▁Tái	-8495
riend	-8496
tonia	-8497
▁Awards	-8498
▁Galaxy	-8499
▁Khuyến	-8500
▁Marcus	-8501
̀n	-8502
idi	-8503
quy	-8504
zen	-8505
▁pr	-8506
anni	-8507
enzo	-8508
olis	-8509
ondo	-8510
Được	-8511
▁Thảo	-8512
▁diêm	-8513
▁vụng	-8514
▁Maurit	-8515
aze	-8516
iane	-8517
ockh	-8518
▁Cob	-8519
▁Kai	-8520
▁min	-8521
▁pyr	-8522
▁thảy	-8523
▁Intel	-8524
▁peptide	-8525
dal	-8526
ual	-8527
uth	-8528
yte	-8529
▁sò	-8530
Cuộc	-8531
▁Hộp	-8532
▁Buồn	-8533
▁Căng	-8534
▁Luyện	-8535
▁Bydgoszcz	-8536
Mỹ	-8537
él	-8538
-19,	-8539
ness	-8540
phyl	-8541
▁Ins	-8542
▁Sig	-8543
▁bổn	-8544
▁vấp	-8545
▁Đeo	-8546
▁ball	-8547
obrzeg	-8548
▁Virus	-8549
▁Carmen	-8550
▁Roosev	-8551
▁Winter	-8552
▁Zachodni	-8553
▁Bah	-8554
▁Pia	-8555
▁Pra	-8556
▁1500	-8557
▁Phot	-8558
▁Sund	-8559
▁Fiona	-8560
▁Manuel	-8561
▁Gryfice	-8562
▁cocaine	-8563
▁University	-8564
SD	-8565
▁•	-8566
ahl	-8567
zer	-8568
ệch	-8569
seud	-8570
▁chê	-8571
imbab	-8572
▁Kang	-8573
▁Slav	-8574
▁Tường	-8575
▁Office	-8576
opomorskie	-8577
asc	-8578
lon	-8579
▁110	-8580
▁Mia	-8581
▁vãi	-8582
▁Tuân	-8583
izumab	-8584
▁Peters	-8585
▁Orleans	-8586
▁Palestine	-8587
▁Roosevelt	-8588
Ôi	-8589
-17	-8590
ugo	-8591
▁66	-8592
▁Tô	-8593
▁gỉ	-8594
lins	-8595
▁nóc	-8596
ience	-8597
▁1975,	-8598
▁Sumer	-8599
▁Warsz	-8600
▁Cooper	-8601
▁Hamilton	-8602
▁Frederick	-8603
800	-8604
Này	-8605
/200	-8606
Việc	-8607
onne	-8608
▁Pyr	-8609
▁Sữa	-8610
ights	-8611
▁1967	-8612
▁Khắc	-8613
▁Kirk	-8614
▁heli	-8615
▁Baker	-8616
▁Connect	-8617
san	-8618
utt	-8619
cine	-8620
orie	-8621
▁2.0	-8622
▁Aud	-8623
▁Dẫn	-8624
▁End	-8625
▁MIT	-8626
▁nọc	-8627
▁sấu	-8628
ephal	-8629
isone	-8630
▁Math	-8631
▁tràm	-8632
bourne	-8633
▁1939,	-8634
▁1992.	-8635
▁20.000	-8636
▁Louise	-8637
▁Stefan	-8638
▁~	-8639
Đại	-8640
▁go	-8641
thal	-8642
▁1/4	-8643
▁Cát	-8644
▁Não	-8645
▁gẫu	-8646
▁núm	-8647
eroon	-8648
▁1900	-8649
▁chùa	-8650
▁chùi	-8651
▁lượm	-8652
▁muôn	-8653
▁Nikol	-8654
imbabwe	-8655
▁Digital	-8656
46	-8657
5),	-8658
rand	-8659
uyễn	-8660
▁Tín	-8661
▁lốp	-8662
▁Blan	-8663
▁Bras	-8664
▁Dạng	-8665
▁Sylv	-8666
▁Ther	-8667
▁Your	-8668
▁dưng	-8669
▁golf	-8670
▁Khiến	-8671
▁Bolivia	-8672
▁Colorado	-8673
)"	-8674
49	-8675
bị	-8676
mel	-8677
oki	-8678
uni	-8679
▁360	-8680
▁Gib	-8681
▁Trợ	-8682
▁séc	-8683
▁xui	-8684
▁1971	-8685
▁Bank	-8686
▁Wind	-8687
▁khít	-8688
▁lộng	-8689
▁Lanka	-8690
▁River	-8691
▁Tuyết	-8692
▁neutron	-8693
▁Stanford	-8694
▁Parkinson	-8695
▁Manchester	-8696
Thế	-8697
igu	-8698
ovo	-8699
rew	-8700
▁91	-8701
▁IN	-8702
▁SO	-8703
▁Tờ	-8704
Ngày	-8705
▁MTV	-8706
▁hắc	-8707
▁meg	-8708
▁pol	-8709
▁Cour	-8710
▁Mine	-8711
▁Nghỉ	-8712
▁1944,	-8713
▁1995.	-8714
▁Kyoto	-8715
▁nicot	-8716
▁Produc	-8717
▁heroin	-8718
▁online	-8719
▁Company	-8720
FF	-8721
óz	-8722
cht	-8723
▁TN	-8724
inyl	-8725
▁Hil	-8726
▁ADHD	-8727
▁Chẩn	-8728
▁Link	-8729
▁Julia	-8730
▁Dickon	-8731
/3	-8732
Họ	-8733
LE	-8734
aha	-8735
ift	-8736
õng	-8737
▁Hob	-8738
▁Sop	-8739
▁Form	-8740
▁Stad	-8741
▁mánh	-8742
▁thẹn	-8743
▁văng	-8744
enburg	-8745
▁ngoặc	-8746
▁Hunter	-8747
▁Douglas	-8748
▁Ukraina	-8749
RC	-8750
onn	-8751
▁KH	-8752
▁SC	-8753
ixel	-8754
▁30,	-8755
▁NES	-8756
▁Rap	-8757
▁Rau	-8758
▁Rắc	-8759
▁ant	-8760
▁lẻo	-8761
▁vẩy	-8762
andra	-8763
▁1946	-8764
▁Soft	-8765
▁Team	-8766
▁Moses	-8767
▁Union	-8768
▁Moskva	-8769
▁studio	-8770
31	-8771
Nhà	-8772
asz	-8773
urs	-8774
▁Bé	-8775
amer	-8776
imus	-8777
mine	-8778
wald	-8779
▁175	-8780
▁Bau	-8781
▁Fat	-8782
▁Sak	-8783
▁Tol	-8784
▁lõm	-8785
▁rêu	-8786
▁Beat	-8787
▁Glor	-8788
▁Claud	-8789
▁Natal	-8790
▁Zimbabwe	-8791
▁Christopher	-8792
88	-8793
Un	-8794
gio	-8795
igl	-8796
▁Cư	-8797
enol	-8798
ning	-8799
otle	-8800
▁Add	-8801
▁Ned	-8802
▁Pam	-8803
▁Yếu	-8804
elles	-8805
▁Fuji	-8806
▁Kafr	-8807
▁Nhịp	-8808
▁Niềm	-8809
▁Ruth	-8810
▁Ethan	-8811
▁Felic	-8812
▁Marcel	-8813
▁Queens	-8814
▁Gabriel	-8815
uj	-8816
eon	-8817
▁ab	-8818
phim	-8819
▁Bes	-8820
▁Cit	-8821
▁Imp	-8822
▁Nhu	-8823
▁Tes	-8824
▁Beng	-8825
▁Maya	-8826
itts	-8827
▁LGB	-8828
▁Nit	-8829
▁roi	-8830
▁Maar	-8831
▁một	-8832
▁nhão	-8833
usalem	-8834
▁Lương	-8835
▁Nhúng	-8836
enstein	-8837
▁Series	-8838
▁ibuprofen	-8839
▁GS	-8840
▁Kì	-8841
▁Jak	-8842
▁Neo	-8843
▁Tau	-8844
annel	-8845
▁mill	-8846
▁thốt	-8847
▁Triết	-8848
▁Trạch	-8849
▁Netflix	-8850
▁Missouri	-8851
▁Nacional	-8852
BT	-8853
El	-8854
▁SW	-8855
▁dí	-8856
▁hé	-8857
adys	-8858
▁Nhỏ	-8859
▁Stu	-8860
▁kar	-8861
▁moi	-8862
▁thét	-8863
▁1950.	-8864
▁1984,	-8865
▁Chron	-8866
▁Wells	-8867
▁salic	-8868
▁Venice	-8869
▁polymer	-8870
TE	-8871
hn	-8872
Nam	-8873
kie	-8874
reg	-8875
▁DH	-8876
▁Wł	-8877
wana	-8878
▁Bun	-8879
▁Bột	-8880
▁tẩm	-8881
▁xảo	-8882
estin	-8883
▁1982,	-8884
▁hamster	-8885
▁Cameroon	-8886
▁benzodiazepine	-8887
:;	-8888
RP	-8889
Su	-8890
orp	-8891
▁Fi	-8892
▁MV	-8893
▁be	-8894
alth	-8895
ippi	-8896
▁Eps	-8897
▁mọt	-8898
chính	-8899
▁nhím	-8900
azepam	-8901
▁Gmail	-8902
▁Story	-8903
▁Gryfino	-8904
))	-8905
Mẹ	-8906
▁·	-8907
▁98	-8908
anto	-8909
enda	-8910
thời	-8911
▁(1.	-8912
▁Fle	-8913
▁Rav	-8914
▁bạt	-8915
▁vữa	-8916
▁Cười	-8917
▁diều	-8918
▁Press	-8919
▁Spart	-8920
▁flash	-8921
▁gamma	-8922
▁Bernard	-8923
sha	-8924
▁87	-8925
▁mo	-8926
emon	-8927
real	-8928
▁Rol	-8929
▁Ten	-8930
▁Tet	-8931
▁hal	-8932
▁Binh	-8933
▁Hand	-8934
▁Lady	-8935
▁Tang	-8936
▁Percy	-8937
▁Graham	-8938
▁Russell	-8939
bu	-8940
eri	-8941
▁2%	-8942
▁62	-8943
Nhạc	-8944
▁Gom	-8945
▁Nửa	-8946
▁Pon	-8947
▁Lính	-8948
ramine	-8949
▁Jerusalem	-8950
bản	-8951
▁MC	-8952
▁tà	-8953
achi	-8954
othy	-8955
▁Ngô	-8956
▁Rab	-8957
▁ghẻ	-8958
▁huh	-8959
▁rạc	-8960
▁1966	-8961
▁Gamb	-8962
▁Gand	-8963
▁Nồng	-8964
▁Toán	-8965
linois	-8966
▁1994.	-8967
▁Ligue	-8968
iazione	-8969
EF	-8970
SS	-8971
oya	-8972
ices	-8973
▁3-4	-8974
▁Ara	-8975
enger	-8976
▁1969	-8977
▁Mừng	-8978
▁Pers	-8979
▁1920,	-8980
▁1983,	-8981
▁phước	-8982
▁hydroc	-8983
▁Bluetooth	-8984
cki	-8985
ute	-8986
▁Dạ	-8987
▁SU	-8988
idae	-8989
▁Chứ	-8990
▁Dàn	-8991
▁Dây	-8992
▁Has	-8993
▁Ost	-8994
▁Pav	-8995
▁ngõ	-8996
▁oxi	-8997
▁rao	-8998
▁1968	-8999
▁giầy	-9000
entine	-9001
▁Sahara	-9002
pus	-9003
rob	-9004
▁Bọ	-9005
▁GN	-9006
▁VN	-9007
▁vo	-9008
▁đả	-9009
anti	-9010
▁1⁄2	-9011
▁Kid	-9012
▁McK	-9013
▁Nổi	-9014
▁Ran	-9015
▁nai	-9016
▁rap	-9017
▁5-10	-9018
▁Emil	-9019
▁Giấc	-9020
▁Apollo	-9021
▁Kansas	-9022
▁Somalia	-9023
rd	-9024
Hoa	-9025
hai	-9026
▁Oc	-9027
▁SN	-9028
▁xù	-9029
aust	-9030
▁Cry	-9031
▁Jai	-9032
▁Kah	-9033
▁Mam	-9034
▁Sic	-9035
▁nhẽ	-9036
▁sam	-9037
▁Khẩu	-9038
▁Next	-9039
▁chen	-9040
▁điếc	-9041
▁đôla	-9042
▁Techn	-9043
▁chưng	-9044
▁ngoặt	-9045
▁Athens	-9046
▁Carrie	-9047
▁Church	-9048
▁Miguel	-9049
▁Central	-9050
▁Mississ	-9051
▁dioxide	-9052
▁Bulgaria	-9053
▁Jefferson	-9054
He	-9055
Tuy	-9056
màu	-9057
ódź	-9058
▁"(	-9059
▁('	-9060
▁84	-9061
▁AB	-9062
▁Zo	-9063
bell	-9064
▁Byz	-9065
▁Def	-9066
▁Ngũ	-9067
▁Suz	-9068
▁Syl	-9069
▁Tre	-9070
▁Yes	-9071
▁mác	-9072
▁ter	-9073
allas	-9074
arbon	-9075
ogard	-9076
ández	-9077
▁Than	-9078
▁phẩy	-9079
▁sảng	-9080
▁Isaac	-9081
▁phách	-9082
▁UNESCO	-9083
▁Electron	-9084
▁Kołobrzeg	-9085
RO	-9086
ój	-9087
Cái	-9088
▁EM	-9089
Thật	-9090
ular	-9091
▁API	-9092
▁Cir	-9093
▁Dần	-9094
▁Józ	-9095
▁Pun	-9096
▁Rốt	-9097
▁nín	-9098
agnar	-9099
▁1944	-9100
▁quai	-9101
▁3.000	-9102
▁Delhi	-9103
▁Derek	-9104
▁Turner	-9105
vỗ	-9106
aru	-9107
kov	-9108
▁GI	-9109
▁IF	-9110
▁Mb	-9111
▁′′	-9112
aise	-9113
odka	-9114
otic	-9115
▁165	-9116
▁Bec	-9117
▁Pub	-9118
▁lốc	-9119
▁Noel	-9120
▁phai	-9121
enness	-9122
▁Stade	-9123
▁Trồng	-9124
▁Ragnar	-9125
▁Seattle	-9126
Mac	-9127
aun	-9128
rod	-9129
obin	-9130
oner	-9131
▁75%	-9132
▁Gri	-9133
▁dạn	-9134
▁vớt	-9135
owiec	-9136
▁Nina	-9137
▁mách	-9138
arling	-9139
▁Quest	-9140
▁phộng	-9141
ambique	-9142
▁Ernest	-9143
PL	-9144
▁PLA	-9145
▁Pri	-9146
▁chổ	-9147
▁Thor	-9148
▁bass	-9149
▁Ellen	-9150
▁Gates	-9151
▁Scarl	-9152
▁Austin	-9153
Bộ	-9154
▁""	-9155
▁Acc	-9156
▁Bão	-9157
▁Mis	-9158
▁lóc	-9159
azone	-9160
▁1962	-9161
▁Grey	-9162
▁Lamb	-9163
▁Noah	-9164
▁nhọt	-9165
▁rành	-9166
▁Julie	-9167
▁Space	-9168
▁luyến	-9169
▁Caracas	-9170
▁General	-9171
jin	-9172
▁Sợ	-9173
hình	-9174
iger	-9175
rain	-9176
▁1.0	-9177
▁Jor	-9178
▁Lie	-9179
▁Sát	-9180
▁cyt	-9181
▁dĩa	-9182
▁huệ	-9183
▁1958	-9184
▁Cort	-9185
▁Tháo	-9186
▁Vist	-9187
▁Week	-9188
ozione	-9189
▁Giêng	-9190
▁Sheld	-9191
▁State	-9192
▁Oregon	-9193
▁Coulson	-9194
▁Świdwin	-9195
TI	-9196
ła	-9197
kes	-9198
opl	-9199
▁86	-9200
chin	-9201
iani	-9202
idan	-9203
▁Aut	-9204
▁Cav	-9205
▁mạt	-9206
▁1964	-9207
▁Hend	-9208
▁Ngăn	-9209
▁Łódź	-9210
▁Dilett	-9211
▁Ronald	-9212
▁Watson	-9213
Ta	-9214
uli	-9215
▁Bệ	-9216
▁MB	-9217
▁vế	-9218
itor	-9219
viết	-9220
đồng	-9221
▁125	-9222
▁Phá	-9223
▁Rum	-9224
▁dứa	-9225
▁hấn	-9226
đường	-9227
▁Arab	-9228
▁Foot	-9229
▁Jung	-9230
▁Kend	-9231
▁Xong	-9232
▁chóp	-9233
▁quậy	-9234
▁Saturn	-9235
▁Sebast	-9236
▁nhuyễn	-9237
xt	-9238
▁Ð	-9239
ibe	-9240
đôi	-9241
▁',	-9242
▁yể	-9243
iley	-9244
▁Hỗn	-9245
▁Kay	-9246
▁Neg	-9247
▁Wol	-9248
▁đéo	-9249
anger	-9250
otrop	-9251
▁Back	-9252
▁Lann	-9253
▁Pink	-9254
▁code	-9255
▁liêu	-9256
▁Nicholas	-9257
▁Aristotle	-9258
ns	-9259
py	-9260
Tất	-9261
▁Tứ	-9262
hing	-9263
ious	-9264
▁Cou	-9265
▁Cởi	-9266
▁Nao	-9267
▁aer	-9268
▁tạt	-9269
▁Coll	-9270
▁coll	-9271
▁Global	-9272
▁Michelle	-9273
▁Associazione	-9274
cảm	-9275
▁96	-9276
▁xy	-9277
acus	-9278
▁101	-9279
▁Hàm	-9280
▁Pel	-9281
▁viê	-9282
ewski	-9283
▁Anim	-9284
▁Best	-9285
celand	-9286
▁Illinois	-9287
aa	-9288
ków	-9289
wer	-9290
▁Tri	-9291
▁nặn	-9292
ylate	-9293
▁Fest	-9294
▁phot	-9295
▁toái	-9296
▁Bruss	-9297
▁Ashley	-9298
▁penicillin	-9299
MC	-9300
ịa	-9301
ipe	-9302
anie	-9303
guez	-9304
érie	-9305
▁Nom	-9306
▁nít	-9307
▁1961	-9308
▁Hell	-9309
▁ngợp	-9310
▁Đấng	-9311
▁Beach	-9312
▁Motor	-9313
▁Royal	-9314
▁Sound	-9315
▁Alaska	-9316
▁Thưởng	-9317
▁Mississippi	-9318
42	-9319
▁Ō	-9320
rot	-9321
thu	-9322
bach	-9323
coin	-9324
dong	-9325
king	-9326
roit	-9327
▁ISO	-9328
▁Kil	-9329
▁Mut	-9330
▁Sug	-9331
▁bời	-9332
▁sex	-9333
▁Wend	-9334
▁thon	-9335
phosph	-9336
▁Józef	-9337
▁Women	-9338
▁Maggie	-9339
▁Vietnam	-9340
▁sulfate	-9341
▁Jonathan	-9342
về	-9343
Cậu	-9344
zko	-9345
▁IL	-9346
colm	-9347
▁Dải	-9348
▁Xen	-9349
▁dẫm	-9350
Video	-9351
▁Boul	-9352
▁Libya	-9353
▁Teddy	-9354
▁trans	-9355
▁Serbia	-9356
▁Estonia	-9357
▁Mozambique	-9358
77	-9359
chu	-9360
órz	-9361
Đức	-9362
▁AK	-9363
icin	-9364
▁Tyr	-9365
▁khờ	-9366
▁oán	-9367
íguez	-9368
▁1956	-9369
▁Thất	-9370
▁nhọc	-9371
▁Baham	-9372
▁Betty	-9373
▁Camera	-9374
▁Debbie	-9375
▁Gotham	-9376
▁Michel	-9377
▁Croatia	-9378
▁Warszawa	-9379
▁78	-9380
Chào	-9381
nước	-9382
▁350	-9383
▁Nok	-9384
▁Rút	-9385
▁Tha	-9386
▁Xoá	-9387
▁but	-9388
▁gym	-9389
▁las	-9390
▁xắn	-9391
▁Hold	-9392
▁Sung	-9393
▁Vinh	-9394
▁sunf	-9395
▁Chase	-9396
▁Major	-9397
▁Caesar	-9398
▁Promozione	-9399
DL	-9400
ỡi	-9401
▁ə	-9402
otá	-9403
phy	-9404
▁dè	-9405
▁mL	-9406
▁Tấm	-9407
▁hằn	-9408
▁lạy	-9409
▁rou	-9410
umber	-9411
worth	-9412
▁Amor	-9413
▁Stew	-9414
▁chẹn	-9415
▁rưởi	-9416
▁thụt	-9417
▁toan	-9418
▁1973,	-9419
▁Nancy	-9420
▁Reese	-9421
▁Teresa	-9422
▁Malcolm	-9423
▁Download	-9424
undo	-9425
▁Đáp	-9426
farin	-9427
▁Pict	-9428
▁Điệu	-9429
▁tuông	-9430
▁virut	-9431
▁Kamień	-9432
▁nghếch	-9433
▁cortisol	-9434
esc	-9435
tol	-9436
▁82	-9437
▁Us	-9438
▁Uz	-9439
cuộc	-9440
dale	-9441
tail	-9442
untu	-9443
▁Esp	-9444
owska	-9445
▁Hoff	-9446
▁Mend	-9447
▁inter	-9448
ococcus	-9449
▁Andrea	-9450
▁Maryland	-9451
93	-9452
ąb	-9453
owe	-9454
tag	-9455
ten	-9456
▁Ưu	-9457
agas	-9458
icus	-9459
uddy	-9460
▁Set	-9461
▁HTML	-9462
▁Meth	-9463
▁Lydia	-9464
▁Pedro	-9465
▁Tobago	-9466
41	-9467
CL	-9468
bul	-9469
dra	-9470
▁Tạ	-9471
▁rợ	-9472
alle	-9473
opro	-9474
▁15%	-9475
▁3,5	-9476
▁dis	-9477
▁vàn	-9478
▁Kore	-9479
▁axít	-9480
▁ngáy	-9481
▁váng	-9482
Donald	-9483
▁1976,	-9484
▁China	-9485
▁quáng	-9486
▁Bonnie	-9487
▁Caribe	-9488
▁Patric	-9489
▁Rebecca	-9490
▁Rodríguez	-9491
enko	-9492
▁Gió	-9493
▁Jab	-9494
▁băm	-9495
▁ươm	-9496
porin	-9497
▁Coca	-9498
▁Fair	-9499
▁Khoá	-9500
ycline	-9501
▁1974,	-9502
▁Bhutan	-9503
▁Bogotá	-9504
▁Franco	-9505
▁Linkin	-9506
▁cardio	-9507
▁kinase	-9508
▁Iceland	-9509
bs	-9510
hu	-9511
▁Dz	-9512
▁rì	-9513
cùng	-9514
▁(16	-9515
▁1,2	-9516
▁30.	-9517
▁Bed	-9518
▁Dep	-9519
▁Ras	-9520
▁Rou	-9521
▁Thở	-9522
▁XIX	-9523
▁mứt	-9524
▁rem	-9525
▁tấy	-9526
▁ĐCS	-9527
idone	-9528
▁Seth	-9529
▁nhõm	-9530
▁Touch	-9531
▁lipid	-9532
▁Center	-9533
▁County	-9534
▁Vistula	-9535
▁Snapchat	-9536
▁salicylic	-9537
EP	-9538
Ex	-9539
My	-9540
ás	-9541
ono	-9542
opy	-9543
▁Dễ	-9544
▁Ti	-9545
▁cr	-9546
▁it	-9547
amba	-9548
espe	-9549
▁(20	-9550
▁Dog	-9551
▁Lis	-9552
▁Sắt	-9553
▁TPP	-9554
▁Thợ	-9555
▁răn	-9556
▁teo	-9557
ental	-9558
ingle	-9559
▁1952	-9560
▁Mira	-9561
▁Viol	-9562
▁chần	-9563
▁rình	-9564
▁1991.	-9565
▁Boris	-9566
▁slide	-9567
▁Square	-9568
▁Felicity	-9569
▁Slovakia	-9570
43	-9571
▁Gà	-9572
▁Vỏ	-9573
alan	-9574
feld	-9575
▁(12	-9576
▁Aqu	-9577
▁Ark	-9578
▁Hop	-9579
▁Mũi	-9580
▁Pis	-9581
▁Vit	-9582
▁sụn	-9583
▁vét	-9584
count	-9585
▁1948	-9586
▁Hart	-9587
▁Hist	-9588
▁Joan	-9589
▁Tầng	-9590
▁khét	-9591
▁thêu	-9592
▁Aaron	-9593
▁Adobe	-9594
▁Bruno	-9595
▁Terry	-9596
▁Trinh	-9597
▁Barney	-9598
▁Murray	-9599
▁Stella	-9600
▁hacker	-9601
▁Western	-9602
▁⌘	-9603
uts	-9604
zno	-9605
▁CC	-9606
▁ki	-9607
chez	-9608
more	-9609
▁Gus	-9610
▁Kaw	-9611
▁MRI	-9612
▁lằn	-9613
▁môt	-9614
▁Bing	-9615
▁Jill	-9616
▁Mars	-9617
▁khắt	-9618
▁trụi	-9619
▁vũng	-9620
▁1989.	-9621
▁Blake	-9622
▁Child	-9623
▁Henri	-9624
▁Muham	-9625
▁Tượng	-9626
▁Barack	-9627
▁desktop	-9628
▁marathon	-9629
/2	-9630
FDA	-9631
mat	-9632
oir	-9633
rất	-9634
▁gr	-9635
ambo	-9636
izer	-9637
động	-9638
▁(2,	-9639
▁reg	-9640
Chính	-9641
bourg	-9642
ellan	-9643
onder	-9644
▁1941	-9645
▁1963	-9646
▁Diện	-9647
▁Magn	-9648
▁Neil	-9649
▁Nhóc	-9650
▁Yale	-9651
▁xiếc	-9652
▁1978,	-9653
▁Craig	-9654
▁Angola	-9655
▁Enterprise	-9656
Pal	-9657
iad	-9658
▁MA	-9659
ithi	-9660
robi	-9661
▁Cin	-9662
▁URL	-9663
cript	-9664
▁1954	-9665
▁Buck	-9666
▁Road	-9667
▁thoi	-9668
▁1943,	-9669
▁Castro	-9670
▁Gdańsk	-9671
▁Luther	-9672
▁hydrox	-9673
▁Leonard	-9674
▁Robinson	-9675
aoh	-9676
iso	-9677
▁4)	-9678
▁Iz	-9679
dưới	-9680
mith	-9681
▁240	-9682
▁Hứa	-9683
▁rên	-9684
▁you	-9685
▁1965	-9686
▁Khảo	-9687
▁Nhãn	-9688
▁Roll	-9689
▁Wins	-9690
▁form	-9691
▁from	-9692
▁1981,	-9693
▁Bryan	-9694
▁Hotch	-9695
▁nhung	-9696
▁tweet	-9697
▁Apache	-9698
▁Atlant	-9699
▁Morris	-9700
▁khoanh	-9701
▁Detroit	-9702
▁Białogard	-9703
Ai	-9704
FL	-9705
Tok	-9706
key	-9707
pop	-9708
tất	-9709
tính	-9710
▁25,	-9711
▁Cay	-9712
▁Cắm	-9713
▁Dak	-9714
▁Kap	-9715
▁Vân	-9716
▁dãi	-9717
▁lev	-9718
▁lộc	-9719
▁nom	-9720
▁Ống	-9721
▁1942	-9722
▁Poly	-9723
▁rạng	-9724
▁Ebola	-9725
▁Hubble	-9726
92	-9727
Vì	-9728
jar	-9729
lah	-9730
zej	-9731
▁Cờ	-9732
agon	-9733
enix	-9734
hành	-9735
lish	-9736
onna	-9737
wara	-9738
▁Hum	-9739
▁Hữu	-9740
▁Pur	-9741
▁SIM	-9742
▁Tit	-9743
▁Trz	-9744
▁clip	-9745
▁elip	-9746
▁tróc	-9747
▁1972,	-9748
▁Khmer	-9749
espeare	-9750
▁Malawi	-9751
ię	-9752
▁71	-9753
▁fr	-9754
▁lữ	-9755
▁vv	-9756
quez	-9757
▁(30	-9758
▁Kom	-9759
▁Say	-9760
▁sục	-9761
▁tạc	-9762
▁1919	-9763
▁Palm	-9764
▁Pass	-9765
▁nhám	-9766
▁nhớt	-9767
▁10-15	-9768
▁Maroc	-9769
▁Xuyên	-9770
▁British	-9771
▁Foreman	-9772
▁Fernando	-9773
▁collagen	-9774
▁<	-9775
wat	-9776
▁AG	-9777
▁cộ	-9778
▁tè	-9779
ages	-9780
ilet	-9781
▁50,	-9782
▁Dán	-9783
▁Dạy	-9784
▁Hud	-9785
▁Neb	-9786
▁héo	-9787
▁xỉu	-9788
iness	-9789
▁1955	-9790
▁Buff	-9791
▁Giặt	-9792
▁nháp	-9793
imierz	-9794
▁30.000	-9795
▁Championnat	-9796
61	-9797
HA	-9798
Sau	-9799
lav	-9800
▁NY	-9801
▁py	-9802
▁Cub	-9803
▁Let	-9804
▁Tần	-9805
▁WHO	-9806
▁gas	-9807
▁hót	-9808
▁mận	-9809
▁Chải	-9810
▁Ngọn	-9811
▁Pont	-9812
▁rặng	-9813
▁thềm	-9814
▁1959,	-9815
▁Chang	-9816
▁Grammy	-9817
▁chưởng	-9818
▁Caroline	-9819
▁Guardian	-9820
sc	-9821
lov	-9822
opp	-9823
trừ	-9824
▁73	-9825
▁CR	-9826
▁Yi	-9827
idin	-9828
laus	-9829
loại	-9830
thay	-9831
▁Abe	-9832
▁Hir	-9833
▁Lav	-9834
▁Lem	-9835
▁USA	-9836
▁lút	-9837
▁Đèn	-9838
▁Đời	-9839
ocort	-9840
sburg	-9841
ution	-9842
▁Beta	-9843
▁Biện	-9844
▁bừng	-9845
▁1949,	-9846
▁Daily	-9847
▁Molly	-9848
▁Prima	-9849
▁Stein	-9850
▁Trùng	-9851
▁Watch	-9852
▁Dallas	-9853
▁nucleo	-9854
▁truồng	-9855
▁Minecraft	-9856
Am	-9857
CT	-9858
cả	-9859
tz	-9860
aca	-9861
eim	-9862
mid	-9863
vid	-9864
▁AV	-9865
▁Ka	-9866
Giải	-9867
obic	-9868
▁Kum	-9869
▁Tia	-9870
▁Tul	-9871
ensen	-9872
▁1947	-9873
▁APEC	-9874
▁Four	-9875
▁Kamp	-9876
▁Nhắm	-9877
▁tuột	-9878
▁Đoán	-9879
gamesh	-9880
▁1968,	-9881
▁Heart	-9882
▁Lance	-9883
▁Maker	-9884
▁Model	-9885
▁Xương	-9886
▁ethyl	-9887
ocktail	-9888
▁Albania	-9889
▁Starling	-9890
emo	-9891
đầu	-9892
idel	-9893
mand	-9894
olph	-9895
trái	-9896
▁Soy	-9897
▁Xoa	-9898
▁ria	-9899
▁www	-9900
▁Đậu	-9901
andro	-9902
▁Hein	-9903
▁máng	-9904
▁1967,	-9905
▁Stand	-9906
enosine	-9907
▁Gloria	-9908
▁Manila	-9909
▁Nairobi	-9910
▁Sheldon	-9911
▁Mercedes	-9912
▁hydrochlor	-9913
▁76	-9914
▁Mé	-9915
▁PA	-9916
▁dr	-9917
bình	-9918
cian	-9919
ilen	-9920
osan	-9921
▁203	-9922
▁Mái	-9923
▁res	-9924
▁Hugo	-9925
▁đãng	-9926
▁1971,	-9927
▁Actor	-9928
▁Trứng	-9929
▁Golden	-9930
▁Lebanon	-9931
azi	-9932
▁-,	-9933
▁Tệ	-9934
▁(11	-9935
▁rơm	-9936
▁1957	-9937
▁Bass	-9938
▁Dong	-9939
▁Tech	-9940
▁Yahoo	-9941
romycin	-9942
▁Kazakh	-9943
▁Shinoda	-9944
▁Tenness	-9945
▁Jennifer	-9946
iba	-9947
kok	-9948
▁Ey	-9949
▁vò	-9950
giải	-9951
▁bộn	-9952
▁ngó	-9953
phone	-9954
▁Chen	-9955
▁Cont	-9956
▁Hiển	-9957
▁giễu	-9958
▁Khuấy	-9959
▁radar	-9960
icillin	-9961
▁50.000	-9962
▁Knight	-9963
▁peroxide	-9964
▁Shakespeare	-9965
BO	-9966
LS	-9967
boy	-9968
lex	-9969
ère	-9970
▁$1	-9971
▁Lữ	-9972
▁up	-9973
tube	-9974
▁Cửu	-9975
▁Hạm	-9976
▁Tab	-9977
▁VPN	-9978
▁Woj	-9979
▁rốn	-9980
▁Đập	-9981
▁1959	-9982
▁Bund	-9983
▁Gill	-9984
▁Hùng	-9985
▁LGBT	-9986
▁Saul	-9987
▁luồn	-9988
▁Water	-9989
▁phenyl	-9990
▁Bahamas	-9991
CP	-9992
ỏm	-9993
iban	-9994
ovir	-9995
▁Bãi	-9996
▁Hắc	-9997
▁Oak	-9998
▁Rif	-9999
▁hem	-10000
▁pas	-10001
▁tơi	-10002
chiến	-10003
eting	-10004
▁Mali	-10005
▁Vượt	-10006
▁diệp	-10007
hydrat	-10008
▁1942,	-10009
▁1987.	-10010
▁enzym	-10011
oprotein	-10012
▁Channel	-10013
▁Protein	-10014
TO	-10015
gra	-10016
▁BA	-10017
▁LG	-10018
▁ầm	-10019
▁Ẩm	-10020
epin	-10021
omat	-10022
▁128	-10023
▁Lil	-10024
▁Map	-10025
▁mao	-10026
▁đờm	-10027
▁Finn	-10028
▁Garc	-10029
▁Kịch	-10030
▁Tông	-10031
▁Logan	-10032
▁Medic	-10033
▁Wyatt	-10034
▁Joshua	-10035
3).	-10036
ARC	-10037
oon	-10038
yll	-10039
▁nM	-10040
ucky	-10041
▁115	-10042
▁ABC	-10043
▁Shō	-10044
▁ang	-10045
▁dấy	-10046
▁Chìa	-10047
▁cons	-10048
▁Felix	-10049
▁Seconda	-10050
▁Byzantine	-10051
Be	-10052
Lưu	-10053
▁Kỵ	-10054
▁bô	-10055
▁nu	-10056
▁si	-10057
Việt	-10058
▁Lec	-10059
▁los	-10060
ernet	-10061
light	-10062
▁Chun	-10063
▁Deep	-10064
▁Yosh	-10065
▁mail	-10066
▁NSAID	-10067
▁ruộng	-10068
▁10,000	-10069
▁Bengal	-10070
▁Isabel	-10071
▁plasma	-10072
▁Patricia	-10073
DC	-10074
En	-10075
Chỉ	-10076
edd	-10077
ectơ	-10078
este	-10079
mark	-10080
phân	-10081
▁Cad	-10082
▁Won	-10083
▁mẩn	-10084
▁nực	-10085
▁yểm	-10086
idase	-10087
▁MRSA	-10088
▁quýt	-10089
▁thốn	-10090
▁xiên	-10091
▁đấng	-10092
▁1962,	-10093
▁Juana	-10094
▁Whats	-10095
▁Roberto	-10096
▁Gilgamesh	-10097
Nu	-10098
̀u	-10099
olm	-10100
vet	-10101
▁79	-10102
▁dẻ	-10103
inez	-10104
ivan	-10105
obez	-10106
▁Aki	-10107
▁Fan	-10108
▁Fuk	-10109
▁Kun	-10110
▁Lop	-10111
▁Nấm	-10112
▁Sob	-10113
▁đốn	-10114
urger	-10115
▁Tách	-10116
▁1993.	-10117
▁Girls	-10118
▁Italy	-10119
▁Marco	-10120
▁Pomor	-10121
▁khiên	-10122
▁Youtube	-10123
▁Tennessee	-10124
')	-10125
To	-10126
ced	-10127
▁CM	-10128
elyn	-10129
iles	-10130
roup	-10131
vers	-10132
▁Adr	-10133
▁Gas	-10134
▁Nab	-10135
▁Pao	-10136
▁bịp	-10137
▁nêm	-10138
▁năn	-10139
▁war	-10140
▁Data	-10141
▁Carly	-10142
▁Diana	-10143
▁Riley	-10144
▁Forbes	-10145
▁Prince	-10146
▁Wilhel	-10147
▁Advance	-10148
▁Collins	-10149
▁Madison	-10150
GM	-10151
Re	-10152
20,	-10153
ges	-10154
lia	-10155
iber	-10156
▁1.5	-10157
▁1/3	-10158
▁Sax	-10159
▁dec	-10160
▁Otto	-10161
▁Save	-10162
▁Vers	-10163
▁trâu	-10164
▁Giêsu	-10165
▁Point	-10166
▁chuốt	-10167
▁Katowice	-10168
▁Scarlett	-10169
▁Christina	-10170
▁Alexandria	-10171
-1,	-10172
700	-10173
erc	-10174
iej	-10175
kad	-10176
▁Lỗ	-10177
..."	-10178
isse	-10179
▁95%	-10180
▁Ong	-10181
▁Rus	-10182
▁Tết	-10183
▁Yas	-10184
▁bon	-10185
▁dạt	-10186
▁reo	-10187
▁rib	-10188
▁Evan	-10189
▁Hamp	-10190
▁Lara	-10191
▁Mail	-10192
▁Nokia	-10193
▁Libert	-10194
▁Muhammad	-10195
:)	-10196
̣p	-10197
Mọi	-10198
uga	-10199
▁+,	-10200
▁Mê	-10201
▁SM	-10202
anów	-10203
rush	-10204
▁Bot	-10205
▁Vog	-10206
▁cit	-10207
▁lẽo	-10208
▁nặc	-10209
▁Đền	-10210
▁Hằng	-10211
▁Rest	-10212
▁khoé	-10213
▁Ahmed	-10214
▁Amber	-10215
▁Brody	-10216
▁Keith	-10217
▁Sylvia	-10218
▁ethanol	-10219
/4	-10220
UN	-10221
Cảm	-10222
oty	-10223
ÔNG	-10224
ẩng	-10225
▁3%	-10226
▁5:	-10227
▁GP	-10228
▁HS	-10229
alla	-10230
mund	-10231
▁3.0	-10232
▁Jen	-10233
▁bin	-10234
▁cỏi	-10235
▁hon	-10236
▁hời	-10237
▁nắn	-10238
▁rụi	-10239
olate	-10240
thers	-10241
▁Cann	-10242
▁Gang	-10243
▁Jazz	-10244
▁Lồng	-10245
▁Tong	-10246
▁mini	-10247
▁đong	-10248
▁Africa	-10249
▁Foster	-10250
Do	-10251
fu	-10252
dom	-10253
elf	-10254
▁Nd	-10255
▁PM	-10256
Vâng	-10257
▁1,3	-10258
▁Fog	-10259
▁Sớm	-10260
▁Yok	-10261
ixtan	-10262
owicz	-10263
▁1953	-10264
▁Bots	-10265
▁Chấn	-10266
▁Giày	-10267
▁Quái	-10268
▁Sóng	-10269
▁rang	-10270
▁Bloom	-10271
▁First	-10272
▁Huyết	-10273
▁Robot	-10274
▁Thuộc	-10275
▁boong	-10276
▁được	-10277
▁Clarke	-10278
▁Stewart	-10279
▁Thompson	-10280
▁cacbonat	-10281
▁£	-10282
▁π	-10283
aye	-10284
pan	-10285
atal	-10286
umin	-10287
utch	-10288
▁ATP	-10289
▁Cột	-10290
▁Ess	-10291
▁Ném	-10292
▁Phe	-10293
▁Ral	-10294
▁Túi	-10295
▁hẻo	-10296
▁múi	-10297
▁tấp	-10298
▁Đẩy	-10299
inoid	-10300
▁Dais	-10301
▁Vera	-10302
▁toát	-10303
▁đươc	-10304
▁Xuống	-10305
▁vectơ	-10306
sterdam	-10307
▁Philippe	-10308
OH	-10309
-13	-10310
agh	-10311
bắt	-10312
mất	-10313
ops	-10314
▁01	-10315
▁MW	-10316
▁NT	-10317
,...	-10318
esta	-10319
oker	-10320
▁(1)	-10321
▁đay	-10322
evich	-10323
▁Arts	-10324
▁thây	-10325
▁thục	-10326
▁xuẩn	-10327
▁Class	-10328
▁Gonzá	-10329
▁Thách	-10330
▁Thạch	-10331
▁Verde	-10332
▁Barnes	-10333
▁German	-10334
▁Kingston	-10335
jas	-10336
mas	-10337
nhũ	-10338
▁74	-10339
▁Bề	-10340
Liên	-10341
burn	-10342
iton	-10343
tric	-10344
▁Oct	-10345
▁Taj	-10346
young	-10347
▁Hamm	-10348
▁Lord	-10349
▁bưởi	-10350
▁1983.	-10351
▁Hills	-10352
▁Bennet	-10353
▁tennis	-10354
▁Brussels	-10355
▁Campbell	-10356
73	-10357
Hz	-10358
Sc	-10359
],	-10360
rb	-10361
yu	-10362
ird	-10363
acon	-10364
▁Bey	-10365
▁Haz	-10366
▁Kra	-10367
▁ưng	-10368
ative	-10369
okine	-10370
oprop	-10371
▁1943	-10372
▁Plus	-10373
▁Troy	-10374
▁ngầu	-10375
▁1945.	-10376
▁Evans	-10377
▁Salam	-10378
▁Nhưỡng	-10379
▁rapper	-10380
▁Express	-10381
▁Dominican	-10382
FP	-10383
bộ	-10384
Để	-10385
2).	-10386
Vào	-10387
bất	-10388
opa	-10389
ecom	-10390
egan	-10391
erry	-10392
ible	-10393
iese	-10394
▁Din	-10395
▁lún	-10396
other	-10397
▁(190	-10398
▁Coun	-10399
▁Gust	-10400
▁Marx	-10401
▁Spec	-10402
▁bướu	-10403
▁Điền	-10404
▁1977,	-10405
▁Seych	-10406
▁Skype	-10407
▁García	-10408
▁Thuyết	-10409
▁WhatsApp	-10410
▁hydroxyl	-10411
nơi	-10412
tho	-10413
inic	-10414
▁dằn	-10415
▁her	-10416
▁mào	-10417
▁sệt	-10418
▁Lomb	-10419
▁chừa	-10420
▁Huyền	-10421
▁Theod	-10422
▁Nevada	-10423
▁Warner	-10424
▁Maarrat	-10425
▁Phoenix	-10426
▁González	-10427
▁Melbourne	-10428
▁Messenger	-10429
Br	-10430
Po	-10431
TH	-10432
sẽ	-10433
bek	-10434
cos	-10435
gor	-10436
obi	-10437
▁Nỗ	-10438
▁nỉ	-10439
itas	-10440
ives	-10441
▁1,4	-10442
▁Alc	-10443
▁Bạo	-10444
▁Coh	-10445
▁NBA	-10446
▁Zen	-10447
▁cợt	-10448
▁rìu	-10449
minal	-10450
▁Acad	-10451
▁Brid	-10452
▁Chad	-10453
▁HDMI	-10454
▁Nord	-10455
▁Rain	-10456
▁bảnh	-10457
▁cycl	-10458
▁Cuddy	-10459
▁Klaus	-10460
▁Nixon	-10461
▁Phóng	-10462
▁Yoshi	-10463
▁Lublin	-10464
▁lotion	-10465
▁200.000	-10466
▁Studios	-10467
▁silicon	-10468
▁Louisiana	-10469
76	-10470
yg	-10471
fen	-10472
▁Ek	-10473
▁NO	-10474
▁TB	-10475
etic	-10476
phải	-10477
▁40,	-10478
▁Bug	-10479
▁Emp	-10480
▁Inv	-10481
▁Súc	-10482
▁Vắc	-10483
▁hấu	-10484
▁mus	-10485
▁pod	-10486
▁1949	-10487
▁Mech	-10488
▁Mits	-10489
▁Trib	-10490
▁Trực	-10491
▁Jamie	-10492
▁Okina	-10493
▁Saudi	-10494
▁Julian	-10495
▁Rafael	-10496
▁Jacques	-10497
▁Mabuchi	-10498
56	-10499
DM	-10500
Năm	-10501
▁Xa	-10502
▁he	-10503
▁ol	-10504
ener	-10505
rera	-10506
▁176	-10507
▁3-5	-10508
▁Hem	-10509
▁Ton	-10510
▁thớ	-10511
asaki	-10512
▁Soul	-10513
▁khứu	-10514
nesota	-10515
▁Jenny	-10516
▁Khuôn	-10517
▁Olive	-10518
▁Santos	-10519
▁Truyện	-10520
▁Botswana	-10521
Cho	-10522
Vậy	-10523
uit	-10524
zek	-10525
▁OH	-10526
ares	-10527
iech	-10528
ilon	-10529
▁Arc	-10530
▁Edu	-10531
▁Gut	-10532
▁Lot	-10533
▁Mes	-10534
▁Seg	-10535
▁gly	-10536
▁tột	-10537
entan	-10538
house	-10539
▁Giỏi	-10540
▁Lành	-10541
▁Mari	-10542
▁Nike	-10543
▁chôm	-10544
▁nhằn	-10545
▁phàm	-10546
▁Chuột	-10547
▁Munich	-10548
▁kilomet	-10549
Go	-10550
mu	-10551
7).	-10552
bot	-10553
cer	-10554
esi	-10555
idd	-10556
ral	-10557
uất	-10558
zig	-10559
▁TS	-10560
Cube	-10561
côla	-10562
▁HLV	-10563
▁Sửa	-10564
▁ruy	-10565
▁Đắp	-10566
▁Đốc	-10567
ffrey	-10568
▁Phen	-10569
▁Reed	-10570
▁Tiêm	-10571
▁Work	-10572
▁gien	-10573
▁Jorge	-10574
▁Hudson	-10575
▁Merlyn	-10576
▁calorie	-10577
▁Fujiwara	-10578
▁Amsterdam	-10579
▁acetaminophen	-10580
91	-10581
-16	-10582
4).	-10583
▁Ja	-10584
▁Kō	-10585
iggs	-10586
istr	-10587
urai	-10588
▁1,8	-10589
▁Bin	-10590
▁Dia	-10591
▁GHB	-10592
▁Lầu	-10593
▁cỡi	-10594
▁dốt	-10595
▁syn	-10596
erbai	-10597
onsin	-10598
▁Bách	-10599
ischer	-10600
▁Hindu	-10601
▁cocktail	-10602
độ	-10603
eti	-10604
gae	-10605
obl	-10606
pur	-10607
zin	-10608
▁BI	-10609
▁FA	-10610
▁Pf	-10611
▁kị	-10612
alde	-10613
aris	-10614
look	-10615
mons	-10616
pton	-10617
▁Rai	-10618
▁Sta	-10619
▁hyd	-10620
▁hốt	-10621
▁sin	-10622
▁ăng	-10623
drich	-10624
rique	-10625
▁Bert	-10626
▁Diam	-10627
▁Shad	-10628
▁huân	-10629
▁miệt	-10630
▁sành	-10631
▁Clara	-10632
▁muỗng	-10633
▁router	-10634
▁toilet	-10635
▁Pomorski	-10636
▁Minnesota	-10637
VC	-10638
avi	-10639
emi	-10640
tốt	-10641
won	-10642
́ng	-10643
▁HA	-10644
▁Lô	-10645
witz	-10646
▁4,5	-10647
▁Chợ	-10648
▁Gai	-10649
▁LHQ	-10650
▁hop	-10651
▁mốt	-10652
astic	-10653
ensis	-10654
ering	-10655
▁Hern	-10656
▁Lane	-10657
▁Wang	-10658
▁Xung	-10659
▁nhíp	-10660
▁1975.	-10661
▁1985.	-10662
▁Cường	-10663
▁model	-10664
▁sushi	-10665
▁photon	-10666
OK	-10667
Se	-10668
▁ê	-10669
máy	-10670
▁yo	-10671
adan	-10672
atus	-10673
ians	-10674
wang	-10675
▁Ari	-10676
▁Syn	-10677
▁bậy	-10678
▁dấn	-10679
▁ket	-10680
etine	-10681
keley	-10682
thuốc	-10683
▁Estr	-10684
▁Gren	-10685
▁Patt	-10686
▁Proc	-10687
▁Tiết	-10688
▁comp	-10689
▁ganh	-10690
▁Esther	-10691
▁Reagan	-10692
▁Pomorskie	-10693
Âu	-10694
9).	-10695
Bay	-10696
len	-10697
liu	-10698
▁8:	-10699
▁vê	-10700
cách	-10701
itty	-10702
ront	-10703
vùng	-10704
ười	-10705
▁(2)	-10706
▁450	-10707
▁Dao	-10708
▁Mał	-10709
▁alk	-10710
▁cap	-10711
▁phà	-10712
▁Bald	-10713
▁Elli	-10714
▁Glad	-10715
▁Thảm	-10716
▁Yang	-10717
▁1988.	-10718
▁Manny	-10719
▁Party	-10720
▁Spring	-10721
▁Warren	-10722
erbaijan	-10723
▁Capitol	-10724
▁Vanessa	-10725
▁Lannister	-10726
▁Universal	-10727
?.	-10728
8).	-10729
bre	-10730
nan	-10731
ous	-10732
quá	-10733
▁81	-10734
▁SK	-10735
inal	-10736
onso	-10737
stal	-10738
tory	-10739
▁24,	-10740
▁Bom	-10741
▁LED	-10742
▁Kash	-10743
▁Đỉnh	-10744
▁1963,	-10745
▁1965,	-10746
▁Bened	-10747
▁Buddy	-10748
adysław	-10749
▁Brasil	-10750
▁Wilhelm	-10751
DI	-10752
NHH	-10753
now	-10754
set	-10755
chia	-10756
liên	-10757
prop	-10758
▁105	-10759
▁Dir	-10760
▁Gắn	-10761
▁Hau	-10762
▁ami	-10763
▁ngơ	-10764
▁Biel	-10765
▁Khen	-10766
▁Vall	-10767
▁1969,	-10768
▁Megan	-10769
▁Thorn	-10770
▁ngách	-10771
▁caffein	-10772
▁GameCube	-10773
▁Petersburg	-10774
Tu	-10775
hệ	-10776
ár	-10777
-14	-10778
▁6:	-10779
▁93	-10780
agna	-10781
ason	-10782
ient	-10783
▁Dám	-10784
▁Fut	-10785
▁Mog	-10786
ectin	-10787
▁1951	-10788
▁Hipp	-10789
▁Mall	-10790
▁vani	-10791
▁1946,	-10792
▁ngạch	-10793
▁vodka	-10794
▁Geneva	-10795
▁Mobile	-10796
▁Rhodes	-10797
▁Grayson	-10798
▁Limited	-10799
▁Azerbaijan	-10800
▁Bennington	-10801
LL	-10802
MO	-10803
uv	-10804
▁UC	-10805
▁tý	-10806
akov	-10807
umba	-10808
▁Kêu	-10809
▁Miy	-10810
▁kèo	-10811
rench	-10812
▁Alej	-10813
▁Bros	-10814
▁Ferr	-10815
▁Gian	-10816
▁Krzy	-10817
▁Quán	-10818
▁TNHH	-10819
▁Tống	-10820
▁1956,	-10821
▁thình	-10822
▁Online	-10823
isconsin	-10824
▁Okinawa	-10825
▁Scofield	-10826
▁Spartacus	-10827
▁Seychelles	-10828
ARS	-10829
gần	-10830
iah	-10831
jer	-10832
mun	-10833
đến	-10834
▁PR	-10835
▁RP	-10836
▁Sł	-10837
▁nm	-10838
▁Đỗ	-10839
atro	-10840
aude	-10841
back	-10842
nhân	-10843
occo	-10844
oque	-10845
uton	-10846
▁Bil	-10847
▁Gan	-10848
▁Hod	-10849
▁Lắp	-10850
▁Oxy	-10851
▁Zak	-10852
▁gặt	-10853
▁nga	-10854
▁ren	-10855
antin	-10856
ether	-10857
linek	-10858
oween	-10859
tario	-10860
▁1918	-10861
▁Anat	-10862
▁Mikh	-10863
▁Tưới	-10864
▁Xích	-10865
▁Guyana	-10866
▁Stanley	-10867
▁adenosine	-10868
▁norepinephrine	-10869
GN	-10870
Từ	-10871
hir	-10872
lar	-10873
omy	-10874
▁Hộ	-10875
ffin	-10876
oxin	-10877
▁Vat	-10878
▁lặt	-10879
▁rám	-10880
▁Chop	-10881
▁Làng	-10882
▁Rồng	-10883
▁para	-10884
▁15-20	-10885
▁1964,	-10886
astatin	-10887
oglobin	-10888
▁Petrov	-10889
▁Bangkok	-10890
▁Project	-10891
▁Pictures	-10892
▁Kazimierz	-10893
72	-10894
74	-10895
Pol	-10896
eba	-10897
rốc	-10898
uya	-10899
óra	-10900
▁Võ	-10901
▁Cất	-10902
▁Fur	-10903
▁Raw	-10904
▁Sue	-10905
▁Toạ	-10906
▁cef	-10907
▁gôn	-10908
▁hăm	-10909
▁láo	-10910
▁Dana	-10911
▁Drey	-10912
▁Erik	-10913
▁Giul	-10914
▁Tart	-10915
▁Trip	-10916
▁chợp	-10917
▁down	-10918
▁rùng	-10919
istica	-10920
▁nhích	-10921
▁Sophie	-10922
▁Andrzej	-10923
▁console	-10924
▁Wisconsin	-10925
▁Władysław	-10926
▁endorphin	-10927
ST	-10928
/10	-10929
ifl	-10930
lab	-10931
nor	-10932
▁/;	-10933
▁Cú	-10934
▁hù	-10935
icom	-10936
▁Fun	-10937
▁Myś	-10938
▁baz	-10939
▁nẹp	-10940
▁Đếm	-10941
amoto	-10942
encer	-10943
▁Jour	-10944
▁Omar	-10945
▁vượn	-10946
▁Lester	-10947
▁Martín	-10948
▁cholin	-10949
▁phường	-10950
▁Berkeley	-10951
▁Christine	-10952
DR	-10953
Or	-10954
1).	-10955
Que	-10956
gas	-10957
kết	-10958
law	-10959
zar	-10960
▁Io	-10961
▁Lí	-10962
itsu	-10963
olam	-10964
▁Gua	-10965
▁Gây	-10966
▁Hat	-10967
▁Kot	-10968
▁Lod	-10969
▁Nas	-10970
▁Ngà	-10971
▁hep	-10972
▁und	-10973
▁xẻo	-10974
stone	-10975
video	-10976
▁Baby	-10977
▁Jang	-10978
▁Khal	-10979
▁Phối	-10980
lahoma	-10981
▁1982.	-10982
▁Hyper	-10983
▁Krist	-10984
▁Silva	-10985
▁benzo	-10986
▁Monter	-10987
▁Valley	-10988
▁nghiến	-10989
▁Ontario	-10990
▁warfarin	-10991
MW	-10992
ũm	-10993
ều	-10994
▁Ân	-10995
John	-10996
Russ	-10997
eyer	-10998
▁Fus	-10999
▁cũi	-11000
▁ran	-11001
▁sấm	-11002
Chiến	-11003
▁1936	-11004
▁Przy	-11005
▁1986.	-11006
▁Chỉnh	-11007
▁Namco	-11008
▁Pitts	-11009
▁Friend	-11010
▁Romania	-11011
▁Montreal	-11012
roe	-11013
▁re	-11014
▁ập	-11015
▁ỏi	-11016
auss	-11017
bệnh	-11018
imon	-11019
▁Box	-11020
▁Mys	-11021
▁Pul	-11022
▁Zel	-11023
▁tít	-11024
onica	-11025
▁1938	-11026
▁More	-11027
▁Nuôi	-11028
▁Sham	-11029
▁Thuế	-11030
▁http	-11031
▁vest	-11032
kowski	-11033
▁Brune	-11034
▁Carlo	-11035
▁Gabon	-11036
▁Hydro	-11037
▁Mason	-11038
▁Plato	-11039
▁quặng	-11040
▁Marvel	-11041
▁Nghiêm	-11042
Lu	-11043
QL	-11044
hl	-11045
arm	-11046
ego	-11047
gil	-11048
iac	-11049
tuỳ	-11050
▁94	-11051
▁Gy	-11052
ashq	-11053
drój	-11054
egal	-11055
icut	-11056
indy	-11057
iềng	-11058
meth	-11059
▁His	-11060
▁Lex	-11061
▁Pos	-11062
▁Voc	-11063
▁vac	-11064
istol	-11065
trung	-11066
▁Kali	-11067
▁Kath	-11068
▁Olga	-11069
▁Owen	-11070
▁Pent	-11071
▁cóng	-11072
▁nhẵn	-11073
▁1953,	-11074
▁Cisco	-11075
▁phiếm	-11076
▁florua	-11077
▁Gregory	-11078
▁Oklahoma	-11079
kẻ	-11080
day	-11081
emb	-11082
iny	-11083
rap	-11084
̃ng	-11085
into	-11086
phon	-11087
urat	-11088
▁168	-11089
▁Bag	-11090
▁Dãy	-11091
▁VII	-11092
▁phả	-11093
tocin	-11094
▁1800	-11095
▁Alab	-11096
▁Film	-11097
▁bích	-11098
▁nhói	-11099
▁tuýp	-11100
ionate	-11101
▁1958,	-11102
▁Feder	-11103
▁Khủng	-11104
▁Calvin	-11105
▁Silver	-11106
▁Festival	-11107
▁Mauritius	-11108
▁Princeton	-11109
Tớ	-11110
ất	-11111
ướn	-11112
▁IA	-11113
▁Ôn	-11114
avan	-11115
ress	-11116
▁Lay	-11117
▁Zam	-11118
▁dim	-11119
▁Đạt	-11120
aloid	-11121
berry	-11122
▁Kyle	-11123
▁Mann	-11124
▁Wild	-11125
veland	-11126
▁Darcy	-11127
▁Edgar	-11128
▁Shift	-11129
▁Motors	-11130
▁Sports	-11131
▁người	-11132
▁Miranda	-11133
▁Siberia	-11134
)}	-11135
/0	-11136
igi	-11137
isi	-11138
osc	-11139
ror	-11140
tạm	-11141
ulk	-11142
▁NP	-11143
▁Xả	-11144
▁mề	-11145
▁sỡ	-11146
000,	-11147
play	-11148
tông	-11149
ugin	-11150
ural	-11151
view	-11152
▁DEA	-11153
▁Edo	-11154
▁Fol	-11155
▁Thỏ	-11156
▁cre	-11157
▁mal	-11158
▁pal	-11159
▁sần	-11160
▁Berg	-11161
▁Deir	-11162
▁Giov	-11163
▁Kiên	-11164
▁teen	-11165
▁điểu	-11166
timore	-11167
▁1948,	-11168
▁Ellis	-11169
▁Wendy	-11170
▁ester	-11171
▁40.000	-11172
▁Hassan	-11173
▁Jeremy	-11174
▁Mikhail	-11175
họ	-11176
nal	-11177
đại	-11178
▁Tù	-11179
amic	-11180
ción	-11181
erin	-11182
esia	-11183
nham	-11184
▁23,	-11185
▁Ill	-11186
▁Kub	-11187
▁Sof	-11188
▁fer	-11189
▁ngà	-11190
ophil	-11191
▁Barn	-11192
▁Edin	-11193
▁Luận	-11194
▁This	-11195
▁Wade	-11196
▁Xoay	-11197
▁Zeus	-11198
▁choẹ	-11199
▁vali	-11200
▁(2000	-11201
▁fluor	-11202
▁ĐCSTQ	-11203
▁Julius	-11204
▁Lauren	-11205
▁Marian	-11206
▁Ubuntu	-11207
▁sôcôla	-11208
▁Outlook	-11209
▁Premier	-11210
▁Spencer	-11211
▁Harrison	-11212
▁Kazakhstan	-11213
aqu	-11214
bow	-11215
iza	-11216
olt	-11217
▁UK	-11218
▁tễ	-11219
czyn	-11220
hire	-11221
▁DSi	-11222
▁Tik	-11223
▁Whe	-11224
feron	-11225
illes	-11226
▁Dead	-11227
▁Nhện	-11228
▁Phan	-11229
▁giũa	-11230
▁vồng	-11231
▁1954,	-11232
▁1984.	-11233
▁Marta	-11234
▁Nakam	-11235
▁Ultra	-11236
▁Vinci	-11237
▁Krakow	-11238
▁Summer	-11239
▁Wright	-11240
▁Algérie	-11241
▁Augustus	-11242
▁Martinez	-11243
▁Dilettant	-11244
DE	-11245
On	-11246
..,	-11247
Tập	-11248
dad	-11249
eid	-11250
tec	-11251
▁89	-11252
▁bẽ	-11253
quil	-11254
word	-11255
▁Aus	-11256
▁ghề	-11257
▁giở	-11258
▁nạo	-11259
andin	-11260
etown	-11261
ookie	-11262
▁Amar	-11263
▁Kara	-11264
▁Rita	-11265
▁Vĩnh	-11266
▁Yoga	-11267
▁Cecil	-11268
▁Damon	-11269
enhagen	-11270
osporin	-11271
▁Societ	-11272
▁sulfon	-11273
floxacin	-11274
▁Ethernet	-11275
].	-11276
eka	-11277
etz	-11278
pol	-11279
▁Aj	-11280
▁Dị	-11281
▁Xà	-11282
ante	-11283
iken	-11284
midt	-11285
rect	-11286
▁Gaz	-11287
▁Tẩy	-11288
▁Vứt	-11289
▁hàu	-11290
▁nĩa	-11291
▁val	-11292
illus	-11293
nhiều	-11294
water	-11295
▁Benz	-11296
▁Bird	-11297
▁Chel	-11298
▁Disc	-11299
▁Răng	-11300
▁1961,	-11301
▁Belle	-11302
▁Khung	-11303
▁Natri	-11304
▁Piotr	-11305
▁Selma	-11306
▁Swift	-11307
▁Brunei	-11308
▁Nikolai	-11309
▁Halloween	-11310
fi	-11311
đa	-11312
ęb	-11313
mie	-11314
qay	-11315
uld	-11316
zów	-11317
▁DA	-11318
0000	-11319
kowo	-11320
pool	-11321
wice	-11322
zyme	-11323
▁50.	-11324
▁80,	-11325
▁Cốc	-11326
▁GMM	-11327
▁col	-11328
▁vẹo	-11329
bohyd	-11330
round	-11331
▁Acet	-11332
▁Cran	-11333
▁Duke	-11334
▁Kind	-11335
▁Trev	-11336
▁Yong	-11337
▁1976.	-11338
▁4.000	-11339
ivision	-11340
▁Grande	-11341
▁Helena	-11342
▁Porter	-11343
▁Toyota	-11344
▁phượng	-11345
PI	-11346
ím	-11347
ün	-11348
▁ù	-11349
Man	-11350
wig	-11351
éné	-11352
▁Nk	-11353
▁ag	-11354
ylan	-11355
▁Dod	-11356
▁Mug	-11357
▁art	-11358
▁bục	-11359
▁nhử	-11360
▁nấc	-11361
▁Aber	-11362
▁Hero	-11363
▁Lion	-11364
▁Mega	-11365
▁Quin	-11366
▁Type	-11367
iation	-11368
owling	-11369
▁Ralph	-11370
▁Server	-11371
▁Alabama	-11372
▁Solomon	-11373
androlone	-11374
▁Barbados	-11375
ẽm	-11376
bal	-11377
log	-11378
nói	-11379
oso	-11380
▁ME	-11381
▁MI	-11382
idas	-11383
phan	-11384
▁(13	-11385
▁Hok	-11386
▁Saw	-11387
▁dầm	-11388
▁gar	-11389
▁hex	-11390
▁ôxy	-11391
ility	-11392
ovsky	-11393
▁Bord	-11394
▁Cost	-11395
▁Last	-11396
▁Vick	-11397
▁trát	-11398
▁1979.	-11399
▁Akkad	-11400
▁Cathy	-11401
▁Cương	-11402
▁Lucia	-11403
▁quẳng	-11404
ization	-11405
mingham	-11406
ockholm	-11407
▁Stuart	-11408
▁cephal	-11409
▁Chester	-11410
▁Hillary	-11411
▁Lombard	-11412
▁nicotine	-11413
▁Baltimore	-11414
▁Dreamcast	-11415
▁Sebastian	-11416
▁Bartoszyce	-11417
ić	-11418
Car	-11419
cle	-11420
mus	-11421
▁Nô	-11422
amid	-11423
erie	-11424
urin	-11425
▁60,	-11426
▁Mek	-11427
▁Sac	-11428
▁giũ	-11429
▁kíp	-11430
arbor	-11431
iland	-11432
▁(193	-11433
▁1922	-11434
▁Diêm	-11435
▁Main	-11436
▁liềm	-11437
▁nhúc	-11438
▁1947,	-11439
▁Hindi	-11440
▁Luxem	-11441
▁Nướng	-11442
▁Pepsi	-11443
▁Pharm	-11444
▁Villa	-11445
▁chệch	-11446
agascar	-11447
stanbul	-11448
▁Carson	-11449
▁Alberto	-11450
▁Edinburgh	-11451
79	-11452
84	-11453
EO	-11454
ih	-11455
nó	-11456
▁Ớ	-11457
RNA	-11458
▁FS	-11459
▁WW	-11460
nhạc	-11461
obia	-11462
▁205	-11463
▁Rời	-11464
▁Sag	-11465
▁Sym	-11466
▁Vil	-11467
▁Zar	-11468
▁biê	-11469
▁cút	-11470
eople	-11471
▁chập	-11472
▁scan	-11473
▁tuộc	-11474
▁đành	-11475
ithium	-11476
▁Bravo	-11477
▁Movie	-11478
▁Sally	-11479
▁synth	-11480
▁Dominica	-11481
▁Greenland	-11482
82	-11483
ür	-11484
ło	-11485
aur	-11486
bus	-11487
▁07	-11488
▁NK	-11489
▁Nụ	-11490
▁XL	-11491
▁oz	-11492
▁us	-11493
arty	-11494
tình	-11495
▁Bax	-11496
▁Muk	-11497
▁acr	-11498
▁app	-11499
▁bái	-11500
▁đút	-11501
ación	-11502
itzer	-11503
raine	-11504
▁Cham	-11505
▁Grim	-11506
▁Hamb	-11507
▁Khoẻ	-11508
▁Mạnh	-11509
▁Trầm	-11510
▁Holoc	-11511
▁Legend	-11512
▁polyme	-11513
▁Bristol	-11514
5).	-11515
ahn	-11516
rzy	-11517
▁69	-11518
▁Sứ	-11519
▁hờ	-11520
▁xở	-11521
esel	-11522
ists	-11523
tide	-11524
▁Gem	-11525
mouth	-11526
▁1933	-11527
▁Góra	-11528
▁bazơ	-11529
▁visa	-11530
ighton	-11531
▁100%.	-11532
▁Adolf	-11533
▁Salamiyah	-11534
▁adrenergic	-11535
!'	-11536
":	-11537
83	-11538
:"	-11539
CG	-11540
RIS	-11541
atr	-11542
eki	-11543
uiz	-11544
Bệnh	-11545
oire	-11546
undi	-11547
zewo	-11548
▁Bou	-11549
▁Ent	-11550
▁Hid	-11551
▁Kut	-11552
▁Yor	-11553
▁sảy	-11554
avier	-11555
quine	-11556
▁Gaul	-11557
▁Iron	-11558
▁Kiev	-11559
▁Prim	-11560
▁Wald	-11561
▁ngụm	-11562
▁quin	-11563
▁xẻng	-11564
▁Groot	-11565
▁anion	-11566
▁mường	-11567
▁Conrad	-11568
▁Gustav	-11569
▁Jackie	-11570
▁States	-11571
▁Science	-11572
▁Cristina	-11573
▁McDonald	-11574
▁Pittsburgh	-11575
▁Dilettantistica	-11576
RT	-11577
uń	-11578
▁ˈ	-11579
Com	-11580
Tên	-11581
bên	-11582
izz	-11583
mir	-11584
zki	-11585
▁oc	-11586
▁Ơn	-11587
acht	-11588
acle	-11589
azar	-11590
tiền	-11591
đánh	-11592
▁2.5	-11593
▁Bấm	-11594
▁Khỉ	-11595
▁Lỗi	-11596
▁Rot	-11597
▁sầu	-11598
esław	-11599
lands	-11600
▁1937	-11601
▁Judy	-11602
▁Lĩnh	-11603
▁Mond	-11604
▁Prad	-11605
▁Tiệp	-11606
▁Treo	-11607
▁gall	-11608
▁mono	-11609
▁pron	-11610
▁spin	-11611
▁Casey	-11612
▁Chart	-11613
▁Cloud	-11614
▁Donna	-11615
▁bướng	-11616
▁Metrop	-11617
▁Broadway	-11618
▁Robertson	-11619
▁Stockholm	-11620
mô	-11621
ès	-11622
đó	-11623
OME	-11624
nge	-11625
▁Dí	-11626
▁Xê	-11627
acks	-11628
olia	-11629
osin	-11630
▁Bak	-11631
▁Dạo	-11632
▁Gau	-11633
▁Kob	-11634
▁arc	-11635
▁dùi	-11636
▁iốt	-11637
▁mậu	-11638
▁oan	-11639
▁yết	-11640
▁đểu	-11641
ocket	-11642
ulose	-11643
▁Craw	-11644
▁Orig	-11645
▁Vald	-11646
▁Yuri	-11647
▁chũm	-11648
▁huýt	-11649
apolis	-11650
▁Court	-11651
▁Rosen	-11652
▁nghẹn	-11653
▁rương	-11654
▁Health	-11655
▁single	-11656
▁Maurice	-11657
▁Turkmen	-11658
▁Vatican	-11659
▁Madagascar	-11660
▁Stanislaus	-11661
Ne	-11662
ml	-11663
TSD	-11664
itr	-11665
vey	-11666
▁97	-11667
▁Gn	-11668
-199	-11669
arro	-11670
arte	-11671
phía	-11672
ways	-11673
▁(14	-11674
▁22,	-11675
▁Cau	-11676
▁Fro	-11677
▁Kag	-11678
▁Rip	-11679
▁nần	-11680
▁rợn	-11681
ories	-11682
▁100,	-11683
▁Chai	-11684
▁Edge	-11685
▁Iris	-11686
▁Prop	-11687
▁Ptol	-11688
▁hòng	-11689
▁mark	-11690
▁1955,	-11691
▁Ailen	-11692
▁tricl	-11693
▁Battle	-11694
▁Family	-11695
▁Goleni	-11696
▁Myślib	-11697
▁Orange	-11698
▁Safari	-11699
▁Mandela	-11700
▁Pyrzyce	-11701
▁Computer	-11702
▁phosphate	-11703
Tìm	-11704
dit	-11705
say	-11706
▁FM	-11707
aven	-11708
cone	-11709
fell	-11710
tual	-11711
ucle	-11712
▁ANC	-11713
▁ATM	-11714
▁Get	-11715
▁Kin	-11716
▁Lái	-11717
▁Sou	-11718
▁Sợi	-11719
▁TVN	-11720
▁bần	-11721
▁chè	-11722
▁gọt	-11723
▁sel	-11724
Zdrój	-11725
▁Bish	-11726
▁Prix	-11727
▁Skye	-11728
▁Vành	-11729
▁With	-11730
▁thóc	-11731
lactam	-11732
▁Chuỗi	-11733
▁Daisy	-11734
▁Diane	-11735
▁Lloyd	-11736
▁Magic	-11737
▁hyper	-11738
▁toner	-11739
choline	-11740
▁Hercul	-11741
▁Secret	-11742
arborough	-11743
-60	-11744
Pro	-11745
cou	-11746
tập	-11747
vez	-11748
▁Ik	-11749
▁Of	-11750
▁Pł	-11751
▁ối	-11752
quận	-11753
rell	-11754
reus	-11755
▁Loc	-11756
▁Yoo	-11757
▁gắp	-11758
▁hey	-11759
▁túm	-11760
stein	-11761
▁Hạnh	-11762
▁Kiss	-11763
▁Line	-11764
▁chẵn	-11765
▁ráng	-11766
▁1937,	-11767
▁Bailey	-11768
▁Butler	-11769
▁Europa	-11770
▁Merlin	-11771
▁Sophia	-11772
ocortico	-11773
▁Indiana	-11774
▁Mercury	-11775
▁Simmons	-11776
▁Birmingham	-11777
▁Connecticut	-11778
Bản	-11779
ieg	-11780
ilo	-11781
owy	-11782
rik	-11783
ulo	-11784
▁92	-11785
▁JP	-11786
▁Vé	-11787
▁gờ	-11788
Chúa	-11789
appy	-11790
olol	-11791
onad	-11792
rone	-11793
usse	-11794
▁Pom	-11795
▁tor	-11796
▁vằn	-11797
adine	-11798
giống	-11799
odone	-11800
overy	-11801
ylase	-11802
▁Besk	-11803
▁Cali	-11804
▁Mant	-11805
▁Quấn	-11806
▁húng	-11807
German	-11808
▁Liban	-11809
▁Yemen	-11810
▁dượng	-11811
estogen	-11812
▁Connor	-11813
▁Dimashq	-11814
oł	-11815
ön	-11816
Net	-11817
erd	-11818
▁02	-11819
▁EE	-11820
▁je	-11821
▁lư	-11822
arit	-11823
arta	-11824
benz	-11825
book	-11826
furt	-11827
osit	-11828
quan	-11829
rose	-11830
side	-11831
ówka	-11832
▁40.	-11833
▁Eve	-11834
▁Gấu	-11835
▁Ich	-11836
▁Lạc	-11837
▁McL	-11838
▁Six	-11839
▁nài	-11840
Thiết	-11841
ction	-11842
yeong	-11843
▁1929	-11844
▁Afro	-11845
▁Head	-11846
▁kỉnh	-11847
aluron	-11848
edonia	-11849
▁Arrow	-11850
▁Cliff	-11851
▁Dubai	-11852
▁Metro	-11853
▁ngẩng	-11854
▁Bitcoin	-11855
▁Chapman	-11856
▁Televis	-11857
▁Friedrich	-11858
▁Luxembourg	-11859
/5	-11860
NO	-11861
sử	-11862
phi	-11863
uff	-11864
▁SH	-11865
Thêm	-11866
asso	-11867
frey	-11868
tham	-11869
▁Are	-11870
▁Int	-11871
▁Kuw	-11872
▁rận	-11873
▁100.	-11874
▁Buộc	-11875
▁Elis	-11876
▁jean	-11877
ynthia	-11878
énégal	-11879
▁1957,	-11880
▁1981.	-11881
▁Biała	-11882
▁Takah	-11883
▁amino	-11884
▁Łobez	-11885
▁diesel	-11886
▁Cynthia	-11887
▁Myślibórz	-11888
▁Copenhagen	-11889
▁benzodiazepin	-11890
87	-11891
vô	-11892
ste	-11893
▁83	-11894
▁ND	-11895
▁RS	-11896
▁mó	-11897
star	-11898
uten	-11899
điểm	-11900
▁220	-11901
▁Cạo	-11902
▁Kel	-11903
▁Nol	-11904
▁Rel	-11905
▁TNF	-11906
▁sir	-11907
▁suc	-11908
abine	-11909
omide	-11910
▁Moun	-11911
▁Tuấn	-11912
▁barb	-11913
▁thớt	-11914
Script	-11915
▁1930.	-11916
oxetine	-11917
▁Judith	-11918
▁Quentin	-11919
▁Valencia	-11920
▁Cleveland	-11921
▁Enterprises	-11922
śl	-11923
6).	-11924
For	-11925
bởi	-11926
cam	-11927
ogn	-11928
raf	-11929
str	-11930
thứ	-11931
▁MO	-11932
▁Vĩ	-11933
eler	-11934
gram	-11935
loro	-11936
▁Kia	-11937
▁Lak	-11938
▁sặc	-11939
icles	-11940
varez	-11941
▁1928	-11942
▁Cord	-11943
▁Dụng	-11944
▁Eucl	-11945
▁Hess	-11946
▁Lake	-11947
▁Libr	-11948
▁Mode	-11949
▁Moss	-11950
▁Mumb	-11951
▁liti	-11952
▁nhẹn	-11953
amycin	-11954
▁1966,	-11955
▁Cohen	-11956
▁Miles	-11957
▁Qatar	-11958
▁prote	-11959
opropyl	-11960
▁Baxter	-11961
▁Monroe	-11962
▁vector	-11963
▁Galicia	-11964
▁Industr	-11965
▁Silicon	-11966
▁Sénégal	-11967
▁Leonardo	-11968
▁oxytocin	-11969
▁Churchill	-11970
▁Pomerania	-11971
Gu	-11972
Hội	-11973
ben	-11974
mặt	-11975
̀ng	-11976
▁9:	-11977
▁CF	-11978
▁Kę	-11979
▁sộ	-11980
▁Ál	-11981
▁ảm	-11982
amar	-11983
icks	-11984
izon	-11985
nell	-11986
▁2-1	-11987
▁Att	-11988
▁Dex	-11989
▁Dum	-11990
▁Eli	-11991
▁NHS	-11992
▁Tộc	-11993
▁Zoe	-11994
▁gợn	-11995
▁nhả	-11996
▁nhỡ	-11997
uters	-11998
▁Erit	-11999
▁View	-12000
▁bung	-12001
▁1918,	-12002
▁Hiros	-12003
▁Paula	-12004
▁Serge	-12005
▁Naples	-12006
▁Goleniów	-12007
Me	-12008
íu	-12009
ال	-12010
apo	-12011
bài	-12012
ces	-12013
hua	-12014
sud	-12015
éon	-12016
▁-1	-12017
▁mĩ	-12018
/199	-12019
otta	-12020
đang	-12021
▁Bis	-12022
▁Ign	-12023
▁Szy	-12024
▁UTC	-12025
▁Vor	-12026
▁Waw	-12027
▁flo	-12028
▁hun	-12029
▁hòm	-12030
▁Đẹp	-12031
emann	-12032
ystok	-12033
▁Food	-12034
▁Ngón	-12035
▁Pret	-12036
▁Tĩnh	-12037
▁Whoa	-12038
▁hong	-12039
▁hooc	-12040
▁1972.	-12041
▁André	-12042
▁Coupe	-12043
▁Miếng	-12044
▁metal	-12045
▁Pascal	-12046
▁Sandra	-12047
▁glycos	-12048
▁aerobic	-12049
▁podcast	-12050
▁Software	-12051
"!	-12052
89	-12053
Gh	-12054
apa	-12055
sai	-12056
uir	-12057
▁05	-12058
▁4%	-12059
▁QU	-12060
▁lì	-12061
▁sn	-12062
hàng	-12063
osta	-12064
ulus	-12065
uric	-12066
▁166	-12067
▁Boe	-12068
▁Cut	-12069
▁Lum	-12070
▁Luz	-12071
▁Ple	-12072
▁Tad	-12073
▁Von	-12074
▁amp	-12075
▁khè	-12076
▁kén	-12077
▁por	-12078
▁sul	-12079
5,000	-12080
▁1913	-12081
▁1914	-12082
▁Bisk	-12083
▁Chấm	-12084
▁Giấm	-12085
▁Ishi	-12086
▁Kurd	-12087
▁Nana	-12088
▁SARS	-12089
▁coli	-12090
▁liếc	-12091
▁nấng	-12092
......	-12093
▁1940.	-12094
▁Coast	-12095
▁Field	-12096
▁Saxon	-12097
▁Yanke	-12098
olution	-12099
▁Durban	-12100
▁Murphy	-12101
▁Olivia	-12102
▁Manager	-12103
▁Benedict	-12104
▁Business	-12105
▁Kentucky	-12106
▁Portland	-12107
CoV	-12108
bat	-12109
zie	-12110
̣ng	-12111
▁Vy	-12112
▁az	-12113
date	-12114
deen	-12115
erom	-12116
iser	-12117
toch	-12118
xuất	-12119
▁1⁄4	-12120
▁BAN	-12121
▁Giơ	-12122
▁Lus	-12123
▁Paz	-12124
▁Rox	-12125
▁Sán	-12126
▁kền	-12127
▁rụt	-12128
illon	-12129
iskey	-12130
▁1932	-12131
▁Koch	-12132
▁Midd	-12133
▁Petr	-12134
▁Ranh	-12135
▁Spot	-12136
▁Tade	-12137
▁nheo	-12138
▁vung	-12139
acetam	-12140
methyl	-12141
▁Blood	-12142
▁Lazio	-12143
▁Malay	-12144
▁Tajik	-12145
▁pseud	-12146
▁Biskup	-12147
▁Duncan	-12148
▁Player	-12149
▁histamin	-12150
▁Scarborough	-12151
ĩu	-12152
hợp	-12153
ify	-12154
loe	-12155
▁"-	-12156
▁Lỡ	-12157
▁nể	-12158
Theo	-12159
anne	-12160
rano	-12161
uria	-12162
▁90,	-12163
▁Bod	-12164
▁Ces	-12165
▁Lac	-12166
▁dex	-12167
▁mía	-12168
agawa	-12169
ensin	-12170
gomer	-12171
quyền	-12172
▁1912	-12173
▁Phán	-12174
▁Vern	-12175
▁chat	-12176
▁nhún	-12177
▁truỵ	-12178
rosine	-12179
▁1952,	-12180
▁2015)	-12181
▁modem	-12182
obacter	-12183
▁Advent	-12184
▁Hector	-12185
▁Eritrea	-12186
▁Montana	-12187
▁Systems	-12188
▁Makerere	-12189
▁Fernández	-12190
RH	-12191
ỉm	-12192
ayo	-12193
bol	-12194
eza	-12195
▁Ax	-12196
▁DR	-12197
▁Vẻ	-12198
▁Ớt	-12199
alis	-12200
ants	-12201
atra	-12202
lynn	-12203
rows	-12204
▁CNN	-12205
▁Cef	-12206
▁Dậy	-12207
▁Rat	-12208
▁Síp	-12209
▁khò	-12210
▁kẻo	-12211
▁lim	-12212
▁xén	-12213
acbon	-12214
inese	-12215
▁4000	-12216
▁Gene	-12217
▁Kant	-12218
▁Lanc	-12219
▁Piet	-12220
▁Thận	-12221
▁foot	-12222
▁ghẹo	-12223
▁luẩn	-12224
▁lóng	-12225
▁Drake	-12226
▁Irene	-12227
▁Khoai	-12228
▁Sylar	-12229
▁Trách	-12230
▁folic	-12231
▁quyện	-12232
▁(2016)	-12233
▁cation	-12234
▁những	-12235
▁Braniew	-12236
▁Fischer	-12237
▁Lorenzo	-12238
▁Pharaoh	-12239
▁Stevens	-12240
▁Lorraine	-12241
▁Holocaust	-12242
▁cholinergic	-12243
52	-12244
WS	-12245
Pod	-12246
epp	-12247
igs	-12248
▁Mũ	-12249
alon	-12250
hiro	-12251
iden	-12252
nông	-12253
rina	-12254
định	-12255
▁85%	-12256
▁Bie	-12257
▁Côn	-12258
▁Hed	-12259
▁Sik	-12260
▁Lăng	-12261
▁Mama	-12262
▁Over	-12263
▁Pand	-12264
▁Sans	-12265
▁Thói	-12266
▁Utah	-12267
▁Vuốt	-12268
▁1.500	-12269
▁Banks	-12270
▁Bavar	-12271
▁Julio	-12272
▁Lower	-12273
▁Micro	-12274
Russian	-12275
aldehyd	-12276
onazole	-12277
▁Famicom	-12278
▁Greater	-12279
▁Hiroshi	-12280
▁Brothers	-12281
▁Istanbul	-12282
▁cytokine	-12283
▁Montgomer	-12284
▁amphetamine	-12285
63	-12286
Bố	-12287
▁:	-12288
Ann	-12289
Chủ	-12290
udd	-12291
Book	-12292
aine	-12293
asia	-12294
onom	-12295
riet	-12296
▁22.	-12297
▁Cly	-12298
▁Nur	-12299
▁Tas	-12300
▁gàu	-12301
▁rít	-12302
▁tủa	-12303
▁đùn	-12304
ences	-12305
inone	-12306
▁1924	-12307
▁Abby	-12308
▁Curt	-12309
▁Diệp	-12310
▁Iowa	-12311
▁Ultr	-12312
▁tráo	-12313
▁với	-12314
biotic	-12315
▁1951,	-12316
▁Cyrus	-12317
▁Elias	-12318
▁Floyd	-12319
▁Strat	-12320
▁Trạng	-12321
▁Voice	-12322
▁truất	-12323
▁vinyl	-12324
▁Robbie	-12325
▁Trevor	-12326
▁Georges	-12327
▁Heather	-12328
▁Tadeusz	-12329
▁vaccine	-12330
▁Football	-12331
▁Białystok	-12332
▁Montgomery	-12333
TR	-12334
XX	-12335
?".	-12336
Hôm	-12337
lip	-12338
▁"1	-12339
▁Bê	-12340
▁EA	-12341
▁Iw	-12342
▁Pé	-12343
▁br	-12344
▁há	-12345
▁ẩu	-12346
ards	-12347
ebec	-12348
giảm	-12349
hian	-12350
ners	-12351
roph	-12352
stad	-12353
▁2/3	-12354
▁Sok	-12355
▁giã	-12356
▁vit	-12357
▁ửng	-12358
ifene	-12359
ngoại	-12360
▁That	-12361
▁Vega	-12362
▁chắt	-12363
▁Đinh	-12364
▁Sonic	-12365
▁Thoát	-12366
▁ether	-12367
▁Nicole	-12368
▁Carlyle	-12369
▁Reynold	-12370
▁lithium	-12371
▁Phillips	-12372
▁hydrochloride	-12373
81	-12374
BP	-12375
Off	-12376
ief	-12377
iod	-12378
zel	-12379
▁ắc	-12380
Down	-12381
abel	-12382
arov	-12383
enta	-12384
idon	-12385
obar	-12386
opyr	-12387
▁164	-12388
▁24.	-12389
▁Byr	-12390
▁Lùi	-12391
▁Nấu	-12392
▁thò	-12393
esser	-12394
uncia	-12395
▁1925	-12396
▁Chin	-12397
▁Krem	-12398
▁Note	-12399
ection	-12400
▁KHÔNG	-12401
▁Tesla	-12402
▁Uzbek	-12403
▁Arnold	-12404
▁Gliese	-12405
▁PayPal	-12406
▁Torres	-12407
tex	-12408
trở	-12409
đơn	-12410
▁7:	-12411
aney	-12412
eros	-12413
wart	-12414
▁10:	-12415
▁Hân	-12416
▁Kad	-12417
▁lọn	-12418
▁tiê	-12419
asone	-12420
osome	-12421
thuộc	-12422
▁1927	-12423
▁Dmit	-12424
▁Khăn	-12425
▁Mini	-12426
▁Page	-12427
▁Shah	-12428
▁Shir	-12429
▁chộp	-12430
▁hydr	-12431
▁thâu	-12432
▁Nicol	-12433
▁Osaka	-12434
▁click	-12435
▁khước	-12436
▁Alicia	-12437
▁Latvia	-12438
▁Weekly	-12439
▁300.000	-12440
▁Bradley	-12441
▁Simpson	-12442
51	-12443
Ah	-12444
Hu	-12445
Hai	-12446
alc	-12447
erm	-12448
lus	-12449
yla	-12450
▁IT	-12451
▁ói	-12452
brid	-12453
imab	-12454
ston	-12455
▁Gói	-12456
▁Rah	-12457
▁Tig	-12458
▁Two	-12459
▁Uhm	-12460
▁hùm	-12461
▁not	-12462
▁nôi	-12463
▁rây	-12464
Point	-12465
agger	-12466
▁1935	-12467
▁Flet	-12468
▁Gate	-12469
▁Leop	-12470
▁Tròn	-12471
▁estr	-12472
▁đếch	-12473
▁Block	-12474
▁Niger	-12475
▁Truman	-12476
▁Casimir	-12477
▁Heinrich	-12478
900	-12479
Mặc	-12480
eds	-12481
yêu	-12482
▁03	-12483
▁Cỏ	-12484
▁Dy	-12485
▁VÀ	-12486
▁Ảo	-12487
elop	-12488
erta	-12489
hoàn	-12490
ries	-12491
Đăng	-12492
▁Heb	-12493
▁Ish	-12494
▁Rak	-12495
▁Woo	-12496
▁búi	-12497
▁lìa	-12498
▁nhơ	-12499
▁sủi	-12500
angul	-12501
▁Adel	-12502
▁Guer	-12503
▁Lenn	-12504
▁Liga	-12505
▁Prot	-12506
▁nhan	-12507
▁oxal	-12508
▁rượt	-12509
zyński	-12510
▁Atari	-12511
▁Reich	-12512
▁Tracy	-12513
▁Gandhi	-12514
▁Nikita	-12515
▁Prompt	-12516
▁nhoáng	-12517
▁Whitney	-12518
▁heparin	-12519
57	-12520
DB	-12521
VI	-12522
Bài	-12523
Xem	-12524
ofi	-12525
gers	-12526
hall	-12527
hiệu	-12528
▁7,5	-12529
▁Gog	-12530
▁Wał	-12531
▁bét	-12532
▁fil	-12533
▁hói	-12534
▁nấy	-12535
▁sub	-12536
phiên	-12537
▁Phái	-12538
▁Sept	-12539
▁Suýt	-12540
▁kiều	-12541
▁mồng	-12542
▁nhái	-12543
▁thỏi	-12544
▁1938,	-12545
▁Lenin	-12546
▁Singh	-12547
▁ngỗng	-12548
▁thiếc	-12549
▁Direct	-12550
▁Powell	-12551
▁nitrit	-12552
▁Beckett	-12553
▁Pradesh	-12554
▁playoff	-12555
▁Gabriela	-12556
ỉa	-12557
non	-12558
ruz	-12559
văn	-12560
▁()	-12561
▁Sô	-12562
abol	-12563
ilda	-12564
▁Bưu	-12565
▁Eva	-12566
▁Gay	-12567
▁Gel	-12568
▁Gội	-12569
▁Hut	-12570
▁Low	-12571
▁Myc	-12572
▁Sis	-12573
▁Táo	-12574
▁Wak	-12575
▁Who	-12576
▁bói	-12577
▁cốp	-12578
▁net	-12579
▁rum	-12580
▁rọi	-12581
▁toi	-12582
roxen	-12583
▁Gest	-12584
▁gran	-12585
▁thằn	-12586
▁1919,	-12587
▁1936,	-12588
▁Becca	-12589
▁Death	-12590
▁Flynn	-12591
▁Luisa	-12592
▁serum	-12593
▁Commun	-12594
▁Moreno	-12595
▁herpes	-12596
▁500.000	-12597
▁Mitchell	-12598
▁Peterson	-12599
Mở	-12600
SE	-12601
mg	-12602
add	-12603
sei	-12604
▁Wr	-12605
▁er	-12606
▁hê	-12607
Thời	-12608
shaw	-12609
shev	-12610
việc	-12611
▁(3,	-12612
▁Got	-12613
▁lùa	-12614
▁xới	-12615
erial	-12616
rahim	-12617
▁Batt	-12618
▁Hưng	-12619
▁Trân	-12620
▁bina	-12621
▁nanh	-12622
▁trám	-12623
manuel	-12624
▁1978.	-12625
▁Accra	-12626
▁Ernst	-12627
▁Franz	-12628
▁Fried	-12629
▁Sandy	-12630
▁Satan	-12631
▁Slade	-12632
▁Soyuz	-12633
▁Valle	-12634
azepine	-12635
▁Instit	-12636
▁Orland	-12637
▁Edition	-12638
▁Ptolemy	-12639
▁Rodrigu	-12640
unciation	-12641
▁Bolesław	-12642
▁Veronica	-12643
54	-12644
Tây	-12645
Tải	-12646
Với	-12647
cli	-12648
gọi	-12649
ibo	-12650
qua	-12651
qui	-12652
uku	-12653
▁/,	-12654
▁BP	-12655
▁Dh	-12656
▁IX	-12657
▁Tỏ	-12658
Hung	-12659
aban	-12660
▁Ald	-12661
▁Bio	-12662
▁Câm	-12663
▁Eun	-12664
▁Fas	-12665
▁Lap	-12666
▁Mụn	-12667
▁Wis	-12668
▁Zan	-12669
▁hot	-12670
▁khẽ	-12671
▁lứt	-12672
▁1200	-12673
▁Ngựa	-12674
▁Tina	-12675
▁muội	-12676
▁ngóc	-12677
▁ôliu	-12678
atonin	-12679
couver	-12680
lywood	-12681
▁1968.	-12682
▁1974.	-12683
▁Celia	-12684
▁Trust	-12685
▁(2011)	-12686
▁Eugene	-12687
▁Gothic	-12688
▁Strept	-12689
▁Violet	-12690
bohydrat	-12691
iotensin	-12692
▁Capital	-12693
▁Morales	-12694
▁Reuters	-12695
▁Scandin	-12696
▁Vancouver	-12697
69	-12698
Can	-12699
abo	-12700
lợi	-12701
nom	-12702
obo	-12703
▁ER	-12704
▁Rz	-12705
▁mị	-12706
aeda	-12707
agin	-12708
ffer	-12709
oven	-12710
phản	-12711
sons	-12712
ylen	-12713
▁Amb	-12714
▁Gấp	-12715
▁Nho	-12716
▁Peg	-12717
▁SPF	-12718
▁Tán	-12719
▁nap	-12720
arius	-12721
▁(194	-12722
▁Earl	-12723
▁Joel	-12724
▁Rang	-12725
▁Sach	-12726
▁Sign	-12727
▁gang	-12728
▁phật	-12729
iazide	-12730
nguyên	-12731
▁1971.	-12732
▁1973.	-12733
▁GABAA	-12734
▁Order	-12735
▁Storm	-12736
▁Methyl	-12737
▁glycol	-12738
▁Senegal	-12739
▁million	-12740
onadotrop	-12741
▁hyaluron	-12742
▁Frankfurt	-12743
▁Championship	-12744
fo	-12745
IDE	-12746
You	-12747
acl	-12748
afe	-12749
fil	-12750
gây	-12751
leg	-12752
môn	-12753
ues	-12754
yon	-12755
▁04	-12756
▁DM	-12757
▁NZ	-12758
▁ak	-12759
▁đự	-12760
egie	-12761
endi	-12762
giữa	-12763
iman	-12764
orld	-12765
▁BMI	-12766
▁Buz	-12767
▁Gav	-12768
▁Ket	-12769
▁Ngu	-12770
▁Ngữ	-12771
▁PET	-12772
▁Pir	-12773
▁rẫy	-12774
▁sil	-12775
artan	-12776
▁Chảy	-12777
▁Glen	-12778
▁Kình	-12779
▁Mort	-12780
▁Rust	-12781
▁Shim	-12782
▁nhậu	-12783
▁prol	-12784
▁trọc	-12785
▁Franç	-12786
▁Panel	-12787
▁cabin	-12788
▁cover	-12789
▁ngoãn	-12790
▁Gerald	-12791
▁Juliet	-12792
▁Skyler	-12793
▁TikTok	-12794
▁Wesley	-12795
▁aureus	-12796
▁Bavaria	-12797
▁Winterfell	-12798
59	-12799
Ac	-12800
De	-12801
Oh	-12802
eok	-12803
iya	-12804
osz	-12805
ryn	-12806
away	-12807
illi	-12808
tăng	-12809
unda	-12810
▁Fai	-12811
▁Hur	-12812
▁MBC	-12813
▁NBC	-12814
▁Ori	-12815
▁Raz	-12816
▁Wel	-12817
▁bot	-12818
▁han	-12819
▁mâm	-12820
▁tar	-12821
▁đao	-12822
▁Abel	-12823
▁Chịu	-12824
▁Díaz	-12825
▁Holy	-12826
▁Nowy	-12827
▁Pyth	-12828
▁Unix	-12829
▁Esper	-12830
▁Orion	-12831
▁Pérez	-12832
▁(2015)	-12833
▁Claude	-12834
▁Dreyer	-12835
▁Quebec	-12836
▁trượng	-12837
▁Burundi	-12838
▁Eduardo	-12839
▁Orlando	-12840
phosphate	-12841
▁Giovanni	-12842
ocorticoid	-12843
▁Elisabeth	-12844
▁Tajikistan	-12845
▁Productions	-12846
▁pronunciation	-12847
01	-12848
Hy	-12849
No	-12850
ío	-12851
AAF	-12852
Câu	-12853
ogi	-12854
pad	-12855
uil	-12856
▁+.	-12857
▁lự	-12858
▁ớn	-12859
ossa	-12860
đóng	-12861
▁(2.	-12862
▁167	-12863
▁25.	-12864
▁Miz	-12865
▁Nhi	-12866
▁Rib	-12867
▁Tae	-12868
▁Tổn	-12869
▁fax	-12870
▁ker	-12871
▁sum	-12872
arthy	-12873
night	-12874
riter	-12875
▁Brom	-12876
▁Horn	-12877
▁Oder	-12878
▁Pomp	-12879
▁Roth	-12880
▁Trục	-12881
chwitz	-12882
▁Chamb	-12883
▁Klein	-12884
▁khoắn	-12885
▁Kuwait	-12886
ferences	-12887
▁Kampala	-12888
▁Taliban	-12889
▁Takahashi	-12890
Lo	-12891
Col	-12892
Mal	-12893
amy	-12894
kar	-12895
▁(+	-12896
▁(-	-12897
▁MD	-12898
▁Ow	-12899
▁Vả	-12900
chol	-12901
pent	-12902
▁Sea	-12903
▁dột	-12904
Thông	-12905
▁(1):	-12906
▁Acid	-12907
▁Cain	-12908
▁Evil	-12909
▁Odys	-12910
▁Slam	-12911
▁nhúm	-12912
ograph	-12913
▁1977.	-12914
▁Lilly	-12915
▁Lizzy	-12916
▁Spock	-12917
▁Thang	-12918
ayaquil	-12919
▁Alexis	-12920
▁Brooks	-12921
▁Mickey	-12922
▁Viktor	-12923
▁Aspirin	-12924
▁Falcone	-12925
▁Roberts	-12926
▁Fletcher	-12927
▁Valentine	-12928
Af	-12929
FI	-12930
HT	-12931
It	-12932
ół	-12933
kow	-12934
sản	-12935
ved	-12936
▁lẹ	-12937
▁rộ	-12938
Hiệp	-12939
ahan	-12940
bánh	-12941
char	-12942
cock	-12943
emis	-12944
unch	-12945
▁0,1	-12946
▁CON	-12947
▁Enc	-12948
▁Mom	-12949
▁Nay	-12950
▁SBS	-12951
▁Suc	-12952
▁Sut	-12953
▁Vid	-12954
▁què	-12955
▁squ	-12956
▁xúi	-12957
estra	-12958
▁1910	-12959
▁Erin	-12960
▁Gunn	-12961
▁Nhấc	-12962
▁PTSD	-12963
▁Tara	-12964
▁giời	-12965
▁mướn	-12966
▁Bauer	-12967
▁Canal	-12968
▁Pearl	-12969
▁Ricky	-12970
▁thiến	-12971
▁thiển	-12972
▁thặng	-12973
▁Chopin	-12974
▁Roland	-12975
▁Delaney	-12976
▁Desktop	-12977
▁Morocco	-12978
▁Atlantic	-12979
▁Pretoria	-12980
▁Terminal	-12981
PT	-12982
cá	-12983
kể	-12984
▁gô	-12985
atic	-12986
ostr	-12987
▁108	-12988
▁159	-12989
▁Ans	-12990
▁Dyn	-12991
▁Lic	-12992
▁Nie	-12993
▁Oil	-12994
▁kếp	-12995
▁xịn	-12996
ivate	-12997
▁Cant	-12998
▁Choi	-12999
▁Citt	-13000
▁Cleo	-13001
▁Edit	-13002
▁June	-13003
▁Kras	-13004
▁Loạt	-13005
▁Prof	-13006
▁Step	-13007
▁Tiện	-13008
▁chầm	-13009
▁háng	-13010
▁nhót	-13011
▁6.000	-13012
▁Polyn	-13013
▁Thuận	-13014
▁bazan	-13015
arbital	-13016
▁Dublin	-13017
▁Mumbai	-13018
▁People	-13019
ipramine	-13020
▁Jeffrey	-13021
▁Mohamed	-13022
▁Magellan	-13023
▁phosphor	-13024
As	-13025
▁ɪ	-13026
CPD	-13027
NSA	-13028
api	-13029
ems	-13030
roy	-13031
▁-2	-13032
▁NE	-13033
alid	-13034
amen	-13035
oval	-13036
▁163	-13037
▁KBS	-13038
▁Lửa	-13039
▁lết	-13040
▁lụi	-13041
lycer	-13042
▁1921	-13043
▁1934	-13044
▁Chil	-13045
▁Choc	-13046
▁Fast	-13047
▁Hyun	-13048
▁Mona	-13049
▁cell	-13050
▁đuốc	-13051
endoza	-13052
intosh	-13053
▁Coppa	-13054
▁Fidel	-13055
▁Malta	-13056
▁Plaza	-13057
▁Stars	-13058
▁proxy	-13059
▁trũng	-13060
▁Hughes	-13061
▁Bohemia	-13062
▁Journal	-13063
▁Mendoza	-13064
▁Wallace	-13065
ól	-13066
Per	-13067
arr	-13068
bán	-13069
eco	-13070
eli	-13071
ful	-13072
▁Dw	-13073
▁IQ	-13074
down	-13075
etin	-13076
than	-13077
tổng	-13078
ucci	-13079
ynia	-13080
▁(25	-13081
▁135	-13082
▁Hag	-13083
▁Hee	-13084
▁lem	-13085
▁trớ	-13086
▁Đậy	-13087
ident	-13088
omero	-13089
▁Arms	-13090
▁Bong	-13091
▁Diệm	-13092
▁Holi	-13093
▁Luna	-13094
▁Phạn	-13095
▁VIII	-13096
phương	-13097
▁Aless	-13098
▁Glenn	-13099
▁Jaime	-13100
▁Lotte	-13101
▁nhộng	-13102
▁Harper	-13103
▁Teatro	-13104
▁ballet	-13105
▁Bennett	-13106
▁McCarthy	-13107
▁Slovenia	-13108
▁Guayaquil	-13109
/8	-13110
OI	-13111
▁⊞	-13112
How	-13113
cao	-13114
mùa	-13115
udo	-13116
▁09	-13117
▁RA	-13118
▁hơ	-13119
▁ốp	-13120
abad	-13121
ivar	-13122
ogne	-13123
otin	-13124
▁157	-13125
▁23.	-13126
▁Cox	-13127
▁Myr	-13128
▁OCD	-13129
▁Row	-13130
▁dìm	-13131
▁dỏm	-13132
▁sứa	-13133
enone	-13134
stall	-13135
trans	-13136
trino	-13137
zycki	-13138
▁Bapt	-13139
▁Brow	-13140
▁Hale	-13141
▁McCl	-13142
▁Nash	-13143
▁Nova	-13144
▁Ostr	-13145
▁SNES	-13146
▁Todd	-13147
▁Vent	-13148
▁Webb	-13149
▁rước	-13150
▁sofa	-13151
▁sửng	-13152
qaylab	-13153
▁1990)	-13154
▁Janet	-13155
▁Prime	-13156
ophilus	-13157
▁15.000	-13158
▁Cayman	-13159
▁Damien	-13160
▁Library	-13161
▁Ricardo	-13162
lications	-13163
▁Carnegie	-13164
qaylabiyah	-13165
/9	-13166
gn	-13167
Xoá	-13168
ibi	-13169
▁PG	-13170
▁PL	-13171
▁xê	-13172
▁Án	-13173
▁Ép	-13174
arol	-13175
ecta	-13176
niew	-13177
olid	-13178
redn	-13179
ômét	-13180
▁(3)	-13181
▁1-3	-13182
▁70,	-13183
▁GNU	-13184
▁INS	-13185
▁Vul	-13186
▁ôtô	-13187
Thành	-13188
ugawa	-13189
undai	-13190
urity	-13191
▁Amin	-13192
▁Arte	-13193
▁Bagh	-13194
▁Boys	-13195
▁Watt	-13196
▁Yoon	-13197
▁thau	-13198
▁wiki	-13199
tainer	-13200
▁1962.	-13201
▁Romeo	-13202
▁(2006)	-13203
▁(2012)	-13204
▁Inanna	-13205
▁Konami	-13206
▁Wonder	-13207
▁poster	-13208
hydrogen	-13209
▁Nakamura	-13210
▁Pakixtan	-13211
▁Standard	-13212
BN	-13213
HS	-13214
ede	-13215
uan	-13216
▁DI	-13217
▁MK	-13218
▁Wu	-13219
▁rè	-13220
avis	-13221
eran	-13222
hoạt	-13223
wall	-13224
▁90.	-13225
▁Cút	-13226
▁Fry	-13227
▁How	-13228
▁Jae	-13229
▁Pit	-13230
▁chừ	-13231
▁ext	-13232
▁loé	-13233
▁riu	-13234
czewo	-13235
icana	-13236
nheim	-13237
ource	-13238
quila	-13239
▁BIOS	-13240
▁Cult	-13241
▁Daph	-13242
▁Grab	-13243
▁Irắc	-13244
▁Lông	-13245
▁Sull	-13246
▁Swaz	-13247
▁Targ	-13248
▁Zoom	-13249
▁cháo	-13250
▁trau	-13251
kowice	-13252
▁Andes	-13253
▁Force	-13254
▁Husky	-13255
▁Karol	-13256
▁Maine	-13257
▁Sonny	-13258
▁crick	-13259
▁gượng	-13260
▁loanh	-13261
▁vitro	-13262
▁Indian	-13263
▁Rivera	-13264
▁chloro	-13265
▁Theodore	-13266
BE	-13267
HG	-13268
MT	-13269
VA	-13270
▁Ủ	-13271
-40	-13272
5%.	-13273
etr	-13274
ryl	-13275
ần	-13276
▁5)	-13277
▁PP	-13278
Play	-13279
ende	-13280
ijah	-13281
ovia	-13282
ppin	-13283
quer	-13284
uran	-13285
▁DOS	-13286
▁Fen	-13287
▁Jis	-13288
▁Ner	-13289
▁bai	-13290
▁chẻ	-13291
▁tui	-13292
▁víu	-13293
▁đóm	-13294
Smith	-13295
ernel	-13296
▁Chao	-13297
▁Coch	-13298
▁Liam	-13299
▁Nile	-13300
▁Phun	-13301
▁phồn	-13302
▁well	-13303
uctase	-13304
ushima	-13305
▁1,000	-13306
▁Bronx	-13307
▁Hypat	-13308
▁Liver	-13309
▁March	-13310
▁Merck	-13311
▁Thund	-13312
▁Vista	-13313
▁giông	-13314
▁phiệt	-13315
acebook	-13316
kiewicz	-13317
▁Abbott	-13318
▁Conway	-13319
▁Travis	-13320
▁sulfat	-13321
▁Enrique	-13322
▁Hopkins	-13323
▁Hyundai	-13324
▁Ibrahim	-13325
▁Mohammed	-13326
▁Biskupiec	-13327
▁cephalosporin	-13328
▁ứ	-13329
-1.	-13330
avy	-13331
lem	-13332
rib	-13333
uze	-13334
đan	-13335
đây	-13336
▁Ôm	-13337
ames	-13338
biểu	-13339
igma	-13340
list	-13341
rett	-13342
ukin	-13343
▁28,	-13344
▁CDC	-13345
▁Fem	-13346
▁Hin	-13347
▁Pai	-13348
▁Rok	-13349
▁Sắc	-13350
▁cau	-13351
▁ent	-13352
▁lỏi	-13353
▁sự	-13354
antes	-13355
▁1923	-13356
▁Kass	-13357
▁Tess	-13358
▁cath	-13359
▁meta	-13360
▁thể	-13361
esliga	-13362
▁Cuban	-13363
▁Human	-13364
▁Hydra	-13365
▁Korea	-13366
▁Maxim	-13367
▁Mount	-13368
▁Shell	-13369
▁Short	-13370
▁Sweet	-13371
▁xuồng	-13372
▁Amelia	-13373
▁Anders	-13374
▁barbit	-13375
▁Diamond	-13376
▁Dorothy	-13377
▁Staphyl	-13378
▁protease	-13379
▁tyrosine	-13380
Suqaylabiyah	-13381
▁Association	-13382
ís	-13383
aum	-13384
fin	-13385
sal	-13386
tôn	-13387
▁TK	-13388
▁ín	-13389
Amer	-13390
arat	-13391
bian	-13392
exin	-13393
ngel	-13394
oter	-13395
ucks	-13396
ómez	-13397
▁99%	-13398
▁Ave	-13399
▁Nối	-13400
▁Paw	-13401
▁Soo	-13402
▁Tra	-13403
▁dãn	-13404
▁sấp	-13405
alymp	-13406
▁1926	-13407
▁Bash	-13408
▁Dumb	-13409
▁Kram	-13410
▁Mell	-13411
▁Wojc	-13412
▁cuốc	-13413
▁doll	-13414
▁vừng	-13415
▁Świę	-13416
Hangul	-13417
▁1900,	-13418
▁1935,	-13419
▁1939.	-13420
▁1965.	-13421
▁2.500	-13422
▁Gómez	-13423
▁Jerzy	-13424
▁Print	-13425
▁Volks	-13426
▁delta	-13427
▁quầng	-13428
lamydia	-13429
▁Boeing	-13430
▁Medell	-13431
▁Miriam	-13432
▁Rogers	-13433
▁fluoro	-13434
▁nitric	-13435
▁English	-13436
▁Jenkins	-13437
▁Krypton	-13438
▁Isabella	-13439
▁hydroxit	-13440
▁Auschwitz	-13441
▁Swaziland	-13442
71	-13443
Ab	-13444
pm	-13445
del	-13446
dia	-13447
sao	-13448
▁Eo	-13449
▁LE	-13450
▁RT	-13451
Tiếp	-13452
athi	-13453
atta	-13454
edom	-13455
inia	-13456
ohan	-13457
ópez	-13458
▁Koz	-13459
▁McM	-13460
▁Mỉm	-13461
▁Sej	-13462
▁níu	-13463
▁spa	-13464
andal	-13465
rague	-13466
ucker	-13467
íppin	-13468
ąbrow	-13469
▁Lens	-13470
▁Like	-13471
▁Swan	-13472
▁bỉnh	-13473
▁thòi	-13474
Trường	-13475
▁Barth	-13476
▁GMMTV	-13477
▁Ghost	-13478
▁Price	-13479
▁Saman	-13480
▁Woman	-13481
▁polyp	-13482
▁quark	-13483
▁Bandai	-13484
▁Curtis	-13485
▁Ronnie	-13486
▁Search	-13487
▁Account	-13488
▁Baroque	-13489
▁Frankie	-13490
▁Kenneth	-13491
▁Paralymp	-13492
▁Bundesliga	-13493
yp	-13494
hot	-13495
oco	-13496
urm	-13497
ysz	-13498
▁06	-13499
▁6)	-13500
▁XP	-13501
▁kè	-13502
▁mè	-13503
▁Ác	-13504
▁àh	-13505
born	-13506
less	-13507
nger	-13508
omyc	-13509
ring	-13510
▁Bơi	-13511
▁Hài	-13512
▁Oce	-13513
▁Sek	-13514
▁VIP	-13515
▁Voy	-13516
▁hyp	-13517
▁xâu	-13518
▁đèo	-13519
ameth	-13520
▁Chay	-13521
▁Code	-13522
▁Elle	-13523
▁Ferg	-13524
▁Jagi	-13525
▁Karp	-13526
▁Morn	-13527
▁Phơi	-13528
▁Pope	-13529
▁Trig	-13530
▁pent	-13531
▁Anita	-13532
▁Bever	-13533
▁Thiệt	-13534
▁Thẳng	-13535
▁Ultim	-13536
▁boric	-13537
▁chuốc	-13538
orphine	-13539
▁Fisher	-13540
▁Kosovo	-13541
▁Pfizer	-13542
▁Rumani	-13543
▁Martini	-13544
▁Hercules	-13545
amphetamine	-13546
▁PowerPoint	-13547
▁angiotensin	-13548
/12	-13549
axo	-13550
giá	-13551
kaz	-13552
riz	-13553
roz	-13554
▁7%	-13555
▁CJ	-13556
▁DO	-13557
▁Ix	-13558
▁Mp	-13559
▁pi	-13560
dịch	-13561
kinh	-13562
▁0,6	-13563
▁1,0	-13564
▁2-4	-13565
▁29,	-13566
▁Gis	-13567
▁LDL	-13568
▁MHz	-13569
▁Mit	-13570
▁cật	-13571
▁gút	-13572
▁núp	-13573
▁off	-13574
▁pan	-13575
annis	-13576
▁Bian	-13577
▁Buch	-13578
▁Flem	-13579
▁Hack	-13580
▁Wire	-13581
▁Wort	-13582
shevik	-13583
▁(2010	-13584
▁Allah	-13585
▁Cindy	-13586
▁Himal	-13587
▁chùng	-13588
▁chửng	-13589
▁short	-13590
▁Forest	-13591
▁Racing	-13592
▁Boulton	-13593
▁Escobar	-13594
▁Everest	-13595
▁Hawking	-13596
▁Virtual	-13597
▁bowling	-13598
▁Columbus	-13599
▁Philíppin	-13600
All	-13601
Ham	-13602
des	-13603
eed	-13604
jet	-13605
lys	-13606
viv	-13607
yaf	-13608
ène	-13609
▁AN	-13610
▁EC	-13611
▁HR	-13612
▁Mụ	-13613
▁Yv	-13614
-198	-13615
Cách	-13616
cola	-13617
dorf	-13618
ills	-13619
iện	-13620
viêm	-13621
łowo	-13622
▁123	-13623
▁152	-13624
▁AAS	-13625
▁Hip	-13626
▁Mãi	-13627
▁Mạc	-13628
▁day	-13629
▁tào	-13630
▁tép	-13631
▁Đều	-13632
chach	-13633
▁Conf	-13634
▁Czap	-13635
▁Hope	-13636
▁lình	-13637
▁1969.	-13638
▁Brick	-13639
▁Distr	-13640
▁macOS	-13641
▁trich	-13642
▁Juvent	-13643
▁Kemper	-13644
▁Mozart	-13645
▁Unione	-13646
▁dioxit	-13647
▁Crystal	-13648
▁History	-13649
▁Hypatia	-13650
▁Frankenstein	-13651
Up	-13652
bà	-13653
zu	-13654
ợc	-13655
ART	-13656
Cha	-13657
DOS	-13658
aho	-13659
oux	-13660
▁BG	-13661
▁NR	-13662
▁vs	-13663
agne	-13664
cial	-13665
▁750	-13666
▁Inh	-13667
▁Jaw	-13668
▁Kow	-13669
▁Rid	-13670
▁Rèn	-13671
▁Sex	-13672
▁box	-13673
▁dan	-13674
▁khố	-13675
▁rec	-13676
acher	-13677
ocarb	-13678
▁1911	-13679
▁1917	-13680
▁Burk	-13681
▁Marg	-13682
▁Osho	-13683
▁hamb	-13684
▁rưới	-13685
Polish	-13686
▁1.200	-13687
▁1963.	-13688
▁Bayer	-13689
▁Chapp	-13690
▁Comic	-13691
▁Dylan	-13692
▁Flint	-13693
▁Glass	-13694
▁Heath	-13695
▁Kenny	-13696
▁magie	-13697
▁melan	-13698
▁Finder	-13699
▁Mekong	-13700
▁Sheila	-13701
▁Tarzan	-13702
▁Virgil	-13703
▁remote	-13704
▁Nicolas	-13705
▁Pacific	-13706
▁Theresa	-13707
▁halogen	-13708
▁kilômét	-13709
▁Vaseline	-13710
▁Margarita	-13711
▁isopropyl	-13712
▁Bartoszycki	-13713
▁Turkmenistan	-13714
TN	-13715
-50	-13716
Kho	-13717
Kết	-13718
alf	-13719
eol	-13720
eso	-13721
imp	-13722
irl	-13723
kon	-13724
▁6%	-13725
▁8%	-13726
▁Eh	-13727
▁SE	-13728
Save	-13729
aldi	-13730
arra	-13731
aten	-13732
iesz	-13733
ilis	-13734
ngay	-13735
oney	-13736
điện	-13737
▁118	-13738
▁161	-13739
▁60.	-13740
▁BTS	-13741
▁Fuj	-13742
▁Hát	-13743
▁Làn	-13744
▁Lôi	-13745
▁Mok	-13746
▁Mác	-13747
▁Rup	-13748
▁Rùa	-13749
▁Vốn	-13750
▁mõm	-13751
▁rầu	-13752
ublic	-13753
▁1908	-13754
▁Anto	-13755
▁Bamb	-13756
▁Chev	-13757
▁Iber	-13758
▁Katy	-13759
▁Lưỡi	-13760
▁Thai	-13761
▁cont	-13762
▁test	-13763
▁thuở	-13764
▁type	-13765
▁your	-13766
▁Điên	-13767
olitan	-13768
▁1932,	-13769
▁1988)	-13770
▁2013)	-13771
▁2014)	-13772
▁Bella	-13773
▁Freud	-13774
▁Rosie	-13775
▁12.000	-13776
▁Photos	-13777
▁carbox	-13778
▁100,000	-13779
▁Mariana	-13780
▁Schmidt	-13781
▁download	-13782
▁Montevideo	-13783
▁cacbohydrat	-13784
VR	-13785
zz	-13786
},	-13787
').	-13788
acz	-13789
eke	-13790
iek	-13791
put	-13792
▁Ve	-13793
▁hử	-13794
Tổng	-13795
biến	-13796
hiya	-13797
iant	-13798
igal	-13799
tinh	-13800
▁154	-13801
▁158	-13802
▁162	-13803
▁2).	-13804
▁Ayn	-13805
▁Cow	-13806
▁Dul	-13807
▁Tah	-13808
▁Tot	-13809
▁găm	-13810
▁iod	-13811
▁lẫm	-13812
▁sảo	-13813
▁xẹp	-13814
Nhiều	-13815
agher	-13816
▁1931	-13817
▁Corp	-13818
▁Dawn	-13819
▁Dora	-13820
▁Fisk	-13821
▁Herm	-13822
▁Khải	-13823
▁Mash	-13824
▁trồi	-13825
▁tuôn	-13826
bridge	-13827
▁1928,	-13828
▁1944.	-13829
▁1983)	-13830
▁20-30	-13831
▁April	-13832
▁Doris	-13833
▁Roche	-13834
▁Santo	-13835
▁amoni	-13836
▁niken	-13837
▁việc	-13838
▁Contin	-13839
▁Corona	-13840
▁Marina	-13841
▁Poland	-13842
▁chocol	-13843
▁Cecilia	-13844
▁Emmanuel	-13845
▁Sullivan	-13846
▁Superman	-13847
At	-13848
LP	-13849
MD	-13850
atu	-13851
cực	-13852
kai	-13853
lop	-13854
tác	-13855
vật	-13856
wai	-13857
ận	-13858
▁08	-13859
▁ال	-13860
Fran	-13861
amel	-13862
bard	-13863
fort	-13864
phat	-13865
siêu	-13866
tiểu	-13867
Đúng	-13868
▁117	-13869
▁4.0	-13870
▁Cấm	-13871
▁Hòn	-13872
▁Mei	-13873
▁Nim	-13874
▁Rủi	-13875
▁múc	-13876
▁rắm	-13877
ating	-13878
atron	-13879
eptor	-13880
iones	-13881
oshop	-13882
▁Chậm	-13883
▁Ling	-13884
▁Loth	-13885
▁Pack	-13886
▁Ruby	-13887
▁Tata	-13888
▁Tiếc	-13889
▁Tusk	-13890
▁copy	-13891
▁giẫm	-13892
▁trợn	-13893
ionale	-13894
omonas	-13895
▁1920.	-13896
▁1929,	-13897
▁1957.	-13898
▁Denis	-13899
▁Direc	-13900
▁Golan	-13901
▁Quyển	-13902
▁Stock	-13903
▁Sunni	-13904
agement	-13905
▁Engine	-13906
▁helium	-13907
▁Aleksandra	-13908
▁Uzbekistan	-13909
dù	-13910
qa	-13911
?'.	-13912
agl	-13913
gey	-13914
▁BR	-13915
▁SG	-13916
▁Vở	-13917
▁gồ	-13918
▁ke	-13919
aran	-13920
ecki	-13921
ovan	-13922
read	-13923
thor	-13924
▁0,3	-13925
▁1,1	-13926
▁Bụi	-13927
▁Cáp	-13928
▁Jed	-13929
▁Koh	-13930
▁Kok	-13931
▁Ris	-13932
▁Sâu	-13933
▁Via	-13934
▁ind	-13935
▁med	-13936
▁mải	-13937
avian	-13938
ombie	-13939
patra	-13940
▁Baud	-13941
▁Born	-13942
▁Córd	-13943
▁Grac	-13944
▁Mori	-13945
▁Quét	-13946
▁Tusc	-13947
▁trăn	-13948
obulin	-13949
upiter	-13950
▁1956.	-13951
▁Docum	-13952
▁Lopez	-13953
▁Piper	-13954
▁Ramos	-13955
▁Belize	-13956
▁Ingrid	-13957
▁Junior	-13958
▁Lesser	-13959
▁Richie	-13960
▁violin	-13961
▁Hoffman	-13962
▁Leopold	-13963
▁Sánchez	-13964
ithromycin	-13965
▁Gallagher	-13966
▁barbiturat	-13967
HI	-13968
ós	-13969
ECD	-13970
bet	-13971
las	-13972
oul	-13973
tạo	-13974
yun	-13975
ção	-13976
▁SI	-13977
▁VM	-13978
▁uế	-13979
▁đơ	-13980
Tình	-13981
aldo	-13982
egel	-13983
ileo	-13984
kaku	-13985
ocyt	-13986
rier	-13987
town	-13988
▁106	-13989
▁109	-13990
▁155	-13991
▁Dew	-13992
▁Lạt	-13993
▁Noc	-13994
▁Xúc	-13995
▁red	-13996
▁rif	-13997
▁túp	-13998
ellow	-13999
▁Aman	-14000
▁Bast	-14001
▁Comb	-14002
▁Desc	-14003
▁Drag	-14004
▁Eise	-14005
▁Euph	-14006
▁Jisr	-14007
▁Mina	-14008
▁Nept	-14009
▁Thâm	-14010
▁Virt	-14011
ushing	-14012
▁1979)	-14013
▁Front	-14014
▁Gương	-14015
▁Honey	-14016
▁Huỳnh	-14017
▁López	-14018
▁Marse	-14019
▁Rossi	-14020
▁Terra	-14021
▁pixel	-14022
getoria	-14023
▁Action	-14024
▁Adrian	-14025
▁Bosnia	-14026
▁Dunbar	-14027
▁Romero	-14028
▁Sharon	-14029
▁Claudia	-14030
▁Crowley	-14031
▁Friends	-14032
▁benzoyl	-14033
racycline	-14034
▁Aberdeen	-14035
▁probiotic	-14036
▁Preferences	-14037
▁Staphylococcus	-14038
ASP	-14039
INE	-14040
Lou	-14041
Nói	-14042
Thu	-14043
Tuỳ	-14044
ahi	-14045
ayn	-14046
bảo	-14047
hãy	-14048
idu	-14049
osi	-14050
sta	-14051
zeg	-14052
▁BC	-14053
▁Ci	-14054
▁Tō	-14055
▁bở	-14056
▁nẻ	-14057
Phần	-14058
ails	-14059
fish	-14060
ilin	-14061
tery	-14062
đúng	-14063
▁102	-14064
▁174	-14065
▁27,	-14066
▁AMD	-14067
▁CFA	-14068
▁Equ	-14069
▁Jet	-14070
▁Kav	-14071
▁Lun	-14072
▁Mệt	-14073
▁Nhỡ	-14074
▁Pix	-14075
▁Yel	-14076
▁Yus	-14077
▁vấy	-14078
▁Đốt	-14079
ikini	-14080
thiết	-14081
urian	-14082
▁Font	-14083
▁From	-14084
▁Hood	-14085
▁ISIL	-14086
▁Name	-14087
▁Rash	-14088
▁Shan	-14089
▁eBay	-14090
▁vivo	-14091
ampton	-14092
▁2016)	-14093
▁Alber	-14094
▁Chrom	-14095
▁Lynch	-14096
▁Omega	-14097
▁Riêng	-14098
▁Rover	-14099
▁Scorp	-14100
▁xoong	-14101
esearch	-14102
idazole	-14103
▁Batman	-14104
▁Dąbrow	-14105
▁Planet	-14106
▁pastry	-14107
▁Domingo	-14108
▁Hamburg	-14109
▁Tokugawa	-14110
▁Cargetoria	-14111
▁Chronicles	-14112
▁Winchester	-14113
▁dehydrogen	-14114
We	-14115
COM	-14116
sea	-14117
ubi	-14118
▁Ou	-14119
▁Wę	-14120
▁bẹ	-14121
▁ec	-14122
▁đâ	-14123
andi	-14124
danh	-14125
etan	-14126
inja	-14127
khối	-14128
urst	-14129
ôman	-14130
▁(3.	-14131
▁26,	-14132
▁3.5	-14133
▁4-6	-14134
▁911	-14135
▁Eis	-14136
▁Lut	-14137
▁Mưa	-14138
▁Tro	-14139
▁Vác	-14140
▁hãn	-14141
▁set	-14142
aceut	-14143
▁1909	-14144
▁Anti	-14145
▁Drop	-14146
▁Mảnh	-14147
▁Samp	-14148
▁Stra	-14149
▁Take	-14150
▁Thấm	-14151
▁Tùng	-14152
▁Uruk	-14153
▁high	-14154
▁nhuỵ	-14155
bright	-14156
ension	-14157
▁1989)	-14158
▁Mujer	-14159
▁block	-14160
▁(2013)	-14161
▁Euclid	-14162
▁Evelyn	-14163
▁Wester	-14164
orschach	-14165
▁Natasha	-14166
▁Rodriguez	-14167
/7	-14168
05	-14169
AV	-14170
CI	-14171
Te	-14172
łę	-14173
Bảo	-14174
Chà	-14175
fus	-14176
giờ	-14177
hơn	-14178
học	-14179
wal	-14180
▁$.	-14181
▁BB	-14182
▁gù	-14183
ened	-14184
erst	-14185
ibut	-14186
iggy	-14187
ropy	-14188
▁256	-14189
▁Bùi	-14190
▁Dad	-14191
▁hất	-14192
album	-14193
ennes	-14194
istry	-14195
▁1904	-14196
▁1905	-14197
▁Aung	-14198
▁Auto	-14199
▁Core	-14200
▁Disk	-14201
▁FIDE	-14202
▁Mind	-14203
▁Robb	-14204
▁Ster	-14205
▁Thuê	-14206
▁chíp	-14207
▁sủng	-14208
ferase	-14209
▁1917,	-14210
▁1934,	-14211
▁1961.	-14212
▁Agnes	-14213
▁Baron	-14214
▁Pizza	-14215
▁Xưởng	-14216
artheid	-14217
▁Emilia	-14218
▁Garden	-14219
▁Ibadan	-14220
▁Viking	-14221
▁sunfat	-14222
▁tuabin	-14223
▁Melissa	-14224
▁Sanders	-14225
▁cricket	-14226
▁Children	-14227
▁Martínez	-14228
▁Samantha	-14229
▁melatonin	-14230
▁JavaScript	-14231
▁Electronics	-14232
▁acetylcholine	-14233
▁dehydrogenase	-14234
Is	-14235
LO	-14236
ré	-14237
vị	-14238
ān	-14239
Del	-14240
apr	-14241
jab	-14242
lên	-14243
lần	-14244
sil	-14245
▁((	-14246
▁HK	-14247
▁OP	-14248
▁Sỹ	-14249
▁cù	-14250
▁ed	-14251
omir	-14252
prom	-14253
tech	-14254
vert	-14255
▁103	-14256
▁2,3	-14257
▁Bee	-14258
▁Bám	-14259
▁Dah	-14260
▁Duc	-14261
▁Dęb	-14262
▁Gái	-14263
▁Yuk	-14264
▁cer	-14265
▁cis	-14266
▁dặt	-14267
▁key	-14268
▁loã	-14269
▁luỵ	-14270
▁nhọ	-14271
▁sol	-14272
NSAID	-14273
imeth	-14274
leigh	-14275
sztof	-14276
▁Cabo	-14277
▁Dale	-14278
▁Dara	-14279
▁Hodg	-14280
▁Nowe	-14281
▁Togo	-14282
▁Xiao	-14283
▁baby	-14284
▁bồng	-14285
▁dong	-14286
▁giếm	-14287
▁ngợm	-14288
anoate	-14289
eville	-14290
iuszko	-14291
▁Ahmad	-14292
▁Anime	-14293
▁Chloe	-14294
▁Clyde	-14295
▁Crohn	-14296
▁Image	-14297
▁Nhánh	-14298
▁Reyes	-14299
▁Rojas	-14300
▁Sasha	-14301
▁Bolton	-14302
▁Kindle	-14303
▁Marion	-14304
▁Remote	-14305
▁lactic	-14306
▁neuron	-14307
▁Charley	-14308
▁Telecom	-14309
▁dihydro	-14310
▁Mountain	-14311
▁Macintosh	-14312
▁marketing	-14313
Na	-14314
Nữ	-14315
Tự	-14316
VN	-14317
Ví	-14318
lô	-14319
▁ĩ	-14320
▁€	-14321
.).	-14322
USA	-14323
arp	-14324
eop	-14325
ety	-14326
lot	-14327
mos	-14328
osp	-14329
pot	-14330
ật	-14331
▁$2	-14332
▁($	-14333
▁Kł	-14334
chan	-14335
icht	-14336
niss	-14337
olip	-14338
▁112	-14339
▁113	-14340
▁6-8	-14341
▁CBS	-14342
▁Cod	-14343
▁Cán	-14344
▁Lát	-14345
▁Lật	-14346
▁Maf	-14347
▁Tỉa	-14348
▁Wag	-14349
▁Wed	-14350
▁cùn	-14351
▁dẹt	-14352
▁rot	-14353
erner	-14354
▁...)	-14355
▁1902	-14356
▁Diaz	-14357
▁Emmy	-14358
▁Raph	-14359
▁Tomb	-14360
▁demo	-14361
▁đùng	-14362
formin	-14363
▁1924,	-14364
▁1959.	-14365
▁1964.	-14366
▁1980)	-14367
▁Books	-14368
▁Kamen	-14369
▁Pseud	-14370
▁Animal	-14371
▁Elijah	-14372
▁French	-14373
▁Magdal	-14374
▁Masyaf	-14375
▁Public	-14376
▁Screen	-14377
▁Heights	-14378
▁Herbert	-14379
▁Kremlin	-14380
▁Trinity	-14381
▁interferon	-14382
}.	-14383
úl	-14384
▁γ	-14385
/11	-14386
450	-14387
Gen	-14388
cấp	-14389
opt	-14390
rys	-14391
vai	-14392
ập	-14393
▁JR	-14394
▁po	-14395
File	-14396
appa	-14397
atha	-14398
eric	-14399
gate	-14400
isch	-14401
nhóm	-14402
part	-14403
sein	-14404
▁33,	-14405
▁Bày	-14406
▁HPV	-14407
▁Hae	-14408
▁Huỷ	-14409
▁Phê	-14410
▁Sap	-14411
▁Tut	-14412
▁Zap	-14413
▁lab	-14414
▁mes	-14415
▁nịt	-14416
▁sùi	-14417
▁véc	-14418
Queen	-14419
endan	-14420
rough	-14421
ughur	-14422
ullah	-14423
▁Casa	-14424
▁Kośc	-14425
▁Lars	-14426
▁Lost	-14427
▁Shel	-14428
▁coca	-14429
▁diếp	-14430
▁phễu	-14431
▁uric	-14432
▁1941.	-14433
▁1958.	-14434
▁2017)	-14435
▁Antio	-14436
▁Città	-14437
▁Edith	-14438
▁Naomi	-14439
▁Sammy	-14440
▁Sugar	-14441
▁Thoại	-14442
▁Wawel	-14443
▁nguời	-14444
▁Carbon	-14445
▁Monaco	-14446
▁Torino	-14447
▁Ernesto	-14448
▁Latakia	-14449
▁telomer	-14450
▁Krzysztof	-14451
▁container	-14452
▁Pharmaceut	-14453
Bây	-14454
Mus	-14455
San	-14456
leh	-14457
mal	-14458
upp	-14459
vas	-14460
▁BS	-14461
▁EX	-14462
▁Gỡ	-14463
▁Hổ	-14464
▁JC	-14465
▁JJ	-14466
▁Mỏ	-14467
▁av	-14468
▁hủ	-14469
eppe	-14470
ried	-14471
shot	-14472
thia	-14473
▁1,6	-14474
▁1,7	-14475
▁173	-14476
▁Gat	-14477
▁NZT	-14478
▁bùm	-14479
▁cỗi	-14480
▁gra	-14481
▁mền	-14482
actin	-14483
aguay	-14484
idium	-14485
imoto	-14486
onate	-14487
▁50%.	-14488
▁Bali	-14489
▁Burn	-14490
▁Glas	-14491
▁Liêu	-14492
▁Rice	-14493
▁Text	-14494
▁True	-14495
▁amyl	-14496
▁gara	-14497
▁trig	-14498
▁trìu	-14499
▁1933,	-14500
▁1994)	-14501
▁Atlas	-14502
▁Dưỡng	-14503
▁Josef	-14504
▁macro	-14505
▁quàng	-14506
▁(2009)	-14507
▁Keller	-14508
▁Report	-14509
▁Stadio	-14510
▁cytoch	-14511
▁Clement	-14512
▁Córdoba	-14513
▁Tuscany	-14514
▁Reynolds	-14515
▁Socrates	-14516
▁centimet	-14517
▁Rorschach	-14518
Cr	-14519
HC	-14520
zę	-14521
́p	-14522
FTA	-14523
bas	-14524
chy	-14525
phụ	-14526
rum	-14527
tuy	-14528
ukh	-14529
łów	-14530
▁["	-14531
chet	-14532
chưa	-14533
eder	-14534
evel	-14535
gang	-14536
ombe	-14537
ovic	-14538
trum	-14539
unce	-14540
vòng	-14541
▁80.	-14542
▁Emm	-14543
▁Ogh	-14544
▁Wan	-14545
▁Zal	-14546
▁gal	-14547
▁out	-14548
apest	-14549
artes	-14550
court	-14551
dress	-14552
ilian	-14553
leton	-14554
▁(100	-14555
▁Bach	-14556
▁Dock	-14557
▁Kens	-14558
▁Kira	-14559
▁Móng	-14560
▁Silv	-14561
▁Spir	-14562
▁USAN	-14563
▁conc	-14564
▁fran	-14565
▁ngán	-14566
▁root	-14567
▁whoa	-14568
adient	-14569
estrol	-14570
▁1967.	-14571
▁2012)	-14572
▁Buông	-14573
▁Nhiên	-14574
▁nghén	-14575
▁synap	-14576
▁Avatar	-14577
▁Montes	-14578
▁Prague	-14579
▁Singer	-14580
▁amiăng	-14581
▁Fortune	-14582
▁Natalie	-14583
▁Sherman	-14584
▁Society	-14585
▁Research	-14586
▁neutrino	-14587
▁Alejandro	-14588
▁Liverpool	-14589
▁Macedonia	-14590
▁epinephrine	-14591
▁∗	-14592
-2,	-14593
Pad	-14594
bah	-14595
big	-14596
giả	-14597
▁'(	-14598
▁-3	-14599
▁LP	-14600
▁lả	-14601
enem	-14602
main	-14603
mins	-14604
orno	-14605
rill	-14606
Đồng	-14607
▁0,2	-14608
▁1.6	-14609
▁104	-14610
▁11:	-14611
▁122	-14612
▁Bọc	-14613
▁Inn	-14614
▁Wic	-14615
▁ald	-14616
▁bẹp	-14617
▁bứt	-14618
▁lys	-14619
actor	-14620
enter	-14621
enzie	-14622
▁Bear	-14623
▁Blog	-14624
▁Cait	-14625
▁Dinh	-14626
▁Gaon	-14627
▁Marl	-14628
▁Morg	-14629
▁Wola	-14630
▁cyan	-14631
▁khăm	-14632
▁nịnh	-14633
▁1912,	-14634
▁1955.	-14635
▁1993)	-14636
▁Epsom	-14637
▁Nhiếp	-14638
▁Ollie	-14639
▁(2007)	-14640
▁25.000	-14641
▁Aurora	-14642
▁Calder	-14643
▁Dalton	-14644
▁Donnie	-14645
▁Mecham	-14646
▁Shadow	-14647
▁Vargas	-14648
▁Actress	-14649
▁Messina	-14650
▁Village	-14651
/6	-14652
HP	-14653
xx	-14654
ça	-14655
▁δ	-14656
lay	-14657
thể	-14658
▁Aq	-14659
▁DB	-14660
▁RO	-14661
▁ul	-14662
▁we	-14663
▁°.	-14664
agle	-14665
aner	-14666
aste	-14667
eira	-14668
ertz	-14669
inos	-14670
▁(60	-14671
▁145	-14672
▁2,4	-14673
▁Gin	-14674
▁Mực	-14675
▁Peñ	-14676
▁Rut	-14677
▁Sed	-14678
▁Urs	-14679
▁Vig	-14680
▁Zor	-14681
▁cat	-14682
▁dig	-14683
▁noi	-14684
▁ros	-14685
▁sar	-14686
ecker	-14687
eryth	-14688
ngoài	-14689
▁...,	-14690
▁Bông	-14691
▁Digg	-14692
▁Gore	-14693
▁Jump	-14694
▁Kane	-14695
▁Labs	-14696
▁Lola	-14697
▁Olsz	-14698
▁Pine	-14699
▁What	-14700
▁flav	-14701
▁lừng	-14702
▁toạc	-14703
▁tâng	-14704
onneur	-14705
razine	-14706
▁7.000	-14707
▁Astra	-14708
▁Nhược	-14709
▁Surin	-14710
▁Weber	-14711
Shughur	-14712
onnaise	-14713
▁Elliot	-14714
▁Future	-14715
▁Baghdad	-14716
▁Cornell	-14717
▁Shirley	-14718
▁whiskey	-14719
▁Campania	-14720
▁Catalina	-14721
▁Medellín	-14722
▁Paraguay	-14723
▁silicone	-14724
▁Cleopatra	-14725
▁Constantin	-14726
SO	-14727
ör	-14728
Đi	-14729
-3,	-14730
Gửi	-14731
Mic	-14732
aby	-14733
eor	-14734
rek	-14735
yer	-14736
▁Bj	-14737
▁Lò	-14738
▁RR	-14739
▁RV	-14740
▁wa	-14741
▁Ái	-14742
000.	-14743
cess	-14744
cott	-14745
jima	-14746
jung	-14747
niki	-14748
quel	-14749
xico	-14750
▁111	-14751
▁Akh	-14752
▁Eff	-14753
▁Nef	-14754
▁Poł	-14755
▁Zur	-14756
▁lúp	-14757
ality	-14758
arian	-14759
chống	-14760
inson	-14761
iptan	-14762
▁Fres	-14763
▁Mate	-14764
▁Mats	-14765
▁Mint	-14766
▁Nice	-14767
▁Nott	-14768
▁Rede	-14769
▁Remy	-14770
▁Warm	-14771
▁Wong	-14772
▁anti	-14773
▁nuối	-14774
▁1985)	-14775
▁Antig	-14776
▁Break	-14777
▁Candy	-14778
▁Chủng	-14779
▁Gamma	-14780
▁Gener	-14781
▁Glaxo	-14782
▁Ocean	-14783
▁Ramon	-14784
▁lymph	-14785
▁ngước	-14786
▁nhăng	-14787
▁organ	-14788
carinic	-14789
▁Craven	-14790
▁Lisbon	-14791
▁Pepper	-14792
▁Return	-14793
▁dollar	-14794
ortisone	-14795
▁Langley	-14796
▁Chambers	-14797
▁Holdings	-14798
▁Wojciech	-14799
▁Georgetown	-14800
▁adrenaline	-14801
▁kilometres	-14802
▁Brandenburg	-14803
04	-14804
Hệ	-14805
LI	-14806
ds	-14807
ỦA	-14808
nos	-14809
nên	-14810
ugg	-14811
▁Ic	-14812
▁Mm	-14813
▁QT	-14814
▁Sr	-14815
▁Sổ	-14816
▁gừ	-14817
Pháp	-14818
asse	-14819
băng	-14820
hara	-14821
ilit	-14822
inem	-14823
rant	-14824
stag	-14825
▁133	-14826
▁34,	-14827
▁35%	-14828
▁38,	-14829
▁Bam	-14830
▁MBA	-14831
▁USS	-14832
▁cùi	-14833
▁sod	-14834
isoft	-14835
▁1080	-14836
▁Chip	-14837
▁Cies	-14838
▁Cura	-14839
▁Nass	-14840
▁Pied	-14841
▁Trop	-14842
▁cồng	-14843
▁nhợt	-14844
▁port	-14845
▁prot	-14846
bachev	-14847
chuyện	-14848
▁Abdul	-14849
▁Chern	-14850
▁Geeta	-14851
▁Gomez	-14852
▁Johns	-14853
▁Laden	-14854
▁Locke	-14855
▁Rocky	-14856
▁Samoa	-14857
▁Sonia	-14858
▁Telem	-14859
▁ngóng	-14860
▁tetra	-14861
▁Fergus	-14862
▁Hubert	-14863
▁Leslie	-14864
▁McGill	-14865
▁Milton	-14866
▁Review	-14867
▁arcade	-14868
▁Budapest	-14869
▁Lombardy	-14870
▁Electronic	-14871
▁Management	-14872
▁nandrolone	-14873
▁Scandinavia	-14874
DD	-14875
Ma	-14876
cổ	-14877
Đã	-14878
Ấn	-14879
Add	-14880
Tài	-14881
oho	-14882
tez	-14883
▁Ré	-14884
▁bớ	-14885
▁Ẩn	-14886
aret	-14887
dùng	-14888
elot	-14889
hito	-14890
mers	-14891
orks	-14892
oxid	-14893
quốc	-14894
rock	-14895
▁204	-14896
▁230	-14897
▁37,	-14898
▁Buk	-14899
▁Bến	-14900
▁CỦA	-14901
▁Hảo	-14902
▁Hấp	-14903
▁Kik	-14904
▁LCD	-14905
▁Râu	-14906
▁Señ	-14907
▁Syr	-14908
▁kha	-14909
▁xẩy	-14910
▁xổm	-14911
abyte	-14912
atine	-14913
oglyc	-14914
▁Bess	-14915
▁Corr	-14916
▁IAAF	-14917
▁Phác	-14918
▁Ruiz	-14919
▁Salt	-14920
▁Teen	-14921
▁kềnh	-14922
▁pass	-14923
▁xiết	-14924
chuyển	-14925
▁1966.	-14926
▁Jules	-14927
▁Kahlo	-14928
▁Patty	-14929
▁Piska	-14930
▁Qaeda	-14931
▁Toruń	-14932
▁titan	-14933
▁Gibson	-14934
▁México	-14935
▁Norton	-14936
▁Rivers	-14937
▁ballad	-14938
lyceride	-14939
▁Burrows	-14940
▁Katniss	-14941
▁Options	-14942
▁Pandora	-14943
▁Parkman	-14944
▁Phillip	-14945
▁Special	-14946
▁acrylic	-14947
▁Bolshevik	-14948
▁chlamydia	-14949
DT	-14950
HM	-14951
KA	-14952
tổ	-14953
ụm	-14954
Rap	-14955
cut	-14956
fon	-14957
hex	-14958
icô	-14959
ils	-14960
lee	-14961
reb	-14962
xcơ	-14963
▁HE	-14964
▁ky	-14965
Cola	-14966
asan	-14967
heim	-14968
khác	-14969
luor	-14970
raft	-14971
yang	-14972
▁12%	-14973
▁153	-14974
▁99,	-14975
▁Cốt	-14976
▁Gul	-14977
▁Hua	-14978
▁Hỡi	-14979
▁Lắc	-14980
▁Moi	-14981
▁Nah	-14982
▁Wim	-14983
▁cội	-14984
▁kềm	-14985
▁lác	-14986
▁rứt	-14987
itine	-14988
▁Asia	-14989
▁Face	-14990
▁Gnie	-14991
▁Horm	-14992
▁Niki	-14993
▁Penh	-14994
▁chun	-14995
▁giòi	-14996
▁khảm	-14997
▁nhòm	-14998
▁trệt	-14999
trường	-15000
▁1948.	-15001
▁1952.	-15002
▁Creek	-15003
▁Globo	-15004
▁Krish	-15005
▁Kyung	-15006
▁Minor	-15007
▁Sương	-15008
▁Marley	-15009
▁Pharma	-15010
▁Scient	-15011
▁reggae	-15012
▁Dolores	-15013
▁Harriet	-15014
▁Joffrey	-15015
▁Stannis	-15016
▁Augustine	-15017
02	-15018
FR	-15019
SP	-15020
XT	-15021
pô	-15022
AMP	-15023
Ser	-15024
kal	-15025
mỗi	-15026
nic	-15027
odz	-15028
tài	-15029
zon	-15030
ędz	-15031
▁HO	-15032
▁MT	-15033
▁Mg	-15034
▁tề	-15035
▁ạt	-15036
-11,	-15037
Danh	-15038
alez	-15039
hard	-15040
orov	-15041
tria	-15042
yrin	-15043
zech	-15044
ście	-15045
▁0,4	-15046
▁127	-15047
▁Aid	-15048
▁Gór	-15049
▁Kẹo	-15050
▁Non	-15051
▁Nêu	-15052
▁Pik	-15053
▁Vạn	-15054
▁lạp	-15055
▁tía	-15056
▁về	-15057
anish	-15058
ening	-15059
nikov	-15060
ovian	-15061
▁1600	-15062
▁2021	-15063
▁Gina	-15064
▁Gott	-15065
▁Kiel	-15066
▁Menu	-15067
▁Mons	-15068
▁crom	-15069
▁khải	-15070
▁lõng	-15071
erties	-15072
ishing	-15073
▁1914,	-15074
▁1931,	-15075
▁1976)	-15076
▁1986)	-15077
▁Khổng	-15078
▁Miệng	-15079
▁Nazir	-15080
▁Shang	-15081
▁Smart	-15082
▁Starb	-15083
▁nhang	-15084
▁nơron	-15085
dington	-15086
iazepam	-15087
pathian	-15088
▁(2010)	-15089
▁(2014)	-15090
▁(2017)	-15091
▁Bishop	-15092
▁Denver	-15093
▁Empire	-15094
▁Herman	-15095
▁Lionel	-15096
▁Medina	-15097
▁bikini	-15098
▁400.000	-15099
▁Sanchez	-15100
▁Service	-15101
▁Springs	-15102
▁Josephine	-15103
▁hamburger	-15104
UI	-15105
fr	-15106
mở	-15107
tỷ	-15108
ül	-15109
đề	-15110
̉n	-15111
avà	-15112
ebo	-15113
evo	-15114
imé	-15115
lớn	-15116
tok	-15117
ños	-15118
▁GR	-15119
aila	-15120
borg	-15121
eway	-15122
glyc	-15123
rane	-15124
rest	-15125
▁(22	-15126
▁151	-15127
▁Bồi	-15128
▁Hmm	-15129
▁Iey	-15130
▁Kao	-15131
▁Lon	-15132
▁Qur	-15133
▁Rắn	-15134
▁Thề	-15135
▁aud	-15136
▁dev	-15137
▁dic	-15138
▁hiđ	-15139
▁nện	-15140
Black	-15141
ayama	-15142
igami	-15143
▁1916	-15144
▁Bari	-15145
▁Find	-15146
▁Humb	-15147
▁List	-15148
▁Lynn	-15149
▁Moto	-15150
▁Ziel	-15151
▁back	-15152
▁ster	-15153
entino	-15154
itinib	-15155
truyền	-15156
▁10-20	-15157
▁1925,	-15158
▁1992)	-15159
▁Anast	-15160
▁Paste	-15161
▁Piast	-15162
▁Scoob	-15163
▁Thiếp	-15164
▁alkyl	-15165
▁Baudel	-15166
▁Nguyệt	-15167
▁Sicily	-15168
▁gallon	-15169
▁Develop	-15170
▁Galileo	-15171
▁Gniezno	-15172
▁Liberty	-15173
▁Playboy	-15174
▁Winston	-15175
▁Associat	-15176
▁Brighton	-15177
▁Magazine	-15178
▁Armstrong	-15179
▁Bloomberg	-15180
▁Fulbright	-15181
▁Gorbachev	-15182
▁Metropolitan	-15183
▁glucocorticoid	-15184
%)	-15185
đá	-15186
-21	-15187
Har	-15188
Mas	-15189
Thư	-15190
adh	-15191
cas	-15192
hat	-15193
iae	-15194
oug	-15195
phổ	-15196
vil	-15197
▁(~	-15198
▁AA	-15199
▁BV	-15200
▁Gw	-15201
▁Ms	-15202
▁Tố	-15203
▁vồ	-15204
Open	-15205
Phil	-15206
Phải	-15207
Star	-15208
ades	-15209
ampa	-15210
awat	-15211
axit	-15212
eole	-15213
inas	-15214
last	-15215
nghệ	-15216
đáng	-15217
ước	-15218
▁Arl	-15219
▁Ced	-15220
▁Cés	-15221
▁Goł	-15222
▁Kod	-15223
▁RIS	-15224
▁XVI	-15225
▁bím	-15226
▁loà	-15227
▁mui	-15228
▁one	-15229
▁tẹo	-15230
epend	-15231
ipper	-15232
rixus	-15233
▁1880	-15234
▁Diệu	-15235
▁Mord	-15236
▁Niệm	-15237
▁Sass	-15238
▁Trai	-15239
▁nhại	-15240
▁nong	-15241
nhower	-15242
▁1927,	-15243
▁1949.	-15244
▁Crown	-15245
▁Huyện	-15246
▁Penny	-15247
▁Trzeb	-15248
▁Athena	-15249
▁Copern	-15250
▁Correa	-15251
▁Denise	-15252
▁Jeanne	-15253
▁Nghiệp	-15254
▁Powers	-15255
▁Update	-15256
▁Country	-15257
▁Machine	-15258
▁Swagger	-15259
▁Habsburg	-15260
▁Services	-15261
▁naproxen	-15262
▁Katherine	-15263
▁Yorkshire	-15264
DN	-15265
FT	-15266
Kẻ	-15267
gs	-15268
nu	-15269
xe	-15270
AND	-15271
Tin	-15272
bay	-15273
gow	-15274
mod	-15275
mor	-15276
nằm	-15277
olk	-15278
phá	-15279
uno	-15280
yna	-15281
yto	-15282
ền	-15283
địa	-15284
▁SB	-15285
adin	-15286
▁124	-15287
▁Hoạ	-15288
▁IFN	-15289
▁Nub	-15290
▁Zag	-15291
▁dật	-15292
▁dằm	-15293
▁sec	-15294
▁sưa	-15295
▁sải	-15296
World	-15297
emont	-15298
ogram	-15299
olith	-15300
owitz	-15301
érica	-15302
▁Bomb	-15303
▁Chat	-15304
▁Châm	-15305
▁Elsa	-15306
▁Faso	-15307
▁Idol	-15308
▁Kids	-15309
▁Lact	-15310
▁Lãng	-15311
▁Nico	-15312
▁Phết	-15313
▁Spar	-15314
▁diếm	-15315
▁nhãi	-15316
▁nhặn	-15317
▁tưng	-15318
Chuyện	-15319
▁1997)	-15320
▁2018)	-15321
▁Canxi	-15322
▁Frost	-15323
▁Kathy	-15324
▁Paolo	-15325
▁Phone	-15326
▁Tamil	-15327
▁Upper	-15328
▁posit	-15329
▁Alison	-15330
▁Daphne	-15331
▁Kendra	-15332
▁Napoli	-15333
▁amidan	-15334
▁sodium	-15335
▁Alberta	-15336
▁Bahrain	-15337
▁Chelsea	-15338
▁Clayton	-15339
▁Edwards	-15340
▁Maxwell	-15341
▁Odyssey	-15342
▁Ubisoft	-15343
▁creatin	-15344
▁morphin	-15345
▁Richards	-15346
▁Queensland	-15347
▁fluoroquin	-15348
YD	-15349
jō	-15350
▁@	-15351
▁æ	-15352
-06	-15353
.),	-15354
Lit	-15355
Ngo	-15356
cây	-15357
kim	-15358
sar	-15359
sec	-15360
tai	-15361
vat	-15362
ñez	-15363
▁ET	-15364
▁Lệ	-15365
▁ML	-15366
▁lb	-15367
iste	-15368
roft	-15369
tiêu	-15370
ława	-15371
▁1.4	-15372
▁132	-15373
▁169	-15374
▁171	-15375
▁2),	-15376
▁4-5	-15377
▁Ace	-15378
▁Nãy	-15379
▁bis	-15380
▁hỡi	-15381
▁hợt	-15382
▁les	-15383
▁mix	-15384
Thiên	-15385
icial	-15386
ippon	-15387
iston	-15388
▁1915	-15389
▁Aram	-15390
▁Cong	-15391
▁Cris	-15392
▁Cạnh	-15393
▁Lite	-15394
▁OECD	-15395
▁Sard	-15396
▁byte	-15397
▁mống	-15398
▁ngáp	-15399
ashtag	-15400
oblade	-15401
ochowa	-15402
▁1910,	-15403
▁1921,	-15404
▁1996)	-15405
▁Hazel	-15406
▁Honda	-15407
▁Phnom	-15408
▁Prent	-15409
▁Sharp	-15410
▁chững	-15411
▁lupus	-15412
acillin	-15413
▁Flores	-15414
▁Nation	-15415
▁Oracle	-15416
▁Orwell	-15417
▁Sultan	-15418
▁Takeda	-15419
▁socola	-15420
▁Barwice	-15421
▁Guiller	-15422
▁Jagiell	-15423
▁Monster	-15424
▁Isabelle	-15425
▁Matthews	-15426
▁Petrelli	-15427
▁Descartes	-15428
▁Hampshire	-15429
▁Technolog	-15430
▁Eisenhower	-15431
▁Richardson	-15432
lý	-15433
nữ	-15434
yw	-15435
ść	-15436
Bắc	-15437
aks	-15438
cần	-15439
eko	-15440
eyn	-15441
hội	-15442
ket	-15443
nen	-15444
rem	-15445
▁CG	-15446
▁CU	-15447
▁Wo	-15448
▁af	-15449
Liệu	-15450
Mess	-15451
Phim	-15452
Thưa	-15453
acio	-15454
aoke	-15455
eoxy	-15456
ikov	-15457
teau	-15458
▁70.	-15459
▁Chá	-15460
▁Kul	-15461
▁ROM	-15462
▁Tac	-15463
▁Tub	-15464
▁XML	-15465
▁lib	-15466
▁new	-15467
▁xối	-15468
illan	-15469
kopol	-15470
olice	-15471
ường	-15472
▁1907	-15473
▁Cath	-15474
▁Clor	-15475
▁Cướp	-15476
▁Oslo	-15477
▁UNCL	-15478
▁khâm	-15479
▁nhàn	-15480
acarit	-15481
ethane	-15482
ffield	-15483
▁8.000	-15484
▁Calle	-15485
▁Khoản	-15486
▁Nadia	-15487
▁Opole	-15488
▁Reule	-15489
▁Trượt	-15490
▁Wally	-15491
▁Zhang	-15492
minster	-15493
▁(2005)	-15494
▁(2008)	-15495
▁Andrés	-15496
▁Chaney	-15497
▁Ieyasu	-15498
▁Pierce	-15499
▁karate	-15500
▁Install	-15501
▁Masters	-15502
▁Polanów	-15503
▁Hernández	-15504
▁Technology	-15505
▁muscarinic	-15506
ÊN	-15507
éd	-15508
▁ỉ	-15509
-3.	-15510
CHR	-15511
Fly	-15512
Khu	-15513
Let	-15514
USE	-15515
afi	-15516
atz	-15517
mai	-15518
mán	-15519
oun	-15520
wei	-15521
woo	-15522
▁$3	-15523
▁CX	-15524
▁DF	-15525
▁JF	-15526
▁NM	-15527
▁SL	-15528
▁TA	-15529
▁pô	-15530
▁uể	-15531
-195	-15532
Mart	-15533
aint	-15534
igos	-15535
itia	-15536
kiểm	-15537
ming	-15538
ngôn	-15539
orra	-15540
peed	-15541
redo	-15542
▁(4,	-15543
▁1.2	-15544
▁172	-15545
▁26.	-15546
▁Cáo	-15547
▁Dip	-15548
▁Fly	-15549
▁Huế	-15550
▁IGN	-15551
▁IMF	-15552
▁Jew	-15553
▁Kus	-15554
▁Zyg	-15555
▁vón	-15556
aurus	-15557
graph	-15558
igail	-15559
ingen	-15560
onium	-15561
▁1901	-15562
▁1906	-15563
▁Cart	-15564
▁Chem	-15565
▁Figh	-15566
▁Giác	-15567
▁Gwen	-15568
▁Milo	-15569
▁Niên	-15570
▁Ober	-15571
▁Read	-15572
▁Scul	-15573
▁Uran	-15574
▁buốt	-15575
actone	-15576
edrine	-15577
▁1987)	-15578
▁Blade	-15579
▁Hoạch	-15580
▁Semit	-15581
▁Solid	-15582
▁Stare	-15583
▁Train	-15584
▁Vince	-15585
▁(2002)	-15586
▁60.000	-15587
▁Bourne	-15588
▁Falcon	-15589
▁Gregor	-15590
▁Olszty	-15591
▁Simone	-15592
▁Terumi	-15593
▁Theory	-15594
▁UNCLOS	-15595
▁bromua	-15596
▁Caitlin	-15597
▁Captain	-15598
▁Gilbert	-15599
▁Strange	-15600
▁Beatrice	-15601
▁Gonzalez	-15602
▁Francesco	-15603
▁Photoshop	-15604
▁Xenoblade	-15605
:,	-15606
pu	-15607
ăc	-15608
̣i	-15609
GFR	-15610
Như	-15611
bel	-15612
eps	-15613
▁*.	-15614
▁HI	-15615
▁Hả	-15616
-194	-15617
ICEF	-15618
chev	-15619
giao	-15620
lich	-15621
ngôi	-15622
nhận	-15623
ogna	-15624
rien	-15625
▁(50	-15626
▁149	-15627
▁156	-15628
▁35,	-15629
▁Aff	-15630
▁Ble	-15631
▁Dag	-15632
▁Kak	-15633
▁Ley	-15634
▁NAS	-15635
▁Rik	-15636
▁Umm	-15637
▁bic	-15638
▁sởi	-15639
▁xỉa	-15640
▁đoá	-15641
aceae	-15642
bonne	-15643
chowo	-15644
entes	-15645
thiên	-15646
▁Beir	-15647
▁Chặn	-15648
▁Ghul	-15649
▁Gret	-15650
▁Half	-15651
▁Homo	-15652
▁Mahm	-15653
▁Phấn	-15654
▁Tiệc	-15655
▁Trùm	-15656
▁Wadi	-15657
▁Wick	-15658
▁watt	-15659
Office	-15660
System	-15661
orphan	-15662
▁2,000	-15663
▁Allan	-15664
▁Mills	-15665
▁Perez	-15666
▁Phiến	-15667
▁dihyd	-15668
▁huyên	-15669
▁khoét	-15670
itabine	-15671
itazone	-15672
▁(2004)	-15673
▁2007-0	-15674
▁Antony	-15675
▁khiêng	-15676
American	-15677
▁Academy	-15678
▁Allison	-15679
▁Titanic	-15680
obarbital	-15681
▁Juventus	-15682
!)	-15683
MM	-15684
cu	-15685
̃n	-15686
One	-15687
WHO	-15688
chế	-15689
ezi	-15690
ibb	-15691
nów	-15692
ŏng	-15693
▁Bò	-15694
▁Eg	-15695
▁LO	-15696
▁Xì	-15697
core	-15698
ilde	-15699
imar	-15700
isky	-15701
mang	-15702
nick	-15703
omin	-15704
phin	-15705
plex	-15706
rans	-15707
tích	-15708
▁Agn	-15709
▁Bén	-15710
▁Cồn	-15711
▁Dơi	-15712
▁EPA	-15713
▁Egg	-15714
▁Ext	-15715
▁Flu	-15716
▁Rex	-15717
▁Tir	-15718
▁Wer	-15719
▁Zim	-15720
▁ben	-15721
▁càn	-15722
▁hâu	-15723
▁nov	-15724
▁quỉ	-15725
▁đoạ	-15726
ardia	-15727
assus	-15728
iptin	-15729
onide	-15730
ritic	-15731
▁Cash	-15732
▁Cool	-15733
▁Kush	-15734
▁Kętr	-15735
▁León	-15736
▁Look	-15737
▁Ngạc	-15738
▁Zack	-15739
▁name	-15740
atinib	-15741
cester	-15742
change	-15743
uctose	-15744
ylenol	-15745
▁1995)	-15746
▁2010)	-15747
▁Arena	-15748
▁Becky	-15749
▁GNOME	-15750
▁Gross	-15751
▁Masan	-15752
▁Quint	-15753
▁Randy	-15754
▁Russo	-15755
▁Wałcz	-15756
▁Willy	-15757
▁nguôi	-15758
▁nitro	-15759
monella	-15760
▁(2001)	-15761
▁Michał	-15762
▁Spider	-15763
▁Sunday	-15764
▁Things	-15765
▁hydrat	-15766
▁Baldwin	-15767
▁Medlock	-15768
▁Sicilia	-15769
▁lactose	-15770
▁Braniewo	-15771
EI	-15772
qi	-15773
̉i	-15774
/19	-15775
PAC	-15776
gyz	-15777
hop	-15778
jun	-15779
ouk	-15780
▁AF	-15781
▁Lw	-15782
▁Tí	-15783
▁VO	-15784
▁dó	-15785
...)	-15786
Nhìn	-15787
alog	-15788
anes	-15789
anza	-15790
auer	-15791
erty	-15792
idia	-15793
idol	-15794
inol	-15795
pers	-15796
▁1),	-15797
▁114	-15798
▁35.	-15799
▁Civ	-15800
▁Cúc	-15801
▁Fay	-15802
▁Già	-15803
▁Ike	-15804
▁NGO	-15805
▁fib	-15806
▁sim	-15807
Trước	-15808
andez	-15809
chnya	-15810
ciany	-15811
obile	-15812
odium	-15813
yrgyz	-15814
▁Alec	-15815
▁Atom	-15816
▁Aven	-15817
▁Chir	-15818
▁Enix	-15819
▁Juli	-15820
▁Kais	-15821
▁Mold	-15822
▁Schl	-15823
▁Stif	-15824
▁Trật	-15825
▁cọng	-15826
▁sirô	-15827
▁tịnh	-15828
dinand	-15829
imedia	-15830
omycin	-15831
▁2000)	-15832
▁2009)	-15833
▁Email	-15834
▁Griff	-15835
▁Hayes	-15836
▁Jacqu	-15837
▁Joyce	-15838
▁Quick	-15839
▁Quyến	-15840
▁Tonga	-15841
▁Trịnh	-15842
▁chang	-15843
▁house	-15844
▁phung	-15845
▁right	-15846
▁super	-15847
Honneur	-15848
▁Access	-15849
▁Chávez	-15850
▁Crixus	-15851
▁plugin	-15852
▁Abigail	-15853
▁Antigua	-15854
▁Kingdom	-15855
▁MacBook	-15856
▁Preston	-15857
▁ethinyl	-15858
▁Ultraman	-15859
▁Guillermo	-15860
▁Activision	-15861
▁Olsztyński	-15862
▁Paralympic	-15863
▁hemoglobin	-15864
03	-15865
08	-15866
FO	-15867
Tổ	-15868
WA	-15869
hk	-15870
mb	-15871
'),	-15872
Ass	-15873
Cal	-15874
Kim	-15875
cai	-15876
cop	-15877
ivo	-15878
jaz	-15879
khí	-15880
oye	-15881
thi	-15882
ubb	-15883
▁KB	-15884
-100	-15885
Chọn	-15886
Jack	-15887
afen	-15888
assa	-15889
blem	-15890
esse	-15891
urta	-15892
▁(0)	-15893
▁00.	-15894
▁107	-15895
▁45%	-15896
▁Bối	-15897
▁Cic	-15898
▁Dro	-15899
▁Dẹp	-15900
▁INN	-15901
▁Poe	-15902
▁Rải	-15903
▁Scr	-15904
▁hạc	-15905
▁ibn	-15906
▁mỏm	-15907
▁oli	-15908
▁pít	-15909
▁rup	-15910
▁ste	-15911
▁tợn	-15912
▁vơi	-15913
▁xyl	-15914
▁Đồn	-15915
▁để	-15916
Litva	-15917
trang	-15918
urium	-15919
▁Alma	-15920
▁Alto	-15921
▁Burg	-15922
▁CRIS	-15923
▁Màng	-15924
▁Ophi	-15925
▁Pear	-15926
▁Raul	-15927
▁Test	-15928
▁chác	-15929
▁chắp	-15930
▁link	-15931
ailles	-15932
ovirus	-15933
razole	-15934
useppe	-15935
▁1977)	-15936
▁2008)	-15937
▁2011)	-15938
▁Benny	-15939
▁Brenn	-15940
▁Brent	-15941
▁Giảng	-15942
▁Khiêu	-15943
▁Polly	-15944
▁Quinn	-15945
▁Tatra	-15946
▁Turbo	-15947
▁ninja	-15948
▁suông	-15949
quinone	-15950
▁Cephal	-15951
▁Connie	-15952
▁Nature	-15953
▁Turing	-15954
▁pherom	-15955
▁pounds	-15956
▁Chechnya	-15957
▁Czaplinek	-15958
▁cytochrom	-15959
▁Applications	-15960
▁Technologies	-15961
▁triglyceride	-15962
LT	-15963
đồ	-15964
bil	-15965
câu	-15966
fan	-15967
gov	-15968
ige	-15969
lưu	-15970
oha	-15971
▁Cỗ	-15972
▁Ez	-15973
▁Hz	-15974
▁Va	-15975
arah	-15976
emin	-15977
iska	-15978
orna	-15979
osch	-15980
zyno	-15981
▁(24	-15982
▁1-0	-15983
▁365	-15984
▁39,	-15985
▁Bát	-15986
▁Bút	-15987
▁Gur	-15988
▁Hak	-15989
▁Hep	-15990
▁Jem	-15991
▁Kwa	-15992
▁Mej	-15993
▁Ole	-15994
▁Psy	-15995
▁bẹn	-15996
▁cứt	-15997
▁ell	-15998
▁mầu	-15999
▁sor	-16000
▁sạt	-16001
▁sẩy	-16002
▁ver	-16003
▁Đạn	-16004
iance	-16005
itect	-16006
ollah	-16007
▁Brah	-16008
▁Bỏng	-16009
▁Canh	-16010
▁Days	-16011
▁Khỏi	-16012
▁Mare	-16013
▁NKVD	-16014
▁Ngon	-16015
▁Nine	-16016
▁Tall	-16017
▁Tsuk	-16018
▁oliu	-16019
▁pept	-16020
▁sũng	-16021
abella	-16022
active	-16023
ishima	-16024
ledore	-16025
ropine	-16026
▁1926,	-16027
▁1943.	-16028
▁1984)	-16029
▁2021.	-16030
▁Hoang	-16031
▁Homer	-16032
▁Paint	-16033
▁dance	-16034
▁micrô	-16035
▁nuông	-16036
▁CRISPR	-16037
▁Hybrid	-16038
▁Phượng	-16039
▁Sergey	-16040
Settings	-16041
▁Brendan	-16042
▁Burkina	-16043
▁Lazarus	-16044
▁Morning	-16045
▁Parsons	-16046
▁Rainbow	-16047
▁albumin	-16048
▁Barciany	-16049
▁Communic	-16050
▁Giuseppe	-16051
▁Reuleaux	-16052
▁Dumbledore	-16053
▁gonadotrop	-16054
Ga	-16055
UM	-16056
oC	-16057
ús	-16058
́u	-16059
▁{	-16060
-0,	-16061
CAP	-16062
ROM	-16063
Ste	-16064
eot	-16065
lil	-16066
nek	-16067
ród	-16068
sor	-16069
ías	-16070
▁Oy	-16071
▁Ud	-16072
▁ắp	-16073
Hành	-16074
anor	-16075
ardi	-16076
itte	-16077
otho	-16078
ship	-16079
uage	-16080
zano	-16081
énez	-16082
▁(28	-16083
▁134	-16084
▁138	-16085
▁27.	-16086
▁31,	-16087
▁Cạp	-16088
▁Gợi	-16089
▁Haj	-16090
▁LAN	-16091
▁Săn	-16092
▁Teh	-16093
▁Tum	-16094
▁VLC	-16095
▁XIV	-16096
▁cad	-16097
▁mít	-16098
▁nốc	-16099
▁str	-16100
izine	-16101
onine	-16102
shima	-16103
urine	-16104
▁1890	-16105
▁Berm	-16106
▁Huck	-16107
▁Lina	-16108
▁Logo	-16109
▁Ngục	-16110
▁Nhai	-16111
▁Side	-16112
▁Thúc	-16113
▁gọng	-16114
▁hĩnh	-16115
▁nhẽo	-16116
▁thọc	-16117
▁vảng	-16118
ismund	-16119
waters	-16120
▁1922,	-16121
▁1942.	-16122
▁Artes	-16123
▁Atlet	-16124
▁Carla	-16125
▁Crime	-16126
▁Falls	-16127
▁Konst	-16128
▁Lucky	-16129
▁Malik	-16130
▁Mercy	-16131
▁Oghuz	-16132
▁Sofia	-16133
▁Vaugh	-16134
▁salon	-16135
▁(2003)	-16136
▁Edison	-16137
▁Indies	-16138
▁Naruto	-16139
▁Oswald	-16140
▁Cieszyn	-16141
▁Holland	-16142
▁Rodrigo	-16143
▁torrent	-16144
▁Arkansas	-16145
▁Ferguson	-16146
▁François	-16147
▁Euphrates	-16148
▁Ibuprofen	-16149
▁Industries	-16150
BV	-16151
GP	-16152
Gl	-16153
UY	-16154
ls	-16155
)".	-16156
-90	-16157
Ger	-16158
Top	-16159
Văn	-16160
adz	-16161
azy	-16162
fur	-16163
ifa	-16164
jos	-16165
mic	-16166
naz	-16167
rau	-16168
rya	-16169
▁(#	-16170
▁Nt	-16171
▁SR	-16172
▁ip	-16173
▁tì	-16174
Nghe	-16175
Paul	-16176
asim	-16177
coma	-16178
erre	-16179
fect	-16180
igen	-16181
iram	-16182
outi	-16183
uler	-16184
▁-19	-16185
▁1).	-16186
▁126	-16187
▁144	-16188
▁32,	-16189
▁36,	-16190
▁ARM	-16191
▁Aga	-16192
▁Dẫu	-16193
▁IGF	-16194
▁Koi	-16195
▁Kyi	-16196
▁Nys	-16197
▁REM	-16198
▁SPI	-16199
▁Vây	-16200
▁lọi	-16201
▁lợp	-16202
Kline	-16203
anner	-16204
giers	-16205
omino	-16206
▁6000	-16207
▁Alek	-16208
▁Cycl	-16209
▁Dopp	-16210
▁Echo	-16211
▁GnRH	-16212
▁Hiếm	-16213
▁Khóc	-16214
▁Kick	-16215
▁Pant	-16216
▁Path	-16217
▁Sulf	-16218
▁Year	-16219
▁Yoko	-16220
▁chao	-16221
▁mướp	-16222
▁nhoi	-16223
▁nhàu	-16224
League	-16225
▁1923,	-16226
▁1947.	-16227
▁Abbas	-16228
▁Basil	-16229
▁Brock	-16230
▁Busan	-16231
▁Eliot	-16232
▁India	-16233
▁Kowal	-16234
▁Leeds	-16235
▁Ngưng	-16236
▁Nicky	-16237
▁smart	-16238
▁Atkins	-16239
▁Citrus	-16240
▁Kimber	-16241
▁Ludwig	-16242
▁Sheikh	-16243
▁statin	-16244
▁stream	-16245
▁150.000	-16246
▁Console	-16247
▁Jupiter	-16248
▁Rosario	-16249
▁Timothy	-16250
▁Vicente	-16251
▁samurai	-16252
▁Crawford	-16253
▁Electric	-16254
▁Suriname	-16255
▁gradient	-16256
▁Sigismund	-16257
▁Wielkopol	-16258
!,	-16259
53	-16260
ôc	-16261
̀i	-16262
Giờ	-16263
Med	-16264
emp	-16265
idy	-16266
thì	-16267
thủ	-16268
▁Củ	-16269
▁Kö	-16270
▁úa	-16271
-197	-16272
Bằng	-16273
Nhân	-16274
Plus	-16275
carb	-16276
gluc	-16277
icle	-16278
inin	-16279
munt	-16280
toàn	-16281
ulia	-16282
uper	-16283
▁(0.	-16284
▁(23	-16285
▁121	-16286
▁137	-16287
▁3/4	-16288
▁AIR	-16289
▁DAT	-16290
▁Did	-16291
▁Eur	-16292
▁Faw	-16293
▁Gao	-16294
▁Ivy	-16295
▁Jol	-16296
▁Kuz	-16297
▁Ler	-16298
▁Lạm	-16299
▁SUV	-16300
▁XII	-16301
▁Zab	-16302
▁dos	-16303
▁gao	-16304
▁lat	-16305
▁mòi	-16306
▁ngỡ	-16307
▁reb	-16308
amune	-16309
aware	-16310
awatt	-16311
cliff	-16312
emian	-16313
osine	-16314
ussia	-16315
▁Alps	-16316
▁CNTT	-16317
▁Copa	-16318
▁Full	-16319
▁Jude	-16320
▁Know	-16321
▁Mard	-16322
▁Mayo	-16323
▁OHPC	-16324
▁Plat	-16325
▁Pros	-16326
▁nhen	-16327
▁quây	-16328
▁đoái	-16329
iction	-16330
inated	-16331
inness	-16332
omyces	-16333
rmacht	-16334
▁1954.	-16335
▁1991)	-16336
▁2006)	-16337
▁Aguil	-16338
▁Bello	-16339
▁Chiết	-16340
▁Dante	-16341
▁Jonah	-16342
▁Koran	-16343
▁Mikey	-16344
▁Nazca	-16345
▁Quant	-16346
▁Seven	-16347
▁Shane	-16348
▁Venus	-16349
▁human	-16350
▁ruồng	-16351
owiecki	-16352
▁2008-0	-16353
▁Androm	-16354
▁Bieber	-16355
▁Boruto	-16356
▁Regina	-16357
▁Rudolf	-16358
▁Temple	-16359
▁Teuton	-16360
▁Alfonso	-16361
▁Glasgow	-16362
▁Melanie	-16363
watersrand	-16364
▁Marseille	-16365
▁Sheffield	-16366
▁chocolate	-16367
▁glutamate	-16368
Fe	-16369
cc	-16370
xê	-16371
đê	-16372
Art	-16373
gun	-16374
mil	-16375
mọi	-16376
yad	-16377
độc	-16378
▁ED	-16379
▁JT	-16380
▁Lạ	-16381
▁dể	-16382
Hiển	-16383
alie	-16384
anty	-16385
azol	-16386
boro	-16387
enty	-16388
ibal	-16389
uber	-16390
umar	-16391
ving	-16392
ylla	-16393
▁1/1	-16394
▁142	-16395
▁320	-16396
▁ALF	-16397
▁CAR	-16398
▁Dud	-16399
▁Duk	-16400
▁Dut	-16401
▁Eye	-16402
▁Ghế	-16403
▁Gov	-16404
▁Jur	-16405
▁Mãn	-16406
▁Ske	-16407
▁Suu	-16408
▁Tag	-16409
▁hmm	-16410
▁hổn	-16411
▁xãy	-16412
▁điê	-16413
ablan	-16414
ausen	-16415
brook	-16416
oniat	-16417
othic	-16418
▁(240	-16419
▁Este	-16420
▁Jans	-16421
▁Mens	-16422
▁Ngắt	-16423
▁Nora	-16424
▁Pach	-16425
▁Rama	-16426
▁Stal	-16427
▁Słup	-16428
▁Trek	-16429
▁Vang	-16430
▁axet	-16431
▁caps	-16432
▁chầu	-16433
▁lẳng	-16434
▁vãng	-16435
-2018,	-16436
ciante	-16437
ennial	-16438
iffany	-16439
osilic	-16440
sudski	-16441
▁Kitty	-16442
▁Metac	-16443
▁Songs	-16444
▁Warri	-16445
▁XVIII	-16446
▁miles	-16447
▁nylon	-16448
ministr	-16449
▁(2018)	-16450
▁Blanca	-16451
▁Burton	-16452
▁Hayley	-16453
▁Hebrew	-16454
▁Herbie	-16455
▁Sergio	-16456
▁Vaughn	-16457
▁gluten	-16458
▁mangan	-16459
▁Hussein	-16460
▁Katrina	-16461
▁Oakland	-16462
▁Randall	-16463
▁Rolling	-16464
▁Voyager	-16465
lactamase	-16466
▁Metatron	-16467
▁Prentiss	-16468
▁Security	-16469
▁Ferdinand	-16470
▁Versailles	-16471
▁phosphoryl	-16472
Bu	-16473
NR	-16474
PO	-16475
▁Ứ	-16476
▁∈	-16477
Phụ	-16478
SQL	-16479
cor	-16480
dap	-16481
dựa	-16482
fia	-16483
iak	-16484
irm	-16485
lim	-16486
raw	-16487
teg	-16488
tek	-16489
▁CV	-16490
▁Ya	-16491
▁hú	-16492
aren	-16493
arto	-16494
atti	-16495
cing	-16496
giới	-16497
ivir	-16498
jeon	-16499
roch	-16500
sang	-16501
teen	-16502
time	-16503
ween	-16504
▁(27	-16505
▁116	-16506
▁129	-16507
▁64,	-16508
▁Fah	-16509
▁USC	-16510
▁WWE	-16511
▁Weh	-16512
▁Wiz	-16513
▁Wys	-16514
▁cup	-16515
▁deb	-16516
▁nhú	-16517
▁rep	-16518
▁sit	-16519
▁xơi	-16520
▁đom	-16521
▁đỗi	-16522
artis	-16523
ework	-16524
tuyên	-16525
▁Bett	-16526
▁Bowl	-16527
▁Crac	-16528
▁Dias	-16529
▁Dion	-16530
▁Frus	-16531
▁Fund	-16532
▁Lain	-16533
▁Mald	-16534
▁Ngưu	-16535
▁Nhẫn	-16536
▁Siri	-16537
▁biêt	-16538
▁blah	-16539
▁chũi	-16540
▁laze	-16541
▁phất	-16542
phenyl	-16543
▁Akira	-16544
▁Banie	-16545
▁Cyril	-16546
▁Darhk	-16547
▁Dixon	-16548
▁Ellie	-16549
▁Kerry	-16550
▁Pixel	-16551
▁Three	-16552
▁Wanda	-16553
▁Emilio	-16554
▁Henryk	-16555
▁Korean	-16556
▁Nghiền	-16557
▁Tomasz	-16558
▁UNICEF	-16559
▁Veneto	-16560
▁Century	-16561
▁Dominic	-16562
▁Pereira	-16563
▁Polonia	-16564
▁positron	-16565
▁Linderman	-16566
▁hydrocarbon	-16567
58	-16568
?!	-16569
ND	-16570
▁!	-16571
Máy	-16572
Val	-16573
adu	-16574
eze	-16575
zac	-16576
ốc	-16577
▁Gö	-16578
▁Vỗ	-16579
▁ob	-16580
▁Ốc	-16581
Time	-16582
Trái	-16583
ecko	-16584
hrer	-16585
obal	-16586
oura	-16587
thần	-16588
tiếp	-16589
tran	-16590
usta	-16591
yder	-16592
▁0,8	-16593
▁32.	-16594
▁4.5	-16595
▁5.0	-16596
▁Beh	-16597
▁Dij	-16598
▁Sho	-16599
▁Sow	-16600
▁Spl	-16601
▁Vải	-16602
▁Was	-16603
▁hột	-16604
▁nao	-16605
▁ách	-16606
garit	-16607
naeus	-16608
ohama	-16609
xcơva	-16610
▁0,00	-16611
▁Borg	-16612
▁Cald	-16613
▁Circ	-16614
▁Gogh	-16615
▁Lamp	-16616
▁Lego	-16617
▁Marj	-16618
▁Nowa	-16619
▁Pino	-16620
▁Umbr	-16621
▁Zara	-16622
▁dext	-16623
▁quăn	-16624
ground	-16625
hammer	-16626
leukin	-16627
▁Abdel	-16628
▁Banda	-16629
▁Eugen	-16630
▁Higgs	-16631
▁Metal	-16632
▁Reina	-16633
▁Spark	-16634
▁Stell	-16635
▁Tauri	-16636
▁Tower	-16637
▁eryth	-16638
▁xiềng	-16639
razepam	-16640
▁Arkham	-16641
▁Bridge	-16642
▁Challe	-16643
▁Durant	-16644
▁Jerome	-16645
▁Sandom	-16646
▁Tartus	-16647
stochowa	-16648
vastatin	-16649
▁Beatles	-16650
▁Daniels	-16651
▁Escuela	-16652
▁Freddie	-16653
▁Zygmunt	-16654
▁hashtag	-16655
alidomide	-16656
▁Adventure	-16657
▁Henderson	-16658
▁Witwatersrand	-16659
MG	-16660
tư	-16661
▁⇧	-16662
Mặt	-16663
Trò	-16664
anz	-16665
lúc	-16666
ngu	-16667
shu	-16668
zew	-16669
đau	-16670
▁Bơ	-16671
▁Dx	-16672
▁Gỗ	-16673
▁Mễ	-16674
▁NI	-16675
▁NL	-16676
▁PI	-16677
▁SV	-16678
▁lổ	-16679
Bill	-16680
Chúc	-16681
Mich	-16682
adia	-16683
arak	-16684
brom	-16685
chio	-16686
egro	-16687
flur	-16688
giáo	-16689
nice	-16690
▁(21	-16691
▁1.3	-16692
▁210	-16693
▁DOC	-16694
▁Ech	-16695
▁Keo	-16696
▁Led	-16697
▁Lót	-16698
▁Lừa	-16699
▁Rim	-16700
▁Vặn	-16701
▁Wid	-16702
▁cyc	-16703
▁nua	-16704
▁pre	-16705
▁trổ	-16706
▁uất	-16707
▁xắc	-16708
ahara	-16709
insky	-16710
mania	-16711
opane	-16712
▁"...	-16713
▁Bung	-16714
▁Huff	-16715
▁Nhắn	-16716
▁Pose	-16717
▁Sind	-16718
▁Sưng	-16719
▁anth	-16720
▁live	-16721
▁mùng	-16722
▁this	-16723
▁thăn	-16724
▁thẫm	-16725
▁tành	-16726
▁viêc	-16727
apiens	-16728
▁2007)	-16729
▁After	-16730
▁Anglo	-16731
▁Energ	-16732
▁Frodo	-16733
▁Kitch	-16734
▁Sansa	-16735
▁Seung	-16736
▁Vogue	-16737
▁betta	-16738
▁jeans	-16739
▁urani	-16740
▁Eminem	-16741
▁Latina	-16742
▁Mossad	-16743
▁Pocket	-16744
▁Poniat	-16745
▁Python	-16746
▁Tahiti	-16747
▁Vulcan	-16748
▁metres	-16749
▁sunfua	-16750
▁Algiers	-16751
▁Buffalo	-16752
▁Classic	-16753
▁Fighter	-16754
▁Grenada	-16755
▁Achilles	-16756
▁Atletico	-16757
▁Guinness	-16758
▁triclosan	-16759
▁Aleksander	-16760
▁hydrocortisone	-16761
AE	-16762
Hg	-16763
ISE	-16764
IST	-16765
Lời	-16766
Mỗi	-16767
dim	-16768
erk	-16769
esp	-16770
hol	-16771
iệ	-16772
mur	-16773
nin	-16774
oor	-16775
sto	-16776
suy	-16777
yps	-16778
ướm	-16779
▁-.	-16780
▁CB	-16781
▁RC	-16782
▁Sê	-16783
Giáo	-16784
Hiện	-16785
What	-16786
aidō	-16787
asty	-16788
ifen	-16789
ilee	-16790
khoa	-16791
rake	-16792
ride	-16793
teng	-16794
▁3).	-16795
▁Buc	-16796
▁Bội	-16797
▁Guz	-16798
▁SMS	-16799
▁Thụ	-16800
▁Yaz	-16801
▁boa	-16802
▁bíp	-16803
▁cảu	-16804
▁erg	-16805
▁sậm	-16806
▁tắn	-16807
▁xắt	-16808
andan	-16809
ature	-16810
berto	-16811
lings	-16812
▁Chav	-16813
▁Dell	-16814
▁Draz	-16815
▁Enki	-16816
▁Fils	-16817
▁Hash	-16818
▁Kart	-16819
▁Luca	-16820
▁Lyon	-16821
▁Ping	-16822
▁Saga	-16823
▁Shop	-16824
▁Tước	-16825
▁Vert	-16826
▁home	-16827
▁mast	-16828
▁nhẩm	-16829
▁trớn	-16830
▁Điếu	-16831
aguchi	-16832
chuyên	-16833
▁1968)	-16834
▁1973)	-16835
▁1974)	-16836
▁1981)	-16837
▁Speed	-16838
▁metan	-16839
▁nucle	-16840
▁Econom	-16841
▁Iberia	-16842
▁Kalisz	-16843
[...]
