<pad>	0
<s>	0
</s>	0
<unk>	0
▁tôi	-3.15884
.	-3.28034
▁bạn	-3.68991
▁không	-3.70799
▁có	-4.00704
▁tom	-4.06277
▁một	-4.10015
▁đã	-4.14929
▁của	-4.33695
▁anh	-4.41231
▁là	-4.44422
?	-4.49495
▁ấy	-4.51781
▁chúng	-4.67523
▁sẽ	-4.69442
▁thể	-4.74171
▁với	-4.81812
▁đó	-4.81931
▁làm	-4.82918
▁nói	-4.85858
▁gì	-4.86104
▁cho	-4.8959
,	-5.02051
▁ta	-5.04726
▁Tom	-5.04747
▁Tôi	-5.08288
▁ở	-5.08519
▁đến	-5.11955
▁muốn	-5.17374
▁đi	-5.18451
▁	-5.19263
▁cô	-5.20593
▁này	-5.21766
▁trong	-5.25128
▁để	-5.25454
▁đang	-5.25897
▁phải	-5.27065
▁người	-5.28137
▁điều	-5.30836
▁biết	-5.35641
▁nó	-5.40026
▁mary	-5.42029
▁những	-5.43641
▁được	-5.45396
▁về	-5.50873
▁khi	-5.51648
▁và	-5.5273
▁ra	-5.55216
▁rằng	-5.55264
▁vào	-5.55275
▁rất	-5.57334
▁giờ	-5.61306
▁nghĩ	-5.6223
▁thấy	-5.67661
▁đây	-5.70181
▁mình	-5.72095
▁họ	-5.72375
i	-5.76282
▁như	-5.77556
▁nhà	-5.79406
▁b	-5.83095
▁sự	-5.83543
▁bị	-5.83665
▁việc	-5.8508
m	-5.87792
▁nào	-5.90806
▁nhiều	-5.91459
▁lại	-5.92665
▁thích	-5.92979
▁ngày	-5.98208
▁cả	-5.98855
▁hơn	-6.01179
▁tốt	-6.01555
▁nên	-6.06394
▁bao	-6.07785
▁ăn	-6.11343
▁từ	-6.11857
▁cần	-6.12797
▁con	-6.13299
▁ai	-6.14535
▁chỉ	-6.14633
▁học	-6.15195
▁cái	-6.17326
▁công	-6.19452
▁xe	-6.21667
▁ông	-6.26767
▁trên	-6.28961
▁tiếng	-6.2957
▁qua	-6.30495
▁sao	-6.32435
▁thực	-6.32439
▁thế	-6.33039
▁chuyện	-6.34757
▁trước	-6.35074
▁đề	-6.37011
▁đầu	-6.37188
▁thời	-6.37277
▁Anh	-6.37759
▁giúp	-6.37886
ng	-6.40349
▁thứ	-6.42787
y	-6.43248
▁hỏi	-6.43655
▁thành	-6.4493
▁tất	-6.46317
▁gặp	-6.47873
▁nếu	-6.49312
▁các	-6.49614
▁tại	-6.52192
▁vì	-6.53267
▁thật	-6.54583
▁sống	-6.54654
ất	-6.55209
▁tin	-6.55233
▁cảm	-6.55356
▁B	-6.56759
▁năm	-6.57957
▁bắt	-6.58883
▁yêu	-6.59196
▁nay	-6.59343
▁chưa	-6.59833
▁nhìn	-6.59895
▁số	-6.60877
▁tiền	-6.60918
▁nhất	-6.61012
▁ý	-6.62138
▁gian	-6.62171
▁mọ	-6.62923
▁vui	-6.63497
▁nghe	-6.63598
ây	-6.63994
▁tìm	-6.66035
▁đừng	-6.66392
▁cuộc	-6.66916
▁khác	-6.67248
▁nhận	-6.68306
▁vấn	-6.69906
▁chiếc	-6.70553
▁xả	-6.70775
▁trở	-6.73191
▁hai	-6.74011
▁c	-6.74898
▁phòng	-6.74994
▁quá	-6.75019
ạn	-6.75897
▁hô	-6.76157
▁lên	-6.76812
▁viên	-6.77852
▁tự	-6.77944
a	-6.78824
▁cách	-6.78864
▁chơi	-6.79452
▁câu	-6.79895
▁lời	-6.80901
▁C	-6.80959
▁mua	-6.8105
▁sách	-6.83002
▁nhưng	-6.84307
▁bằng	-6.84396
▁sau	-6.84557
▁cùng	-6.85819
▁cứ	-6.86631
▁ba	-6.87154
▁hàng	-6.87406
▁đâu	-6.88096
▁quan	-6.88434
▁tối	-6.88571
n	-6.89044
▁xem	-6.89654
▁nhau	-6.8991
▁chắc	-6.90695
▁lớn	-6.9071
▁cửa	-6.90906
▁xin	-6.94531
▁định	-6.94764
▁lúc	-6.95029
▁mà	-6.96944
▁vậy	-6.96968
▁cố	-6.97583
▁nữa	-6.98136
▁lần	-6.98306
▁gọi	-6.98873
▁mới	-6.9906
▁lòng	-7.00209
▁còn	-7.00409
▁theo	-7.01116
▁khỏi	-7.01869
▁trả	-7.02044
▁thường	-7.0263
▁ngoài	-7.0291
t	-7.02973
▁sinh	-7.03053
▁nước	-7.03563
▁trẻ	-7.03752
▁ngủ	-7.05559
▁hãy	-7.05677
▁ngay	-7.06405
▁luôn	-7.06687
▁cầu	-7.07313
▁gia	-7.08276
▁tay	-7.09494
▁đ	-7.09629
▁boston	-7.10523
▁mất	-7.11597
▁khó	-7.11838
▁hoàn	-7.11929
▁bỏ	-7.12817
▁đường	-7.13128
▁vẻ	-7.13157
▁bài	-7.13205
▁bộ	-7.14159
▁kết	-7.14507
▁bữa	-7.14557
▁cuốn	-7.14561
▁trường	-7.15182
▁rời	-7.15546
▁gái	-7.15643
▁lỗi	-7.162
▁đợi	-7.16245
▁quyết	-7.16527
▁sáng	-7.1693
▁mẹ	-7.17998
▁hiểu	-7.18948
▁Cô	-7.19724
▁chắn	-7.19741
▁lý	-7.20102
▁máy	-7.20186
▁vẫn	-7.21206
u	-7.21347
▁Pháp	-7.21497
▁T	-7.21725
▁lấy	-7.22201
▁hiện	-7.23807
▁trai	-7.23812
▁m	-7.24622
▁gắng	-7.25472
▁động	-7.25558
▁sớm	-7.2564
▁nơi	-7.25723
▁đồng	-7.26806
▁vọng	-7.27543
▁kỳ	-7.28389
▁tâm	-7.28392
ó	-7.28422
▁tuần	-7.28606
▁đàn	-7.29496
▁ch	-7.29591
▁cuối	-7.29624
▁giá	-7.30267
▁trời	-7.30856
▁đánh	-7.31373
▁uống	-7.31439
▁đẹp	-7.32275
▁chính	-7.32391
▁đọc	-7.32415
▁đúng	-7.33051
▁thư	-7.33558
▁thức	-7.33617
▁toàn	-7.33729
▁t	-7.34012
▁mai	-7.34461
▁đặt	-7.34771
▁gần	-7.348
▁chết	-7.36102
▁mặt	-7.37253
▁giải	-7.37578
▁cũ	-7.38254
▁đều	-7.38634
▁giữ	-7.3937
▁dụng	-7.39948
▁lắng	-7.40083
▁sai	-7.40579
▁ngồi	-7.4078
▁hôn	-7.41108
▁vài	-7.43527
▁bảo	-7.44006
▁viết	-7.44596
▁áo	-7.45328
▁mỗi	-7.46088
▁xuống	-7.46511
▁đỡ	-7.46709
▁tưởng	-7.47036
▁em	-7.47326
▁nhớ	-7.48073
▁cha	-7.48082
▁tức	-7.49666
▁dự	-7.49811
▁"	-7.51826
▁tên	-7.52049
▁giáo	-7.5217
▁cơ	-7.52335
▁k	-7.52387
▁trông	-7.52389
▁đủ	-7.52393
▁cà	-7.52543
▁sĩ	-7.52707
▁trọng	-7.53056
▁báo	-7.53445
▁thông	-7.53753
▁cây	-7.54544
▁đêm	-7.54653
▁cao	-7.5474
▁hợp	-7.5531
▁chút	-7.55638
▁tuổi	-7.5588
▁lo	-7.56028
▁nhân	-7.56135
▁chó	-7.56187
▁sợ	-7.56306
▁sử	-7.56462
▁bé	-7.56782
▁lâu	-7.56876
▁hành	-7.57118
▁nhiêu	-7.58372
▁ít	-7.58717
▁điện	-7.58748
▁thay	-7.5906
▁tiếp	-7.5964
▁d	-7.60586
▁tập	-7.61306
▁nhanh	-7.61575
▁ảnh	-7.61998
▁bản	-7.62287
▁khá	-7.62308
▁bên	-7.62452
▁nghỉ	-7.62648
▁kế	-7.62955
▁hy	-7.63949
▁đối	-7.64233
▁cảnh	-7.64265
▁tuyệt	-7.64868
▁vụ	-7.64897
▁mặc	-7.64949
▁bận	-7.6501
▁chạy	-7.65228
▁tháng	-7.65431
▁tàu	-7.65704
▁Nhật	-7.66235
▁tình	-7.66717
▁hết	-7.66867
▁nhiên	-7.66967
▁ơn	-7.67171
▁chiến	-7.67874
▁do	-7.70226
▁hay	-7.71111
▁phát	-7.71433
▁mở	-7.71522
▁bay	-7.71619
▁hạnh	-7.71642
▁mang	-7.71892
▁hoạch	-7.71909
▁H	-7.71971
▁mưa	-7.72428
▁đư	-7.72477
▁từng	-7.72896
▁bệnh	-7.73169
▁đồ	-7.73751
▁sát	-7.73774
▁cười	-7.73944
▁phúc	-7.74445
▁tiệc	-7.74674
▁dễ	-7.74812
▁đổi	-7.74874
▁giới	-7.75036
▁thuốc	-7.75367
▁thương	-7.75475
▁bàn	-7.75552
▁mười	-7.75574
▁hội	-7.76008
▁lẽ	-7.76157
▁bóng	-7.76873
▁đáng	-7.77103
▁chủ	-7.77209
▁vị	-7.77879
▁phụ	-7.78171
▁Tạ	-7.79636
▁bơi	-7.79691
▁cá	-7.79958
▁bánh	-7.80133
▁hình	-7.80142
▁đôi	-7.80198
▁nhạc	-7.80335
▁tranh	-7.81085
▁dài	-7.81186
▁lái	-7.81966
▁năng	-7.82044
uổi	-7.82545
▁đơn	-7.82619
▁Đ	-7.82739
▁lạnh	-7.83333
▁hát	-7.83598
▁nhỏ	-7.83848
▁N	-7.83927
▁bố	-7.84188
▁ngôi	-7.84782
▁khách	-7.84975
▁đại	-7.85695
ưa	-7.85884
▁màu	-7.86358
▁tham	-7.86758
ường	-7.86856
!	-7.86901
▁trung	-7.88183
▁quên	-7.88526
▁rồi	-7.89092
▁quả	-7.89175
▁đá	-7.89324
▁tra	-7.89833
▁n	-7.89837
▁lập	-7.89982
▁tiết	-7.90314
▁ước	-7.90709
▁khăn	-7.90999
▁mắt	-7.91188
▁giống	-7.91498
▁đau	-7.91767
▁phút	-7.9244
▁thú	-7.92509
▁thị	-7.92646
▁nghị	-7.92763
▁chờ	-7.93222
▁vừa	-7.93244
▁kinh	-7.93987
▁phố	-7.94301
▁hơi	-7.94517
▁tiên	-7.94764
ong	-7.9505
▁thoại	-7.95199
▁điểm	-7.95367
▁tới	-7.95382
▁thêm	-7.95678
▁sức	-7.95798
▁nữ	-7.95932
▁nhật	-7.96387
▁tai	-7.96581
▁s	-7.96986
▁lịch	-7.97011
▁Bản	-7.97302
▁chọn	-7.97422
▁kiếm	-7.97511
▁bình	-7.97521
▁Là	-7.97982
ãy	-7.97992
▁văn	-7.98092
▁dậy	-7.98501
▁nạn	-7.98534
▁mùa	-7.98545
▁thân	-7.996
▁thất	-7.9982
▁bức	-7.99843
▁sẵn	-7.99883
▁loại	-8.00118
▁đứng	-8.00208
▁quanh	-8.00535
▁dành	-8.00546
▁Kh	-8.00847
▁xấu	-8.0091
▁xuất	-8.01262
▁hồ	-8.01687
▁mươi	-8.02473
uyến	-8.02493
▁xa	-8.03079
▁chú	-8.03234
▁phục	-8.03755
▁la	-8.03881
▁chuyển	-8.03931
▁kể	-8.04331
▁trò	-8.04378
▁quay	-8.04424
▁đình	-8.04686
▁nghĩa	-8.04719
▁chứ	-8.05114
▁biệt	-8.05403
▁chí	-8.05553
▁lớp	-8.05782
ọi	-8.05878
▁bởi	-8.06275
▁tính	-8.06931
▁chịu	-8.07186
▁họp	-8.08025
▁thăm	-8.08736
▁khóa	-8.08929
▁thử	-8.09358
▁thuyết	-8.0953
▁dối	-8.09795
▁giận	-8.10206
▁phí	-8.10242
▁phê	-8.10332
▁vời	-8.10499
▁giết	-8.1079
▁duy	-8.11157
▁rõ	-8.11453
▁trưa	-8.11689
▁ngạc	-8.12052
ẻ	-8.12174
▁ngốc	-8.12342
▁sàng	-8.12556
▁bán	-8.1292
▁khuyên	-8.12955
▁phim	-8.13105
▁cẩn	-8.13381
▁cấp	-8.13798
▁rối	-8.14374
▁minh	-8.14555
▁quần	-8.14684
▁lạc	-8.14694
▁gửi	-8.14731
▁đất	-8.15158
▁buýt	-8.15287
▁xử	-8.15421
▁hiểm	-8.15473
▁mệt	-8.15555
▁tội	-8.15756
▁liên	-8.1576
▁phía	-8.15918
▁giỏi	-8.16031
▁trí	-8.16282
▁muộn	-8.16746
▁phép	-8.16898
▁lầm	-8.16922
▁tệ	-8.16952
▁đóng	-8.17206
▁kiể	-8.17434
▁hóa	-8.17632
▁chân	-8.17763
▁bác	-8.17943
▁viện	-8.18038
▁tài	-8.18411
▁rượu	-8.19183
▁già	-8.19283
▁buồn	-8.19995
▁luận	-8.20123
▁tục	-8.20327
."	-8.20348
▁xác	-8.21163
▁thận	-8.21387
▁an	-8.21579
▁hòa	-8.2159
▁trái	-8.2159
▁ổn	-8.21875
ắp	-8.22357
ũng	-8.22699
▁john	-8.22793
▁món	-8.22915
▁bấ	-8.23047
▁phạm	-8.23279
▁phần	-8.23298
▁vô	-8.23474
▁mạnh	-8.23781
▁đô	-8.24579
▁ngữ	-8.24731
▁dừng	-8.25578
▁tế	-8.26702
▁hầu	-8.26725
▁mèo	-8.27034
▁cậu	-8.27569
▁đội	-8.27659
▁cứu	-8.28758
▁khả	-8.28978
▁giả	-8.29639
▁ngờ	-8.29972
▁trang	-8.30053
▁bước	-8.30134
hăm	-8.3046
c	-8.30873
▁quen	-8.30962
▁lạ	-8.31106
▁khỏe	-8.31299
▁dù	-8.31399
▁chấp	-8.32562
▁thúc	-8.3286
▁túi	-8.33124
▁lá	-8.33439
▁chiều	-8.3344
▁tuyết	-8.33466
▁suy	-8.33787
▁căn	-8.33822
▁Mỹ	-8.33926
▁sáu	-8.33962
▁ga	-8.34155
▁dưới	-8.34668
▁phiền	-8.35033
▁hút	-8.35178
▁ghét	-8.35272
▁ty	-8.35376
▁sổ	-8.35745
▁tượng	-8.35792
▁xu	-8.3589
ứa	-8.36774
▁nguy	-8.37084
ến	-8.37895
▁vật	-8.38204
▁hoa	-8.39358
▁sóc	-8.39647
▁phá	-8.40477
▁mật	-8.40848
▁đổ	-8.40963
▁dàng	-8.41265
▁nóng	-8.41316
▁nổi	-8.41339
▁ngu	-8.41433
▁rộn	-8.41733
▁hoặc	-8.42135
▁ràng	-8.42368
▁âm	-8.43115
▁kiến	-8.43182
▁nghi	-8.43337
▁thiết	-8.43389
▁thống	-8.43453
▁đoán	-8.43517
▁tương	-8.43654
▁đông	-8.43663
▁vợ	-8.43923
▁du	-8.43944
▁độ	-8.44046
▁bí	-8.4429
▁ký	-8.44304
▁cáo	-8.44672
▁sư	-8.44707
▁M	-8.44717
▁khóc	-8.44805
▁bè	-8.44886
▁trấn	-8.4491
▁hài	-8.45415
▁kéo	-8.4589
▁may	-8.46381
▁tăng	-8.46424
▁nhiệm	-8.46509
▁hứa	-8.468
▁thuộc	-8.47346
▁nhảy	-8.48012
▁mỏi	-8.48189
▁th	-8.48533
▁đầy	-8.48552
▁giữa	-8.48556
▁kh	-8.48933
▁nghiệp	-8.49386
▁dạy	-8.49389
▁luật	-8.49592
▁thì	-8.50103
▁g	-8.50106
▁sửa	-8.50125
▁trị	-8.50853
▁quốc	-8.51059
▁bại	-8.51079
▁cánh	-8.51354
▁lặng	-8.51499
▁diễn	-8.51935
▁Điề	-8.51953
▁giày	-8.52138
▁ngoại	-8.52145
▁ngừng	-8.52166
▁rơi	-8.52774
▁chức	-8.52799
▁tóc	-8.5282
▁cắt	-8.52961
▁trình	-8.53255
▁lực	-8.53263
▁rắc	-8.53422
▁băng	-8.5374
▁hè	-8.53745
▁giảm	-8.53821
▁khí	-8.54557
▁lượng	-8.5475
▁giao	-8.5479
▁ly	-8.54864
▁mơ	-8.54913
▁pháp	-8.54978
▁thắng	-8.55225
▁vượ	-8.55321
▁L	-8.55564
▁liệu	-8.56071
▁ph	-8.56219
▁di	-8.56582
▁biển	-8.56751
▁sở	-8.56976
▁hộp	-8.57031
▁x	-8.57082
▁ghế	-8.5741
▁tồi	-8.57721
▁dân	-8.58087
▁ngăn	-8.58156
?"	-8.5824
nh	-8.58269
▁cạnh	-8.58369
▁chỗ	-8.58584
▁nằm	-8.58766
▁chi	-8.58818
▁khoản	-8.58995
▁doanh	-8.59134
▁quy	-8.59974
▁giường	-8.59987
▁thu	-8.6052
▁à	-8.60855
ại	-8.61022
▁ốm	-8.61093
▁biến	-8.61232
▁mượn	-8.61327
▁buộc	-8.61415
▁đạp	-8.61562
▁đấu	-8.6183
▁cổ	-8.61861
▁mời	-8.62265
▁bảy	-8.62425
▁riêng	-8.62985
▁hộ	-8.63015
▁chàng	-8.63071
▁mái	-8.63907
▁nghiêm	-8.64932
▁yên	-8.65083
▁đói	-8.65404
▁chuẩn	-8.65408
▁hoạt	-8.65428
▁khoa	-8.65497
▁cung	-8.65582
▁tù	-8.65769
▁dịch	-8.66145
▁xét	-8.66667
▁thi	-8.66718
▁hẹn	-8.66962
▁thoát	-8.6739
▁im	-8.67566
▁đời	-8.67715
▁v	-8.67935
▁dẫn	-8.68638
▁sông	-8.6864
▁lắm	-8.68703
▁đỏ	-8.68976
▁sân	-8.69188
▁so	-8.69406
▁sạn	-8.6959
▁đặc	-8.69671
▁tắt	-8.6971
▁điên	-8.69807
▁hướng	-8.69941
▁thảo	-8.69972
▁thủ	-8.70059
▁giàu	-8.70297
▁chối	-8.70353
▁lãng	-8.70431
▁tắm	-8.70482
▁hiệu	-8.70538
▁tránh	-8.70982
▁mức	-8.71282
▁nỗ	-8.71378
▁trễ	-8.71715
▁khoác	-8.72774
▁trách	-8.72801
▁quà	-8.72985
▁thanh	-8.73322
▁chứng	-8.73362
▁Ai	-8.73385
▁bầu	-8.74227
▁ban	-8.74239
▁táo	-8.74526
▁vệ	-8.74669
▁phả	-8.74897
▁thiếu	-8.74962
▁tử	-8.74965
▁V	-8.7506
ông	-8.75554
▁ô	-8.75653
▁co	-8.7574
▁biểu	-8.75809
▁nấu	-8.75997
▁súng	-8.76049
▁chia	-8.76582
▁xong	-8.76654
▁tổn	-8.76745
▁địa	-8.76805
▁phủ	-8.76825
▁chị	-8.77061
hật	-8.77287
▁l	-8.77461
▁đứ	-8.77506
▁mắn	-8.77914
▁trượt	-8.7793
▁ngon	-8.77993
▁sản	-8.78033
▁Con	-8.78227
▁ích	-8.7854
▁mũ	-8.78584
àng	-8.79084
▁tòa	-8.79095
▁chằm	-8.79306
▁phẩm	-8.79587
g	-8.79698
▁xanh	-8.80155
▁vỡ	-8.80416
▁h	-8.80912
▁tiêu	-8.80961
▁trận	-8.8104
▁kính	-8.81044
▁váy	-8.81299
▁khu	-8.81726
▁tác	-8.82465
▁tư	-8.82516
▁giấy	-8.8255
▁vũ	-8.82552
▁xuyên	-8.82769
▁danh	-8.83
▁hữu	-8.83305
▁ngôn	-8.8372
▁bốn	-8.83837
▁thuê	-8.83909
▁án	-8.84258
▁thậ	-8.84743
▁tạo	-8.85141
▁trốn	-8.85348
▁quyền	-8.8539
▁đảm	-8.86056
▁sang	-8.86156
▁thôi	-8.86267
▁núi	-8.86324
▁đùa	-8.86904
▁khủng	-8.87205
▁đèn	-8.87205
▁ngắn	-8.87234
▁trắng	-8.87522
▁quản	-8.8784
▁thẳng	-8.87915
▁ngoái	-8.88126
▁cắp	-8.8831
▁trừ	-8.88332
▁trợ	-8.88458
▁chì	-8.88464
▁ngân	-8.88783
▁bút	-8.88815
▁bà	-8.88831
▁hào	-8.88991
▁thịt	-8.89227
▁lỡ	-8.89339
▁nặng	-8.89363
Không	-8.89366
▁Nó	-8.89372
iểm	-8.89403
▁nửa	-8.89689
▁điển	-8.89702
▁niề	-8.89732
▁bếp	-8.89988
▁vé	-8.902
▁vàng	-8.90287
hững	-8.90381
▁bắn	-8.90828
ăm	-8.90938
▁lửa	-8.91246
▁trưởng	-8.91248
▁khoả	-8.91648
▁đen	-8.91685
âu	-8.92152
▁kia	-8.92933
▁bật	-8.9305
▁nhập	-8.93181
▁thang	-8.93909
▁dạo	-8.94461
à	-8.94581
▁xúc	-8.95124
▁lự	-8.9534
▁nghiệm	-8.95465
▁chào	-8.95662
▁Nế	-8.96047
▁bia	-8.9641
▁toán	-8.9648
▁cân	-8.9652
ôm	-8.96557
▁tv	-8.96664
▁tổ	-8.96722
▁vội	-8.96784
▁thuận	-8.96806
▁tennis	-8.97455
▁thuật	-8.9747
uốc	-8.9756
▁tắc	-8.97608
▁say	-8.97703
ần	-8.97734
▁rửa	-8.97777
▁cờ	-8.9788
▁hủy	-8.98204
▁chán	-8.98286
▁tiểu	-8.9864
▁hổ	-8.98738
gười	-8.98772
▁Đức	-8.98842
▁xây	-8.99323
▁thơ	-8.99581
▁trăm	-8.99584
▁hệ	-8.99629
ù	-8.99707
▁nhẫn	-8.99838
▁miễn	-9.00183
▁sữa	-9.00195
▁kịp	-9.00517
▁chim	-9.00741
▁piano	-9.00877
▁vòng	-9.009
▁hại	-9.01392
▁nợ	-9.01716
▁thừa	-9.02291
▁ngơi	-9.02324
▁Trung	-9.02666
▁cháy	-9.02674
▁trà	-9.02674
▁mấy	-9.02726
▁giác	-9.02816
▁giấc	-9.02992
ằng	-9.03015
o	-9.03233
▁cư	-9.03556
▁ngựa	-9.03738
▁lương	-9.0376
▁thiện	-9.03977
▁đeo	-9.04879
▁ghi	-9.05014
▁xinh	-9.05047
▁hỏng	-9.05131
▁dục	-9.05186
▁dọ	-9.0526
▁ứng	-9.05596
▁mì	-9.06019
▁chậm	-9.06116
▁vi	-9.06341
▁dựng	-9.0639
▁tĩnh	-9.06654
▁Đó	-9.06969
▁ném	-9.07371
▁tiếc	-9.07627
▁chóng	-9.07761
▁chồng	-9.07835
▁áp	-9.07894
▁ng	-9.07961
▁tách	-9.08243
ống	-9.08358
▁đắt	-9.08362
▁mục	-9.08536
▁to	-9.08569
▁giấu	-9.0925
▁nàn	-9.09361
▁chày	-9.0941
▁độc	-9.09471
h	-9.09869
▁phàn	-9.09899
iều	-9.09912
▁nghệ	-9.10009
▁vườn	-9.10392
▁chung	-9.10696
▁Mộ	-9.11413
▁tờ	-9.11849
▁khẩu	-9.12328
▁truyền	-9.12339
▁tận	-9.12782
▁cưới	-9.12784
ảy	-9.12809
uyên	-9.12863
▁đạt	-9.13163
▁tám	-9.13181
▁hưởng	-9.1325
▁bão	-9.13525
▁hạn	-9.14302
▁lừa	-9.14312
▁tạp	-9.1433
▁vẽ	-9.14766
▁ví	-9.14914
▁nhờ	-9.15084
▁mừng	-9.15705
▁đột	-9.15779
▁lỗ	-9.15878
tôi	-9.16158
▁ồn	-9.16192
▁bãi	-9.16803
▁lệ	-9.16885
▁giọng	-9.17145
▁miệng	-9.17555
▁trộm	-9.17967
▁thuyền	-9.18007
▁tường	-9.18213
▁nhẹ	-9.1827
▁hét	-9.1837
▁nghèo	-9.18378
▁lợi	-9.18815
▁hiếm	-9.18879
▁tiến	-9.18952
▁chữa	-9.1899
▁ấm	-9.19137
▁trứng	-9.20515
▁thỏa	-9.20551
▁dùng	-9.20719
▁Họ	-9.20743
▁tặng	-9.21819
▁trại	-9.22023
▁tim	-9.22276
▁kỹ	-9.22603
▁cập	-9.22869
▁mắc	-9.23143
▁tha	-9.23397
▁kỷ	-9.23474
ôi	-9.23613
▁dây	-9.23856
▁sắm	-9.24222
▁tinh	-9.24465
▁ca	-9.24519
▁tủ	-9.24675
▁suốt	-9.24818
▁yếu	-9.25258
▁phương	-9.25305
▁ngọn	-9.25333
uân	-9.25403
▁quân	-9.25718
▁tây	-9.25719
▁nhầm	-9.25733
▁sắc	-9.25793
▁chụp	-9.26153
▁nhắn	-9.26283
ắm	-9.26606
▁dao	-9.26739
bạn	-9.27027
▁sâu	-9.27186
▁đón	-9.27309
▁lưng	-9.27544
▁1	-9.27608
▁lai	-9.27853
▁chất	-9.27991
▁tải	-9.28143
▁chế	-9.28619
▁Ng	-9.28786
▁mãi	-9.28961
ơn	-9.29196
▁đậu	-9.29413
▁kiện	-9.29428
▁bông	-9.29843
▁nhóm	-9.30291
▁nhiệt	-9.3079
▁bụng	-9.31259
▁Các	-9.31449
▁tivi	-9.31701
▁ngã	-9.31788
▁hò	-9.31824
▁hỗ	-9.32224
▁hãi	-9.32724
▁Tokyo	-9.33137
▁cãi	-9.33159
▁trạng	-9.33163
▁dòng	-9.33644
▁ánh	-9.33824
▁ấn	-9.34335
▁quán	-9.34465
▁sàn	-9.34503
▁dấu	-9.34599
▁leo	-9.34951
▁guitar	-9.35102
▁ken	-9.35204
▁nguyên	-9.35227
▁hảo	-9.35518
▁kiệm	-9.35595
▁kiên	-9.35666
▁thấp	-9.35707
▁phiếu	-9.36578
▁Sa	-9.37255
▁cử	-9.37442
▁thù	-9.37523
▁đựng	-9.3757
▁khiếp	-9.37638
▁hối	-9.37672
▁can	-9.37738
▁chương	-9.37788
▁cực	-9.37847
▁sạch	-9.38083
▁chạm	-9.38106
▁rút	-9.38144
▁phong	-9.38233
▁thao	-9.38356
▁thờ	-9.38367
▁chai	-9.38447
▁gấp	-9.38582
▁tầng	-9.38588
▁Nh	-9.386
▁vờ	-9.38796
▁S	-9.39073
▁vực	-9.39137
▁tôn	-9.39221
▁bối	-9.39343
▁chuy	-9.39458
▁môn	-9.39555
▁nuôi	-9.3961
▁cặp	-9.39654
▁thiệu	-9.39701
▁sa	-9.39761
▁răng	-9.39769
▁che	-9.39882
▁thần	-9.40427
▁khắc	-9.40713
▁chă	-9.40941
hậm	-9.40978
ên	-9.41012
▁chín	-9.41108
▁vắng	-9.41199
▁dõi	-9.41671
ác	-9.41922
▁ghé	-9.41984
hìa	-9.42173
▁chảy	-9.4224
▁nướng	-9.42268
▁tỉnh	-9.42895
▁sơn	-9.43259
▁chữ	-9.44001
▁đẩy	-9.44373
▁đạo	-9.44394
▁tầm	-9.44559
▁trải	-9.44941
▁phổ	-9.4496
▁tích	-9.4533
ởi	-9.45363
▁ma	-9.45403
▁thở	-9.45859
▁taxi	-9.45988
▁chặt	-9.46592
▁đào	-9.46695
▁thô	-9.46903
▁thoảng	-9.47016
▁giản	-9.47029
▁khuôn	-9.47123
▁mẽ	-9.47358
▁gió	-9.47533
▁mộ	-9.47621
▁khích	-9.47894
▁nổ	-9.48392
▁tấn	-9.48945
▁nghiên	-9.49367
▁đảo	-9.49412
▁gói	-9.4945
▁túc	-9.49746
▁nguyện	-9.49912
▁soát	-9.50459
▁triệu	-9.50466
▁thiên	-9.50736
▁mùi	-9.50851
▁vali	-9.5103
iêu	-9.51089
▁mối	-9.51386
ỗi	-9.51469
▁dã	-9.51825
▁tiện	-9.52105
▁triển	-9.52213
▁hoàng	-9.5254
▁rừng	-9.52605
"	-9.52891
▁nội	-9.52894
▁Bố	-9.53155
ụ	-9.53468
▁máu	-9.54625
p	-9.55089
▁phán	-9.55138
▁xóm	-9.55144
ọn	-9.55488
▁sơ	-9.55494
▁chúc	-9.55536
▁thoả	-9.55684
▁jane	-9.55745
▁paris	-9.55749
▁xếp	-9.55751
hỉnh	-9.5576
▁da	-9.56116
▁vết	-9.56473
▁trống	-9.56611
▁trôi	-9.56913
không	-9.57276
▁đài	-9.57517
▁phân	-9.5763
ẹ	-9.58216
▁lính	-9.58237
▁dẹp	-9.5882
▁nhắc	-9.58918
▁mo	-9.59148
▁chiếu	-9.59666
▁tô	-9.59742
▁thải	-9.59809
▁Nha	-9.59826
▁thẻ	-9.59913
▁quý	-9.60074
▁treo	-9.60122
▁Ban	-9.60621
▁cụ	-9.61335
▁hoãn	-9.61336
▁cú	-9.61573
▁rộng	-9.61591
▁cộng	-9.62058
▁miếng	-9.62125
▁mô	-9.62699
▁trăng	-9.62719
▁Tây	-9.63197
▁kẹt	-9.63269
▁đĩa	-9.63282
▁kích	-9.63487
▁lễ	-9.63911
▁19	-9.64215
▁cải	-9.64314
▁béo	-9.64456
▁tốc	-9.64485
▁2:30	-9.64553
▁mỉ	-9.6458
s	-9.6461
▁bạc	-9.647
▁gà	-9.64944
▁khăng	-9.6508
▁đích	-9.65199
▁hồi	-9.65642
▁cầm	-9.6574
▁Nga	-9.65766
▁cam	-9.65824
▁lệnh	-9.65995
▁tổng	-9.66138
ì	-9.66251
▁vai	-9.6646
▁10	-9.66542
▁mù	-9.66968
▁giây	-9.67133
▁dữ	-9.6727
▁thảm	-9.6756
▁rẻ	-9.67623
▁jim	-9.67745
▁thà	-9.67841
▁new	-9.67936
▁york	-9.67941
▁nhặt	-9.6796
▁nh	-9.68299
▁tồn	-9.68425
▁kyoto	-9.68652
anh	-9.69361
▁khởi	-9.69413
▁nam	-9.69435
▁lát	-9.69492
▁đuổi	-9.6963
▁bẩn	-9.70196
▁hỏa	-9.70539
▁tokyo	-9.70747
húng	-9.71069
▁ngại	-9.7126
▁Canada	-9.71444
▁kem	-9.7156
hẩm	-9.7175
▁Cậ	-9.71804
▁phó	-9.71858
▁hậu	-9.7216
▁cốc	-9.72323
▁bò	-9.72328
▁thua	-9.72352
▁tạm	-9.7241
▁ngàn	-9.72457
▁chặn	-9.72494
▁lưu	-9.72893
▁nền	-9.72926
▁vợt	-9.73524
▁huống	-9.73609
▁mẫu	-9.74275
▁vạt	-9.74289
▁Đôn	-9.74315
▁nút	-9.74382
▁chuông	-9.74469
▁nhấn	-9.74592
▁đua	-9.74614
▁tá	-9.75018
▁phạt	-9.75025
▁rau	-9.75208
ấy	-9.75418
▁rảnh	-9.75764
▁thuế	-9.75799
▁dầu	-9.75807
▁diện	-9.75812
▁thợ	-9.7603
áng	-9.76461
▁trực	-9.76551
▁đập	-9.76812
▁sẻ	-9.7686
Tôi	-9.76905
▁ngoan	-9.77252
▁nguồn	-9.77255
▁gỗ	-9.77256
▁thổi	-9.77364
▁Hai	-9.77507
▁vang	-9.77542
▁vay	-9.77554
▁hấp	-9.77691
ưu	-9.77813
▁thưởng	-9.7808
▁nông	-9.78278
▁tấm	-9.78349
▁cắn	-9.78463
▁ướt	-9.78787
ohn	-9.79425
▁thiếp	-9.79578
ói	-9.79875
▁dị	-9.80179
ợ	-9.80225
▁lẫn	-9.80298
▁cỏ	-9.81121
▁tàng	-9.81172
▁hạ	-9.81187
▁kim	-9.81349
▁ẩn	-9.81358
0	-9.81733
▁xuân	-9.81942
▁dày	-9.82018
▁đồn	-9.82571
▁dặm	-9.82609
▁mát	-9.82934
▁khôn	-9.82998
▁hứng	-9.8317
▁xứ	-9.83334
ắt	-9.83396
▁giãn	-9.83409
▁sót	-9.83437
ô	-9.83659
▁phóng	-9.83681
▁tả	-9.83858
▁gõ	-9.84234
▁tín	-9.84268
▁thả	-9.84606
▁hạt	-9.84729
▁tr	-9.84741
▁bê	-9.84835
▁giặt	-9.85028
▁mạng	-9.85137
▁vua	-9.85231
hôn	-9.85269
ao	-9.85512
▁cứng	-9.85791
▁bob	-9.85855
▁len	-9.85964
▁tịch	-9.85978
▁Cha	-9.8623
▁hồng	-9.86319
▁phi	-9.86344
▁nắng	-9.86881
▁reo	-9.86882
e	-9.86901
▁bờ	-9.87064
ẽ	-9.87156
▁góc	-9.87496
▁ngọt	-9.875
▁khẩn	-9.87541
▁hưu	-9.87561
▁Độ	-9.87929
▁radio	-9.88314
▁ghen	-9.88318
▁cắm	-9.8833
▁khuya	-9.88355
ân	-9.88409
▁ngó	-9.89793
▁ngưỡng	-9.90004
▁kém	-9.90019
▁trồng	-9.90044
▁mê	-9.90215
▁lối	-9.90327
▁cướp	-9.90853
▁dọa	-9.91286
▁ủng	-9.91491
▁trao	-9.91554
▁khám	-9.91839
▁bảng	-9.91886
ung	-9.92005
ột	-9.92301
▁sandwich	-9.92592
▁đoàn	-9.92728
▁điệu	-9.93551
▁đỉnh	-9.93608
▁cổng	-9.93723
▁khô	-9.93809
ếu	-9.93979
▁muối	-9.94258
▁kịch	-9.94373
rong	-9.94709
▁tị	-9.94794
▁Th	-9.95194
▁gồm	-9.95241
▁súp	-9.95308
ám	-9.95403
▁lăm	-9.95696
▁mũi	-9.95735
▁lãnh	-9.96145
▁luyện	-9.96179
▁cất	-9.96223
▁trì	-9.96317
▁đăng	-9.9648
▁đe	-9.96785
▁mike	-9.9705
▁chuột	-9.97083
▁gi	-9.97506
▁niên	-9.97521
▁sốt	-9.97621
áo	-9.97713
▁5	-9.9772
▁nâu	-9.97732
▁Chú	-9.97828
▁đâm	-9.97856
▁2:30.	-9.98009
▁đa	-9.9904
▁mò	-9.99257
▁gốc	-9.9976
▁tỏ	-9.9994
▁vã	-10.0069
▁căng	-10.0074
▁rác	-10.0101
in	-10.0105
▁khổ	-10.0114
▁lành	-10.0119
▁tỷ	-10.0172
▁lục	-10.0179
▁ngành	-10.0196
▁đốt	-10.0242
úp	-10.0249
ập	-10.0271
▁nhu	-10.03
▁vĩ	-10.0318
▁cản	-10.0329
▁hầm	-10.0336
▁đồi	-10.0345
▁tốn	-10.0345
▁kiệt	-10.0372
▁mạo	-10.0372
▁đuối	-10.0378
▁mảnh	-10.039
▁gãy	-10.05
▁hoang	-10.0508
▁xã	-10.0549
▁sô	-10.0552
▁trạm	-10.0566
▁trùng	-10.0572
▁săn	-10.0599
ừng	-10.061
▁sốc	-10.0617
▁tem	-10.0651
▁web	-10.066
▁nhiễm	-10.0663
▁rào	-10.0675
▁jackson	-10.0763
▁jack	-10.0765
▁râu	-10.0775
ấn	-10.0783
▁tò	-10.0784
▁thập	-10.0795
▁bội	-10.0846
▁Má	-10.0863
▁kêu	-10.0873
▁Cả	-10.0876
▁cậy	-10.088
▁y	-10.0885
▁đính	-10.0889
▁bồn	-10.0901
▁chứa	-10.0912
▁bụi	-10.097
▁giảng	-10.098
ai	-10.1017
▁môi	-10.1031
▁pha	-10.1044
▁thủy	-10.1048
▁mọc	-10.1059
▁lò	-10.1067
▁rẽ	-10.1077
▁nha	-10.1115
▁Cá	-10.1138
▁linh	-10.1192
▁sắt	-10.1237
▁thái	-10.1246
▁bar	-10.1258
▁vậ	-10.1267
▁khán	-10.1341
▁bơ	-10.1358
▁khát	-10.1367
▁hiệp	-10.1387
▁phấn	-10.1397
▁đớn	-10.1397
▁phức	-10.1399
gợi	-10.1412
▁lười	-10.1424
▁dì	-10.143
hòn	-10.1445
▁pin	-10.1485
▁dọc	-10.1529
▁20	-10.1571
▁bạo	-10.1592
▁ôm	-10.1602
▁Kỳ	-10.1608
▁osaka	-10.161
ánh	-10.1614
ái	-10.1636
▁dần	-10.1643
▁kệ	-10.1645
▁tàn	-10.1674
▁3	-10.17
▁niệm	-10.1724
▁trần	-10.1751
▁mây	-10.1781
▁bù	-10.1783
▁khứ	-10.1794
▁bát	-10.1806
▁hoảng	-10.1844
▁lầu	-10.1857
▁góp	-10.1947
▁golf	-10.1947
▁rỗng	-10.1947
▁vùng	-10.1959
▁thiệp	-10.1963
▁chiếm	-10.1995
▁lộ	-10.1999
▁vở	-10.2017
ựa	-10.2021
▁kate	-10.2062
▁30	-10.2065
▁thăng	-10.2088
▁xé	-10.2212
▁lội	-10.2225
▁Ch	-10.2236
hỉ	-10.2242
▁bâ	-10.2295
▁Hoa	-10.2296
▁truyện	-10.23
▁xăng	-10.2304
▁dương	-10.2307
▁cấm	-10.2318
ượt	-10.2319
▁chỉnh	-10.2336
▁rắn	-10.2343
an	-10.2346
▁2	-10.2358
▁pizza	-10.2419
▁sóng	-10.2426
▁gối	-10.2434
▁hùng	-10.2438
▁mồ	-10.2455
▁dung	-10.2478
▁100	-10.2478
àu	-10.25
▁nộp	-10.2537
▁ác	-10.257
▁ống	-10.261
▁nối	-10.2613
▁thí	-10.2634
▁email	-10.2658
▁lão	-10.2659
▁điền	-10.2663
▁tươi	-10.2672
▁trích	-10.2691
▁thắt	-10.2702
▁bó	-10.2705
heo	-10.271
▁đáp	-10.2711
ủy	-10.2716
ỗ	-10.2725
▁loạn	-10.2765
▁kẹo	-10.278
▁phiên	-10.2798
▁thước	-10.2847
▁mắng	-10.2855
▁biếng	-10.2859
▁lau	-10.2873
▁quê	-10.2874
▁lao	-10.2886
▁gật	-10.2916
▁tròn	-10.2963
▁hước	-10.2975
▁hận	-10.2994
▁hư	-10.3
▁tony	-10.3034
▁gọn	-10.306
ào	-10.3094
ững	-10.3128
▁đếm	-10.3159
▁rủi	-10.3166
▁qu	-10.3177
ón	-10.3201
âm	-10.3232
▁bày	-10.3236
▁chúa	-10.3277
▁ngược	-10.3303
▁sương	-10.3306
▁nhát	-10.3315
▁thắn	-10.3328
▁đấy	-10.3369
▁sứ	-10.3408
▁K	-10.3412
▁song	-10.3416
▁cưỡng	-10.3424
▁nản	-10.3446
▁ró	-10.3458
▁ro	-10.346
▁Chiế	-10.3465
ã	-10.3478
▁lộn	-10.3478
▁Tr	-10.3506
hiếc	-10.3508
▁p	-10.3517
▁khiếu	-10.3524
▁chìm	-10.3546
hẳng	-10.355
▁lặp	-10.3558
▁đoạn	-10.3566
▁khai	-10.3576
▁lượt	-10.3579
▁rồ	-10.3584
▁ngột	-10.3619
ch	-10.3619
tom	-10.3637
hống	-10.3653
▁chua	-10.3674
▁phẫu	-10.3691
▁london	-10.3691
▁nâng	-10.3691
▁găng	-10.37
▁truy	-10.3704
▁loài	-10.3704
▁thề	-10.371
huyên	-10.3731
▁ho	-10.3765
ước	-10.3784
▁đo	-10.3827
▁gương	-10.3838
▁đạc	-10.3857
▁Tổ	-10.3884
▁bắc	-10.3904
▁đàm	-10.3934
▁rổ	-10.3968
▁màn	-10.3972
▁Cuố	-10.3985
▁khói	-10.4045
▁cạo	-10.4124
▁cận	-10.4129
iá	-10.4131
▁đỗ	-10.4155
▁tán	-10.4159
▁hương	-10.4164
uýt	-10.4211
▁george	-10.4251
▁voi	-10.4254
▁lan	-10.4281
▁ổ	-10.429
▁chở	-10.4292
▁ngào	-10.4306
▁xách	-10.4335
▁r	-10.4364
▁kho	-10.437
▁lỏng	-10.4401
▁phận	-10.4406
▁nhắ	-10.441
▁gián	-10.4476
▁sợi	-10.4489
ức	-10.4523
▁bì	-10.4537
▁lưỡi	-10.4542
▁lĩnh	-10.4544
▁quầy	-10.4544
▁giơ	-10.4547
▁làng	-10.4558
▁đốc	-10.4597
õ	-10.4644
▁lặn	-10.4687
▁fuji	-10.4691
▁quyển	-10.4691
▁gấu	-10.47
▁nhạt	-10.4704
▁buông	-10.471
ười	-10.4718
▁tảng	-10.4766
▁văng	-10.4791
▁phô	-10.4841
▁trèo	-10.4843
▁Chín	-10.4849
▁ngẩn	-10.4849
▁bốc	-10.4882
▁Phi	-10.4885
ay	-10.4943
▁cược	-10.4985
▁rỉ	-10.4997
▁sét	-10.4998
▁sưởi	-10.5001
▁họa	-10.5025
▁xế	-10.5025
▁kín	-10.5152
▁nghề	-10.5154
▁cưỡi	-10.5154
▁đống	-10.5175
▁đức	-10.5192
▁tráng	-10.5203
▁chăn	-10.5264
▁hôi	-10.5281
▁New	-10.5311
▁sofa	-10.5311
▁tiễn	-10.532
▁lang	-10.5359
▁biên	-10.5365
▁khảo	-10.538
▁chừng	-10.5383
▁video	-10.5473
▁mạch	-10.5482
▁khen	-10.5483
▁xương	-10.5485
▁kiêng	-10.5498
▁sủa	-10.5508
▁thám	-10.5532
ậu	-10.5536
▁hoại	-10.5592
úng	-10.5606
▁nở	-10.5625
▁lốp	-10.5637
▁ép	-10.5664
▁gắn	-10.5692
▁sánh	-10.5697
uộc	-10.5731
▁ngô	-10.5761
▁đáo	-10.578
▁bom	-10.5797
▁trầm	-10.5813
▁lật	-10.5843
▁đắp	-10.5855
▁tộc	-10.5858
▁bỏng	-10.5891
có	-10.5899
ực	-10.5917
▁dụ	-10.5943
▁mềm	-10.5976
▁mét	-10.5979
▁liệt	-10.5981
▁ngớ	-10.6012
▁mại	-10.602
▁ẩm	-10.6034
ương	-10.6104
▁sôi	-10.6135
▁nancy	-10.6147
▁dạng	-10.6172
▁ủi	-10.6193
iếc	-10.6196
▁ám	-10.6199
▁nhé	-10.6303
▁xoa	-10.6305
▁trụ	-10.6316
▁séc	-10.6319
▁smith	-10.632
▁hokkaido	-10.6321
▁ok	-10.6365
▁mi	-10.6383
▁sảnh	-10.6388
háo	-10.6389
ghe	-10.6438
▁cương	-10.6444
ốt	-10.6449
▁tố	-10.6479
▁cừu	-10.6498
▁vâng	-10.6499
▁cuồng	-10.6502
▁tràn	-10.6505
▁thạo	-10.6505
▁chiên	-10.6506
▁địch	-10.6519
▁bổ	-10.6532
▁lận	-10.6552
▁mực	-10.6553
▁nến	-10.6588
▁bách	-10.6636
▁Đứ	-10.6645
▁tật	-10.6649
▁Mã	-10.6662
▁jean	-10.6664
ùng	-10.6669
▁chicago	-10.6681
▁râm	-10.6697
▁ngập	-10.6698
▁nghiện	-10.6707
▁đẻ	-10.6725
▁Đi	-10.6772
▁chẽ	-10.678
▁tung	-10.6819
iếng	-10.6823
▁rũ	-10.6865
▁nhõm	-10.6866
▁hawaii	-10.6866
▁ngầm	-10.6876
▁móc	-10.6889
▁đấm	-10.6899
▁Đâ	-10.69
▁thánh	-10.6931
hoảng	-10.6967
úi	-10.699
▁hiến	-10.7028
5	-10.7031
uyển	-10.7038
▁alice	-10.7054
▁dưỡng	-10.7055
▁chén	-10.7057
▁thỏ	-10.7061
ảnh	-10.7095
▁50	-10.714
▁ngang	-10.7147
▁đạn	-10.7151
úc	-10.7179
ôn	-10.7216
▁mớ	-10.7219
▁lũ	-10.7221
▁Thái	-10.7251
▁vẫy	-10.7254
▁mệnh	-10.7255
▁chép	-10.7261
▁trói	-10.7296
▁huy	-10.7346
ận	-10.7354
ở	-10.7362
ụy	-10.7366
iền	-10.7398
▁thụ	-10.7402
▁chu	-10.7405
▁nắ	-10.7422
▁lincoln	-10.7443
▁não	-10.7447
▁nháy	-10.745
▁khiển	-10.7452
▁thầm	-10.7484
▁độn	-10.7509
▁chọc	-10.7522
hô	-10.7567
ho	-10.7585
ầm	-10.7606
▁sụp	-10.7642
▁violin	-10.7643
inh	-10.7644
▁xóa	-10.7646
▁vặt	-10.7653
▁cơm	-10.7679
▁má	-10.7705
▁thách	-10.7735
hính	-10.7777
▁biện	-10.7791
▁đuôi	-10.785
▁cháu	-10.7852
▁nhường	-10.7854
▁dội	-10.7857
▁ngợi	-10.7872
▁lông	-10.7876
b	-10.7903
đó	-10.7905
ình	-10.7926
ứng	-10.7927
▁bang	-10.7961
▁run	-10.797
▁nô	-10.7987
▁Bà	-10.7993
▁bi	-10.8024
▁mạn	-10.8041
▁rạp	-10.8055
▁cookie	-10.8057
▁hẹp	-10.806
▁gầy	-10.8065
▁khấu	-10.8067
▁lúa	-10.8069
▁trộn	-10.8087
ối	-10.8102
▁dâu	-10.8112
r	-10.8144
▁mẻ	-10.8152
▁sáo	-10.8155
:30	-10.8156
▁xô	-10.8159
ới	-10.8164
▁Mặ	-10.8165
▁gàng	-10.8173
▁xà	-10.8187
họ	-10.8191
▁đố	-10.8191
▁móng	-10.82
ời	-10.824
▁salad	-10.8268
▁lợn	-10.827
▁suất	-10.8284
▁rung	-10.8311
▁đắn	-10.8361
▁lăn	-10.8378
ách	-10.8444
ia	-10.845
▁bẫy	-10.8484
▁viễn	-10.8486
▁gỡ	-10.8488
▁túy	-10.849
▁Nam	-10.8491
▁gạo	-10.8494
một	-10.8497
▁dại	-10.8501
▁đò	-10.8507
▁trúc	-10.8511
▁nhổ	-10.8512
▁Nước	-10.8514
▁vứ	-10.8516
▁vỏ	-10.8516
▁đảng	-10.8518
▁mỏng	-10.8522
▁vải	-10.856
▁hức	-10.857
▁xưa	-10.8577
gửi	-10.8584
▁chải	-10.8635
ơi	-10.8662
▁nắp	-10.8665
▁giỏ	-10.8666
▁Lạp	-10.8707
▁quét	-10.8707
▁nghiền	-10.8711
▁dính	-10.8719
▁su	-10.8754
▁Ph	-10.8756
rên	-10.8788
hiệt	-10.8803
▁chật	-10.8822
▁bồi	-10.8831
▁dỗ	-10.8841
chúng	-10.8905
▁rưỡi	-10.8934
▁lùi	-10.8935
▁dịu	-10.8962
▁cưng	-10.9008
▁khối	-10.9025
▁hồn	-10.9057
▁hang	-10.9068
ỏng	-10.9091
ane	-10.9119
▁thùng	-10.912
ữa	-10.9134
ra	-10.9137
▁mỹ	-10.9167
▁nhợt	-10.9168
▁dịp	-10.9172
▁điệp	-10.9181
▁Bắc	-10.9198
iết	-10.92
▁binh	-10.9204
▁khúc	-10.9211
▁lều	-10.925
▁bồ	-10.9252
▁dư	-10.9262
▁500	-10.9268
▁phú	-10.9369
▁lồ	-10.9388
▁gậy	-10.9408
▁rốt	-10.9418
▁vòi	-10.9421
▁giật	-10.9426
▁tướng	-10.9429
▁chuyền	-10.9429
hâm	-10.944
▁Lan	-10.9442
▁nát	-10.9452
▁tháp	-10.9475
▁ván	-10.9476
▁ấu	-10.9488
ăn	-10.9496
ầu	-10.95
▁cay	-10.951
▁pháo	-10.953
ta	-10.9563
ể	-10.9572
▁game	-10.9648
▁album	-10.9649
▁meg	-10.9649
▁nhuận	-10.9652
▁lắc	-10.9685
▁cỡ	-10.9688
ảo	-10.9689
▁khỉ	-10.9722
▁gôn	-10.9726
▁khiế	-10.9733
▁sắ	-10.9733
▁200	-10.9734
▁chố	-10.9741
.000	-10.9743
▁Ngô	-10.9766
▁chủng	-10.9883
▁ruồi	-10.9899
▁hít	-10.9907
▁rèm	-10.9912
▁nhựa	-10.9915
ork	-10.9926
▁dán	-10.9935
▁tiệm	-10.995
▁xì	-10.9954
▁nại	-10.9956
▁nhai	-11.0034
iến	-11.0052
▁chợ	-11.0069
▁côn	-11.009
▁dạ	-11.0135
hồng	-11.0135
ành	-11.0142
▁giọt	-11.0157
▁kèm	-11.016
▁chuỗi	-11.0161
▁inch	-11.0162
▁nhạo	-11.0163
▁mạc	-11.0181
▁siê	-11.019
▁nhét	-11.0201
er	-11.0205
▁bùn	-11.0243
▁mt	-11.0269
▁mày	-11.0297
án	-11.038
▁mayuko	-11.0418
▁vặn	-11.0419
▁kèn	-11.0421
▁ngũ	-11.0422
▁gạt	-11.0425
ải	-11.0444
▁nhấp	-11.0451
▁lam	-11.0456
▁bào	-11.0461
▁tỏa	-11.0472
▁tuy	-11.0478
những	-11.0489
▁9	-11.0501
▁diễ	-11.0542
▁tạnh	-11.0588
▁bể	-11.0592
▁thiểu	-11.0606
▁vần	-11.0623
▁nôn	-11.0629
êm	-11.0655
▁paul	-11.0668
▁jazz	-11.0688
▁kobe	-11.0688
▁lụt	-11.0691
▁chuồng	-11.0692
▁lờ	-11.0696
▁Châu	-11.07
▁chuối	-11.0715
▁chấm	-11.072
▁dáng	-11.0725
▁vững	-11.0748
▁cúm	-11.0762
▁đắng	-11.0808
▁còi	-11.083
:00	-11.0897
▁tuyến	-11.0898
▁thối	-11.0919
0.000	-11.092
▁bạ	-11.093
hút	-11.0934
▁ưu	-11.0957
▁bọ	-11.096
▁mon	-11.0961
▁jones	-11.0966
▁washington	-11.0967
▁sếp	-11.0969
▁nhục	-11.0981
▁yumi	-11.0983
▁nghịch	-11.1004
▁cát	-11.1017
▁báu	-11.1019
▁vân	-11.1025
▁xám	-11.1026
ổng	-11.1039
3	-11.1043
▁trúng	-11.1095
▁12	-11.1098
đã	-11.1098
▁hẳn	-11.1104
của	-11.1172
▁nhị	-11.1184
▁rome	-11.1246
ủ	-11.1247
êu	-11.1251
▁nhuộm	-11.1251
▁lướt	-11.1252
▁nghìn	-11.1257
▁lãm	-11.1262
▁loạt	-11.1273
▁thượng	-11.1287
▁dr	-11.1294
▁cạn	-11.1298
▁bít	-11.1325
▁mã	-11.1342
d	-11.1431
▁kháng	-11.1482
▁trú	-11.1482
▁dưa	-11.1501
óc	-11.1511
▁susan	-11.1517
▁quỹ	-11.1544
▁khoe	-11.1548
iện	-11.155
▁nhện	-11.1551
▁nứt	-11.1553
òng	-11.1566
▁vuông	-11.1568
▁rỗi	-11.157
▁bột	-11.157
▁nhốt	-11.157
▁than	-11.1607
▁gầm	-11.1607
▁lược	-11.1614
▁xăm	-11.1633
▁tân	-11.1643
òi	-11.1658
út	-11.1664
▁ann	-11.1688
l	-11.17
hành	-11.1741
▁san	-11.1746
▁mờ	-11.175
▁kiề	-11.176
▁in	-11.1765
▁ào	-11.1811
ày	-11.1815
▁phổi	-11.1819
▁a	-11.1827
▁chuyê	-11.1829
▁brazil	-11.1849
▁lưỡng	-11.185
▁tởm	-11.185
▁gạch	-11.185
▁chèo	-11.1853
▁phẳng	-11.1854
ích	-11.1859
▁thiệ	-11.187
▁kê	-11.1874
ẩy	-11.1885
▁nồi	-11.1901
▁Lu	-11.1906
ìa	-11.1907
uốn	-11.193
ưới	-11.1932
▁nhấ	-11.1934
ẩn	-11.1941
▁rò	-11.1945
▁tụ	-11.195
▁mập	-11.1956
▁bế	-11.1959
▁đáy	-11.1967
▁quái	-11.1981
▁khung	-11.1999
▁chay	-11.2004
▁bề	-11.203
▁rán	-11.2046
▁300	-11.2046
▁bắp	-11.2121
▁15	-11.2121
nó	-11.2127
▁11	-11.2128
hế	-11.2152
etty	-11.2155
▁lucy	-11.2161
▁laurie	-11.2161
▁tour	-11.2161
▁duyệt	-11.2167
▁mép	-11.2175
▁khoán	-11.2175
▁ngụm	-11.2177
▁tím	-11.2177
▁bướm	-11.2181
iểu	-11.2184
ang	-11.2191
▁giếng	-11.2201
▁nếm	-11.2208
▁Năm	-11.2226
om	-11.2266
▁xí	-11.2269
▁mốt	-11.23
▁nề	-11.2314
▁P	-11.2316
▁hải	-11.2319
▁Hàn	-11.2358
▁đúc	-11.2381
▁cúp	-11.2389
▁Ba	-11.2415
ẫn	-11.2461
▁nao	-11.2481
▁liều	-11.2485
▁thỉu	-11.2489
▁dám	-11.2517
▁ngực	-11.2518
▁luộc	-11.2525
oảng	-11.2527
ẹp	-11.2534
▁cd	-11.2543
huyện	-11.2573
▁bầm	-11.2599
▁điếc	-11.2642
ỏi	-11.2695
▁tan	-11.273
ục	-11.2764
▁bã	-11.2771
ẩm	-11.2787
ớt	-11.2803
▁mỏ	-11.2804
▁nhịp	-11.2817
▁sushi	-11.2817
▁TV	-11.2819
▁kênh	-11.282
▁nén	-11.2835
▁rèn	-11.2835
▁lẻ	-11.2844
là	-11.2865
hân	-11.287
▁vong	-11.2904
▁1.000	-11.2935
▁kì	-11.2945
▁giam	-11.2959
▁25	-11.3001
▁thiêu	-11.3025
▁lô	-11.3053
▁Lú	-11.3085
▁phanh	-11.3136
iên	-11.3154
▁đũa	-11.316
▁nagoya	-11.3161
▁phộng	-11.3165
▁nhãn	-11.3166
▁búa	-11.3171
▁lấp	-11.3178
▁suối	-11.3182
▁ngọc	-11.3192
▁củ	-11.3203
▁súc	-11.3208
▁nồng	-11.3224
▁trán	-11.3242
▁cự	-11.327
▁choàng	-11.3281
rò	-11.3317
▁e	-11.334
▁ngất	-11.3342
▁đan	-11.3347
▁xá	-11.3364
▁xâ	-11.3365
▁hề	-11.3383
ro	-11.3408
▁tết	-11.3426
▁ơ	-11.3479
▁thê	-11.3479
▁chước	-11.3485
vâng	-11.3504
▁Brazil	-11.3518
▁Mexico	-11.3518
▁nuốt	-11.3521
▁bến	-11.353
▁gội	-11.3534
▁đun	-11.3549
làm	-11.355
▁Hồ	-11.3558
▁trêu	-11.3562
▁đền	-11.3572
▁rock	-11.3577
▁Ngư	-11.3587
▁nạ	-11.3625
ẫm	-11.3658
cho	-11.3672
▁nọ	-11.3677
hủ	-11.3697
▁vây	-11.3722
▁mộng	-11.3737
▁ao	-11.3744
ấm	-11.3768
iêm	-11.3776
rước	-11.3788
hi	-11.38
udy	-11.3824
▁lê	-11.3843
on	-11.3869
▁múa	-11.3888
▁mexico	-11.3889
▁california	-11.3889
▁internet	-11.3889
▁lén	-11.389
▁tùng	-11.3891
▁rậm	-11.3891
▁ngáy	-11.3904
hiếu	-11.3922
▁cớ	-11.3941
▁thuần	-11.3948
▁đà	-11.3959
▁nho	-11.3964
▁mu	-11.3972
▁rực	-11.3978
▁vốn	-11.4012
rời	-11.4024
▁chấn	-11.407
▁hiên	-11.4116
iệt	-11.4116
▁thơm	-11.4141
▁hoà	-11.4158
▁quyế	-11.4164
▁tu	-11.4173
hải	-11.4182
ảm	-11.4223
àm	-11.4229
▁rỡ	-11.4274
▁linda	-11.4275
▁nara	-11.4276
▁khớp	-11.4277
▁ghê	-11.4278
àn	-11.4281
▁giục	-11.4281
▁bậc	-11.4285
▁maria	-11.4285
▁thôn	-11.43
▁nét	-11.4304
▁bư	-11.432
▁trật	-11.4326
▁tiề	-11.4368
▁cuộn	-11.4371
▁váng	-11.438
▁lui	-11.4393
▁đam	-11.4398
▁sung	-11.4439
v	-11.4446
▁lắp	-11.4463
▁khuất	-11.4467
1	-11.449
cô	-11.4503
hạy	-11.4532
huyết	-11.4569
▁sói	-11.4576
▁nảy	-11.4585
▁hu	-11.4625
▁lố	-11.4646
tại	-11.4663
▁aspirin	-11.4673
▁esperanto	-11.4673
▁visa	-11.4673
▁rãi	-11.4675
▁dứt	-11.4676
ín	-11.4679
▁thoái	-11.4696
▁bong	-11.4727
▁chồn	-11.4739
▁ngắm	-11.4762
▁dột	-11.4854
▁bìa	-11.486
ẳng	-11.4874
▁trơn	-11.4875
▁trư	-11.4938
▁trá	-11.4939
ài	-11.4964
▁tê	-11.5032
ồng	-11.5054
▁fa	-11.5069
▁Sĩ	-11.5088
▁ruột	-11.5089
▁yokoween	-11.509
▁whisky	-11.509
▁peter	-11.509
▁Điển	-11.5098
▁tanaka	-11.5108
▁nộ	-11.5112
▁gục	-11.5114
▁bừa	-11.5118
▁dốc	-11.512
▁nghiệt	-11.5122
▁nhạ	-11.5129
▁bướng	-11.5135
▁cai	-11.5139
▁khoang	-11.5153
▁lùng	-11.5156
▁nghiêng	-11.5162
▁lồng	-11.5176
▁se	-11.5211
ậm	-11.5226
▁hời	-11.5283
▁lường	-11.5297
em	-11.53
au	-11.531
khi	-11.5371
▁mòn	-11.5385
▁Như	-11.5431
Tom	-11.5503
ealand	-11.5518
▁xổ	-11.5522
▁quỳ	-11.5523
▁feet	-11.5523
▁ngợm	-11.5524
▁francisco	-11.5524
▁roosevelt	-11.5524
▁muỗi	-11.5531
▁rụi	-11.5558
▁fred	-11.5558
▁Bộ	-11.5563
▁đẳng	-11.5573
▁buôn	-11.5581
00	-11.5595
hượng	-11.5622
▁bỉnh	-11.5633
▁phun	-11.574
▁hà	-11.5768
▁ranh	-11.5769
▁đương	-11.5835
▁va	-11.5863
▁túng	-11.5865
2	-11.5924
▁tát	-11.5929
▁13	-11.5978
▁lẻo	-11.5984
▁bịch	-11.5995
▁diệt	-11.5999
!"	-11.6008
▁Chào	-11.6017
▁nhánh	-11.6031
uôn	-11.6037
▁Cập	-11.6071
▁id	-11.6093
▁vớ	-11.6148
hiển	-11.6148
▁nhăn	-11.6167
▁khẽ	-11.6218
▁hoạn	-11.6228
thể	-11.6237
▁vít	-11.6243
▁cục	-11.6273
k	-11.6316
nói	-11.6384
▁Latin	-11.6445
▁xẻo	-11.6453
▁euro	-11.6454
▁oxy	-11.6454
▁ipad	-11.6454
▁quặc	-11.6455
▁rẩy	-11.6456
▁nhộn	-11.6458
▁quẩn	-11.6459
ự	-11.646
▁Hà	-11.6462
▁ráp	-11.6463
▁thạch	-11.6464
▁sạc	-11.6465
▁léo	-11.6467
▁ngừa	-11.6469
ìm	-11.6472
▁nĩa	-11.6475
▁chéo	-11.6481
ả	-11.6481
▁thoáng	-11.6484
với	-11.6499
▁trục	-11.65
▁hả	-11.6509
▁dơi	-11.651
▁Kinh	-11.6512
▁hạng	-11.6513
▁khuấy	-11.6549
▁Hiệ	-11.6555
ửa	-11.6558
oi	-11.6635
▁dở	-11.6706
▁mến	-11.6707
éo	-11.6711
trong	-11.6713
▁châm	-11.6717
▁soạn	-11.6765
▁trào	-11.6772
▁ôn	-11.679
▁hàm	-11.6798
▁mánh	-11.6831
▁man	-11.689
9	-11.6894
ấu	-11.691
ỉnh	-11.6917
▁Thứ	-11.6918
▁cài	-11.6919
▁đắm	-11.692
▁hung	-11.693
Vâng	-11.695
▁gũi	-11.6953
▁joe	-11.6953
▁brian	-11.6954
▁roger	-11.6954
▁angeles	-11.6954
▁blog	-11.6954
▁jimmy	-11.6955
▁halloween	-11.6955
▁shot	-11.6955
sẽ	-11.696
▁thầy	-11.6964
▁3.000	-11.6971
▁nạp	-11.6973
▁ếch	-11.6978
▁vấp	-11.6979
eter	-11.6987
▁ngụ	-11.6988
▁jiro	-11.6989
▁kỉnh	-11.699
▁ngửa	-11.6991
▁trương	-11.7003
▁ngộ	-11.7005
▁mãn	-11.7009
hà	-11.7037
▁ri	-11.7038
▁đậm	-11.704
▁hiể	-11.7048
▁bơm	-11.7133
ề	-11.7136
ết	-11.7166
▁ninh	-11.7196
ượng	-11.7219
huấ	-11.7219
▁đế	-11.7232
▁carol	-11.7242
hò	-11.7312
▁vỉ	-11.7315
ính	-11.733
▁km	-11.734
ắc	-11.7343
▁viê	-11.7355
▁Mù	-11.7359
ều	-11.7366
▁hói	-11.7367
▁tạ	-11.7379
os	-11.7381
▁tro	-11.7416
▁Phụ	-11.7417
▁rè	-11.7427
người	-11.7454
he	-11.7468
▁opera	-11.748
▁virus	-11.748
▁narita	-11.748
▁huệ	-11.748
▁michael	-11.748
▁ngẫu	-11.748
▁robert	-11.748
▁hamburger	-11.7481
▁johnson	-11.7481
▁phé	-11.7482
▁chà	-11.7489
▁gãi	-11.749
▁sato	-11.7491
▁ngạo	-11.7496
▁thự	-11.7497
▁đoan	-11.7503
áy	-11.7506
▁đẫm	-11.751
▁cường	-11.7511
▁cò	-11.7519
▁2.000	-11.7522
▁ngùng	-11.7529
▁lãi	-11.7533
▁keo	-11.7541
▁khỏ	-11.7567
▁oh	-11.7572
▁xích	-11.7579
▁khóe	-11.7584
▁chục	-11.7604
▁sam	-11.7659
▁sảng	-11.768
▁cấu	-11.7706
to	-11.7713
▁lon	-11.7739
▁diều	-11.7754
đi	-11.7781
ỉ	-11.7838
▁A	-11.7842
▁Sao	-11.7867
òa	-11.7888
▁rụ	-11.7895
▁lũng	-11.7935
hiến	-11.7959
ửi	-11.7985
ờ	-11.7998
ớc	-11.8027
▁sẹo	-11.8035
▁facebook	-11.8036
▁jefferson	-11.8036
▁canada	-11.8036
▁10:00	-11.8037
goài	-11.8038
▁lụa	-11.804
▁chớp	-11.8047
▁Khoản	-11.8054
▁vitamin	-11.8055
▁xiếc	-11.8067
▁trữ	-11.8069
▁vọt	-11.807
▁Điệ	-11.8074
▁ford	-11.808
▁gas	-11.808
▁Tuy	-11.8089
▁toe	-11.8098
ặt	-11.8107
ăng	-11.8117
▁ớt	-11.8126
▁nạt	-11.8141
đến	-11.8149
▁bẩm	-11.8161
▁thổ	-11.8163
▁thè	-11.8168
ớm	-11.8194
x	-11.8264
▁Đố	-11.8274
▁khinh	-11.8328
da	-11.8336
eo	-11.8405
ý	-11.841
ỏ	-11.8481
ko	-11.8505
▁gân	-11.854
điều	-11.8552
▁chris	-11.8571
▁ham	-11.8592
▁lơ	-11.8608
▁fax	-11.8622
▁pound	-11.8623
▁cabin	-11.8623
▁jessi	-11.8623
▁james	-11.8623
▁muỗng	-11.8623
▁hilton	-11.8624
▁kyushu	-11.8624
▁valentine	-11.8624
▁shakespeare	-11.8624
▁spaghetti	-11.8624
▁tuệ	-11.8626
▁ted	-11.8628
▁xót	-11.8629
▁lót	-11.863
▁hẻm	-11.8643
▁hót	-11.8644
▁Ken	-11.8657
gì	-11.8673
▁thác	-11.8675
▁cống	-11.8685
▁thìa	-11.8685
▁nấm	-11.8688
huyền	-11.8691
▁dàn	-11.8691
ệch	-11.8702
▁yoko	-11.8726
▁hàn	-11.873
▁mạt	-11.8735
ão	-11.8784
▁khan	-11.8795
▁họng	-11.8797
▁phím	-11.8808
▁hố	-11.8846
▁bổng	-11.8852
át	-11.8873
▁màng	-11.8884
▁gắt	-11.8884
▁w	-11.8924
è	-11.8954
▁bá	-11.8962
hàng	-11.8994
hông	-11.904
▁hit	-11.9067
▁ti	-11.9091
▁22	-11.9092
rẻ	-11.9115
ãng	-11.9213
▁ngo	-11.9215
▁fbi	-11.9244
▁logic	-11.9248
▁henry	-11.9248
▁william	-11.9248
▁hụt	-11.9248
▁marathon	-11.9248
▁shinjuku	-11.9248
▁scotland	-11.9248
▁xay	-11.9249
ò	-11.9251
▁xộn	-11.9251
▁thuẫn	-11.9253
▁truồng	-11.9254
▁ngoạc	-11.9256
▁náu	-11.926
huỷ	-11.9263
▁199	-11.9271
▁rụng	-11.9276
▁kén	-11.9285
▁Mười	-11.9286
▁két	-11.929
▁xắn	-11.9293
▁bớt	-11.9295
ar	-11.9303
▁mỡ	-11.9304
ua	-11.9313
▁gara	-11.9314
▁chanh	-11.933
cảm	-11.9337
ọc	-11.9353
ler	-11.9353
▁gặt	-11.9363
ham	-11.9378
B	-11.94
▁u	-11.942
▁cụt	-11.9452
áp	-11.9471
▁ngứa	-11.9476
hiều	-11.9494
▁đới	-11.9512
iếp	-11.9542
▁hoan	-11.9595
đây	-11.9611
▁chược	-11.9612
ue	-11.9661
ack	-11.9772
▁tang	-11.9794
óa	-11.9812
▁rộ	-11.9834
hâu	-11.9876
▁nga	-11.9895
▁micro	-11.9911
▁Brown	-11.9914
▁helen	-11.9914
▁berlin	-11.9914
▁khiễng	-11.9914
▁yamada	-11.9914
▁charles	-11.9914
▁florida	-11.9914
▁okinawa	-11.9914
▁harry	-11.9915
▁rùa	-11.9915
▁hanako	-11.9915
▁toét	-11.9915
ấp	-11.9918
▁bina	-11.9922
▁dép	-11.9922
▁nguyền	-11.9923
▁Tro	-11.9924
▁beng	-11.9924
▁lượn	-11.9928
▁texas	-11.9937
▁gót	-11.9937
▁miss	-11.9939
▁beth	-11.9945
▁lít	-11.9952
▁ngáp	-11.9955
▁tỉa	-11.9972
▁kìa	-11.9985
▁khốc	-11.999
▁dược	-11.9994
▁Hải	-11.9995
▁rể	-12.0018
muốn	-12.0021
▁ức	-12.0031
▁chổi	-12.0055
▁ria	-12.0095
▁mac	-12.0172
▁que	-12.0176
▁ben	-12.0259
ảng	-12.026
ội	-12.0285
▁thai	-12.0311
ỡ	-12.0323
này	-12.0371
ốc	-12.0393
▁khơi	-12.0408
us	-12.041
▁Từ	-12.0411
▁tri	-12.0425
gọt	-12.0445
▁mộc	-12.0507
▁tẻ	-12.051
▁tâ	-12.0521
ồ	-12.0553
ệnh	-12.0588
▁lọ	-12.0605
▁olympic	-12.0624
èm	-12.0624
▁jeff	-12.0625
▁carbon	-12.0625
▁picasso	-12.0625
▁wilson	-12.0625
▁nghênh	-12.0625
▁dỏm	-12.0625
▁kenji	-12.0625
▁lõng	-12.0626
▁keiko	-12.0627
▁Vậy	-12.0629
▁nghẹt	-12.063
xin	-12.0631
▁thomas	-12.0634
▁quận	-12.0649
▁buồm	-12.0652
ley	-12.0654
▁lưới	-12.0659
▁ngặt	-12.0665
▁dí	-12.0667
▁cẩu	-12.0672
▁duỗi	-12.068
▁ngạt	-12.0684
▁La	-12.0697
▁phơi	-12.0707
▁dê	-12.0708
▁lầy	-12.0744
▁liền	-12.0748
en	-12.0761
▁hãng	-12.0783
▁phông	-12.0784
▁nhược	-12.0794
ĩ	-12.0803
▁no	-12.081
▁ki	-12.0814
▁phào	-12.0815
0.	-12.0838
ản	-12.087
▁chảo	-12.0879
▁hốt	-12.0889
▁tặc	-12.0904
đang	-12.0905
hris	-12.0938
▁Đông	-12.102
phải	-12.1026
▁pho	-12.1027
hời	-12.1035
uỷ	-12.1049
▁ngử	-12.1103
▁khốn	-12.1109
▁heo	-12.1133
▁mar	-12.1149
▁bu	-12.1157
▁khâu	-12.1171
▁j	-12.1178
▁mồi	-12.1181
▁vươn	-12.1184
ton	-12.1185
hói	-12.1191
ri	-12.1193
▁triều	-12.12
▁son	-12.124
▁sưng	-12.1246
▁khoan	-12.1303
▁cồn	-12.1317
lo	-12.1325
ie	-12.1328
ế	-12.1358
▁rủ	-12.1365
▁sờ	-12.1373
ard	-12.1386
▁columbus	-12.1394
▁hiroshima	-12.1394
▁poker	-12.1394
▁giễu	-12.1394
▁nhiễu	-12.1395
▁lisa	-12.1398
▁lửng	-12.1401
▁rìu	-12.1408
ez	-12.1412
▁hển	-12.1423
▁rập	-12.1428
▁nhồi	-12.1444
▁mịn	-12.146
▁trội	-12.1472
▁khoái	-12.1478
▁oliv	-12.1487
▁hấu	-12.1503
over	-12.1525
▁Chúa	-12.1556
ổ	-12.1569
▁clar	-12.159
▁khuyết	-12.1591
ứt	-12.162
uần	-12.162
▁tròng	-12.1637
▁giàn	-12.1649
mary	-12.1694
ồn	-12.1697
ba	-12.1709
▁tiêm	-12.1732
▁cảng	-12.1747
òn	-12.176
▁ấp	-12.1769
ơ	-12.1798
để	-12.1853
▁xỉ	-12.1855
▁lay	-12.1874
hãy	-12.1901
▁f	-12.1901
▁đinh	-12.1904
biết	-12.1919
▁mương	-12.1924
▁van	-12.1926
▁rồng	-12.1947
ữ	-12.1972
iệu	-12.1972
im	-12.1982
▁nhói	-12.1984
▁việt	-12.2007
được	-12.2016
ê	-12.2035
uối	-12.2041
▁nhở	-12.2051
hổ	-12.2063
▁lánh	-12.2175
▁hổn	-12.2203
C	-12.2215
▁bowling	-12.2227
▁cocktail	-12.2227
▁toyota	-12.2227
▁vodka	-12.2227
▁alex	-12.2228
▁hươu	-12.2228
▁vẹt	-12.2229
▁sướng	-12.2239
▁sẫm	-12.2241
erry	-12.2244
▁sủng	-12.2244
▁liếm	-12.2245
▁xuồng	-12.2246
▁võ	-12.2247
▁diệu	-12.2248
▁diêm	-12.2252
ome	-12.2254
▁nơ	-12.2257
▁đệm	-12.2258
▁sườn	-12.2267
▁ghép	-12.2272
▁khuyế	-12.2274
óp	-12.2274
▁ghiếc	-12.2276
▁ngục	-12.2303
▁khuy	-12.2313
▁yến	-12.2323
▁sen	-12.2339
▁Đồ	-12.2339
▁thép	-12.234
▁câm	-12.2358
▁héo	-12.2358
▁rủa	-12.2419
▁nai	-12.2421
ợi	-12.2422
hĩ	-12.2439
▁dải	-12.2454
rúc	-12.2464
▁thâ	-12.2474
▁cào	-12.2476
▁vơi	-12.2478
▁mẹo	-12.2517
▁hi	-12.2527
▁ồ	-12.2537
▁The	-12.254
▁thiền	-12.256
▁150	-12.2577
rông	-12.2593
hức	-12.2596
▁dẻ	-12.2644
ử	-12.2666
▁si	-12.2668
tin	-12.2673
hỏng	-12.2677
▁dan	-12.27
ũ	-12.2708
▁mil	-12.2731
▁nêu	-12.2764
rất	-12.2769
▁ha	-12.2832
▁hăng	-12.284
▁đè	-12.2873
ồi	-12.2888
▁thừng	-12.2912
▁gọ	-12.2927
hộp	-12.3001
▁pop	-12.3044
ỉa	-12.3065
▁wa	-12.3092
▁xao	-12.3098
▁râ	-12.3104
:	-12.3134
▁ufo	-12.3135
▁sendai	-12.3136
▁susie	-12.3136
▁hollywood	-12.3137
▁robot	-12.3137
▁quỷ	-12.3137
▁monroe	-12.3137
▁cathy	-12.314
▁Kim	-12.314
▁marika	-12.314
▁tuyê	-12.3143
▁jacksons	-12.3145
▁quạt	-12.3148
▁ngẫm	-12.3149
▁rio	-12.316
▁lee	-12.3161
▁cello	-12.3172
▁me	-12.3197
▁thiển	-12.32
▁sấu	-12.32
▁sồi	-12.3219
về	-12.3222
▁rú	-12.3235
chắc	-12.3243
▁Cơ	-12.3278
▁xạ	-12.3291
▁sập	-12.3297
▁kg	-12.3327
▁miện	-12.3343
do	-12.335
rừng	-12.3356
▁tạng	-12.3364
chi	-12.337
ruy	-12.3375
▁nhã	-12.34
▁lăng	-12.3413
▁long	-12.3413
ui	-12.3438
▁mưu	-12.3444
▁vú	-12.3466
▁eo	-12.3467
ặc	-12.3467
mail	-12.3482
hợp	-12.3496
▁ve	-12.3507
ược	-12.3518
▁vá	-12.3519
▁phì	-12.3525
▁đạm	-12.353
▁vượng	-12.354
ật	-12.3588
▁chuộc	-12.3593
nghĩ	-12.3594
w	-12.3629
con	-12.363
▁re	-12.3645
hù	-12.367
ki	-12.3673
ư	-12.3673
▁sũng	-12.3698
gay	-12.3731
Anh	-12.3749
gần	-12.3761
th	-12.3777
sao	-12.378
▁uốn	-12.3792
▁vu	-12.3811
▁nực	-12.383
▁ghim	-12.3843
▁Chu	-12.3873
▁cột	-12.3874
▁ơi	-12.3875
gày	-12.3875
▁manh	-12.3896
▁quạ	-12.3899
king	-12.3904
▁non	-12.3908
▁cằn	-12.3911
▁bẹ	-12.3912
hắc	-12.3921
▁vịnh	-12.3958
▁al	-12.3958
rằng	-12.3974
hực	-12.3997
▁cành	-12.4009
hiên	-12.4028
hiêm	-12.4032
▁lu	-12.4066
▁đê	-12.4094
ớp	-12.4098
1.	-12.4113
ậy	-12.4134
▁disneyland	-12.4136
▁gallon	-12.4136
▁iphone	-12.4136
▁jesus	-12.4136
▁norway	-12.4136
▁sapporo	-12.4136
▁sydney	-12.4136
▁trombone	-12.4136
▁teresa	-12.4138
▁9:00	-12.4138
▁naoko	-12.4138
▁1990	-12.4139
▁scott	-12.4139
▁nhòm	-12.4139
ệ	-12.4142
▁santa	-12.4142
▁vựng	-12.4146
▁dĩa	-12.4147
▁nấc	-12.4149
▁rơm	-12.4152
▁chopin	-12.4157
▁huynh	-12.416
▁paulo	-12.416
▁adams	-12.4171
▁vani	-12.4191
▁mạ	-12.4195
hắt	-12.4195
ưng	-12.4196
▁mứt	-12.4196
hận	-12.4215
▁anne	-12.4219
▁sảo	-12.4224
▁bén	-12.4228
▁betty	-12.423
▁ré	-12.4232
▁sỉ	-12.4237
▁khoáng	-12.4241
▁vồng	-12.4243
ru	-12.4249
iáo	-12.4266
▁195	-12.4287
ệt	-12.4291
▁vác	-12.4336
▁ngầu	-12.4348
và	-12.4356
▁lọc	-12.4386
▁phật	-12.4386
▁trút	-12.4393
iữ	-12.441
tất	-12.4431
▁vả	-12.4463
ga	-12.4483
hai	-12.4487
học	-12.4516
▁cưa	-12.452
hái	-12.4521
▁cóc	-12.4539
▁đươ	-12.454
▁gom	-12.4545
hơi	-12.4559
▁sừng	-12.4562
▁bệ	-12.4563
:30.	-12.4602
▁rạng	-12.4605
▁đặn	-12.4609
hiếp	-12.4612
▁ngư	-12.4645
▁hàu	-12.4649
vào	-12.4656
la	-12.4671
▁lút	-12.4687
ịn	-12.4691
lin	-12.4754
▁nà	-12.4784
▁vịt	-12.4786
chỉ	-12.4801
▁lột	-12.4805
▁mặn	-12.482
500	-12.4846
▁Phả	-12.4859
ẩu	-12.4906
ụng	-12.4908
umi	-12.4908
▁đứt	-12.4964
yến	-12.5044
co	-12.5053
▁né	-12.5056
▁bền	-12.51
ố	-12.5109
or	-12.5117
son	-12.5129
▁út	-12.5143
ặng	-12.5175
▁steve	-12.5195
▁Hộ	-12.5195
ancy	-12.5238
▁Câ	-12.5243
▁einstein	-12.5248
▁hyogo	-12.5248
▁itub	-12.5248
▁nixon	-12.5248
▁singapore	-12.5248
▁tuxedo	-12.5248
▁venice	-12.5248
▁suzuki	-12.5248
▁taylor	-12.5248
▁tulip	-12.5248
▁darwin	-12.5248
▁peso	-12.5248
▁ruộng	-12.5248
▁nghếch	-12.5248
▁vienna	-12.5248
▁1939	-12.5248
▁nikko	-12.5248
▁xoáy	-12.5248
▁xẻng	-12.5249
▁sally	-12.525
▁vẹo	-12.5251
▁soda	-12.5251
es	-12.5252
▁Sáu	-12.5252
▁ueno	-12.5256
trên	-12.5261
▁chốt	-12.5261
▁thuổng	-12.5262
▁Việt	-12.5262
uy	-12.5276
▁carl	-12.5277
▁xi	-12.5282
thấy	-12.5284
▁núm	-12.5285
▁đùi	-12.5291
giờ	-12.5294
ếp	-12.5304
▁Phải	-12.5321
▁ghề	-12.5346
uỳ	-12.537
thật	-12.5376
▁21	-12.5378
ạy	-12.5382
▁35	-12.5428
ph	-12.5436
ick	-12.545
thực	-12.5456
:00.	-12.5492
▁frank	-12.5493
0,	-12.55
ps	-12.5529
▁ốc	-12.5557
▁châ	-12.5565
▁phẫ	-12.5601
▁chặ	-12.5603
▁Chi	-12.561
ùa	-12.562
í	-12.5631
ca	-12.5637
hẹn	-12.5637
ạc	-12.5641
▁nhũng	-12.5683
ỗng	-12.5695
▁chốc	-12.5727
▁nghiến	-12.5733
▁đệ	-12.5737
net	-12.574
mình	-12.5754
V	-12.5757
na	-12.5816
yama	-12.5819
nhà	-12.5849
▁muôn	-12.5887
hích	-12.5928
nhiều	-12.5986
apo	-12.599
▁Thị	-12.5995
công	-12.6011
hỏi	-12.6021
Đ	-12.6036
▁tỏi	-12.6043
▁Bàn	-12.6084
ọ	-12.6095
ằn	-12.6112
▁trọ	-12.6135
oài	-12.6144
é	-12.6181
▁pa	-12.6215
hách	-12.6226
hiêu	-12.6263
▁cáp	-12.6277
▁ong	-12.6297
▁khiết	-12.6297
tiếng	-12.6332
▁nhàng	-12.6387
tốt	-12.6427
▁cu	-12.6444
man	-12.6446
▁cúc	-12.6454
chuyện	-12.6482
▁huý	-12.6497
▁akiko	-12.6498
▁alaska	-12.6498
▁elizabeth	-12.6498
▁flash	-12.6498
▁harvard	-12.6498
▁hebrew	-12.6498
▁jenny	-12.6498
▁karaoke	-12.6498
▁karate	-12.6498
▁massage	-12.6498
▁oxford	-12.6498
▁pudding	-12.6498
▁saxophone	-12.6498
▁taninna	-12.6498
▁ukulele	-12.6498
▁youtube	-12.6498
▁cocaine	-12.6498
▁jill	-12.6498
▁axit	-12.6498
▁dioxide	-12.6498
▁hamilton	-12.6498
▁mĩm	-12.6498
▁ngoãn	-12.6498
▁sachiko	-12.6499
▁2003	-12.65
▁11:00	-12.65
▁cuba	-12.6501
▁trùm	-12.6502
▁lõi	-12.6504
▁xoăn	-12.6504
▁ngợp	-12.6506
ma	-12.6507
▁vùi	-12.651
▁nick	-12.651
▁juliet	-12.6513
▁rìa	-12.6521
▁burger	-12.6521
▁gỏng	-12.6524
▁90	-12.6529
▁nhằn	-12.6556
ầy	-12.6565
▁ito	-12.6566
▁hùm	-12.6589
▁vóc	-12.6591
▁tango	-12.6599
hỏa	-12.6613
▁Hán	-12.6663
9.	-12.6675
oạc	-12.6684
▁aoi	-12.669
▁5.000	-12.6701
ster	-12.6705
rùng	-12.6706
▁Cực	-12.6719
nếu	-12.6725
▁miệt	-12.6737
▁bọc	-12.6763
▁lốc	-12.6777
▁gra	-12.6794
hắng	-12.6907
▁khe	-12.6952
ĩnh	-12.6986
như	-12.7002
▁lú	-12.7012
5.	-12.7032
ha	-12.7045
▁đản	-12.7067
▁tuông	-12.707
go	-12.7079
hay	-12.7105
hư	-12.7106
▁lề	-12.711
▁cia	-12.7116
▁thét	-12.713
việc	-12.714
▁kếp	-12.7142
▁tre	-12.7153
▁trâu	-12.716
▁Am	-12.7178
ị	-12.72
▁Tin	-12.7205
đừng	-12.7224
ne	-12.7244
▁Bet	-12.7247
am	-12.7281
▁gồ	-12.7296
▁nhủ	-12.7387
chúc	-12.7434
oh	-12.744
▁đoá	-12.7464
ốn	-12.7484
ine	-12.7519
▁gá	-12.7523
▁mail	-12.7524
▁3:00	-12.7542
hìn	-12.7544
▁gó	-12.7544
thích	-12.7549
▁há	-12.755
z	-12.7558
óe	-12.7568
▁thấm	-12.7598
▁gâ	-12.7612
▁hã	-12.7615
N	-12.7636
cái	-12.7659
yên	-12.7662
▁23	-12.7678
▁To	-12.7685
tha	-12.7755
▁tạt	-12.776
▁ủ	-12.7762
▁Số	-12.7775
ckin	-12.7833
▁ven	-12.7845
verest	-12.7869
▁phái	-12.7869
eorge	-12.7922
ander	-12.7925
▁barbara	-12.7926
▁bassoon	-12.7926
▁belgium	-12.7926
▁bikini	-12.7926
▁cholesterol	-12.7926
▁hakata	-12.7926
▁hakone	-12.7926
▁jordan	-12.7926
▁obama	-12.7926
▁panama	-12.7926
▁shibuya	-12.7926
▁tequila	-12.7926
▁kabuki	-12.7926
▁claus	-12.7926
▁karen	-12.7926
▁keio	-12.7926
▁harrison	-12.7926
▁vcr	-12.7926
▁911	-12.7926
▁banjo	-12.7926
▁juan	-12.7926
▁emily	-12.7927
▁sumo	-12.7927
▁burr	-12.7927
▁kennedy	-12.7927
inland	-12.7927
▁Beatles	-12.7927
▁2010	-12.7928
▁luis	-12.7928
▁mario	-12.7929
▁120	-12.793
▁johnny	-12.7932
▁1950	-12.7933
▁bass	-12.7934
▁5:00	-12.7934
dison	-12.7934
▁caesar	-12.7936
hịt	-12.7938
▁patt	-12.7939
▁bưởi	-12.794
▁google	-12.7941
▁gram	-12.7942
▁An	-12.7942
▁hack	-12.7942
▁thẳm	-12.7943
▁giũ	-12.7945
▁laura	-12.7947
ạ	-12.7947
▁nghẹ	-12.7954
▁hĩnh	-12.7955
▁nguội	-12.7956
▁31	-12.7963
▁Thẻ	-12.7971
▁gieo	-12.7972
▁quật	-12.7985
▁ngượng	-12.8
▁Viết	-12.8001
▁giòn	-12.8004
leon	-12.8006
elly	-12.8038
bằng	-12.8048
▁roy	-12.805
▁paula	-12.8056
▁ngài	-12.8082
▁noi	-12.8101
▁lậu	-12.8108
▁gen	-12.8115
".	-12.8117
qua	-12.8125
▁mr	-12.8137
▁cola	-12.8173
▁thun	-12.8198
▁Khu	-12.8203
xe	-12.8217
ow	-12.8228
▁sọc	-12.8232
các	-12.8252
▁còng	-12.8263
▁quế	-12.8272
▁Hu	-12.8286
▁10.	-12.8289
oan	-12.831
▁hợt	-12.8332
iển	-12.8334
rái	-12.834
uốt	-12.8357
▁rách	-12.8367
ichi	-12.8374
▁sấy	-12.838
▁Bá	-12.8386
▁hợ	-12.8387
▁xước	-12.8407
▁nhọn	-12.8424
▁dứa	-12.8426
quang	-12.8438
tô	-12.8446
nào	-12.8451
▁nã	-12.8472
ris	-12.8481
▁mút	-12.85
▁bỉ	-12.8512
▁kề	-12.8524
ames	-12.8541
riển	-12.8542
ngày	-12.8553
ten	-12.8564
á	-12.8631
hĩa	-12.8644
ary	-12.865
lại	-12.8652
ớ	-12.8658
▁tấc	-12.8684
▁na	-12.8688
oại	-12.8697
▁ke	-12.8714
gác	-12.872
hu	-12.8726
▁nhí	-12.8814
alo	-12.8817
▁măng	-12.8854
▁bill	-12.8897
▁33	-12.8931
sự	-12.894
bị	-12.8953
▁sasa	-12.8954
▁trát	-12.8967
▁bục	-12.8997
▁rễ	-12.9006
S	-12.9033
uyết	-12.908
▁tru	-12.9132
cha	-12.9135
ker	-12.9139
▁đòn	-12.9153
▁lẽo	-12.9154
▁gang	-12.9202
húc	-12.9241
▁har	-12.9247
▁Nhiệ	-12.9271
▁iraq	-12.9348
▁úc	-12.9363
hằm	-12.9387
▁andre	-12.9445
▁gai	-12.946
st	-12.9518
loại	-12.9526
▁julia	-12.9532
is	-12.9536
▁lân	-12.9549
▁julie	-12.9573
hơn	-12.9577
ủa	-12.9586
avid	-12.9586
elena	-12.9587
▁192	-12.959
nternet	-12.9591
ichard	-12.9593
▁accordion	-12.9593
▁ankara	-12.9593
▁bungee	-12.9593
▁cricket	-12.9593
▁duffel	-12.9593
▁eiffel	-12.9593
▁fukuoka	-12.9593
▁geneva	-12.9593
▁georgia	-12.9593
▁hashimoto	-12.9593
▁hydro	-12.9593
▁jeep	-12.9593
▁madrid	-12.9593
▁moscow	-12.9593
▁mozart	-12.9593
▁nagasaki	-12.9593
▁oboe	-12.9593
▁shikoku	-12.9593
▁shizuoka	-12.9593
▁woozy	-12.9593
▁kimono	-12.9593
▁Matsuyama	-12.9593
▁Paris	-12.9593
▁monica	-12.9593
▁nghẽn	-12.9593
▁ukraine	-12.9593
▁camera	-12.9593
▁manila	-12.9593
▁anderson	-12.9593
▁alps	-12.9593
▁windows	-12.9593
▁limo	-12.9593
▁romania	-12.9593
▁pochi	-12.9593
▁akira	-12.9593
▁naomi	-12.9593
▁amazon	-12.9593
▁rosa	-12.9594
▁cõng	-12.9594
▁jer	-12.9594
▁milan	-12.9594
▁biwa	-12.9595
▁vò	-12.9595
rận	-12.9595
▁argentina	-12.9595
▁xoắn	-12.9595
▁pounds	-12.9596
▁sake	-12.9596
▁Titanic	-12.9597
▁xịt	-12.9597
lie	-12.9597
▁coca	-12.9599
▁100.000	-12.96
ớn	-12.9601
▁lùn	-12.9604
iấc	-12.9605
▁edo	-12.9606
▁vẹn	-12.9607
▁tọa	-12.9608
▁chuộng	-12.9609
▁ceo	-12.9612
arilyn	-12.9612
▁giun	-12.9612
te	-12.9614
▁rít	-12.9617
▁yama	-12.9619
▁chuồn	-12.9621
▁gốm	-12.9624
▁trơ	-12.9629
linton	-12.9631
▁pro	-12.9632
▁vạch	-12.9632
▁khoăn	-12.9633
▁xưởng	-12.9634
▁jose	-12.9636
▁khuẩn	-12.9639
▁dò	-12.9639
▁dừa	-12.9656
▁dệt	-12.9658
▁mãnh	-12.9663
▁chích	-12.9666
▁ngà	-12.9668
▁ngơ	-12.9668
▁chạp	-12.9668
milton	-12.9676
▁liu	-12.9677
▁nớt	-12.968
▁anna	-12.9688
ish	-12.9689
▁trọn	-12.9704
▁nướu	-12.9707
▁vạ	-12.9709
▁dặt	-12.9712
▁băn	-12.9717
ron	-12.9727
▁cằm	-12.9745
▁ngắ	-12.9745
ako	-12.9747
▁de	-12.9753
▁romeo	-12.9756
▁gỉ	-12.9757
iọng	-12.9759
▁quất	-12.9769
▁nhột	-12.9769
iày	-12.9787
▁Này	-12.9827
iệc	-12.9835
50	-12.9847
ush	-12.9853
▁toa	-12.986
▁191	-12.9869
▁xược	-12.9871
▁Cổ	-12.9875
▁chướng	-12.9903
Là	-12.992
ộc	-12.9926
▁ầm	-12.9951
▁chip	-12.9959
hị	-13.0009
▁quyê	-13.0022
▁hạc	-13.0032
▁Nghĩ	-13.0043
▁loa	-13.0074
uman	-13.0092
hưng	-13.0119
▁men	-13.012
iống	-13.0145
▁thệ	-13.0146
nên	-13.0148
▁ren	-13.0154
di	-13.0167
▁làn	-13.0227
▁khay	-13.0251
bi	-13.0254
▁bú	-13.0268
▁sụ	-13.0273
gi	-13.0281
bao	-13.03
▁đợt	-13.0303
▁Kông	-13.0311
▁meo	-13.0322
ốp	-13.0388
un	-13.0397
nca	-13.04
▁năn	-13.0422
▁christ	-13.0441
23	-13.0443
▁vê	-13.0471
▁mốc	-13.0483
cả	-13.0498
▁neo	-13.0519
craft	-13.0543
thời	-13.0549
ony	-13.055
tr	-13.0561
▁Ki	-13.0604
▁khái	-13.0627
▁mài	-13.0629
▁thá	-13.0663
▁đung	-13.0684
▁nạng	-13.0701
óm	-13.0709
▁đốm	-13.0717
thế	-13.0748
iêng	-13.0769
yết	-13.0774
▁phà	-13.0775
▁gán	-13.0797
moto	-13.0805
cần	-13.0852
▁cộ	-13.0854
▁lỏ	-13.089
▁masa	-13.0901
▁gan	-13.0913
T	-13.0918
▁nhỉ	-13.0921
ney	-13.097
▁bành	-13.0987
ore	-13.099
▁ngoá	-13.1029
le	-13.1086
ươi	-13.1097
đầu	-13.1113
sa	-13.1135
ium	-13.119
▁mổ	-13.1196
▁gừ	-13.1201
re	-13.1201
▁10:30	-13.1204
▁rôi	-13.1224
ụt	-13.1234
▁vo	-13.1317
2,	-13.1441
▁quang	-13.1444
▁min	-13.1447
▁emi	-13.1456
ti	-13.1475
én	-13.1498
hả	-13.1525
▁xấ	-13.1529
ằm	-13.1536
thu	-13.1584
itler	-13.1585
▁hiroshi	-13.1593
etroit	-13.1593
▁Afghanistan	-13.1593
▁Séc	-13.1593
▁atlant	-13.1593
▁barcelona	-13.1593
▁beethoven	-13.1593
▁benjamin	-13.1593
▁cambridge	-13.1593
▁denmark	-13.1593
▁folks	-13.1593
▁hybrid	-13.1593
▁ikeda	-13.1593
▁ireland	-13.1593
▁kanji	-13.1593
▁madonna	-13.1593
▁microsoft	-13.1593
▁pakistan	-13.1593
▁pedro	-13.1593
▁sashimi	-13.1593
▁shinano	-13.1593
▁isabel	-13.1593
▁takuya	-13.1593
▁ballet	-13.1593
▁ichiro	-13.1593
▁nagano	-13.1593
▁robinson	-13.1593
▁ogawa	-13.1593
▁kanda	-13.1593
▁tahiti	-13.1593
▁giỡn	-13.1593
▁serbia	-13.1593
▁roland	-13.1593
▁albert	-13.1593
▁philip	-13.1593
▁goro	-13.1593
▁edw	-13.1593
▁chuck	-13.1593
▁2013	-13.1593
▁1992	-13.1594
▁marco	-13.1595
▁liễu	-13.1595
▁1995	-13.1595
▁malaysia	-13.1595
mily	-13.1595
▁miso	-13.1595
▁gươm	-13.1596
▁olympics	-13.1596
▁iris	-13.1598
▁Bob	-13.1599
▁lẫy	-13.1599
agan	-13.1599
▁david	-13.1601
▁110	-13.1602
▁berber	-13.1604
uống	-13.1604
▁nhím	-13.1605
▁loãng	-13.1608
opy	-13.1609
▁2009	-13.1611
▁quyệt	-13.1618
▁cùn	-13.162
▁Sinh	-13.162
▁bộn	-13.1633
▁nệm	-13.1649
▁ital	-13.1659
eise	-13.1662
▁nần	-13.1665
▁đẩu	-13.1693
nhưng	-13.1695
▁kép	-13.17
▁mụn	-13.1725
▁Cam	-13.1738
▁haiti	-13.1738
▁yuki	-13.1739
▁chùa	-13.1741
ela	-13.1749
▁loát	-13.175
tatoeba	-13.1766
▁Kan	-13.1781
máy	-13.1789
mấy	-13.1836
chu	-13.1845
f	-13.1852
ban	-13.1866
▁zi	-13.1874
▁sục	-13.1881
▁dế	-13.1882
▁cọ	-13.1895
ạng	-13.191
▁hạch	-13.1916
ờng	-13.1928
rình	-13.1939
ền	-13.1948
▁càn	-13.1951
yoko	-13.1965
▁thạc	-13.1988
▁yoshi	-13.1989
▁ru	-13.2
del	-13.2002
từ	-13.2053
ey	-13.2063
câu	-13.2072
▁chậu	-13.2073
ịa	-13.2075
▁kuni	-13.2077
▁tứ	-13.2105
▁lôi	-13.2107
▁Đúng	-13.2119
sher	-13.2121
bra	-13.2133
▁sỏi	-13.215
trước	-13.2154
uếch	-13.2175
1,	-13.2195
▁edg	-13.2221
▁thiêng	-13.2231
lly	-13.2231
▁sọ	-13.2257
ọt	-13.2266
hiện	-13.2268
▁trụi	-13.2279
▁ả	-13.2342
▁lựu	-13.236
ắng	-13.2363
▁bón	-13.2377
ille	-13.2388
▁phu	-13.2398
▁yuri	-13.2401
hương	-13.2443
amoto	-13.245
▁Tà	-13.2463
oạt	-13.2466
ella	-13.2478
lu	-13.251
ươc	-13.2514
ew	-13.2537
▁3.	-13.2538
▁Na	-13.2541
nhìn	-13.2544
hắn	-13.2545
▁ze	-13.2546
▁hen	-13.2546
rải	-13.2579
hán	-13.2582
▁cong	-13.2586
▁vát	-13.2624
▁thêu	-13.2626
rie	-13.2637
▁trệ	-13.2693
▁nhàu	-13.27
▁phao	-13.2738
▁thịch	-13.2762
▁Pa	-13.2772
gà	-13.2773
ép	-13.2797
bu	-13.2801
ide	-13.2813
Ai	-13.2831
hầm	-13.2836
apol	-13.2842
▁boa	-13.2842
▁Tiế	-13.2859
▁tăm	-13.2868
amp	-13.287
▁Kat	-13.2873
huy	-13.2902
giúp	-13.2926
▁thằn	-13.2932
ren	-13.2944
tra	-13.295
ít	-13.2957
ken	-13.2959
năm	-13.2971
ộ	-13.2981
lúc	-13.2988
▁biế	-13.3007
vin	-13.301
▁bạch	-13.3026
20	-13.3035
her	-13.305
▁nhích	-13.3073
vậy	-13.3104
ole	-13.3105
▁del	-13.3107
tai	-13.311
chiếc	-13.311
ủng	-13.3139
ill	-13.3139
huốc	-13.3142
nước	-13.3193
oko	-13.3202
Nhật	-13.3214
9,	-13.3242
hưa	-13.3245
hát	-13.3249
▁xo	-13.3259
thành	-13.326
▁sá	-13.3272
ứu	-13.3284
▁250	-13.3289
ừa	-13.3296
▁tiê	-13.3301
▁giáp	-13.3312
ộp	-13.3319
▁sò	-13.3321
ino	-13.3344
▁ngủi	-13.3345
▁bo	-13.3351
▁ko	-13.3357
ina	-13.336
one	-13.3405
▁swi	-13.3405
vui	-13.3408
and	-13.3455
si	-13.3462
ắn	-13.3467
99	-13.3475
ter	-13.3482
▁q	-13.3484
▁óc	-13.3521
▁thình	-13.3524
▁pi	-13.3558
hớt	-13.3562
rô	-13.3567
fi	-13.3579
▁fi	-13.3601
ola	-13.366
ville	-13.3666
▁bă	-13.3678
ợng	-13.3682
les	-13.3683
cola	-13.3695
orge	-13.3696
▁nhi	-13.3708
so	-13.3708
▁ya	-13.3806
hôi	-13.3812
▁dãi	-13.3824
olo	-13.3832
▁193	-13.384
aza	-13.3861
▁tú	-13.3884
▁Mon	-13.3917
hòm	-13.3917
sas	-13.393
▁mận	-13.3996
▁cal	-13.4009
▁dời	-13.4011
q	-13.4023
▁ngừ	-13.4023
▁tựu	-13.4031
nap	-13.4033
▁Bur	-13.4051
▁martin	-13.4058
ette	-13.4072
ú	-13.4089
obert	-13.4092
ndonesia	-13.4093
▁Atlanta	-13.4093
▁Croatia	-13.4093
▁Singapore	-13.4093
▁amsterdam	-13.4093
▁backgammon	-13.4093
▁bourbon	-13.4093
▁calvin	-13.4093
▁fahrenheit	-13.4093
▁ferrari	-13.4093
▁gettysburg	-13.4093
▁graffiti	-13.4093
▁guinea	-13.4093
▁hudson	-13.4093
▁javascript	-13.4093
▁karuizawa	-13.4093
▁klutz	-13.4093
▁mcdonald	-13.4093
▁ninja	-13.4093
▁oscar	-13.4093
▁penicillin	-13.4093
▁rhine	-13.4093
▁shanghai	-13.4093
▁short	-13.4093
▁siberia	-13.4093
▁skype	-13.4093
▁switzerland	-13.4093
▁sôcôla	-13.4093
▁tempura	-13.4093
▁twitter	-13.4093
▁wikipedia	-13.4093
iddle	-13.4093
▁degas	-13.4093
▁nitơ	-13.4093
▁twain	-13.4093
▁cotton	-13.4093
▁ginza	-13.4093
▁kansai	-13.4093
▁ohio	-13.4093
press	-13.4093
▁blues	-13.4093
▁brownies	-13.4093
▁greene	-13.4093
▁vest	-13.4093
▁yoga	-13.4093
▁suyễn	-13.4093
▁irs	-13.4093
▁333	-13.4093
▁Nile	-13.4093
▁giup	-13.4093
eline	-13.4093
▁ellen	-13.4093
ower	-13.4093
▁1933	-13.4093
▁pepper	-13.4093
pod	-13.4093
▁rưởi	-13.4093
▁abc	-13.4093
▁molly	-13.4094
▁allan	-13.4094
ation	-13.4094
SB	-13.4094
▁apple	-13.4094
▁feli	-13.4094
▁patin	-13.4094
▁Noel	-13.4094
▁ebay	-13.4094
▁als	-13.4095
▁shinj	-13.4095
▁Sand	-13.4095
▁jac	-13.4095
▁hamster	-13.4096
▁1955	-13.4096
▁Cathy	-13.4096
▁Matsu	-13.4096
▁madison	-13.4096
▁sarah	-13.4096
▁rev	-13.4097
▁kathy	-13.4098
▁2001	-13.4098
▁3:30.	-13.4098
▁brandy	-13.4099
▁tĩu	-13.41
▁dj	-13.41
▁samurai	-13.4101
ffy	-13.4103
▁koko	-13.4105
▁suz	-13.4105
▁trailer	-13.4107
▁taj	-13.4108
▁cass	-13.411
▁dẻo	-13.4115
▁ned	-13.4115
▁Bill	-13.4116
udio	-13.4118
▁yếm	-13.412
▁xỉu	-13.4124
old	-13.4126
▁Đá	-13.4129
▁tamori	-13.4132
▁boong	-13.4134
ọp	-13.4134
▁nập	-13.4136
berg	-13.4136
▁pe	-13.4139
dori	-13.414
▁rum	-13.4145
▁franc	-13.4145
▁rệt	-13.4148
▁xoài	-13.4149
▁haw	-13.4162
▁phiếm	-13.4164
▁ngòi	-13.4167
:15	-13.4174
▁tí	-13.4174
cách	-13.4175
aul	-13.4176
▁lucia	-13.4177
ver	-13.4182
▁li	-13.4187
ượu	-13.4187
▁andy	-13.419
eiko	-13.4194
▁evere	-13.4198
urton	-13.42
▁naok	-13.4204
▁shin	-13.4206
thứ	-13.4213
▁alan	-13.4217
hê	-13.4224
ly	-13.4233
▁vãnh	-13.4233
trở	-13.4233
iếu	-13.4244
▁eric	-13.4251
▁nấ	-13.4262
▁stan	-13.4264
▁trệt	-13.4266
ats	-13.4269
▁naka	-13.427
der	-13.4276
▁Sơn	-13.4276
▁xổm	-13.4286
▁za	-13.4302
▁sấp	-13.4305
▁29	-13.432
▁ntt	-13.4341
ali	-13.4343
▁tate	-13.4344
ẹn	-13.4357
ltz	-13.4365
aesar	-13.437
mori	-13.4394
uchi	-13.4409
▁phỉ	-13.442
▁fe	-13.4425
▁thau	-13.443
▁bíp	-13.4432
đồng	-13.4435
gh	-13.4476
bởi	-13.4489
▁tho	-13.4504
sách	-13.4514
▁nhậ	-13.4543
▁cạp	-13.4582
hét	-13.4599
uá	-13.4605
▁ne	-13.4621
H	-13.4621
ạo	-13.4622
▁dạn	-13.4631
▁nòng	-13.4633
▁quát	-13.4634
ika	-13.4639
▁ráo	-13.4648
hen	-13.4653
aft	-13.4664
hết	-13.4681
imura	-13.4682
▁phế	-13.4683
▁bịp	-13.4698
▁Vị	-13.4724
hụ	-13.473
uda	-13.475
▁99	-13.4756
▁kawa	-13.4781
▁mari	-13.4781
▁Trá	-13.4788
▁nhảm	-13.4795
gặp	-13.4795
lan	-13.48
▁osam	-13.4822
sống	-13.4833
▁1.	-13.4837
uả	-13.4842
▁mồm	-13.4871
lời	-13.4879
13	-13.4881
▁cày	-13.49
đề	-13.4901
mua	-13.4907
▁sand	-13.4933
eon	-13.4936
25	-13.4959
ướng	-13.496
▁dậ	-13.4961
ịch	-13.4976
billy	-13.4979
▁nặc	-13.4992
▁sho	-13.4994
res	-13.5005
Cô	-13.5016
▁kat	-13.5039
mon	-13.5044
▁Kho	-13.5049
uke	-13.506
▁tuô	-13.5061
ry	-13.5066
j	-13.5068
▁monte	-13.5076
pe	-13.5114
▁nhó	-13.5131
▁mầm	-13.5163
sau	-13.5183
▁trỏ	-13.5186
ót	-13.5207
▁bổn	-13.5207
▁nhẹn	-13.5219
▁chiê	-13.5291
▁cù	-13.5306
32	-13.5309
hấp	-13.531
39	-13.5316
19	-13.5319
ana	-13.533
▁sếu	-13.5344
▁lằn	-13.538
nhảy	-13.5383
▁ấ	-13.5405
▁sal	-13.5406
ire	-13.5411
▁thấ	-13.5422
chưa	-13.5431
ĩa	-13.5442
ợp	-13.5459
M	-13.5466
▁sởi	-13.5486
▁kum	-13.5493
▁roi	-13.5514
▁chả	-13.5522
▁phe	-13.5552
3.	-13.5553
tiền	-13.5557
shi	-13.5561
nhất	-13.5568
▁Thô	-13.5597
▁Asa	-13.5611
ịnh	-13.562
▁vụn	-13.5666
▁nê	-13.5668
lớn	-13.5688
gian	-13.5704
cửa	-13.5707
▁or	-13.571
uyện	-13.5715
▁Trum	-13.5742
▁rợ	-13.5746
ers	-13.5779
▁đắc	-13.579
rey	-13.5825
nghe	-13.5868
way	-13.591
ston	-13.5962
▁nọc	-13.5965
boy	-13.601
adak	-13.6011
điện	-13.6014
theo	-13.602
▁han	-13.6025
mar	-13.603
cle	-13.6044
bắt	-13.6071
▁Và	-13.6094
uan	-13.6105
yêu	-13.6107
ose	-13.6122
nay	-13.6126
2.	-13.6127
ộng	-13.6155
ote	-13.6186
hoa	-13.6194
boston	-13.6212
iệp	-13.6212
▁christi	-13.6234
▁Tiên	-13.6255
cuộc	-13.6256
▁sad	-13.6262
chiến	-13.6265
rầm	-13.6277
khác	-13.628
▁dẫ	-13.6281
▁mề	-13.6289
Nó	-13.6303
30	-13.6307
53	-13.6313
ale	-13.6389
▁0	-13.639
hú	-13.6396
yo	-13.6403
nhận	-13.642
▁pat	-13.6444
uông	-13.6478
oa	-13.6478
còn	-13.6479
rường	-13.6483
tình	-13.6489
ngay	-13.651
háp	-13.6543
▁toái	-13.6567
▁fran	-13.6585
rợ	-13.6589
bo	-13.6633
land	-13.6655
▁loạ	-13.6656
▁hòi	-13.6659
wada	-13.6665
▁khoá	-13.6695
▁chử	-13.6709
phòng	-13.6725
▁yo	-13.6733
iss	-13.6739
▁đơ	-13.6762
ủi	-13.677
vì	-13.6795
ạt	-13.6806
▁lư	-13.6844
iả	-13.6865
vi	-13.6865
wi	-13.6898
▁55	-13.6904
ed	-13.691
tìm	-13.6912
wa	-13.6939
mes	-13.6941
▁2,	-13.6951
▁gua	-13.6952
nhạc	-13.6955
ees	-13.6966
take	-13.6971
kais	-13.6977
Kinh	-13.6978
dora	-13.6978
zo	-13.698
mura	-13.6996
▁1000	-13.7001
the	-13.7013
▁nan	-13.7066
tein	-13.7069
▁Co	-13.7071
ẹo	-13.7093
▁Mà	-13.7094
cuốn	-13.7101
ím	-13.7105
we	-13.7112
ja	-13.7175
mọ	-13.7186
hoạt	-13.7211
gen	-13.7217
▁phai	-13.722
▁ngọ	-13.7226
èn	-13.7234
▁marik	-13.7246
▁stra	-13.7249
▁zu	-13.7258
▁gă	-13.7272
▁chơ	-13.7273
oàn	-13.7286
fl	-13.7296
izu	-13.7301
li	-13.7313
▁rê	-13.7318
ễ	-13.7329
hỗ	-13.7339
umiko	-13.7341
taro	-13.7349
55	-13.7365
ẵn	-13.7368
llan	-13.7368
vấn	-13.7371
roulette	-13.7372
homas	-13.7379
ookie	-13.739
đồ	-13.739
▁vâ	-13.739
nhỏ	-13.7406
itanic	-13.7422
ood	-13.7423
obot	-13.7425
▁caffein	-13.7425
brand	-13.7425
▁robin	-13.7426
▁yuka	-13.7426
▁ethiopia	-13.7426
▁Helen	-13.7426
▁Massachusetts	-13.7426
▁Scotland	-13.7426
▁Texas	-13.7426
▁alibis	-13.7426
▁anthony	-13.7426
▁asahi	-13.7426
▁bagpipes	-13.7426
▁break	-13.7426
▁brown	-13.7426
▁buchird	-13.7426
▁carbohydrate	-13.7426
▁centimet	-13.7426
▁colorado	-13.7426
▁cupcake	-13.7426
▁derby	-13.7426
▁ecuador	-13.7426
▁florence	-13.7426
▁hanshin	-13.7426
▁hatchet	-13.7426
▁honpered	-13.7426
▁jamaica	-13.7426
▁kamakura	-13.7426
▁kanazawa	-13.7426
▁kanguru	-13.7426
▁kleenex	-13.7426
▁koizumi	-13.7426
▁lacrosse	-13.7426
▁lasagna	-13.7426
▁linux	-13.7426
▁magdalena	-13.7426
▁mahal	-13.7426
▁mandolin	-13.7426
▁marcus	-13.7426
▁marketing	-13.7426
▁mayonnaise	-13.7426
▁melbourne	-13.7426
▁minogue	-13.7426
▁morocco	-13.7426
▁nagashima	-13.7426
▁nicholas	-13.7426
▁nitpick	-13.7426
▁obihiro	-13.7426
▁oklahoma	-13.7426
▁online	-13.7426
▁pachinko	-13.7426
▁petersburg	-13.7426
▁presley	-13.7426
▁reggae	-13.7426
▁russell	-13.7426
▁shinkansen	-13.7426
▁takahashi	-13.7426
▁tohoku	-13.7426
▁vegas	-13.7426
▁venetian	-13.7426
▁virginia	-13.7426
▁waseda	-13.7426
▁yakitori	-13.7426
▁zombie	-13.7426
▁club	-13.7426
▁herman	-13.7426
▁mormon	-13.7426
▁koji	-13.7426
▁laptop	-13.7426
▁samuel	-13.7426
▁alister	-13.7426
▁nude	-13.7426
▁fuku	-13.7426
▁ymca	-13.7426
isney	-13.7426
pence	-13.7426
▁dance	-13.7426
▁murata	-13.7426
▁janeiro	-13.7426
▁radar	-13.7426
▁lennon	-13.7426
▁patricia	-13.7426
▁salsa	-13.7426
▁karim	-13.7426
book	-13.7426
▁buck	-13.7426
▁marconi	-13.7426
▁dave	-13.7426
▁adam	-13.7426
▁heroin	-13.7426
▁august	-13.7427
▁joneses	-13.7427
lays	-13.7427
akagawa	-13.7427
▁Ase	-13.7427
▁1903	-13.7427
▁Thames	-13.7427
▁polk	-13.7427
▁cool	-13.7427
▁caffeine	-13.7427
▁Cuba	-13.7427
ington	-13.7427
house	-13.7427
▁philippines	-13.7428
▁noriko	-13.7428
▁daniel	-13.7428
▁lisp	-13.7428
▁giềng	-13.7428
▁capp	-13.7428
▁photo	-13.7428
▁sukiyaki	-13.7428
▁haiku	-13.7428
▁1952	-13.7428
▁liz	-13.7429
▁peru	-13.7429
▁viola	-13.743
▁marie	-13.743
▁ufos	-13.7431
▁kềnh	-13.7431
▁bbc	-13.7431
tarou	-13.7431
▁mrs	-13.7431
▁iran	-13.7431
▁inca	-13.7432
chel	-13.7432
▁2:00	-13.7432
ube	-13.7433
03	-13.7433
▁jr	-13.7434
salem	-13.7434
▁colombia	-13.7435
▁1930	-13.7435
▁1959	-13.7436
▁bugi	-13.7436
▁5:30	-13.7436
▁pizzaro	-13.7437
▁mass	-13.7437
▁Loan	-13.7438
▁dennis	-13.7438
▁balt	-13.7438
▁pep	-13.7438
▁kumiko	-13.7438
akano	-13.7438
▁yoshio	-13.7439
▁xốp	-13.7439
▁harilyn	-13.744
▁lili	-13.744
▁showa	-13.7441
▁Mạch	-13.7443
logger	-13.7443
▁líu	-13.7443
▁ngoặc	-13.7444
▁selena	-13.7444
▁lườm	-13.7444
▁què	-13.7445
blo	-13.7445
olk	-13.7445
▁tuba	-13.7445
▁nhúm	-13.7447
erson	-13.7448
▁scam	-13.7448
▁Pin	-13.7449
▁aso	-13.745
▁lươn	-13.7453
cole	-13.7454
inda	-13.7455
▁brad	-13.7456
gle	-13.7458
sugi	-13.7458
▁kelly	-13.7461
▁ono	-13.7463
▁teen	-13.7465
roll	-13.7471
▁kazu	-13.7472
▁chẵn	-13.7473
▁colli	-13.7476
▁troulette	-13.7481
▁giòi	-13.7485
▁kle	-13.7488
▁shige	-13.7499
▁oz	-13.7503
▁95	-13.7504
kling	-13.7504
▁chùi	-13.7505
▁rạc	-13.7515
:20.	-13.7532
▁mark	-13.7534
▁Vương	-13.7536
tami	-13.7536
▁louis	-13.7537
▁australia	-13.7541
gie	-13.7542
▁rét	-13.7543
▁sony	-13.7545
▁xẹp	-13.7548
viên	-13.7549
▁yuko	-13.7555
▁võng	-13.7561
▁khoẻ	-13.7575
▁jan	-13.7578
▁sán	-13.7582
guchi	-13.7592
lean	-13.7593
▁trặc	-13.7593
▁Mũ	-13.7599
▁mic	-13.762
akes	-13.7621
hè	-13.7638
led	-13.7643
▁buốt	-13.7643
▁biê	-13.7654
▁fo	-13.7667
▁vạng	-13.7667
xi	-13.7679
ritz	-13.7681
avis	-13.7683
số	-13.7697
▁thớt	-13.7704
bon	-13.7706
▁juli	-13.7713
▁die	-13.7714
chơi	-13.7741
alile	-13.7743
adda	-13.7748
sopr	-13.7748
▁port	-13.7755
▁gab	-13.7766
▁răn	-13.7767
▁jas	-13.7781
ight	-13.7781
kh	-13.7783
ito	-13.7797
hiểu	-13.7815
▁vắ	-13.7824
▁xắc	-13.785
illar	-13.7855
▁hán	-13.786
quan	-13.7881
bras	-13.7883
▁đàng	-13.7885
▁méo	-13.7897
▁sara	-13.7921
ob	-13.7931
ạp	-13.7939
zaki	-13.7966
▁cap	-13.7973
▁mă	-13.7977
quá	-13.7982
▁giấm	-13.799
▁mụ	-13.8045
ruồng	-13.8056
▁bern	-13.806
▁xôi	-13.8091
ợt	-13.8102
▁nhòa	-13.8103
ran	-13.8109
▁tớ	-13.8131
▁bẩy	-13.8131
log	-13.8158
▁10:30.	-13.8175
ck	-13.8177
quần	-13.8187
idge	-13.8192
lên	-13.82
▁mas	-13.8214
lông	-13.8218
▁ramu	-13.8222
arry	-13.823
▁nhóc	-13.8232
hầu	-13.8258
ghi	-13.826
▁holl	-13.8263
ựu	-13.8272
▁hum	-13.8273
ãi	-13.8281
shu	-13.8288
oku	-13.8342
▁lở	-13.8361
▁pint	-13.8367
ius	-13.8372
đánh	-13.8392
ke	-13.8393
nium	-13.8399
rick	-13.8406
▁and	-13.8432
hình	-13.8434
▁quấ	-13.8449
▁Tư	-13.8475
nnie	-13.8491
tone	-13.8491
▁3:00.	-13.8493
nơi	-13.8498
cùng	-13.8507
èo	-13.8527
▁ali	-13.8528
hất	-13.8537
ari	-13.8538
ìn	-13.8547
elvi	-13.8563
▁sà	-13.857
lama	-13.8595
▁tướ	-13.8598
▁sach	-13.8611
▁fre	-13.863
hữ	-13.8646
kusa	-13.8656
▁nhâ	-13.8662
ịt	-13.8671
ans	-13.868
gái	-13.8687
▁sâ	-13.8719
ner	-13.8722
bert	-13.8732
▁matu	-13.8732
▁nheo	-13.8757
▁Đan	-13.8764
van	-13.8773
kako	-13.883
▁lad	-13.8853
▁vượn	-13.8858
nda	-13.887
▁Đà	-13.8876
iờ	-13.8883
▁un	-13.8897
oue	-13.89
xả	-13.8909
▁be	-13.8918
▁thoi	-13.8919
fish	-13.8941
kin	-13.8945
▁sli	-13.8971
▁ngoặ	-13.8976
Cả	-13.8984
nhau	-13.9004
▁gợ	-13.904
et	-13.9052
uồng	-13.9054
ike	-13.9065
00.000	-13.9073
▁rã	-13.9083
ngồi	-13.912
▁đai	-13.914
aria	-13.9155
ranh	-13.9166
hùm	-13.9194
▁karl	-13.923
rcia	-13.9262
▁miên	-13.9265
▁mẩn	-13.9284
yle	-13.9299
oay	-13.9303
lip	-13.9321
▁yam	-13.9346
po	-13.9352
▁luồn	-13.9386
▁tó	-13.9394
giữ	-13.9469
hối	-13.9477
▁yoshik	-13.9483
▁lis	-13.9538
▁tấ	-13.9544
đâu	-13.9574
▁shi	-13.9575
định	-13.96
tham	-13.9608
▁rom	-13.9612
▁khiê	-13.9631
tối	-13.9635
ace	-13.9656
ger	-13.9684
hờ	-13.9693
▁0,	-13.9695
thường	-13.972
rang	-13.972
se	-13.973
uss	-13.9746
as	-13.976
▁khắ	-13.9765
xem	-13.9765
tự	-13.9777
▁vảy	-13.9782
▁par	-13.9842
ula	-13.9858
llbo	-13.9929
hêm	-13.9974
▁ngoạ	-13.9975
ies	-13.9995
ji	-13.9998
óng	-14.0012
▁med	-14.0047
51	-14.0063
uer	-14.007
▁hor	-14.0084
ngoài	-14.0103
nhớ	-14.0111
▁rap	-14.0131
▁gáy	-14.0199
rút	-14.0216
▁190	-14.0224
sha	-14.0262
lòng	-14.0275
ser	-14.0313
▁canh	-14.0318
▁thỉ	-14.0321
ally	-14.0323
che	-14.0325
nis	-14.0406
▁trầ	-14.0414
nhanh	-14.0415
10	-14.0418
vis	-14.0434
▁củi	-14.0443
▁muố	-14.0446
▁Cú	-14.0448
hy	-14.0457
▁No	-14.0462
▁dau	-14.0464
tiếp	-14.0465
29	-14.0472
ọng	-14.0473
▁Cà	-14.0477
khỏi	-14.0484
▁ball	-14.0533
tuyệt	-14.0538
eld	-14.0542
hòng	-14.0558
đêm	-14.0559
outh	-14.0585
,5	-14.0596
akura	-14.0597
rung	-14.0607
ope	-14.0629
sinh	-14.0632
▁fat	-14.064
hiền	-14.0647
Đó	-14.0653
▁fr	-14.0659
awa	-14.0666
kita	-14.0732
ami	-14.0738
tsun	-14.0744
▁điề	-14.0747
▁xôn	-14.0763
▁Thá	-14.0767
ell	-14.077
org	-14.0807
▁noz	-14.0818
nữa	-14.0825
lần	-14.0848
va	-14.0852
cứ	-14.086
mi	-14.0878
cây	-14.0893
gọi	-14.0918
ux	-14.0922
mới	-14.0944
chín	-14.0947
hung	-14.0955
▁quẹ	-14.097
▁201	-14.0977
nder	-14.0979
ét	-14.099
ện	-14.1035
▁ngâ	-14.1056
ndy	-14.1063
luôn	-14.1089
khá	-14.1096
ffin	-14.1104
▁z	-14.1109
ria	-14.1134
12	-14.1134
eille	-14.1155
cam	-14.1208
▁Nhậ	-14.121
▁dâ	-14.1215
▁huyện	-14.1229
oái	-14.1253
▁hol	-14.1263
bận	-14.1274
mặc	-14.1282
▁Mar	-14.1287
eru	-14.1288
trường	-14.1293
elia	-14.1305
trả	-14.1321
ổn	-14.1331
ber	-14.1353
ens	-14.1356
▁roo	-14.1364
▁100.	-14.137
đường	-14.139
héo	-14.1414
ặp	-14.1414
hướng	-14.1423
bar	-14.1428
▁á	-14.1437
▁dais	-14.1454
▁her	-14.1489
agar	-14.1504
bia	-14.1512
▁hú	-14.1524
eric	-14.1526
trẻ	-14.1538
hoàn	-14.1539
ulli	-14.1548
15	-14.1558
▁sầu	-14.1583
eth	-14.1586
91	-14.1587
hệ	-14.1592
▁San	-14.1599
▁nẻ	-14.1599
▁chạ	-14.1623
kim	-14.1631
houn	-14.1635
hịn	-14.1645
▁12,	-14.1648
ash	-14.1651
mười	-14.1676
▁nuô	-14.1684
áu	-14.1688
▁lụ	-14.1688
▁tab	-14.169
uel	-14.1695
qu	-14.1715
▁2000	-14.1731
▁hiê	-14.1735
ngủ	-14.177
ẫu	-14.1777
▁tà	-14.1783
rene	-14.1788
▁lâ	-14.1793
ds	-14.1807
▁war	-14.1815
quyết	-14.1824
ist	-14.1829
rock	-14.1866
▁rocke	-14.1866
ester	-14.1879
jima	-14.1879
ford	-14.1882
khách	-14.1914
fred	-14.1917
ret	-14.1918
jiro	-14.1933
52	-14.1939
port	-14.1949
anne	-14.1962
ounce	-14.1978
af	-14.1989
cầu	-14.1996
Đúng	-14.1997
▁mik	-14.1998
romeo	-14.2005
yuki	-14.2032
shima	-14.2041
dan	-14.2063
▁cleo	-14.207
hằng	-14.2071
tro	-14.2087
rich	-14.2087
oyama	-14.2088
▁xào	-14.2091
sie	-14.2101
gia	-14.2103
▁thă	-14.2105
▁ư	-14.2115
que	-14.2118
unk	-14.2119
▁lib	-14.212
rad	-14.2123
sung	-14.2132
thi	-14.2142
nard	-14.2159
mưa	-14.2178
san	-14.2179
mà	-14.2182
hạc	-14.2186
A	-14.2207
opra	-14.2214
pal	-14.222
ello	-14.2248
cố	-14.2267
▁chè	-14.2272
tay	-14.2274
▁việ	-14.2282
ỹ	-14.2284
▁tă	-14.2291
sto	-14.2297
▁ol	-14.23
▁Kế	-14.2305
nathan	-14.231
nik	-14.2318
▁Thư	-14.2319
▁tuôn	-14.234
arte	-14.2343
đôi	-14.2345
don	-14.2357
▁viế	-14.2365
▁israel	-14.237
hội	-14.2374
met	-14.2381
ruce	-14.2383
aku	-14.2386
▁Mấ	-14.2392
olita	-14.2394
ka	-14.2398
▁show	-14.2402
ce	-14.2402
▁lind	-14.2405
sáng	-14.2406
isa	-14.2413
▁Nguy	-14.2415
ùi	-14.2416
armonica	-14.2419
amster	-14.2421
achiko	-14.2422
hếch	-14.2424
mazon	-14.2424
ackson	-14.2425
▁Take	-14.2426
▁sulfa	-14.2426
emingway	-14.2426
point	-14.2426
utobahn	-14.2426
▁Android	-14.2426
▁Bungari	-14.2426
▁Calais	-14.2426
▁Churchill	-14.2426
▁Connecticut	-14.2426
▁Hawaii	-14.2426
▁Kissinger	-14.2426
▁Philipin	-14.2426
▁Shakespeare	-14.2426
▁amidan	-14.2426
▁armenia	-14.2426
▁austria	-14.2426
▁baghdad	-14.2426
▁balkan	-14.2426
▁beatri	-14.2426
▁cambodia	-14.2426
▁castro	-14.2426
▁catalonia	-14.2426
▁catnip	-14.2426
▁creep	-14.2426
▁curtis	-14.2426
▁diesel	-14.2426
▁eggnog	-14.2426
▁enchiladas	-14.2426
▁espresso	-14.2426
▁flannel	-14.2426
▁flick	-14.2426
▁flunkey	-14.2426
▁ganpool	-14.2426
▁gluten	-14.2426
▁hakodate	-14.2426
▁helium	-14.2426
▁helsinki	-14.2426
▁hikari	-14.2426
▁honshu	-14.2426
▁hoops	-14.2426
▁illinois	-14.2426
▁ionescu	-14.2426
▁istanbul	-14.2426
▁jesuit	-14.2426
▁jumps	-14.2426
▁kakogawa	-14.2426
▁kilôgam	-14.2426
▁kuwait	-14.2426
▁louisiana	-14.2426
▁marimba	-14.2426
▁mercedes	-14.2426
▁mohammed	-14.2426
▁neptune	-14.2426
▁nicaragua	-14.2426
▁niigata	-14.2426
▁nintendo	-14.2426
▁ocarina	-14.2426
▁ogaki	-14.2426
▁okonomiyaki	-14.2426
▁ophelia	-14.2426
▁origami	-14.2426
▁podcast	-14.2426
▁potter	-14.2426
▁powerpoint	-14.2426
▁prague	-14.2426
▁python	-14.2426
▁salvador	-14.2426
▁saturn	-14.2426
▁sirhan	-14.2426
▁sistine	-14.2426
▁spielberg	-14.2426
▁spring	-14.2426
▁steroid	-14.2426
▁superbowl	-14.2426
▁toronto	-14.2426
▁trifled	-14.2426
▁vancodar	-14.2426
▁vladimir	-14.2426
▁watanabe	-14.2426
▁yaesu	-14.2426
▁nepal	-14.2426
▁poland	-14.2426
▁cecil	-14.2426
▁claudi	-14.2426
▁eliot	-14.2426
▁farsi	-14.2426
▁himeji	-14.2426
▁iowa	-14.2426
▁kawaguchi	-14.2426
▁mafia	-14.2426
▁melville	-14.2426
▁miyazawa	-14.2426
▁piper	-14.2426
imble	-14.2426
▁babys	-14.2426
▁kyiv	-14.2426
▁poster	-14.2426
▁vinci	-14.2426
▁hiroko	-14.2426
▁hubb	-14.2426
▁columb	-14.2426
▁yukawa	-14.2426
▁cobb	-14.2426
▁jaywalking	-14.2426
▁step	-14.2426
▁homest	-14.2426
▁pierr	-14.2426
wood	-14.2426
▁beijing	-14.2426
▁bosnia	-14.2426
▁misako	-14.2426
▁10,00	-14.2426
▁kanto	-14.2426
meguro	-14.2426
▁alain	-14.2426
▁kushiro	-14.2426
▁sonnet	-14.2426
▁canadian	-14.2426
▁yukiko	-14.2426
ondria	-14.2426
ilma	-14.2426
▁elba	-14.2426
▁islam	-14.2426
▁shogi	-14.2426
▁smack	-14.2426
▁tasmania	-14.2426
▁cafe	-14.2426
▁allen	-14.2426
▁lanka	-14.2426
▁Syria	-14.2426
town	-14.2426
▁okayama	-14.2426
barak	-14.2427
ippi	-14.2427
▁michel	-14.2427
▁quebec	-14.2427
▁xõa	-14.2427
rhus	-14.2427
▁jerry	-14.2427
▁fabi	-14.2427
unze	-14.2427
▁udon	-14.2427
▁hoshino	-14.2427
:10	-14.2427
▁Brent	-14.2427
▁sterling	-14.2427
epp	-14.2427
▁blanc	-14.2427
▁1929	-14.2428
▁carey	-14.2428
sylv	-14.2428
agalog	-14.2428
kaido	-14.2428
wako	-14.2428
1,2	-14.2428
df	-14.2428
▁judo	-14.2428
opher	-14.2429
▁glee	-14.2429
▁shiro	-14.2429
▁trek	-14.2429
▁1923	-14.2429
cks	-14.2429
pad	-14.243
▁cape	-14.243
▁1935	-14.243
▁1.000.000	-14.243
▁nile	-14.243
▁2012	-14.243
well	-14.243
▁hans	-14.2431
▁hime	-14.2431
▁luna	-14.2432
▁9:30	-14.2432
▁Mike	-14.2432
▁titan	-14.2432
opers	-14.2433
fumi	-14.2433
loria	-14.2433
▁harmonica	-14.2433
▁cpr	-14.2433
▁Takeo	-14.2433
▁nasa	-14.2434
right	-14.2434
row	-14.2434
▁pent	-14.2435
▁1999	-14.2436
▁1925	-14.2436
▁yard	-14.2436
rina	-14.2436
▁1912	-14.2437
ustin	-14.2437
pple	-14.2438
pper	-14.2439
eiji	-14.2439
▁Hey	-14.244
▁hiro	-14.244
▁să	-14.244
colo	-14.2441
▁fla	-14.2441
▁joan	-14.2441
▁cameron	-14.2442
▁Hide	-14.2442
anako	-14.2442
out	-14.2442
▁kaori	-14.2442
▁evan	-14.2442
ideo	-14.2443
▁radium	-14.2443
▁mob	-14.2443
▁topping	-14.2445
egovi	-14.2446
adilla	-14.2446
▁1920	-14.2446
▁spam	-14.2446
▁1910	-14.2447
▁menu	-14.2447
uoka	-14.2447
▁domin	-14.2448
▁aya	-14.2448
▁hitler	-14.2449
▁telegram	-14.2449
▁mochi	-14.245
▁nash	-14.245
▁clark	-14.2451
opos	-14.2451
ucc	-14.2451
▁111	-14.2452
▁Maya	-14.2452
enor	-14.2452
▁tux	-14.2453
▁phuc	-14.2453
▁11:30	-14.2454
▁sniffl	-14.2454
▁mohan	-14.2455
risto	-14.2457
oel	-14.2458
▁hayes	-14.2458
▁rầy	-14.2461
▁Phổ	-14.2461
▁gre	-14.2465
▁takas	-14.2466
▁giâ	-14.2467
▁bruce	-14.2469
▁Clinton	-14.2469
▁pope	-14.2471
▁sỹ	-14.2472
dashi	-14.2474
▁carme	-14.2475
▁ghẻ	-14.2475
aitama	-14.2477
▁lamb	-14.2477
▁sone	-14.2478
dones	-14.248
▁rip	-14.248
▁win	-14.2483
▁israeli	-14.2484
▁deni	-14.2489
avlo	-14.2489
▁muồi	-14.2492
▁arm	-14.2494
▁kong	-14.2495
▁momo	-14.2495
▁hood	-14.2497
▁taku	-14.2501
amby	-14.2503
zhe	-14.2507
▁rạch	-14.2509
▁nikk	-14.251
▁Mĩ	-14.2512
▁gaga	-14.2512
▁fle	-14.2513
▁pic	-14.2515
▁webb	-14.2516
▁105	-14.252
▁!!	-14.252
hieu	-14.252
11	-14.2521
▁annie	-14.2523
erne	-14.2526
▁rộp	-14.2526
ois	-14.2527
▁loét	-14.2528
▁kell	-14.2529
gras	-14.253
▁abs	-14.253
▁martini	-14.2532
▁suv	-14.2533
▁nhoáng	-14.2536
▁vw	-14.2539
ania	-14.2539
kok	-14.2539
tron	-14.2541
alia	-14.2547
Như	-14.255
uchan	-14.255
mất	-14.2553
▁Latinh	-14.2556
azu	-14.2556
krain	-14.2566
▁deb	-14.2572
oky	-14.2574
ros	-14.2575
dies	-14.2576
▁ja	-14.2581
▁Al	-14.2583
khó	-14.2583
▁otto	-14.259
▁saudi	-14.2591
aido	-14.2597
dame	-14.2597
▁jona	-14.2602
▁mâ	-14.2604
▁cuồn	-14.2609
bei	-14.2612
ark	-14.2614
stock	-14.2614
atic	-14.2615
▁marc	-14.2616
▁Natto	-14.2622
▁bul	-14.2622
ord	-14.2622
▁angel	-14.264
▁lí	-14.2648
olog	-14.2651
palm	-14.2652
▁điê	-14.2655
▁mali	-14.2658
▁isa	-14.2665
▁abel	-14.2666
▁mía	-14.2668
▁fur	-14.2681
▁ele	-14.2684
lenn	-14.2688
allas	-14.2692
▁julian	-14.2696
▁đọ	-14.2698
▁bavar	-14.2699
atter	-14.2703
▁zon	-14.2705
▁avis	-14.271
▁chồi	-14.2716
▁steven	-14.2719
▁black	-14.2721
lark	-14.2721
usta	-14.2731
zy	-14.2735
urs	-14.2736
nesc	-14.2746
uki	-14.2746
▁katsu	-14.275
▁chiba	-14.2751
odr	-14.2759
lẽ	-14.2759
bài	-14.2762
light	-14.2767
lum	-14.2772
chắn	-14.2775
rate	-14.2784
eal	-14.2787
arten	-14.2797
▁cọc	-14.2798
dun	-14.2805
sk	-14.2806
eur	-14.281
âng	-14.2813
ness	-14.2834
▁dĩ	-14.2835
rmina	-14.284
▁frederic	-14.2849
oshima	-14.286
▁đầ	-14.2881
▁lách	-14.2883
▁ửng	-14.2883
▁kane	-14.2886
▁ounce	-14.2895
▁mel	-14.2898
▁wi	-14.2899
mper	-14.2902
▁rich	-14.2914
ứ	-14.2921
uz	-14.2922
chim	-14.2933
kết	-14.2934
bữa	-14.2937
can	-14.294
▁pear	-14.2946
bình	-14.2954
▁Tiến	-14.2962
▁lâm	-14.2962
vari	-14.2967
▁wil	-14.2988
Pháp	-14.3
▁kị	-14.3001
▁loui	-14.3009
obe	-14.3035
ad	-14.3039
▁chùn	-14.3042
pite	-14.3059
psic	-14.3063
▁susana	-14.3063
ok	-14.3068
orph	-14.3072
zuc	-14.308
▁ché	-14.3088
▁mont	-14.31
▁tele	-14.311
acy	-14.3118
▁jos	-14.3127
tru	-14.3127
▁dar	-14.3132
mắt	-14.3133
end	-14.3137
att	-14.314
lỗi	-14.3154
đợi	-14.316
▁hé	-14.316
Điề	-14.3168
loa	-14.3202
▁charl	-14.3214
llig	-14.3244
ade	-14.3246
abber	-14.3247
bố	-14.3261
thuyết	-14.327
nghĩa	-14.3307
trai	-14.331
▁andr	-14.3318
kes	-14.3326
▁nhượ	-14.3326
▁Thà	-14.333
000	-14.3341
▁pyr	-14.3343
▁iraqi	-14.3346
▁ell	-14.3347
▁ryo	-14.3357
▁hũ	-14.3358
gọn	-14.3371
▁shou	-14.3372
▁mượt	-14.3372
ear	-14.3394
▁rữa	-14.3416
mùa	-14.342
▁May	-14.3436
law	-14.3437
eck	-14.3447
bot	-14.3448
▁gã	-14.3466
▁búi	-14.3472
▁Thả	-14.3477
▁aka	-14.3477
▁ex	-14.35
iza	-14.35
ast	-14.3504
oát	-14.3504
▁Ma	-14.3506
▁enc	-14.3522
gắng	-14.3528
động	-14.354
oshio	-14.355
rter	-14.355
riko	-14.357
ạnh	-14.3617
▁os	-14.3621
▁đu	-14.3622
▁jo	-14.3645
▁gh	-14.366
▁39	-14.3673
▁the	-14.3688
▁táng	-14.3688
▁sha	-14.3706
▁taka	-14.3711
uski	-14.3714
▁Ngh	-14.3732
▁kin	-14.3742
essi	-14.3745
ise	-14.3758
▁tẩu	-14.3768
vọng	-14.3803
bbe	-14.3813
lớp	-14.3819
vẫn	-14.382
goại	-14.3832
▁las	-14.3841
ừ	-14.387
▁ye	-14.3874
ei	-14.3903
chính	-14.3908
▁thọ	-14.3915
▁nộm	-14.3915
iề	-14.3916
odel	-14.3918
ya	-14.3923
toyama	-14.3941
tuần	-14.3946
▁niê	-14.3948
lấy	-14.3957
▁aki	-14.3964
▁po	-14.3965
hử	-14.3972
▁eli	-14.3981
su	-14.399
▁Môn	-14.401
▁tỉ	-14.4024
hừa	-14.4034
patr	-14.404
ff	-14.4078
cuối	-14.4084
gemi	-14.4124
ếch	-14.4151
uô	-14.4155
▁5.	-14.4169
▁iw	-14.4173
▁êm	-14.4203
aden	-14.4228
Kh	-14.4236
oke	-14.4246
trời	-14.4253
hiệm	-14.4266
bỏ	-14.4275
▁chư	-14.4279
oka	-14.4318
5,	-14.4321
vẻ	-14.4321
il	-14.434
ori	-14.4389
▁đốn	-14.4391
zawa	-14.4393
▁Ke	-14.4399
iko	-14.44
imer	-14.4407
chan	-14.4407
▁Châ	-14.441
sớm	-14.4416
đất	-14.4426
bộ	-14.4463
▁kền	-14.4468
▁Hay	-14.4472
▁rá	-14.4488
▁te	-14.4496
▁ger	-14.4507
issa	-14.4516
asha	-14.4522
wif	-14.4527
▁ni	-14.4542
mbu	-14.4543
▁rát	-14.4551
▁uran	-14.4552
đúng	-14.4556
▁phil	-14.4569
iker	-14.4616
thức	-14.4627
toàn	-14.4642
erber	-14.4648
ĩu	-14.4649
lex	-14.465
▁chiế	-14.4669
▁thềm	-14.4718
mai	-14.4719
▁slo	-14.4719
hể	-14.4728
ayama	-14.4732
min	-14.4751
arrie	-14.4754
hún	-14.4763
▁kill	-14.4764
rả	-14.4772
▁cầ	-14.4773
▁bus	-14.4784
▁cán	-14.4785
tâm	-14.4792
▁Sá	-14.4796
▁nế	-14.4801
tter	-14.4818
iữa	-14.4833
▁am	-14.4854
michi	-14.4864
eta	-14.489
▁lức	-14.4896
▁tsu	-14.4904
▁nhờn	-14.4936
▁hủ	-14.4945
đàn	-14.4951
chết	-14.497
mẹ	-14.4981
hí	-14.4983
▁Vi	-14.5014
▁takak	-14.5035
tania	-14.5041
▁dorg	-14.5045
giá	-14.5047
rắc	-14.506
▁wo	-14.5064
05	-14.5069
ian	-14.5151
▁ox	-14.5168
giải	-14.5168
▁giế	-14.5248
ocal	-14.5257
dor	-14.526
hưởng	-14.5265
iger	-14.5265
lý	-14.5271
đẹp	-14.5325
saka	-14.5328
den	-14.5336
đọc	-14.5348
▁vãn	-14.5355
umbo	-14.5365
rương	-14.5391
▁Tra	-14.5411
▁giậ	-14.5436
naka	-14.546
hóa	-14.546
dụng	-14.5495
thư	-14.5511
lắng	-14.5515
mina	-14.5515
▁ky	-14.5521
ate	-14.5528
căn	-14.5532
▁nhám	-14.555
ft	-14.5556
ega	-14.5556
lap	-14.558
hoại	-14.5588
uột	-14.5598
▁ge	-14.5612
▁dio	-14.5642
put	-14.5642
▁chile	-14.5673
đặt	-14.5675
▁car	-14.5675
du	-14.5687
ass	-14.5737
▁le	-14.5798
rs	-14.5806
ty	-14.5824
▁sấ	-14.5825
xuống	-14.584
utt	-14.5844
iji	-14.59
tưởng	-14.5916
dina	-14.5936
mật	-14.5952
arolin	-14.5961
huông	-14.598
▁davi	-14.5987
▁vip	-14.5992
nha	-14.6003
mặt	-14.6023
hấy	-14.6026
▁hoay	-14.6027
▁ray	-14.6043
▁Phá	-14.6045
▁von	-14.6046
usse	-14.6068
liệu	-14.6088
▁Mộc	-14.6102
▁gif	-14.6107
fa	-14.6123
artin	-14.614
▁est	-14.614
viết	-14.6151
▁1:30	-14.6166
▁boo	-14.6209
đều	-14.6225
cạnh	-14.6228
anz	-14.6229
arf	-14.6232
hấn	-14.6237
▁Ho	-14.6283
arcraft	-14.629
vo	-14.6305
fk	-14.6305
▁ju	-14.6327
jo	-14.6333
lvi	-14.6369
kawa	-14.639
kỳ	-14.6433
athy	-14.6436
sai	-14.6458
▁chù	-14.6471
▁mei	-14.6488
all	-14.6498
uẩn	-14.6504
de	-14.6514
nero	-14.655
fu	-14.6557
oney	-14.6569
▁mem	-14.6625
ochi	-14.6638
▁hall	-14.668
trông	-14.6689
ila	-14.6699
rsv	-14.6716
khoa	-14.6718
▁mer	-14.6719
30.	-14.6749
trọng	-14.6772
ss	-14.6775
oots	-14.6781
foo	-14.6796
sz	-14.682
ạch	-14.6829
kov	-14.6839
▁lõ	-14.6868
▁rạn	-14.6873
anza	-14.6877
iệm	-14.6899
bấ	-14.6923
vài	-14.6925
▁guốc	-14.6936
ngăn	-14.6962
ul	-14.6966
rạng	-14.6972
thông	-14.6976
bảo	-14.6984
tsu	-14.6986
onz	-14.6991
▁nor	-14.7028
▁ngăm	-14.7056
uyệt	-14.7089
35	-14.7089
fo	-14.7159
kính	-14.7163
đ	-14.7177
▁đú	-14.7185
uff	-14.7204
time	-14.7217
giáo	-14.7231
▁maki	-14.7277
mỗi	-14.7284
our	-14.7292
me	-14.7292
chị	-14.7311
ổi	-14.7315
hao	-14.7365
cal	-14.7375
uyền	-14.7403
▁go	-14.7428
hảo	-14.7433
uý	-14.7454
▁mor	-14.7503
▁Ku	-14.7518
phả	-14.7529
nhiêu	-14.754
oker	-14.7552
▁nhàn	-14.762
▁mits	-14.7658
adi	-14.7678
pa	-14.7718
ilippines	-14.7747
▁lán	-14.7763
chút	-14.7767
tuổi	-14.7773
▁20.	-14.7797
tức	-14.7813
nhân	-14.7814
Trung	-14.7816
chào	-14.7818
bé	-14.7829
cũ	-14.7866
mũ	-14.787
ara	-14.7912
▁carr	-14.7941
tar	-14.7994
ấc	-14.8041
ingal	-14.8149
▁trâ	-14.8157
vé	-14.8161
ayak	-14.8181
tên	-14.8189
▁nevil	-14.8228
chậm	-14.8234
▁xối	-14.8235
ada	-14.8237
thay	-14.825
ald	-14.8256
blin	-14.8313
saku	-14.8336
niề	-14.8347
▁Str	-14.8347
elber	-14.8369
báo	-14.837
mu	-14.8414
pac	-14.8431
vàng	-14.8458
▁ner	-14.8462
hóm	-14.8475
phương	-14.849
hám	-14.8516
len	-14.8536
bal	-14.8538
kens	-14.8541
lừa	-14.8548
usa	-14.8552
cao	-14.8571
rở	-14.8573
▁Đặ	-14.8582
tháng	-14.8591
▁quáng	-14.8617
trại	-14.8627
▁2.	-14.8639
▁she	-14.8697
edge	-14.8727
eria	-14.8736
guitar	-14.8763
nghỉ	-14.8782
cu	-14.8783
▁star	-14.879
lai	-14.8794
▁lid	-14.8796
chó	-14.8801
akaki	-14.8804
ệp	-14.8822
nhiên	-14.8825
eud	-14.8868
lâu	-14.8885
▁cẩ	-14.8917
oàng	-14.8935
ví	-14.8935
oanh	-14.895
dao	-14.8954
tu	-14.8958
tám	-14.8979
hard	-14.9009
cảnh	-14.9035
▁Thê	-14.9088
eff	-14.9089
▁hand	-14.9118
932	-14.9127
đỡ	-14.9129
▁yur	-14.9145
▁...	-14.9159
of	-14.9161
chạy	-14.9173
▁banh	-14.9246
ura	-14.9278
ềm	-14.9299
▁wal	-14.9305
uyama	-14.9354
arit	-14.9358
peg	-14.937
Cuố	-14.9379
ambia	-14.9391
▁sum	-14.9428
rine	-14.9436
▁đày	-14.9438
▁mash	-14.9449
▁tiế	-14.9456
▁he	-14.9461
saki	-14.9465
jim	-14.9484
rus	-14.9488
▁quă	-14.9507
▁Lo	-14.9542
tập	-14.9564
hoạch	-14.957
chiếu	-14.9591
dự	-14.9604
ỏa	-14.9674
Canada	-14.9675
kyoto	-14.9678
▁Tô	-14.9686
thương	-14.969
máu	-14.9705
bản	-14.9719
tokyo	-14.9741
bên	-14.9752
ida	-14.9766
Nga	-14.9822
▁kí	-14.987
zz	-14.9923
▁ngh	-14.9929
mbo	-14.9932
minh	-14.9934
cy	-14.9936
bre	-14.994
sno	-14.9953
hiệp	-14.9969
elli	-14.9975
▁toshi	-14.9977
đủ	-15.0022
đối	-15.0022
gấu	-15.0032
cơ	-15.0036
mel	-15.0045
sĩ	-15.0056
ock	-15.0087
▁spa	-15.0091
Hai	-15.0095
thuốc	-15.011
kney	-15.0126
enco	-15.0127
▁tản	-15.0129
▁soc	-15.0134
phát	-15.0134
tạm	-15.0135
cà	-15.0137
▁lã	-15.0143
hạnh	-15.0168
be	-15.0168
▁nhào	-15.0177
▁ura	-15.0207
ém	-15.0217
rám	-15.0224
ràng	-15.0228
bob	-15.023
mang	-15.0233
tàu	-15.0249
uri	-15.027
lad	-15.0285
vua	-15.0299
ean	-15.0312
cia	-15.0321
▁đạ	-15.0325
uất	-15.0343
▁sun	-15.0359
từng	-15.0377
▁12.	-15.0396
bệnh	-15.0404
talin	-15.0423
▁bin	-15.0441
ns	-15.0453
akuz	-15.0459
▁bur	-15.0479
gawa	-15.0502
▁phẩ	-15.051
▁chói	-15.0515
him	-15.0534
ud	-15.0545
cười	-15.0547
rà	-15.059
▁oza	-15.0591
▁sp	-15.0605
phúc	-15.0608
ngứa	-15.061
sợ	-15.0623
pizza	-15.0645
sử	-15.0646
dy	-15.065
tiệc	-15.066
ters	-15.066
bber	-15.0676
giới	-15.0703
lopho	-15.0719
raco	-15.0719
ivier	-15.0733
have	-15.0741
ott	-15.0748
kaku	-15.0769
kie	-15.077
oán	-15.0789
100	-15.079
▁nhì	-15.0832
ding	-15.0841
háng	-15.0849
▁Caes	-15.0857
eige	-15.0911
▁Đê	-15.0921
▁Chuy	-15.0956
bóng	-15.0997
Tr	-15.1004
ev	-15.1012
sh	-15.1013
tranh	-15.1035
▁nhú	-15.1038
đáng	-15.1043
Đi	-15.1068
ía	-15.1081
hạt	-15.1081
otto	-15.1084
wara	-15.1093
bay	-15.11
▁phiê	-15.1111
▁kun	-15.1141
▁gặ	-15.1148
eek	-15.1226
ling	-15.1239
▁fri	-15.124
cas	-15.1247
▁shil	-15.1261
▁Cu	-15.1267
boo	-15.1272
oni	-15.1282
ier	-15.1326
nev	-15.1331
Mộ	-15.1333
▁bướ	-15.1334
igan	-15.1355
nie	-15.1361
rude	-15.1381
stan	-15.1395
kins	-15.1407
▁Tran	-15.1413
atsu	-15.1414
điền	-15.1417
ales	-15.1468
paul	-15.147
tari	-15.1494
osam	-15.1522
bánh	-15.1529
sát	-15.1547
mối	-15.1548
bướm	-15.1557
ica	-15.1563
erick	-15.1582
uồn	-15.1585
▁tuyế	-15.1589
ackie	-15.1596
▁kiê	-15.1598
jos	-15.1626
kem	-15.1631
tanaka	-15.1663
stic	-15.1663
you	-15.1675
beth	-15.1678
nese	-15.1682
kế	-15.1694
tre	-15.1711
90	-15.1714
yaki	-15.1716
đổi	-15.172
Chào	-15.1728
ec	-15.1735
vitamin	-15.1743
hoe	-15.1748
war	-15.1749
▁far	-15.1751
llas	-15.1753
▁will	-15.1753
sáo	-15.1767
derse	-15.177
rí	-15.178
Nh	-15.1787
eddy	-15.1787
▁wan	-15.1788
poch	-15.1789
ime	-15.179
fur	-15.1809
texas	-15.1812
ves	-15.1823
ison	-15.1835
abel	-15.1837
ll	-15.1838
hồ	-15.1842
năng	-15.1844
bàn	-15.1849
for	-15.1855
gas	-15.1863
▁canton	-15.1869
cent	-15.1876
▁tì	-15.1876
llow	-15.1877
hun	-15.1893
adams	-15.1901
hào	-15.1907
rse	-15.1908
miss	-15.1911
iki	-15.1913
hẻm	-15.1913
ddy	-15.1919
katsu	-15.192
cello	-15.192
Phải	-15.1929
ạm	-15.1929
01	-15.1932
yuri	-15.1936
Natto	-15.1942
▁mìn	-15.1943
▁Chà	-15.1944
uzen	-15.1945
mad	-15.1954
masa	-15.1954
▁keis	-15.1959
tine	-15.1974
▁thiê	-15.1975
louis	-15.1977
▁clint	-15.1982
▁cũi	-15.1982
▁pet	-15.1982
australia	-15.1988
shin	-15.199
▁cinc	-15.1994
than	-15.2014
vụ	-15.2014
fer	-15.2019
get	-15.2019
rọng	-15.2035
dĩ	-15.2052
lạnh	-15.2054
ogna	-15.2056
▁mode	-15.2056
▁gal	-15.2064
sen	-15.2068
Má	-15.2072
taly	-15.2074
▁je	-15.2076
raina	-15.209
ennis	-15.2091
▁ab	-15.2091
haw	-15.2092
fre	-15.2092
lẻ	-15.2099
ưỡng	-15.2111
chủ	-15.2114
gốc	-15.2119
arne	-15.2124
andre	-15.2147
▁sầ	-15.2156
onald	-15.2172
trung	-15.2178
zon	-15.2186
tel	-15.2197
ebie	-15.2199
inch	-15.2202
lade	-15.2203
gali	-15.2218
angko	-15.2221
sumi	-15.2222
hài	-15.2226
tle	-15.2233
bart	-15.2253
phụ	-15.2257
ưỡi	-15.2266
▁googl	-15.2266
Tin	-15.2295
spu	-15.2299
▁53	-15.2302
▁ră	-15.2309
elle	-15.2309
ody	-15.2324
lton	-15.2329
ckie	-15.2334
▁dove	-15.2338
ngôi	-15.2338
ama	-15.2355
▁5,	-15.2364
▁moi	-15.2366
elegram	-15.2367
fling	-15.2369
sum	-15.2369
jan	-15.2378
▁yum	-15.238
opping	-15.2382
▁gree	-15.2382
vier	-15.2382
▁12:	-15.2383
▁scot	-15.2384
des	-15.2385
phi	-15.2386
ameron	-15.2387
dium	-15.2388
▁eva	-15.2389
▁xuâ	-15.239
zeg	-15.239
olombia	-15.2391
▁samura	-15.2392
ustralia	-15.2396
▁snif	-15.2397
▁pizz	-15.2398
ẳn	-15.2399
tzer	-15.2403
▁argentin	-15.2405
▁teres	-15.2405
kaya	-15.2408
▁whisk	-15.2408
alaysia	-15.2408
▁wri	-15.2409
agos	-15.2409
onroe	-15.241
atsushi	-15.2412
eatles	-15.2413
ragu	-15.2415
iê	-15.2416
yushu	-15.2416
ennedy	-15.2417
ukiyaki	-15.2418
paghetti	-15.2419
ristin	-15.2419
aniel	-15.242
ienna	-15.242
▁norik	-15.242
ollywood	-15.242
▁mexic	-15.242
alloween	-15.2421
enji	-15.2421
shop	-15.2423
terling	-15.2424
srael	-15.2424
▁1:3	-15.2424
lington	-15.2424
oxide	-15.2424
live	-15.2425
▁philippine	-15.2425
▁window	-15.2425
▁shakespear	-15.2425
▁blue	-15.2425
violi	-15.2425
acque	-15.2425
▁brownie	-15.2425
▁tasman	-15.2426
lbum	-15.2426
▁valentin	-15.2426
▁jaywalk	-15.2426
acebook	-15.2426
russel	-15.2426
hydrat	-15.2426
spiel	-15.2426
werp	-15.2426
▁flor	-15.2426
pool	-15.2426
rence	-15.2426
▁magda	-15.2426
linois	-15.2426
▁kushi	-15.2426
wash	-15.2426
▁harris	-15.2426
mpur	-15.2426
▁kabu	-15.2427
ppel	-15.2427
esus	-15.2427
▁serb	-15.2427
lăng	-15.2427
hinko	-15.2427
nesia	-15.2427
▁pete	-15.2427
brew	-15.2427
▁miyaza	-15.2427
low	-15.2427
liza	-15.2427
iberi	-15.2428
tsuyama	-15.2428
zil	-15.2428
▁shizu	-15.2428
▁valen	-15.2428
ubba	-15.2429
▁pud	-15.2429
▁flu	-15.2429
omania	-15.2429
eder	-15.2429
kraine	-15.2429
atsuya	-15.2429
kka	-15.2429
oshin	-15.2429
▁11:	-15.243
akaha	-15.243
▁francis	-15.243
acksons	-15.243
url	-15.243
asse	-15.2431
opia	-15.2431
andol	-15.2431
adian	-15.2431
bee	-15.2432
ils	-15.2433
fel	-15.2433
▁hero	-15.2433
suki	-15.2433
elsi	-15.2434
njam	-15.2434
001	-15.2435
▁shir	-15.2435
oop	-15.2435
escu	-15.2436
rwin	-15.2436
rank	-15.2437
▁russ	-15.2437
ked	-15.2438
▁kaor	-15.2438
▁2:	-15.2438
ante	-15.2438
dow	-15.244
udas	-15.2441
dney	-15.2443
ows	-15.2443
lapto	-15.2443
arl	-15.2444
sle	-15.2444
▁10:	-15.2445
ambur	-15.2445
fe	-15.2446
wat	-15.2447
ull	-15.2448
oven	-15.2448
olas	-15.2448
▁93	-15.2449
pip	-15.2451
llac	-15.2451
aw	-15.2452
▁1.0	-15.2452
uji	-15.2454
rel	-15.2455
icil	-15.2456
cord	-15.2457
mith	-15.2458
enso	-15.2458
92	-15.2458
09	-15.2458
oger	-15.2459
▁marat	-15.246
tze	-15.2463
▁đả	-15.2463
utsu	-15.2464
aragua	-15.2466
ril	-15.247
gano	-15.247
pera	-15.2471
bec	-15.2472
▁luc	-15.2473
▁harv	-15.2474
▁guit	-15.2474
caf	-15.2476
▁green	-15.2476
ever	-15.2476
eroni	-15.2479
nĩa	-15.2479
igam	-15.2481
saxo	-15.2485
armon	-15.2488
▁52	-15.2488
▁kath	-15.249
sper	-15.2491
▁micros	-15.2492
under	-15.2492
leen	-15.2493
▁akag	-15.2495
▁pie	-15.2495
das	-15.2496
itzer	-15.2497
cel	-15.2498
▁nev	-15.2498
auri	-15.2502
▁iri	-15.2506
mond	-15.2507
▁pre	-15.2511
sky	-15.2512
ffit	-15.2513
ebec	-15.2515
bơi	-15.252
hiko	-15.2524
kko	-15.2526
▁kè	-15.2531
▁kawag	-15.2538
stow	-15.254
sley	-15.254
▁toky	-15.2542
onna	-15.255
▁naga	-15.2559
▁alf	-15.2568
yria	-15.2577
ẻo	-15.2579
inna	-15.2583
fing	-15.2593
lé	-15.2594
▁sel	-15.26
▁kara	-15.2605
nor	-15.2614
gusta	-15.2616
alog	-15.2618
oj	-15.2619
▁vien	-15.2623
ased	-15.2633
lic	-15.2633
▁tamp	-15.2634
▁mid	-15.2639
hole	-15.264
xed	-15.2643
ael	-15.2644
▁Kent	-15.2648
isen	-15.2654
hua	-15.2657
▁jon	-15.266
ond	-15.266
ice	-15.2662
shim	-15.2673
gare	-15.2675
hợ	-15.2679
izuk	-15.2681
▁Bán	-15.2686
urne	-15.2688
▁Conne	-15.2691
mei	-15.2697
▁el	-15.2703
▁ngự	-15.2707
donald	-15.2708
▁thuộ	-15.2715
mish	-15.2722
naise	-15.2727
giống	-15.2728
itz	-15.2737
▁sachi	-15.2739
▁hel	-15.2747
▁mala	-15.2748
oe	-15.2753
eda	-15.2758
alm	-15.2759
nnis	-15.2765
dài	-15.2769
rado	-15.2772
▁franci	-15.2805
▁sof	-15.2808
ouse	-15.2808
zuk	-15.2811
ode	-15.2824
▁jay	-15.2836
sar	-15.2844
lunke	-15.285
ress	-15.286
eri	-15.2864
hana	-15.2869
▁op	-15.2874
lena	-15.2885
▁Bre	-15.2891
huật	-15.2896
lái	-15.2904
▁bal	-15.2915
quên	-15.292
▁nhả	-15.2931
var	-15.2933
▁luộ	-15.2935
▁hana	-15.2944
▁mol	-15.2954
ểm	-15.296
oda	-15.2968
agel	-15.297
sashi	-15.2979
▁buô	-15.2993
▁salv	-15.3014
đơn	-15.3023
▁taji	-15.3028
kai	-15.3043
▁pen	-15.3044
ol	-15.3051
mer	-15.3057
▁mand	-15.3059
▁cent	-15.306
han	-15.3071
ivi	-15.3074
mida	-15.3078
ve	-15.3081
aise	-15.3091
▁nhõ	-15.3094
▁tần	-15.3098
▁nik	-15.3099
term	-15.3104
Ba	-15.3105
itsu	-15.311
men	-15.3117
gượng	-15.3118
▁for	-15.3122
▁Cứ	-15.3128
mở	-15.3132
▁Sai	-15.3144
uten	-15.3158
▁hắn	-15.3176
rida	-15.3194
▁yaki	-15.3198
ardi	-15.3202
anglo	-15.3204
tty	-15.3205
▁ott	-15.3218
▁giò	-15.3243
bster	-15.325
▁st	-15.3252
đư	-15.3252
wal	-15.3258
wo	-15.3267
oặc	-15.3272
ránh	-15.3278
tiết	-15.3284
vio	-15.3292
▁sin	-15.3316
▁patric	-15.3323
zu	-15.3326
hiệu	-15.3328
berl	-15.3329
khăn	-15.3344
geri	-15.336
thoại	-15.3362
▁iso	-15.3366
hanh	-15.3367
▁ferr	-15.337
ngel	-15.3376
▁eri	-15.3402
ướp	-15.3412
ngway	-15.343
arat	-15.343
▁Le	-15.3447
▁anders	-15.3461
▁wat	-15.3463
tan	-15.3464
oul	-15.3467
unke	-15.3474
iúp	-15.3476
esp	-15.3477
sawa	-15.3478
ere	-15.3484
hă	-15.3499
olet	-15.3504
rách	-15.351
mpic	-15.3511
arin	-15.3526
▁thắ	-15.3534
pul	-15.3544
đại	-15.3558
▁rol	-15.3566
ruyền	-15.3578
▁Tham	-15.3585
phút	-15.359
▁mí	-15.3602
gon	-15.3606
za	-15.3615
owe	-15.3634
nghị	-15.3642
▁twi	-15.3646
màu	-15.3652
▁kyo	-15.366
▁Bun	-15.3665
ickin	-15.3669
▁Khác	-15.3682
▁dor	-15.3684
dễ	-15.3689
▁pac	-15.3694
shake	-15.3713
val	-15.3748
itan	-15.3781
wee	-15.3783
ờn	-15.3807
lym	-15.3862
kinh	-15.3864
khoả	-15.3881
▁gar	-15.3894
onese	-15.3916
udo	-15.3935
lymp	-15.3942
hilli	-15.3977
angel	-15.4004
▁giư	-15.401
allow	-15.4017
tiên	-15.4021
▁willi	-15.4035
ederic	-15.404
▁jeann	-15.4042
▁9:3	-15.4055
stein	-15.407
▁shig	-15.4071
sô	-15.4075
▁ji	-15.408
điểm	-15.4099
▁91	-15.4116
rồi	-15.4128
quả	-15.4145
thêm	-15.4154
▁den	-15.4169
gẫu	-15.417
hập	-15.4174
vị	-15.4231
▁tel	-15.426
gu	-15.4274
lập	-15.4284
nhật	-15.43
tori	-15.4304
quanh	-15.4314
gami	-15.4314
lịch	-15.4384
chuyển	-15.4389
chú	-15.4392
iche	-15.4396
10.	-15.44
no	-15.4419
andy	-15.4429
cá	-15.4432
ophone	-15.444
chọn	-15.4466
▁o	-15.4469
kiếm	-15.4474
lou	-15.4495
hỏ	-15.4508
el	-15.4523
uit	-15.4526
20.	-15.4531
▁we	-15.4534
rơi	-15.4543
▁hơ	-15.4597
đau	-15.4619
dre	-15.4628
itter	-15.4647
▁vene	-15.4661
ixo	-15.4709
hiê	-15.4711
gara	-15.4711
Tạ	-15.472
3.000	-15.4726
iff	-15.4738
▁kar	-15.4751
thị	-15.477
thú	-15.4791
agawa	-15.4792
rộn	-15.4849
vừa	-15.4863
thân	-15.4864
cap	-15.4873
chờ	-15.4895
din	-15.4918
▁catal	-15.4927
rê	-15.4939
thất	-15.4954
đứng	-15.4962
hở	-15.4967
hrist	-15.4989
▁libr	-15.5009
dành	-15.5024
53.	-15.5031
pr	-15.5036
ile	-15.5041
▁ser	-15.5047
phố	-15.5068
oét	-15.5077
▁sei	-15.5101
huyê	-15.5111
dia	-15.5121
xuất	-15.5144
▁trăn	-15.5212
▁kha	-15.5221
par	-15.5247
tim	-15.5252
▁câ	-15.5296
ur	-15.5299
ãn	-15.5301
tv	-15.5313
ưởi	-15.5316
ras	-15.5323
tới	-15.5327
sức	-15.533
anis	-15.5338
▁jud	-15.5352
mươi	-15.5368
azi	-15.5398
▁ichi	-15.5429
zuki	-15.543
kuza	-15.5463
▁cock	-15.5508
hứ	-15.5545
▁Điể	-15.5574
phục	-15.5604
Bản	-15.5604
▁Shi	-15.5625
hâ	-15.5637
ẹt	-15.564
5.000	-15.564
randy	-15.5653
izz	-15.5657
hiết	-15.5703
isia	-15.5706
.....	-15.5711
▁toá	-15.5711
lder	-15.5727
quay	-15.5728
văn	-15.5751
000.	-15.5752
elo	-15.5796
đình	-15.5799
dậy	-15.5821
biệt	-15.5908
ala	-15.5919
nạn	-15.5949
hòa	-15.5973
▁gụ	-15.5984
khuyên	-15.6027
gan	-15.6067
bức	-15.6077
sẵn	-15.6077
ncy	-15.6133
▁vịn	-15.6179
eso	-15.6195
sako	-15.6206
tính	-15.6207
oya	-15.6236
chịu	-15.6239
nila	-15.6239
ghet	-15.6255
ieo	-15.6269
xấu	-15.627
az	-15.6286
kina	-15.6287
hợt	-15.6296
đá	-15.6308
bén	-15.6339
▁Hạn	-15.636
▁alb	-15.6367
▁bri	-15.6391
hứa	-15.6403
25.	-15.6538
thăm	-15.6542
khóa	-15.657
ario	-15.6632
▁alp	-15.6661
gôi	-15.6705
chí	-15.6749
▁sạ	-15.6788
▁nap	-15.6811
giận	-15.6814
▁bự	-15.6848
mo	-15.687
▁liế	-15.6881
▁back	-15.6901
trò	-15.6929
giết	-15.6945
khoản	-15.6948
▁liề	-15.6991
id	-15.7017
▁coll	-15.7035
chứ	-15.7069
▁Việ	-15.7106
trưa	-15.7112
gân	-15.712
ngạc	-15.7167
▁sú	-15.7167
▁nu	-15.7207
ngốc	-15.7219
hục	-15.7225
õi	-15.7259
sàng	-15.7269
nter	-15.7358
ioxi	-15.736
phim	-15.7367
iảm	-15.7382
arib	-15.7394
▁lặ	-15.7478
nữ	-15.7573
Chín	-15.7594
họp	-15.7637
hứng	-15.7758
orid	-15.7785
buýt	-15.7789
radi	-15.7808
hiểm	-15.7833
liên	-15.7898
thử	-15.7902
phía	-15.7914
giỏi	-15.7942
hang	-15.7944
hơ	-15.797
dối	-15.7983
egg	-15.8024
▁Bọ	-15.8061
phí	-15.8069
muộn	-15.8078
phê	-15.8094
phép	-15.8106
▁oka	-15.8138
vời	-15.8149
asaki	-15.8164
,0	-15.8174
đóng	-15.8225
duy	-15.8256
ox	-15.8272
chân	-15.8304
iải	-15.8391
viện	-15.8402
▁nhụ	-15.8412
doa	-15.846
oole	-15.8472
rượu	-15.8562
xa	-15.8562
bán	-15.8611
▁triệ	-15.8685
cẩn	-15.8705
buồn	-15.8734
luận	-15.8763
cd	-15.8777
cấp	-15.8785
▁thố	-15.8823
hóc	-15.885
ap	-15.8852
rối	-15.8903
ze	-15.8929
ấ	-15.9947
ỷ	-16.1618
â	-16.269
ẳ	-16.6256
ẵ	-16.6257
K	-16.6258
L	-16.6259
ỳ	-16.626
P	-16.6261
ẩ	-16.6262
ẫ	-16.6263
ặ	-16.6264
ằ	-16.6265
ă	-16.6266
ắ	-16.6267
ầ	-16.6268
ậ	-16.6269
